{"<sos>":0,"<eos>":1,"<pad>":2,"1":3,"2":4,"3":5,"4":6,"5":7,"6":8,"7":9,"8":10,"9":11,"A":12,"B":13,"C":14,"D":15,"E":16,"F":17,"G":18,"H":19,"I":20,"J":21,"K":22,"L":23,"M":24,"N":25,"O":26,"P":27,"Q":28,"R":29,"S":30,"T":31,"U":32,"V":33,"W":34,"X":35,"Y":36,"Z":37,"a":38,"b":39,"c":40,"d":41,"e":42,"f":43,"g":44,"h":45,"i":46,"j":47,"k":48,"l":49,"m":50,"n":51,"o":52,"p":53,"q":54,"r":55,"s":56,"t":57,"u":58,"v":59,"w":60,"x":61,"y":62,"z":63,"s</w>":64,"y</w>":65,"n</w>":66,"d</w>":67,"h</w>":68,"k</w>":69,"g</w>":70,"a</w>":71,"m</w>":72,"i</w>":73,"e</w>":74,"o</w>":75,"3</w>":76,"t</w>":77,"u</w>":78,"r</w>":79,"5</w>":80,"l</w>":81,"4</w>":82,"p</w>":83,"w</w>":84,"x</w>":85,"2</w>":86,"1</w>":87,"6</w>":88,"R</w>":89,"q</w>":90,"c</w>":91,"b</w>":92,"7</w>":93,"N</w>":94,"f</w>":95,"z</w>":96,"A</w>":97,"8</w>":98,"S</w>":99,"M</w>":100,"9</w>":101,"Z</w>":102,"L</w>":103,"U</w>":104,"P</w>":105,"G</w>":106,"I</w>":107,"D</w>":108,"E</w>":109,"O</w>":110,"B</w>":111,"th":112,"the</w>":113,"in":114,"of</w>":115,"an":116,"ed</w>":117,"ar":118,"er</w>":119,"er":120,"ou":121,"ea":122,"ing</w>":123,"it":124,"or":125,"on":126,"st":127,"al":128,"is</w>":129,"and</w>":130,"he</w>":131,"or</w>":132,"il":133,"sh":134,"ro":135,"at":136,"en":137,"re":138,"to</w>":139,"in</w>":140,"en</w>":141,"li":142,"la":143,"es</w>":144,"on</w>":145,"as</w>":146,"ma":147,"el":148,"for</w>":149,"wh":150,"at</w>":151,"ur":152,"ri":153,"le":154,"ta":155,"de":156,"pl":157,"se</w>":158,"king</w>":159,"his</w>":160,"our</w>":161,"no":162,"em":163,"The</w>":164,"ce</w>":165,"it</w>":166,"un":167,"its</w>":168,"th</w>":169,"to":170,"me</w>":171,"ra":172,"da":173,"she":174,"ul":175,"di":176,"ds</w>":177,"xx":178,"xxx</w>":179,"rea":180,"ou</w>":181,"En":182,"ir":183,"go":184,"be":185,"ig":186,"was</w>":187,"ts</w>":188,"bar":189,"oun":190,"ab":191,"ch":192,"not</w>":193,"se":194,"al</w>":195,"ing":196,"rom</w>":197,"ag":198,"you</w>":199,"ith</w>":200,"ke</w>":201,"as":202,"from</w>":203,"ol":204,"ple</w>":205,"ers</w>":206,"ur</w>":207,"ha":208,"with</w>":209,"your</w>":210,"who</w>":211,"es":212,"ti":213,"my</w>":214,"wor":215,"sil":216,"ere</w>":217,"one</w>":218,"that</w>":219,"the":220,"hi":221,"be</w>":222,"ow":223,"fi":224,"Ur":225,"ve</w>":226,"um":227,"ug":228,"all</w>":229,"oo":230,"bu":231,"ann":232,"man</w>":233,"ch</w>":234,"son</w>":235,"am":236,"for":237,"ant</w>":238,"id":239,"is":240,"ear</w>":241,"ear":242,"sp":243,"lil</w>":244,"are</w>":245,"her</w>":246,"him</w>":247,"ent</w>":248,"ted</w>":249,"ke":250,"ity</w>":251,"an</w>":252,"ver":253,"emple</w>":254,"ac":255,"has</w>":256,"co":257,"ver</w>":258,"ter</w>":259,"ther</w>":260,"ouse</w>":261,"ly</w>":262,"Enlil</w>":263,"anna</w>":264,"ir</w>":265,"temple</w>":266,"fa":267,"ban":268,"su":269,"by</w>":270,"Nin":271,"hea":272,"year</w>":273,"le</w>":274,"ati":275,"mon":276,"tab":277,"gur</w>":278,"ld</w>":279,"ay</w>":280,"sila":281,"pla":282,"buil":283,"der</w>":284,"sila3</w>":285,"str":286,"ig</w>":287,"table":288,"barle":289,"els</w>":290,"shee":291,"like</w>":292,"ys</w>":293,"st</w>":294,"um</w>":295,"ec":296,"grea":297,"ht</w>":298,"sc":299,"shek":300,"shekels</w>":301,"tal</w>":302,"ons</w>":303,"pp":304,"ter":305,"est":306,"out</w>":307,"house</w>":308,"de</w>":309,"qu":310,"ban2</w>":311,"do":312,"Ur</w>":313,"barley</w>":314,"ee":315,"Su":316,"built</w>":317,"sa":318,"Ning":319,"tablets</w>":320,"roy":321,"city</w>":322,"month</w>":323,"dest":324,"fe</w>":325,"ong</w>":326,"barig</w>":327,"res":328,"per":329,"of":330,"ven</w>":331,"aske":332,"ma</w>":333,"ine</w>":334,"man":335,"ale</w>":336,"fiel":337,"lab":338,"gra":339,"total</w>":340,"ved</w>":341,"Wh":342,"great</w>":343,"br":344,"lo":345,"sheep</w>":346,"Th":347,"ate</w>":348,"il</w>":349,"ill</w>":350,"For</w>":351,"shall</w>":352,"ser":353,"ty</w>":354,"lam":355,"In":356,"did</w>":357,"led</w>":358,"su</w>":359,"days</w>":360,"ftablets</w>":361,"toftablets</w>":362,"asketoftablets</w>":363,"12</w>":364,"Basketoftablets</w>":365,"ex":366,"rul":367,"gi":368,"Suen</w>":369,"He</w>":370,"day</w>":371,"sur":372,"had</w>":373,"field</w>":374,"their</w>":375,"pro":376,"irsu</w>":377,"this</w>":378,"ad":379,"her":380,"work":381,"destroy":382,"aga</w>":383,"serv":384,"ght</w>":385,"ge</w>":386,"pe":387,"were</w>":388,"Lug":389,"ca":390,"destroyed</w>":391,"will</w>":392,"have</w>":393,"sea":394,"ne":395,"ation</w>":396,"place</w>":397,"mo":398,"In</w>":399,"stor":400,"made</w>":401,"ated</w>":402,"con":403,"each</w>":404,"am</w>":405,"servant</w>":406,"ould</w>":407,"scri":408,"na":409,"up</w>":410,"Lugal":411,"life</w>":412,"und":413,"igh":414,"they</w>":415,"tur":416,"ar</w>":417,"ose</w>":418,"du":419,"may</w>":420,"land</w>":421,"whi":422,"moun":423,"si":424,"shi":425,"att":426,"est</w>":427,"which</w>":428,"ru":429,"old</w>":430,"ck":431,"and":432,"pri":433,"Ningirsu</w>":434,"ce":435,"own</w>":436,"ood</w>":437,"im":438,"com":439,"Lu":440,"sed</w>":441,"Inanna</w>":442,"into</w>":443,"all":444,"labor":445,"silver</w>":446,"ands</w>":447,"Nanna</w>":448,"min":449,"ess</w>":450,"bo":451,"id</w>":452,"cor":453,"coun":454,"mounta":455,"An</w>":456,"bel":457,"brea":458,"ings</w>":459,"peo":460,"ea</w>":461,"My</w>":462,"war":463,"wat":464,"there</w>":465,"ster</w>":466,"ure</w>":467,"hear":468,"can":469,"fl":470,"sh</w>":471,"people</w>":472,"An":473,"ruler</w>":474,"fed</w>":475,"pre":476,"When</w>":477,"scribe</w>":478,"lor":479,"time</w>":480,"pon</w>":481,"me":482,"oil</w>":483,"wi":484,"fter</w>":485,"vi":486,"ther":487,"set</w>":488,"od</w>":489,"tu</w>":490,"ears</w>":491,"fer":492,"beer</w>":493,"du</w>":494,"ki</w>":495,"fore</w>":496,"aba</w>":497,"heart</w>":498,"Ak":499,"ought</w>":500,"op":501,"face</w>":502,"Gu":503,"belo":504,"May</w>":505,"ck</w>":506,"dy</w>":507,"Laga</w>":508,"mar":509,"ting</w>":510,"ox":511,"heaven</w>":512,"name</w>":513,"car":514,"fore":515,"ss</w>":516,"been</w>":517,"aw":518,"ous</w>":519,"grain":520,"mi":521,"cu":522,"os":523,"no</w>":524,"To</w>":525,"male</w>":526,"fem":527,"ound</w>":528,"ind</w>":529,"them</w>":530,"female</w>":531,"ighty</w>":532,"under</w>":533,"beloved</w>":534,"when</w>":535,"ad</w>":536,"ga":537,"bur":538,"four</w>":539,"she</w>":540,"god</w>":541,"da</w>":542,"good</w>":543,"bb":544,"world</w>":545,"seal</w>":546,"ci":547,"oxen</w>":548,"fu":549,"oned</w>":550,"ded</w>":551,"mighty</w>":552,"oly</w>":553,"mountain</w>":554,"lord</w>":555,"strong</w>":556,"Sum":557,"ho":558,"ance</w>":559,"zu</w>":560,"area</w>":561,"ide</w>":562,"Enki</w>":563,"brought</w>":564,"bread</w>":565,"bir":566,"shed</w>":567,"ked</w>":568,"ara</w>":569,"ving</w>":570,"sel":571,"ku</w>":572,"row":573,"should</w>":574,"ite</w>":575,"The":576,"ents</w>":577,"gods</w>":578,"ding</w>":579,"It</w>":580,"gu":581,"order</w>":582,"down</w>":583,"rin":584,"woo":585,"ard</w>":586,"our":587,"mu":588,"water</w>":589,"ge":590,"storm</w>":591,"years</w>":592,"iz":593,"iv":594,"Utu</w>":595,"ned</w>":596,"ship</w>":597,"offer":598,"Sumer</w>":599,"whose</w>":600,"pher":601,"pra":602,"wel":603,"lady</w>":604,"chil":605,"thing</w>":606,"master</w>":607,"gi</w>":608,"vern":609,"ves</w>":610,"shepher":611,"lands</w>":612,"wo":613,"head</w>":614,"eng":615,"kal":616,"UrN":617,"surface</w>":618,"ling</w>":619,"laborers</w>":620,"here</w>":621,"iku</w>":622,"wea":623,"Li":624,"bur3</w>":625,"govern":626,"They</w>":627,"gal</w>":628,"ful</w>":629,"jo":630,"ugh":631,"If</w>":632,"lin":633,"gr":634,"pow":635,"does</w>":636,"accoun":637,"arm":638,"kno":639,"us</w>":640,"Its</w>":641,"You</w>":642,"lea":643,"sing</w>":644,"ina</w>":645,"tion</w>":646,"holy</w>":647,"ress</w>":648,"Your</w>":649,"bro":650,"sw":651,"stru":652,"away</w>":653,"per</w>":654,"towar":655,"outh</w>":656,"ions</w>":657,"par":658,"governor</w>":659,"ent":660,"pure</w>":661,"tre":662,"use</w>":663,"She</w>":664,"plant</w>":665,"dic":666,"ulgi</w>":667,"ful":668,"pa":669,"mana</w>":670,"ten":671,"side</w>":672,"kur</w>":673,"men</w>":674,"earth</w>":675,"mea":676,"self</w>":677,"tr":678,"workdays</w>":679,"grainfed</w>":680,"ners</w>":681,"amma</w>":682,"ane</w>":683,"div":684,"quar":685,"reed</w>":686,"ations</w>":687,"Ni":688,"rine</w>":689,"ree":690,"uz":691,"dec":692,"ie":693,"ses</w>":694,"tered</w>":695,"estiv":696,"ee3</w>":697,"pas":698,"ub":699,"ut":700,"dea</w>":701,"mother</w>":702,"labor</w>":703,"ced</w>":704,"fir":705,"rit":706,"so":707,"Gudea</w>":708,"ev":709,"lines</w>":710,"Baba</w>":711,"so</w>":712,"Uru":713,"pal":714,"ying</w>":715,"shepherd</w>":716,"ies</w>":717,"stress</w>":718,"stand":719,"13</w>":720,"tro":721,"via</w>":722,"At</w>":723,"after</w>":724,"hand</w>":725,"kes</w>":726,"ight</w>":727,"father</w>":728,"dedic":729,"Akk":730,"towards</w>":731,"sla":732,"ats</w>":733,"canal</w>":734,"shrine</w>":735,"ound":736,"col":737,"do</w>":738,"Like</w>":739,"let</w>":740,"bri":741,"upon</w>":742,"attle</w>":743,"ow</w>":744,"where</w>":745,"wool</w>":746,"ox</w>":747,"ut</w>":748,"Akkad</w>":749,"ey":750,"gh":751,"ju":752,"thr":753,"make</w>":754,"deli":755,"ised</w>":756,"sm":757,"bit":758,"tru":759,"ala</w>":760,"alf</w>":761,"corners</w>":762,"bor":763,"abli":764,"nin":765,"alla</w>":766,"foreman</w>":767,"mistress</w>":768,"stat":769,"over</w>":770,"ign</w>":771,"spea":772,"bea":773,"bul":774,"les</w>":775,"mma</w>":776,"ong":777,"what</w>":778,"establi":779,"ice</w>":780,"ters</w>":781,"ence</w>":782,"ried</w>":783,"ft</w>":784,"before</w>":785,"lamb</w>":786,"fish</w>":787,"chie":788,"rece":789,"ise</w>":790,"less</w>":791,"bil":792,"able</w>":793,"Eri":794,"ie</w>":795,"ones</w>":796,"sar</w>":797,"alkal":798,"estival</w>":799,"eet</w>":800,"ue</w>":801,"crea":802,"being</w>":803,"ans</w>":804,"recei":805,"Umma</w>":806,"ates</w>":807,"very</w>":808,"Sn</w>":809,"ed":810,"pos":811,"wa":812,"wall</w>":813,"retur":814,"aga":815,"ks</w>":816,"ps</w>":817,"ang":818,"hou":819,"app":820,"ected</w>":821,"efore</w>":822,"ida</w>":823,"chief</w>":824,"nam":825,"inn":826,"ange</w>":827,"Ab":828,"youn":829,"divine</w>":830,"king":831,"pres":832,"illed</w>":833,"ched</w>":834,"priest</w>":835,"ooked</w>":836,"priest":837,"Uruk</w>":838,"Eridu</w>":839,"onions</w>":840,"preme</w>":841,"dwel":842,"iplant</w>":843,"end":844,"abund":845,"After</w>":846,"ken</w>":847,"grain</w>":848,"alkaliplant</w>":849,"ace</w>":850,"ble</w>":851,"ens</w>":852,"lap":853,"15</w>":854,"bund":855,"fate</w>":856,"ura</w>":857,"too":858,"account</w>":859,"low":860,"struc":861,"Nipp":862,"har":863,"ins</w>":864,"uni":865,"Nippur</w>":866,"Amar":867,"sa</w>":868,"ana</w>":869,"woman</w>":870,"dedicated</w>":871,"po":872,"ses":873,"work</w>":874,"iri":875,"iled</w>":876,"wife</w>":877,"ap":878,"end</w>":879,"UrNamma</w>":880,"ces</w>":881,"una</w>":882,"beh":883,"flour</w>":884,"young</w>":885,"atum</w>":886,"word</w>":887,"words</w>":888,"23</w>":889,"mid":890,"gether</w>":891,"person</w>":892,"manag":893,"powers</w>":894,"daugh":895,"supreme</w>":896,"Ninlil</w>":897,"mini":898,"abundance</w>":899,"hold</w>":900,"long</w>":901,"ness</w>":902,"fashi":903,"given</w>":904,"kingship</w>":905,"ep":906,"om</w>":907,"From</w>":908,"dre":909,"put</w>":910,"goat</w>":911,"goats</w>":912,"ninda</w>":913,"bs</w>":914,"found":915,"vo":916,"ary</w>":917,"sheep":918,"rown</w>":919,"14</w>":920,"Nane</w>":921,"if</w>":922,"inst</w>":923,"come</w>":924,"bull</w>":925,"erected</w>":926,"beca":927,"ength</w>":928,"know":929,"His</w>":930,"tu":931,"ms</w>":932,"Ninur":933,"lament</w>":934,"don":935,"ely</w>":936,"prov":937,"atten":938,"daughter</w>":939,"cit":940,"sealed</w>":941,"bbi":942,"sk":943,"want</w>":944,"royal</w>":945,"palace</w>":946,"Ibbi":947,"az":948,"over":949,"red</w>":950,"dist":951,"troop":952,"together</w>":953,"go</w>":954,"offerings</w>":955,"tree</w>":956,"gate</w>":957,"but</w>":958,"ak":959,"fic":960,"sub":961,"child</w>":962,"manager</w>":963,"cla":964,"sac":965,"having</w>":966,"ruled</w>":967,"cep":968,"And</w>":969,"against</w>":970,"prin":971,"son":972,"seiz":973,"fol":974,"wind</w>":975,"troops</w>":976,"House</w>":977,"ne</w>":978,"under":979,"quarters</w>":980,"As</w>":981,"lu":982,"ches</w>":983,"cal":984,"fold</w>":985,"barge</w>":986,"established</w>":987,"dren</w>":988,"hor":989,"ning</w>":990,"sing":991,"children</w>":992,"que":993,"bird</w>":994,"gal":995,"ron":996,"raised</w>":997,"umn</w>":998,"column</w>":999,"priestess</w>":1000,"Abb":1001,"ba":1002,"arge</w>":1003,"abb":1004,"but":1005,"boat</w>":1006,"statue</w>":1007,"cum":1008,"he":1009,"oug":1010,"makes</w>":1011,"One</w>":1012,"den</w>":1013,"stone</w>":1014,"ile</w>":1015,"ows</w>":1016,"umuz":1017,"fashioned</w>":1018,"fea":1019,"other</w>":1020,"tal":1021,"inst":1022,"row</w>":1023,"house":1024,"ough</w>":1025,"62</w>":1026,"Grea":1027,"pe</w>":1028,"pper</w>":1029,"Dumuz":1030,"enem":1031,"Ekur</w>":1032,"mor":1033,"about</w>":1034,"kel</w>":1035,"Ningal</w>":1036,"ment</w>":1037,"uri":1038,"spo":1039,"comp":1040,"fine</w>":1041,"rejo":1042,"tablet</w>":1043,"pray":1044,"gar":1045,"shekel</w>":1046,"sel</w>":1047,"accep":1048,"posses":1049,"sheepfold</w>":1050,"IbbiSuen</w>":1051,"tri":1052,"ve":1053,"laborer</w>":1054,"gave</w>":1055,"ty":1056,"ess":1057,"comm":1058,"true</w>":1059,"took</w>":1060,"din":1061,"ew":1062,"Eninn":1063,"bear":1064,"aband":1065,"among</w>":1066,"fully</w>":1067,"spec":1068,"bring</w>":1069,"cks</w>":1070,"brother</w>":1071,"throne</w>":1072,"speak</w>":1073,"bundles</w>":1074,"cea":1075,"hands</w>":1076,"him":1077,"carried</w>":1078,"11</w>":1079,"Nis":1080,"ga</w>":1081,"vest</w>":1082,"wood</w>":1083,"ths</w>":1084,"igh</w>":1085,"tive</w>":1086,"with":1087,"fron":1088,"ic":1089,"restor":1090,"That</w>":1091,"bac":1092,"garm":1093,"mouth</w>":1094,"placed</w>":1095,"said</w>":1096,"hero</w>":1097,"cut</w>":1098,"measur":1099,"Eninnu</w>":1100,"delivery</w>":1101,"im</w>":1102,"lar</w>":1103,"low</w>":1104,"ground</w>":1105,"because</w>":1106,"household</w>":1107,"Ku":1108,"long":1109,"nig":1110,"trea":1111,"ani</w>":1112,"off</w>":1113,"osen</w>":1114,"Nisaba</w>":1115,"gig":1116,"dug</w>":1117,"received</w>":1118,"food</w>":1119,"ls</w>":1120,"tly</w>":1121,"appro":1122,"tra":1123,"born</w>":1124,"Ki":1125,"ct</w>":1126,"tt":1127,"uti":1128,"whom</w>":1129,"emb":1130,"Lar":1131,"those</w>":1132,"lapis</w>":1133,"mil":1134,"emp":1135,"agan</w>":1136,"worker</w>":1137,"bits</w>":1138,"cas":1139,"deed</w>":1140,"ugal</w>":1141,"sag</w>":1142,"Girsu</w>":1143,"mu</w>":1144,"went</w>":1145,"Who</w>":1146,"Land</w>":1147,"behalf</w>":1148,"ith":1149,"rations</w>":1150,"chosen</w>":1151,"ass":1152,"give</w>":1153,"birth</w>":1154,"filled</w>":1155,"lil":1156,"wil":1157,"part</w>":1158,"Great</w>":1159,"Festival</w>":1160,"booked</w>":1161,"loo":1162,"vol":1163,"ari":1164,"shing</w>":1165,"offi":1166,"therworld</w>":1167,"grains</w>":1168,"enemy</w>":1169,"bla":1170,"ku":1171,"say</w>":1172,"provid":1173,"bala</w>":1174,"mes</w>":1175,"remo":1176,"light</w>":1177,"take</w>":1178,"plow":1179,"some":1180,"Abzu</w>":1181,"lowing</w>":1182,"der":1183,"tin":1184,"tor":1185,"thre":1186,"stand</w>":1187,"qual":1188,"battle</w>":1189,"netherworld</w>":1190,"sin</w>":1191,"sweet</w>":1192,"Larsa</w>":1193,"can</w>":1194,"high</w>":1195,"wis":1196,"ything</w>":1197,"eat</w>":1198,"plan":1199,"foundation</w>":1200,"abandoned</w>":1201,"eca":1202,"offering</w>":1203,"praise</w>":1204,"back</w>":1205,"Beca":1206,"ay":1207,"nec":1208,"we":1209,"shes</w>":1210,"age</w>":1211,"form":1212,"barley":1213,"cannot</w>":1214,"standard</w>":1215,"Har":1216,"ak</w>":1217,"bed</w>":1218,"ry</w>":1219,"ta</w>":1220,"would</w>":1221,"uli</w>":1222,"docum":1223,"Gem":1224,"aura</w>":1225,"cattle</w>":1226,"out":1227,"hoe</w>":1228,"donke":1229,"Because</w>":1230,"Mar":1231,"enter</w>":1232,"kalla</w>":1233,"ph":1234,"Enlil":1235,"person":1236,"cap":1237,"could</w>":1238,"if":1239,"kind</w>":1240,"res</w>":1241,"heav":1242,"admini":1243,"bitter</w>":1244,"sacred</w>":1245,"Dumuzi</w>":1246,"barleyfed</w>":1247,"Sh":1248,"bl":1249,"des</w>":1250,"ged</w>":1251,"ot</w>":1252,"sna":1253,"uSuen</w>":1254,"indeed</w>":1255,"alted</w>":1256,"lambs</w>":1257,"gular</w>":1258,"small</w>":1259,"seized</w>":1260,"Al":1261,"babb":1262,"iti":1263,"regular</w>":1264,"strat":1265,"know</w>":1266,"slaugh":1267,"beauti":1268,"billy</w>":1269,"AmarSuen</w>":1270,"babbar</w>":1271,"fin":1272,"ki":1273,"range</w>":1274,"te":1275,"itting</w>":1276,"ened</w>":1277,"see</w>":1278,"spouse</w>":1279,"cur":1280,"ever":1281,"kin":1282,"als</w>":1283,"left</w>":1284,"ira</w>":1285,"ired</w>":1286,"ficit</w>":1287,"queen</w>":1288,"So</w>":1289,"workers</w>":1290,"weapon</w>":1291,"command</w>":1292,"himself</w>":1293,"administrat":1294,"fied</w>":1295,"16</w>":1296,"On</w>":1297,"Upon</w>":1298,"ez":1299,"et</w>":1300,"standing</w>":1301,"quality</w>":1302,"af":1303,"tw":1304,"ves":1305,"river</w>":1306,"dom</w>":1307,"resid":1308,"returned</w>":1309,"distant</w>":1310,"18</w>":1311,"fec":1312,"ni":1313,"vered</w>":1314,"suck":1315,"ture</w>":1316,"foreign</w>":1317,"saga</w>":1318,"ead</w>":1319,"shin":1320,"taken</w>":1321,"fields</w>":1322,"au":1323,"struck</w>":1324,"garment</w>":1325,"Temple</w>":1326,"fle":1327,"lit</w>":1328,"tar</w>":1329,"plea":1330,"faith":1331,"following</w>":1332,"large</w>":1333,"lion</w>":1334,"ool</w>":1335,"rites</w>":1336,"restored</w>":1337,"wild</w>":1338,"Dagan</w>":1339,"dar</w>":1340,"pped</w>":1341,"mountains</w>":1342,"named</w>":1343,"vessel</w>":1344,"ra</w>":1345,"stel":1346,"uga</w>":1347,"evil</w>":1348,"beautiful</w>":1349,"suckling</w>":1350,"Ada":1351,"clo":1352,"mess":1353,"ulti":1354,"ounded</w>":1355,"ash</w>":1356,"ding":1357,"ep</w>":1358,"por":1359,"youth</w>":1360,"righ":1361,"seed</w>":1362,"Ther":1363,"means</w>":1364,"midst</w>":1365,"empty</w>":1366,"provider</w>":1367,"wisdom</w>":1368,"ss":1369,"orch":1370,"deficit</w>":1371,"god":1372,"asaga</w>":1373,"amu</w>":1374,"months</w>":1375,"door</w>":1376,"therefore</w>":1377,"Ninurta</w>":1378,"accepted</w>":1379,"ever</w>":1380,"smi":1381,"way</w>":1382,"stati":1383,"verse</w>":1384,"strength</w>":1385,"how</w>":1386,"Lag":1387,"ns</w>":1388,"ze</w>":1389,"zuli</w>":1390,"peri":1391,"lament":1392,"Harvest</w>":1393,"Rm":1394,"Sn":1395,"cour":1396,"festival</w>":1397,"kid</w>":1398,"od":1399,"pour":1400,"inspec":1401,"lazuli</w>":1402,"tions</w>":1403,"proper":1404,"How</w>":1405,"bow":1406,"cows</w>":1407,"feet</w>":1408,"run":1409,"ten</w>":1410,"tel":1411,"also</w>":1412,"cubits</w>":1413,"known</w>":1414,"snake</w>":1415,"ber</w>":1416,"tum</w>":1417,"anc":1418,"stood</w>":1419,"sha":1420,"going</w>":1421,"warri":1422,"flood</w>":1423,"Zab":1424,"gina</w>":1425,"mat":1426,"might</w>":1427,"ous":1428,"sting</w>":1429,"deter":1430,"plow</w>":1431,"ire</w>":1432,"ish</w>":1433,"sprea":1434,"apple</w>":1435,"approa":1436,"3r":1437,"Er":1438,"Ekin":1439,"ders</w>":1440,"wee":1441,"stones</w>":1442,"ily</w>":1443,"present</w>":1444,"AR":1445,"dur":1446,"nd</w>":1447,"thus</w>":1448,"ena</w>":1449,"cha":1450,"see":1451,"cosmi":1452,"cious</w>":1453,"weap":1454,"dwelling</w>":1455,"butter</w>":1456,"offici":1457,"documents</w>":1458,"Lagash</w>":1459,"RmSn</w>":1460,"3rd</w>":1461,"cosmic</w>":1462,"Ad":1463,"Nam":1464,"Sim":1465,"vers</w>":1466,"inter":1467,"turned</w>":1468,"Anuna</w>":1469,"administrator</w>":1470,"stationed</w>":1471,"2nd</w>":1472,"ban</w>":1473,"drin":1474,"tec":1475,"stra":1476,"atta":1477,"igal</w>":1478,"sila</w>":1479,"forth</w>":1480,"suit":1481,"Eanna</w>":1482,"Holy</w>":1483,"mer</w>":1484,"pi":1485,"gift</w>":1486,"comple":1487,"By</w>":1488,"pen</w>":1489,"rum</w>":1490,"things</w>":1491,"ord</w>":1492,"alt</w>":1493,"alled</w>":1494,"ented</w>":1495,"dess</w>":1496,"ples</w>":1497,"pae</w>":1498,"try</w>":1499,"installed</w>":1500,"cast</w>":1501,"To":1502,"big</w>":1503,"lam</w>":1504,"chang":1505,"seven</w>":1506,"form</w>":1507,"cow</w>":1508,"surpas":1509,"water":1510,"slaughtered</w>":1511,"two</w>":1512,"Therefore</w>":1513,"apart</w>":1514,"baske":1515,"hel":1516,"tle</w>":1517,"along</w>":1518,"ath</w>":1519,"chee":1520,"annatum</w>":1521,"copper</w>":1522,"accounts</w>":1523,"eyes</w>":1524,"Isin</w>":1525,"Lord</w>":1526,"grow</w>":1527,"te</w>":1528,"used</w>":1529,"your":1530,"thor":1531,"rams</w>":1532,"protec":1533,"sister</w>":1534,"joy</w>":1535,"slave</w>":1536,"personal</w>":1537,"Ala":1538,"azu</w>":1539,"cer":1540,"hur":1541,"then</w>":1542,"ating</w>":1543,"ree</w>":1544,"reign</w>":1545,"dab":1546,"destro":1547,"Geme":1548,"messeng":1549,"goddess</w>":1550,"ARA":1551,"bi":1552,"hum":1553,"val</w>":1554,"ors</w>":1555,"right</w>":1556,"deb":1557,"came</w>":1558,"mina</w>":1559,"fire</w>":1560,"return</w>":1561,"Kima</w>":1562,"warrior</w>":1563,"Eannatum</w>":1564,"Fa":1565,"Nig":1566,"This</w>":1567,"crown</w>":1568,"dra":1569,"equ":1570,"flo":1571,"mer":1572,"stice</w>":1573,"Enan":1574,"produ":1575,"ada</w>":1576,"open</w>":1577,"cities</w>":1578,"Abbasaga</w>":1579,"Uri":1580,"length</w>":1581,"ory</w>":1582,"wooden</w>":1583,"within</w>":1584,"neck</w>":1585,"fur":1586,"nu":1587,"ort</w>":1588,"ama</w>":1589,"spon":1590,"great":1591,"many</w>":1592,"reeds</w>":1593,"ubur</w>":1594,"front</w>":1595,"something</w>":1596,"donkey</w>":1597,"Ekinugal</w>":1598,"weapons</w>":1599,"Alas</w>":1600,"Gil":1601,"high":1602,"us":1603,"lif":1604,"tain</w>":1605,"ugu</w>":1606,"destin":1607,"underworld</w>":1608,"spoke</w>":1609,"everything</w>":1610,"56</w>":1611,"lit":1612,"sat</w>":1613,"squar":1614,"ub</w>":1615,"rep":1616,"tain":1617,"seer</w>":1618,"isions</w>":1619,"fav":1620,"plain</w>":1621,"UrNane</w>":1622,"swee":1623,"jud":1624,"bitter":1625,"type</w>":1626,"4th</w>":1627,"Do</w>":1628,"Nann":1629,"cle":1630,"gs</w>":1631,"rates</w>":1632,"sag":1633,"shou":1634,"respon":1635,"lim":1636,"gold</w>":1637,"headed</w>":1638,"net</w>":1639,"new</w>":1640,"25</w>":1641,"With</w>":1642,"des":1643,"dais</w>":1644,"ulgi":1645,"change</w>":1646,"owed</w>":1647,"exalted</w>":1648,"justice</w>":1649,"stele</w>":1650,"squared</w>":1651,"Ebabbar</w>":1652,"ag</w>":1653,"cra":1654,"cely</w>":1655,"dro":1656,"night</w>":1657,"sons</w>":1658,"tears</w>":1659,"ste":1660,"entered</w>":1661,"plans</w>":1662,"never</w>":1663,"passed</w>":1664,"eye</w>":1665,"bilum</w>":1666,"lamentation</w>":1667,"cheese</w>":1668,"City</w>":1669,"Da":1670,"Puz":1671,"Si":1672,"juni":1673,"ner</w>":1674,"ough":1675,"sted</w>":1676,"relea":1677,"igr":1678,"hides</w>":1679,"What</w>":1680,"sion</w>":1681,"country</w>":1682,"power</w>":1683,"decreed</w>":1684,"prince</w>":1685,"residence</w>":1686,"Father</w>":1687,"Did</w>":1688,"calf</w>":1689,"dar":1690,"emmer</w>":1691,"happ":1692,"Urbilum</w>":1693,"build</w>":1694,"there":1695,"receive</w>":1696,"overseer</w>":1697,"feast</w>":1698,"measure</w>":1699,"spread</w>":1700,"Urim</w>":1701,"Ikur</w>":1702,"kings</w>":1703,"living</w>":1704,"perfec":1705,"cant":1706,"precious</w>":1707,"through</w>":1708,"dwell</w>":1709,"prayer</w>":1710,"Bar":1711,"sun":1712,"another</w>":1713,"top</w>":1714,"dog</w>":1715,"case</w>":1716,"well</w>":1717,"universe</w>":1718,"removed</w>":1719,"determin":1720,"official</w>":1721,"suitable</w>":1722,"protective</w>":1723,"Eu":1724,"Lamma</w>":1725,"cro":1726,"cted</w>":1727,"ehouse</w>":1728,"fatten":1729,"hired</w>":1730,"tur</w>":1731,"instruc":1732,"sto":1733,"must</w>":1734,"sky</w>":1735,"ewes</w>":1736,"ceased</w>":1737,"poured</w>":1738,"King</w>":1739,"bound</w>":1740,"dit":1741,"fel":1742,"fac":1743,"kir":1744,"sle":1745,"ening</w>":1746,"laid</w>":1747,"mah</w>":1748,"Enme":1749,"Ninubur</w>":1750,"saw</w>":1751,"arms</w>":1752,"called</w>":1753,"talents</w>":1754,"rejoice</w>":1755,"plowman</w>":1756,"bal":1757,"bra":1758,"foo":1759,"grown</w>":1760,"ick</w>":1761,"wid":1762,"thers</w>":1763,"only</w>":1764,"UrBaba</w>":1765,"idu</w>":1766,"covered</w>":1767,"turn</w>":1768,"messenger</w>":1769,"Euph":1770,"fitting</w>":1771,"gro":1772,"gam":1773,"looked</w>":1774,"ign":1775,"bank</w>":1776,"heaps</w>":1777,"territ":1778,"bru</w>":1779,"brings</w>":1780,"nether</w>":1781,"scrip":1782,"tran":1783,"Nibru</w>":1784,"single</w>":1785,"assemb":1786,"ously</w>":1787,"Euphrates</w>":1788,"34</w>":1789,"ax":1790,"dship</w>":1791,"gen":1792,"hol":1793,"ments</w>":1794,"rum":1795,"sum":1796,"sanc":1797,"tile</w>":1798,"ins":1799,"making</w>":1800,"raise</w>":1801,"cham":1802,"isi":1803,"Ninazu</w>":1804,"rows</w>":1805,"Tigr":1806,"date</w>":1807,"fit</w>":1808,"mur":1809,"nann":1810,"we</w>":1811,"thy</w>":1812,"sett":1813,"times</w>":1814,"cked</w>":1815,"cedar</w>":1816,"cording</w>":1817,"broad</w>":1818,"volum":1819,"faithfully</w>":1820,"orchard</w>":1821,"bowl</w>":1822,"surpassing</w>":1823,"kirugu</w>":1824,"Tigris</w>":1825,"57</w>":1826,"Moun":1827,"Sin</w>":1828,"tem":1829,"ua</w>":1830,"zi</w>":1831,"art</w>":1832,"around</w>":1833,"stree":1834,"plend":1835,"esh</w>":1836,"metal</w>":1837,"created</w>":1838,"presented</w>":1839,"bearer</w>":1840,"black":1841,"Erra</w>":1842,"Enanatum</w>":1843,"36</w>":1844,"9th</w>":1845,"Gi":1846,"cri":1847,"ia</w>":1848,"par</w>":1849,"tou":1850,"ards</w>":1851,"one":1852,"mar</w>":1853,"unted</w>":1854,"dis":1855,"super":1856,"scrib":1857,"attle":1858,"comman":1859,"birds</w>":1860,"tend":1861,"ezida</w>":1862,"shining</w>":1863,"Simur":1864,"Bab":1865,"Elam</w>":1866,"Nun":1867,"Year</w>":1868,"founded</w>":1869,"ished</w>":1870,"sis":1871,"ual</w>":1872,"win":1873,"stri":1874,"anned</w>":1875,"banda</w>":1876,"sun</w>":1877,"supp":1878,"loa":1879,"trees</w>":1880,"changed</w>":1881,"22</w>":1882,"21</w>":1883,"done</w>":1884,"fear":1885,"gre":1886,"la</w>":1887,"men":1888,"path</w>":1889,"upper</w>":1890,"wag":1891,"ula</w>":1892,"agina</w>":1893,"says</w>":1894,"Ningezida</w>":1895,"righte":1896,"ARAD":1897,"territory</w>":1898,"War":1899,"dle</w>":1900,"ima":1901,"vari":1902,"according</w>":1903,"most</w>":1904,"brick":1905,"speaking</w>":1906,"clay</w>":1907,"aya</w>":1908,"Total</w>":1909,"ger</w>":1910,"ob":1911,"anci":1912,"ered</w>":1913,"ili":1914,"red":1915,"destruc":1916,"irri":1917,"abo":1918,"hair</w>":1919,"Thus</w>":1920,"contain":1921,"cup":1922,"gaz":1923,"brick</w>":1924,"attention</w>":1925,"nigar</w>":1926,"yourself</w>":1927,"Gilgam":1928,"bitterly</w>":1929,"Enmeten":1930,"Gilgamesh</w>":1931,"6th</w>":1932,"Aga":1933,"bree":1934,"bound":1935,"cti":1936,"mal":1937,"num":1938,"ping</w>":1939,"pay</w>":1940,"inim":1941,"too</w>":1942,"sea</w>":1943,"table</w>":1944,"perform":1945,"grass":1946,"sure</w>":1947,"sici":1948,"body</w>":1949,"palm</w>":1950,"ept</w>":1951,"spoken</w>":1952,"icing</w>":1953,"longer</w>":1954,"various</w>":1955,"Ap":1956,"Mes":1957,"Nu":1958,"fun":1959,"fru":1960,"farm":1961,"fod":1962,"killed</w>":1963,"eal</w>":1964,"ally</w>":1965,"lig":1966,"white</w>":1967,"desc":1968,"abzu</w>":1969,"ching</w>":1970,"asa</w>":1971,"ole</w>":1972,"Urnigar</w>":1973,"joy":1974,"meat</w>":1975,"dedicate</w>":1976,"dingira</w>":1977,"chair</w>":1978,"little</w>":1979,"scription</w>":1980,"nanny</w>":1981,"Enmetena</w>":1982,"grassfed</w>":1983,"24</w>":1984,"But</w>":1985,"Co":1986,"KA":1987,"fla":1988,"found</w>":1989,"furi":1990,"mou":1991,"ti</w>":1992,"tar":1993,"intel":1994,"incant":1995,"atum":1996,"mag":1997,"labortroops</w>":1998,"creature</w>":1999,"destroy</w>":2000,"destiny</w>":2001,"assembly</w>":2002,"Mountain</w>":2003,"5th</w>":2004,"Amor":2005,"Lis":2006,"Mon":2007,"med</w>":2008,"tex":2009,"tanned</w>":2010,"zi":2011,"ared</w>":2012,"now</w>":2013,"become</w>":2014,"forem":2015,"iddin":2016,"ist</w>":2017,"storehouse</w>":2018,"sions</w>":2019,"minas</w>":2020,"rowing</w>":2021,"mud</w>":2022,"ongs</w>":2023,"more</w>":2024,"blackheaded</w>":2025,"PA</w>":2026,"fri":2027,"ots</w>":2028,"puri":2029,"ill":2030,"lad":2031,"radi":2032,"ream</w>":2033,"sec":2034,"hide</w>":2035,"ises</w>":2036,"split</w>":2037,"acted</w>":2038,"saying</w>":2039,"dust</w>":2040,"Ludingira</w>":2041,"bow</w>":2042,"evil":2043,"establish</w>":2044,"behind</w>":2045,"milk</w>":2046,"look</w>":2047,"planted</w>":2048,"author":2049,"gazel":2050,"iddinam</w>":2051,"13":2052,"1st</w>":2053,"Sin":2054,"dates</w>":2055,"nes":2056,"any":2057,"arm</w>":2058,"lay</w>":2059,"ulpae</w>":2060,"ative</w>":2061,"Lukalla</w>":2062,"wom":2063,"full":2064,"utter":2065,"garding</w>":2066,"ewe</w>":2067,"courty":2068,"basket</w>":2069,"clean":2070,"foot</w>":2071,"ancient</w>":2072,"Her</w>":2073,"No</w>":2074,"cl":2075,"dou":2076,"eg":2077,"mine</w>":2078,"pea":2079,"piled</w>":2080,"song</w>":2081,"sta":2082,"alone</w>":2083,"enti":2084,"rew":2085,"deity</w>":2086,"race</w>":2087,"daily</w>":2088,"Enun":2089,"til</w>":2090,"UrLamma</w>":2091,"amn":2092,"Ninmar</w>":2093,"head":2094,"bron":2095,"cont":2096,"ently</w>":2097,"full</w>":2098,"houses</w>":2099,"possessions</w>":2100,"bearing</w>":2101,"irrig":2102,"courtyard</w>":2103,"Du":2104,"Ke</w>":2105,"Let</w>":2106,"Me":2107,"egal</w>":2108,"fall</w>":2109,"ges</w>":2110,"nation</w>":2111,"ost</w>":2112,"yo":2113,"yed</w>":2114,"thed</w>":2115,"ances</w>":2116,"order":2117,"scep":2118,"tering</w>":2119,"hero":2120,"ward</w>":2121,"power":2122,"tra</w>":2123,"subm":2124,"rejoicing</w>":2125,"period</w>":2126,"street</w>":2127,"bronze</w>":2128,"Ar":2129,"Lad":2130,"kigal</w>":2131,"my":2132,"rying</w>":2133,"vel":2134,"ornam":2135,"alas</w>":2136,"uri</w>":2137,"leve":2138,"seen</w>":2139,"greatly</w>":2140,"both</w>":2141,"Anan</w>":2142,"gigir</w>":2143,"approached</w>":2144,"favor":2145,"determined</w>":2146,"Amorite</w>":2147,"Dil":2148,"Itar</w>":2149,"Mound</w>":2150,"cattle":2151,"gon</w>":2152,"hun":2153,"multi":2154,"ring</w>":2155,"ration</w>":2156,"sch":2157,"salt</w>":2158,"ali</w>":2159,"ils</w>":2160,"tow":2161,"uge</w>":2162,"ket</w>":2163,"Nink":2164,"heads</w>":2165,"const":2166,"bulls</w>":2167,"knows</w>":2168,"baked</w>":2169,"properly</w>":2170,"debit</w>":2171,"Warad":2172,"boundary</w>":2173,"farmer</w>":2174,"furious</w>":2175,"17</w>":2176,"7th</w>":2177,"Iri":2178,"Nar":2179,"Sum</w>":2180,"bat</w>":2181,"ble":2182,"culti":2183,"pit":2184,"yl":2185,"arum</w>":2186,"sts</w>":2187,"dab</w>":2188,"these</w>":2189,"ugal":2190,"lamma</w>":2191,"allure</w>":2192,"flow":2193,"paid</w>":2194,"pass</w>":2195,"threshing</w>":2196,"outside</w>":2197,"righteous</w>":2198,"above</w>":2199,"inimgina</w>":2200,"Lady</w>":2201,"Ez":2202,"brew":2203,"fear</w>":2204,"hand":2205,"site</w>":2206,"vest":2207,"ya</w>":2208,"them":2209,"thly</w>":2210,"eating</w>":2211,"itself</w>":2212,"ended</w>":2213,"ement</w>":2214,"Urgigir</w>":2215,"ect</w>":2216,"resplend":2217,"mans</w>":2218,"giving</w>":2219,"construc":2220,"meDagan</w>":2221,"Akk</w>":2222,"Their</w>":2223,"first":2224,"harvest</w>":2225,"irit</w>":2226,"citiz":2227,"princely</w>":2228,"curse</w>":2229,"scribal</w>":2230,"ordered</w>":2231,"Gatum":2232,"Hea":2233,"Id":2234,"ImeDagan</w>":2235,"Ki</w>":2236,"Kar":2237,"jug":2238,"kur":2239,"kne":2240,"kidu</w>":2241,"sit</w>":2242,"south</w>":2243,"tant</w>":2244,"va":2245,"wr":2246,"inside</w>":2247,"itu":2248,"defea":2249,"ram</w>":2250,"secon":2251,"worthy</w>":2252,"ook</w>":2253,"ising</w>":2254,"spirit</w>":2255,"exten":2256,"gif":2257,"workman</w>":2258,"caul":2259,"counsel</w>":2260,"thern</w>":2261,"trem":2262,"wailed</w>":2263,"Adab</w>":2264,"lifted</w>":2265,"Nunamn":2266,"12":2267,"Il":2268,"Of</w>":2269,"cel":2270,"fatta":2271,"na</w>":2272,"ven":2273,"vey":2274,"iness</w>":2275,"any</w>":2276,"live</w>":2277,"mace</w>":2278,"demon":2279,"until</w>":2280,"issu":2281,"building</w>":2282,"dudu</w>":2283,"mind</w>":2284,"corp":2285,"wise</w>":2286,"bricks</w>":2287,"horiz":2288,"prayers</w>":2289,"measuring</w>":2290,"Shulgi</w>":2291,"finished</w>":2292,"property</w>":2293,"temples</w>":2294,"Lisi</w>":2295,"Month</w>":2296,"anyone</w>":2297,"second</w>":2298,"18":2299,"ee</w>":2300,"pu":2301,"pil":2302,"wept</w>":2303,"erous</w>":2304,"sher":2305,"atched</w>":2306,"taea</w>":2307,"dem":2308,"wort</w>":2309,"buck</w>":2310,"places</w>":2311,"coming</w>":2312,"gather":2313,"first</w>":2314,"anger</w>":2315,"kids</w>":2316,"fodder</w>":2317,"Come</w>":2318,"ornament</w>":2319,"cattlepen</w>":2320,"Nunamnir</w>":2321,"fattailed</w>":2322,"Ay":2323,"Ge":2324,"fro":2325,"fam":2326,"fall":2327,"kni":2328,"un</w>":2329,"ined</w>":2330,"ene":2331,"lic":2332,"emer":2333,"died</w>":2334,"disp":2335,"charge</w>":2336,"sures</w>":2337,"exer":2338,"rushes</w>":2339,"Akalla</w>":2340,"forever</w>":2341,"kala</w>":2342,"tures</w>":2343,"vel</w>":2344,"treated</w>":2345,"horizon</w>":2346,"knife</w>":2347,"As":2348,"Pro":2349,"Prin":2350,"Re":2351,"den":2352,"em</w>":2353,"even</w>":2354,"fig":2355,"op</w>":2356,"punted</w>":2357,"ran":2358,"yr":2359,"orite</w>":2360,"reg":2361,"wher":2362,"rain</w>":2363,"chest</w>":2364,"esar</w>":2365,"isal</w>":2366,"load":2367,"extra</w>":2368,"vice</w>":2369,"decid":2370,"heif":2371,"someone</w>":2372,"plants</w>":2373,"heavens</w>":2374,"greatness</w>":2375,"fell</w>":2376,"volumesar</w>":2377,"loaves</w>":2378,"cupbearer</w>":2379,"Agade</w>":2380,"Pos":2381,"Wat":2382,"ama":2383,"ekalla</w>":2384,"jar</w>":2385,"kun":2386,"sk</w>":2387,"ars</w>":2388,"ore</w>":2389,"stands</w>":2390,"allo":2391,"shea":2392,"short</w>":2393,"attered</w>":2394,"lied</w>":2395,"list":2396,"rise</w>":2397,"lear":2398,"igi</w>":2399,"bani</w>":2400,"Nintur</w>":2401,"monthly</w>":2402,"grass</w>":2403,"Why</w>":2404,"bran":2405,"Lugalur":2406,"just</w>":2407,"AmarSu":2408,"donated</w>":2409,"galana</w>":2410,"accept</w>":2411,"inspections</w>":2412,"sleep</w>":2413,"brickwork</w>":2414,"sician</w>":2415,"scepter</w>":2416,"school</w>":2417,"demon</w>":2418,"Posses":2419,"DU</w>":2420,"ba</w>":2421,"bor</w>":2422,"bol":2423,"boo":2424,"border</w>":2425,"dead</w>":2426,"gir":2427,"ped</w>":2428,"sou":2429,"tting</w>":2430,"up":2431,"inqu":2432,"answ":2433,"ilim</w>":2434,"ret":2435,"lasting</w>":2436,"detri":2437,"unuri</w>":2438,"dir":2439,"dig</w>":2440,"diorite</w>":2441,"forc":2442,"off":2443,"lean</w>":2444,"ritual</w>":2445,"jug</w>":2446,"pot</w>":2447,"middle</w>":2448,"abba</w>":2449,"black</w>":2450,"completed</w>":2451,"daba</w>":2452,"gener":2453,"radiance</w>":2454,"evildo":2455,"fallen</w>":2456,"detriment</w>":2457,"care</w>":2458,"ds":2459,"ior</w>":2460,"kal</w>":2461,"rou":2462,"uh":2463,"instr":2464,"ering</w>":2465,"erce</w>":2466,"alu</w>":2467,"iling</w>":2468,"illa":2469,"rec":2470,"ast</w>":2471,"manum</w>":2472,"loved</w>":2473,"Inim":2474,"gue</w>":2475,"shepherds</w>":2476,"weavers</w>":2477,"firm</w>":2478,"Adad</w>":2479,"shade</w>":2480,"held</w>":2481,"perfect</w>":2482,"trans":2483,"insul":2484,"chamber</w>":2485,"foremost</w>":2486,"womb</w>":2487,"loaded</w>":2488,"instrum":2489,"Ama":2490,"GA":2491,"Her":2492,"Kish</w>":2493,"UR":2494,"Ura":2495,"clean</w>":2496,"dly</w>":2497,"gar</w>":2498,"ic</w>":2499,"obe":2500,"sent</w>":2501,"tor</w>":2502,"ud":2503,"wal":2504,"xed</w>":2505,"zes</w>":2506,"inse":2507,"anything</w>":2508,"ari</w>":2509,"ery</w>":2510,"enforc":2511,"law</w>":2512,"laga</w>":2513,"bel</w>":2514,"chari":2515,"esi</w>":2516,"tium</w>":2517,"Urulpae</w>":2518,"force</w>":2519,"sail</w>":2520,"manif":2521,"There</w>":2522,"ador":2523,"caused</w>":2524,"imbabbar</w>":2525,"well":2526,"statu":2527,"horn</w>":2528,"singer</w>":2529,"faithful</w>":2530,"produce</w>":2531,"sheaves</w>":2532,"enforcer</w>":2533,"14":2534,"Ex":2535,"Kin":2536,"Lul":2537,"Tow":2538,"cry</w>":2539,"dea":2540,"kak</w>":2541,"piri":2542,"si</w>":2543,"sor</w>":2544,"sol":2545,"soil</w>":2546,"songs</w>":2547,"ul</w>":2548,"wine</w>":2549,"ants</w>":2550,"enpriest</w>":2551,"mabu":2552,"ungal</w>":2553,"hau":2554,"estate</w>":2555,"reser":2556,"exp":2557,"exhau":2558,"tured</w>":2559,"Luara</w>":2560,"much</w>":2561,"grand</w>":2562,"leather</w>":2563,"bitum":2564,"foundations</w>":2565,"horns</w>":2566,"instead</w>":2567,"without</w>":2568,"Kudur":2569,"kug</w>":2570,"drink</w>":2571,"judg":2572,"Simanum</w>":2573,"Babyl":2574,"fearso":2575,"powerful</w>":2576,"Gatumdu</w>":2577,"insect</w>":2578,"Atu</w>":2579,"Baz":2580,"Can":2581,"MU":2582,"bi</w>":2583,"cru":2584,"dri":2585,"fill</w>":2586,"kig":2587,"nir":2588,"sat":2589,"tea":2590,"yet</w>":2591,"aru</w>":2592,"outer</w>":2593,"onto</w>":2594,"stret":2595,"enpriestess</w>":2596,"regarding</w>":2597,"liver</w>":2598,"tak":2599,"Urara</w>":2600,"Urmes</w>":2601,"qui":2602,"same</w>":2603,"grade</w>":2604,"serve</w>":2605,"consum":2606,"minated</w>":2607,"box":2608,"boats</w>":2609,"prepar":2610,"host":2611,"tened</w>":2612,"decisions</w>":2613,"delivered</w>":2614,"again</w>":2615,"harbor</w>":2616,"base</w>":2617,"Enlils</w>":2618,"blood</w>":2619,"ition</w>":2620,"released</w>":2621,"stoma":2622,"meness</w>":2623,"numerous</w>":2624,"Apisal</w>":2625,"intellig":2626,"textile</w>":2627,"defeated</w>":2628,"branches</w>":2629,"mabuk</w>":2630,"Kudurmabuk</w>":2631,"32</w>":2632,"Ma":2633,"UKA":2634,"fe":2635,"galla</w>":2636,"pit</w>":2637,"vis":2638,"vated</w>":2639,"you":2640,"allow</w>":2641,"ending</w>":2642,"rever":2643,"eld</w>":2644,"task</w>":2645,"plat":2646,"day":2647,"agre":2648,"tier</w>":2649,"fisher":2650,"umu":2651,"far</w>":2652,"loves</w>":2653,"ruly</w>":2654,"sible</w>":2655,"opy</w>":2656,"offered</w>":2657,"bundle</w>":2658,"became</w>":2659,"subtotal</w>":2660,"talent</w>":2661,"frontier</w>":2662,"longtablets</w>":2663,"heavy</w>":2664,"drinking</w>":2665,"happy</w>":2666,"Barle":2667,"ision</w>":2668,"container</w>":2669,"breezes</w>":2670,"demons</w>":2671,"gathered</w>":2672,"Lugalurub</w>":2673,"reservo":2674,"bitumen</w>":2675,"Babylon</w>":2676,"Dam":2677,"Dada</w>":2678,"Ner":2679,"duga</w>":2680,"fly</w>":2681,"gone</w>":2682,"half</w>":2683,"lings</w>":2684,"nest</w>":2685,"om":2686,"opp":2687,"sn":2688,"wall":2689,"wide</w>":2690,"ardi":2691,"ealed</w>":2692,"ond</w>":2693,"sti":2694,"rev":2695,"nominated</w>":2696,"rear</w>":2697,"haun":2698,"kee":2699,"terri":2700,"terrace</w>":2701,"ofty</w>":2702,"Those</w>":2703,"proper</w>":2704,"peg</w>":2705,"ights</w>":2706,"lordship</w>":2707,"selves</w>":2708,"ways</w>":2709,"voice</w>":2710,"calves</w>":2711,"captured</w>":2712,"weeping</w>":2713,"Puzur":2714,"Puzri":2715,"therefrom</w>":2716,"grew</w>":2717,"caulked</w>":2718,"URUKA":2719,"reservoir</w>":2720,"URUKAgina</w>":2721,"Am":2722,"Ere":2723,"Gaz":2724,"Ibi":2725,"Lum":2726,"dried</w>":2727,"ew</w>":2728,"eter":2729,"fy</w>":2730,"gn":2731,"hal":2732,"kis":2733,"mann":2734,"smo":2735,"int":2736,"inscription</w>":2737,"anity</w>":2738,"ali":2739,"requ":2740,"lect</w>":2741,"decor":2742,"ulMU":2743,"dim":2744,"Enma":2745,"goes</w>":2746,"silo</w>":2747,"owner</w>":2748,"fies</w>":2749,"fierce</w>":2750,"Where</w>":2751,"ruin</w>":2752,"open":2753,"opened</w>":2754,"carcas":2755,"praised</w>":2756,"Lipit":2757,"nindaba</w>":2758,"tten</w>":2759,"office</w>":2760,"donkeys</w>":2761,"flee":2762,"Sniddinam</w>":2763,"tendon</w>":2764,"siskur</w>":2765,"functi":2766,"friend</w>":2767,"yoke</w>":2768,"myself</w>":2769,"themselves</w>":2770,"firstborn</w>":2771,"Hero</w>":2772,"Canal</w>":2773,"stomach</w>":2774,"walls</w>":2775,"haunt</w>":2776,"Don":2777,"blo":2778,"drum":2779,"elap":2780,"gur":2781,"lofty</w>":2782,"pul":2783,"ren":2784,"uw":2785,"initi":2786,"ana":2787,"anum</w>":2788,"era":2789,"share</w>":2790,"road</w>":2791,"rebel</w>":2792,"lie</w>":2793,"wheat</w>":2794,"igned</w>":2795,"agara</w>":2796,"act</w>":2797,"suk":2798,"Ninhur":2799,"scattered</w>":2800,"quay</w>":2801,"LuNingirsu</w>":2802,"Gued":2803,"Gutium</w>":2804,"gran":2805,"inner</w>":2806,"priests</w>":2807,"minister</w>":2808,"garments</w>":2809,"appropri":2810,"All</w>":2811,"shoul":2812,"juniper</w>":2813,"fruit</w>":2814,"yrup</w>":2815,"platform</w>":2816,"function":2817,"42</w>":2818,"87</w>":2819,"Ding":2820,"Guni":2821,"Itar":2822,"bear</w>":2823,"fates</w>":2824,"ject</w>":2825,"ler</w>":2826,"lying</w>":2827,"sin":2828,"tter</w>":2829,"ted":2830,"uum":2831,"ually</w>":2832,"zu":2833,"though</w>":2834,"invol":2835,"ani":2836,"antly</w>":2837,"army</w>":2838,"arak":2839,"alli":2840,"ility</w>":2841,"ate":2842,"lives</w>":2843,"lag":2844,"why</w>":2845,"deep</w>":2846,"dam</w>":2847,"bego":2848,"chose</w>":2849,"tisp":2850,"acworker</w>":2851,"susta":2852,"scr":2853,"door":2854,"exc":2855,"extisp":2856,"advice</w>":2857,"contro":2858,"carp":2859,"future</w>":2860,"ute</w>":2861,"heir</w>":2862,"flesh</w>":2863,"pleas":2864,"merch":2865,"limbs</w>":2866,"width</w>":2867,"axe</w>":2868,"Nudim":2869,"secure</w>":2870,"regul":2871,"heifer</w>":2872,"bolt</w>":2873,"manifest</w>":2874,"pirig</w>":2875,"intelligence</w>":2876,"Gazel":2877,"ulMUx":2878,"GuniDU</w>":2879,"19</w>":2880,"35</w>":2881,"45</w>":2882,"48</w>":2883,"8th</w>":2884,"Egal":2885,"Now</w>":2886,"Sa":2887,"ef":2888,"hon":2889,"ni</w>":2890,"oven</w>":2891,"pig":2892,"sen</w>":2893,"swor":2894,"tum":2895,"zida</w>":2896,"than</w>":2897,"ara":2898,"orders</w>":2899,"ends</w>":2900,"def":2901,"debits</w>":2902,"plot</w>":2903,"nose</w>":2904,"dient</w>":2905,"bed":2906,"inging</w>":2907,"asi</w>":2908,"ugani</w>":2909,"ammur":2910,"ressed</w>":2911,"herds":2912,"Lugalinimgina</w>":2913,"prison":2914,"carp</w>":2915,"leather":2916,"bore</w>":2917,"tool</w>":2918,"Ninursag</w>":2919,"possessing</w>":2920,"phy":2921,"baskets</w>":2922,"floor</w>":2923,"fattened</w>":2924,"ditches</w>":2925,"Simurum</w>":2926,"zier</w>":2927,"write</w>":2928,"Getin":2929,"southern</w>":2930,"chariot</w>":2931,"Barley</w>":2932,"Nergal</w>":2933,"extispic":2934,"ulMUxPA</w>":2935,"26</w>":2936,"27</w>":2937,"Lam":2938,"Un":2939,"bin":2940,"cy</w>":2941,"cred":2942,"ffer":2943,"ging</w>":2944,"kagina</w>":2945,"ly":2946,"line</w>":2947,"mold</w>":2948,"sma":2949,"syrup</w>":2950,"truly</w>":2951,"writ":2952,"ining</w>":2953,"inci":2954,"eable</w>":2955,"iter":2956,"itch":2957,"stit":2958,"stick</w>":2959,"roa":2960,"enship</w>":2961,"lies</w>":2962,"mal</w>":2963,"while</w>":2964,"uru</w>":2965,"ries</w>":2966,"dep":2967,"deer</w>":2968,"choo":2969,"spar":2970,"acqu":2971,"cowher":2972,"banks</w>":2973,"Ningub":2974,"vizier</w>":2975,"carrying</w>":2976,"mun</w>":2977,"enters</w>":2978,"uttered</w>":2979,"Ninursaga</w>":2980,"distri":2981,"rejoi":2982,"restore</w>":2983,"treasure</w>":2984,"tore</w>":2985,"heaven":2986,"responsible</w>":2987,"steward</w>":2988,"sunlight</w>":2989,"cross</w>":2990,"fattener</w>":2991,"sanctu":2992,"Simurrum</w>":2993,"destructive</w>":2994,"authorit":2995,"utterance</w>":2996,"multip":2997,"resplendent</w>":2998,"adorned</w>":2999,"prepared</w>":3000,"visor</w>":3001,"IbiErra</w>":3002,"manner</w>":3003,"pleasant</w>":3004,"Nudimmud</w>":3005,"19":3006,"33</w>":3007,"43</w>":3008,"61</w>":3009,"Bel":3010,"Dug":3011,"Festiv":3012,"Ha":3013,"Igal":3014,"Sar":3015,"Tum":3016,"dream</w>":3017,"gu</w>":3018,"lar":3019,"tigi</w>":3020,"ws</w>":3021,"thir":3022,"inanna</w>":3023,"ites</w>":3024,"ored</w>":3025,"whole</w>":3026,"ursag</w>":3027,"led":3028,"tail</w>":3029,"plen":3030,"nothing</w>":3031,"ult</w>":3032,"beg":3033,"UrNingirsu</w>":3034,"bum</w>":3035,"earing</w>":3036,"perfor":3037,"perty</w>":3038,"neg":3039,"nel</w>":3040,"Luduga</w>":3041,"waters</w>":3042,"previ":3043,"viol":3044,"Guabba</w>":3045,"UrNungal</w>":3046,"gry</w>":3047,"evening</w>":3048,"bright</w>":3049,"smith</w>":3050,"trust":3051,"api</w>":3052,"claim</w>":3053,"tribut":3054,"three</w>":3055,"weight</w>":3056,"aff</w>":3057,"after":3058,"furrows</w>":3059,"performed</w>":3060,"incantation</w>":3061,"favorable</w>":3062,"Property</w>":3063,"general</w>":3064,"fearsomeness</w>":3065,"satis":3066,"etern":3067,"decorated</w>":3068,"prisoners</w>":3069,"extispicy</w>":3070,"Festival":3071,"Sargon</w>":3072,"Tummal</w>":3073,"Ba":3074,"Bri":3075,"De":3076,"Gate</w>":3077,"Hammur":3078,"Nab":3079,"Sam":3080,"Utu":3081,"ab</w>":3082,"bil</w>":3083,"fil":3084,"glad":3085,"mour":3086,"val":3087,"vely</w>":3088,"inc":3089,"anim":3090,"regi":3091,"lap</w>":3092,"urgal</w>":3093,"rival</w>":3094,"takes</w>":3095,"plough":3096,"ult":3097,"dish</w>":3098,"dimini":3099,"good":3100,"sesame</w>":3101,"fathers</w>":3102,"Then</w>":3103,"add":3104,"herself</w>":3105,"worktroops</w>":3106,"floo":3107,"marsh</w>":3108,"married</w>":3109,"woods</w>":3110,"quarre":3111,"reed":3112,"decision</w>":3113,"firmed</w>":3114,"akalla</w>":3115,"dining</w>":3116,"kuzu</w>":3117,"document</w>":3118,"Martu</w>":3119,"ezem</w>":3120,"running</w>":3121,"matter</w>":3122,"weeps</w>":3123,"during</w>":3124,"judge</w>":3125,"settle":3126,"wagon</w>":3127,"destruction</w>":3128,"Enunugal</w>":3129,"irrigation</w>":3130,"constant</w>":3131,"Ezina</w>":3132,"constructed</w>":3133,"AmarSuena</w>":3134,"credits</w>":3135,"Festivalof":3136,"Before</w>":3137,"Bagara</w>":3138,"Ema</w>":3139,"Magan</w>":3140,"Oval</w>":3141,"Uree</w>":3142,"Wo":3143,"cking</w>":3144,"find</w>":3145,"ist":3146,"kill</w>":3147,"num</w>":3148,"two":3149,"ume</w>":3150,"zed</w>":3151,"ern</w>":3152,"ities</w>":3153,"ati</w>":3154,"lic</w>":3155,"uru":3156,"rising</w>":3157,"plunder":3158,"dag":3159,"daga</w>":3160,"ulu</w>":3161,"Enkidu</w>":3162,"spee":3163,"cover</w>":3164,"ation":3165,"resh</w>":3166,"Intaea</w>":3167,"exchange</w>":3168,"six":3169,"allowed</w>":3170,"Akurgal</w>":3171,"shepherdship</w>":3172,"measures</w>":3173,"evol":3174,"Urukagina</w>":3175,"ght":3176,"small":3177,"ceasing</w>":3178,"Kiur</w>":3179,"Enlila</w>":3180,"inspection</w>":3181,"humanity</w>":3182,"ulgiiri":3183,"instructions</w>":3184,"ditch</w>":3185,"commands</w>":3186,"supplic":3187,"wages</w>":3188,"gazelle</w>":3189,"Naram":3190,"citizens</w>":3191,"Karzida</w>":3192,"jugs</w>":3193,"vast":3194,"gifts</w>":3195,"instrument</w>":3196,"boxwood</w>":3197,"hostile</w>":3198,"drums</w>":3199,"functionary</w>":3200,"merchant</w>":3201,"Hammurapi</w>":3202,"Emu":3203,"NE":3204,"Nur":3205,"Nag":3206,"Nalu</w>":3207,"band</w>":3208,"bers</w>":3209,"bend</w>":3210,"cing</w>":3211,"cool</w>":3212,"fo":3213,"fresh</w>":3214,"ian</w>":3215,"land":3216,"near</w>":3217,"pole</w>":3218,"udug</w>":3219,"zal</w>":3220,"ander</w>":3221,"oud</w>":3222,"oura":3223,"sher</w>":3224,"shine</w>":3225,"atur</w>":3226,"rema":3227,"lib":3228,"urti</w>":3229,"plots</w>":3230,"ready</w>":3231,"reached</w>":3232,"sets</w>":3233,"separ":3234,"cool":3235,"heaped</w>":3236,"dow</w>":3237,"perform</w>":3238,"herder</w>":3239,"pegs</w>":3240,"contin":3241,"compas":3242,"LuUtu</w>":3243,"mountain":3244,"below</w>":3245,"carry</w>":3246,"women</w>":3247,"toward</w>":3248,"divin":3249,"decree</w>":3250,"deliver":3251,"speaks</w>":3252,"remove</w>":3253,"plowmen</w>":3254,"Mardu":3255,"personnel</w>":3256,"Zababa</w>":3257,"destroys</w>":3258,"equi":3259,"response</w>":3260,"design":3261,"craf":3262,"release</w>":3263,"happiness</w>":3264,"supervisor</w>":3265,"descended</w>":3266,"Dilmun</w>":3267,"Heaven</w>":3268,"corpse</w>":3269,"GAN":3270,"Ningublaga</w>":3271,"diminished</w>":3272,"ulgiirimu</w>":3273,"16":3274,"38</w>":3275,"55</w>":3276,"Copy</w>":3277,"Dur":3278,"akala</w>":3279,"ball</w>":3280,"bly</w>":3281,"drum</w>":3282,"hil":3283,"hall</w>":3284,"ick":3285,"malt</w>":3286,"pig</w>":3287,"send</w>":3288,"ton":3289,"int</w>":3290,"intend":3291,"inlaw</w>":3292,"aring</w>":3293,"itted</w>":3294,"staff</w>":3295,"rope</w>":3296,"rees</w>":3297,"repaid</w>":3298,"elder</w>":3299,"rich</w>":3300,"dire":3301,"irs</w>":3302,"iga</w>":3303,"chur":3304,"ught</w>":3305,"forest</w>":3306,"spir":3307,"verd":3308,"covers</w>":3309,"gives</w>":3310,"gipar</w>":3311,"Lugale":3312,"sive</w>":3313,"countri":3314,"break</w>":3315,"breast</w>":3316,"wards</w>":3317,"lords</w>":3318,"fertile</w>":3319,"gudu":3320,"ubi</w>":3321,"troop</w>":3322,"lowed</w>":3323,"posed</w>":3324,"pleasing</w>":3325,"interior</w>":3326,"Nigin</w>":3327,"greatest</w>":3328,"highpriestess</w>":3329,"dark":3330,"superintend":3331,"levees</w>":3332,"WaradSn</w>":3333,"Iddin":3334,"learned</w>":3335,"fleece</w>":3336,"Dont</w>":3337,"erase</w>":3338,"involved</w>":3339,"arakam</w>":3340,"control</w>":3341,"defiled</w>":3342,"itchen</w>":3343,"authoritative</w>":3344,"tribute</w>":3345,"speech</w>":3346,"deliveries</w>":3347,"countries</w>":3348,"superintendent</w>":3349,"Damu</w>":3350,"For":3351,"Gur":3352,"Mag":3353,"Nr":3354,"Pig":3355,"St":3356,"Ta":3357,"Tru":3358,"cir":3359,"eing</w>":3360,"fli":3361,"gan":3362,"growing</w>":3363,"hone":3364,"ker</w>":3365,"nor":3366,"oc":3367,"ror</w>":3368,"sir</w>":3369,"til":3370,"tall</w>":3371,"ug</w>":3372,"uea</w>":3373,"zag":3374,"arly</w>":3375,"stool</w>":3376,"alter</w>":3377,"altered</w>":3378,"shout</w>":3379,"lished</w>":3380,"lev":3381,"devast":3382,"raven</w>":3383,"goose</w>":3384,"hisher</w>":3385,"UrSuen</w>":3386,"Ursaga</w>":3387,"ism</w>":3388,"such</w>":3389,"stration</w>":3390,"scent</w>":3391,"eel</w>":3392,"locu":3393,"laments</w>":3394,"adv":3395,"mound</w>":3396,"mounds</w>":3397,"sick</w>":3398,"ced":3399,"imp":3400,"allu</w>":3401,"hearts</w>":3402,"flying</w>":3403,"Akit":3404,"weaving</w>":3405,"meal</w>":3406,"slaves</w>":3407,"skin</w>":3408,"essels</w>":3409,"formed</w>":3410,"Alla</w>":3411,"shiny</w>":3412,"dingir":3413,"Zabali</w>":3414,"mature</w>":3415,"helper</w>":3416,"junior</w>":3417,"groan</w>":3418,"axes</w>":3419,"cries</w>":3420,"fullgrown</w>":3421,"heroism</w>":3422,"Ayakalla</w>":3423,"Princely</w>":3424,"evildoer</w>":3425,"agreeable</w>":3426,"carcasses</w>":3427,"incipit</w>":3428,"trustworthy</w>":3429,"mourning</w>":3430,"animals</w>":3431,"honey</w>":3432,"Big":3433,"Fi":3434,"Lev":3435,"Mother</w>":3436,"ax</w>":3437,"bent</w>":3438,"cat":3439,"ction</w>":3440,"gho":3441,"hus":3442,"pl</w>":3443,"sitting</w>":3444,"uk":3445,"vessels</w>":3446,"inted</w>":3447,"arrow</w>":3448,"ouri":3449,"itum</w>":3450,"itida</w>":3451,"shrin":3452,"lian</w>":3453,"mae</w>":3454,"lets</w>":3455,"unceasing</w>":3456,"aba":3457,"tied</w>":3458,"Url":3459,"banque":3460,"laba</w>":3461,"served</w>":3462,"seated</w>":3463,"nelian</w>":3464,"storm":3465,"convey":3466,"confirmed</w>":3467,"imposed</w>":3468,"comes</w>":3469,"get</w>":3470,"broken</w>":3471,"past":3472,"smit":3473,"truth</w>":3474,"cream</w>":3475,"harvest":3476,"azida</w>":3477,"clad</w>":3478,"follow</w>":3479,"garlic</w>":3480,"gigal</w>":3481,"volume</w>":3482,"tiny</w>":3483,"porters</w>":3484,"approach</w>":3485,"Gibil</w>":3486,"malevol":3487,"authority</w>":3488,"Mekigal</w>":3489,"submit</w>":3490,"brewer</w>":3491,"figure</w>":3492,"Inimara</w>":3493,"statues</w>":3494,"soldi":3495,"sticks</w>":3496,"Enmagalana</w>":3497,"shoulder</w>":3498,"Itaran</w>":3499,"physician</w>":3500,"continually</w>":3501,"1th</w>":3502,"Ac":3503,"Aga</w>":3504,"Gir":3505,"Kaz":3506,"Mama</w>":3507,"We</w>":3508,"bar</w>":3509,"cated</w>":3510,"frigh":3511,"hu":3512,"idi":3513,"kling</w>":3514,"kitchen</w>":3515,"lun":3516,"obl":3517,"rang":3518,"sz":3519,"squ":3520,"upro":3521,"wit":3522,"thick</w>":3523,"inof</w>":3524,"orted</w>":3525,"sho":3526,"enn":3527,"maged</w>":3528,"whel":3529,"risen</w>":3530,"tab</w>":3531,"plu":3532,"ply</w>":3533,"emon":3534,"unid":3535,"unna</w>":3536,"damaged</w>":3537,"die</w>":3538,"irsir</w>":3539,"goo":3540,"best":3541,"beard</w>":3542,"char":3543,"assi":3544,"spring</w>":3545,"suil":3546,"Ninegal</w>":3547,"ppe</w>":3548,"Sub":3549,"exor":3550,"exec":3551,"exca":3552,"storage</w>":3553,"Lugalezem</w>":3554,"Lugalitida</w>":3555,"LuNanna</w>":3556,"awe</w>":3557,"guard</w>":3558,"gegigal</w>":3559,"ubu</w>":3560,"wave</w>":3561,"namely</w>":3562,"harrowing</w>":3563,"provisions</w>":3564,"seize</w>":3565,"features</w>":3566,"Great":3567,"vege":3568,"himher</w>":3569,"runners</w>":3570,"seeks</w>":3571,"Adda</w>":3572,"repeat</w>":3573,"Nanna":3574,"instruction</w>":3575,"transp":3576,"iliu</w>":3577,"cleansing</w>":3578,"veled</w>":3579,"listens</w>":3580,"umuda</w>":3581,"Erekigal</w>":3582,"LipitItar</w>":3583,"elapsed</w>":3584,"appropriate</w>":3585,"Saying</w>":3586,"depth</w>":3587,"sanctuary</w>":3588,"Samsuil":3589,"gladd":3590,"compassion</w>":3591,"ghost</w>":3592,"husband</w>":3593,"banquet</w>":3594,"Kazallu</w>":3595,"obliter":3596,"17":3597,"28</w>":3598,"Ga":3599,"Haya</w>":3600,"Sil":3601,"bled</w>":3602,"cook</w>":3603,"eshekels</w>":3604,"fat</w>":3605,"fox</w>":3606,"fence</w>":3607,"free</w>":3608,"hang":3609,"kle</w>":3610,"oo</w>":3611,"pur":3612,"pac":3613,"sought</w>":3614,"salted</w>":3615,"yp":3616,"angry</w>":3617,"ita</w>":3618,"ili</w>":3619,"enclo":3620,"entering</w>":3621,"rela":3622,"eless</w>":3623,"dest</w>":3624,"noble</w>":3625,"esca":3626,"fif":3627,"umu</w>":3628,"isina</w>":3629,"space</w>":3630,"accomp":3631,"Nind":3632,"Ninisina</w>":3633,"taboo</w>":3634,"bringing</w>":3635,"sura</w>":3636,"service</w>":3637,"new":3638,"ight":3639,"compos":3640,"market</w>":3641,"game</w>":3642,"gaze</w>":3643,"hoeing</w>":3644,"rowned</w>":3645,"ized</w>":3646,"accountant</w>":3647,"status</w>":3648,"edge</w>":3649,"irizal</w>":3650,"overwhel":3651,"sacri":3652,"garden</w>":3653,"cease</w>":3654,"measured</w>":3655,"Kulaba</w>":3656,"assign":3657,"fined</w>":3658,"cursed</w>":3659,"perior</w>":3660,"course</w>":3661,"determine</w>":3662,"straight</w>":3663,"waterway</w>":3664,"dropped</w>":3665,"holds</w>":3666,"volumeshekels</w>":3667,"ARADmu</w>":3668,"gazelles</w>":3669,"Dudu</w>":3670,"levee</w>":3671,"handle</w>":3672,"emerged</w>":3673,"decided</w>":3674,"Towards</w>":3675,"Bazi</w>":3676,"daylight</w>":3677,"since</w>":3678,"begot</w>":3679,"Marduk</w>":3680,"tongue</w>":3681,"directed</w>":3682,"verdant</w>":3683,"Samsuiluna</w>":3684,"escape</w>":3685,"66</w>":3686,"Ana":3687,"Be</w>":3688,"Hil":3689,"Per":3690,"Will</w>":3691,"ape":3692,"bit</w>":3693,"bur</w>":3694,"bind</w>":3695,"bene":3696,"edu":3697,"iq":3698,"ither</w>":3699,"kled</w>":3700,"ming</w>":3701,"oted</w>":3702,"pens</w>":3703,"sig":3704,"sirsir</w>":3705,"ud</w>":3706,"war</w>":3707,"xes</w>":3708,"za":3709,"invo":3710,"stea":3711,"roots</w>":3712,"atever</w>":3713,"main</w>":3714,"whe":3715,"lee":3716,"taking</w>":3717,"depri":3718,"depot</w>":3719,"plus</w>":3720,"emin":3721,"raising</w>":3722,"barges</w>":3723,"cho":3724,"aside</w>":3725,"owing</w>":3726,"five</w>":3727,"Urn":3728,"Uru</w>":3729,"bucks</w>":3730,"spi":3731,"key</w>":3732,"cover":3733,"sum</w>":3734,"Ninura</w>":3735,"Ninsun</w>":3736,"atic</w>":3737,"scor":3738,"persons</w>":3739,"grasp":3740,"lost</w>":3741,"lock":3742,"survey":3743,"seat</w>":3744,"cons":3745,"confu":3746,"nail</w>":3747,"Lugalkuzu</w>":3748,"breads</w>":3749,"carnelian</w>":3750,"linen</w>":3751,"grand":3752,"leave</w>":3753,"soli":3754,"collea":3755,"wailing</w>":3756,"epada</w>":3757,"IbbiSn</w>":3758,"underbird</w>":3759,"lustration</w>":3760,"garden":3761,"torn</w>":3762,"threw</w>":3763,"ition":3764,"teem":3765,"administrators</w>":3766,"orchards</w>":3767,"Namani</w>":3768,"yours</w>":3769,"commanded</w>":3770,"joyful</w>":3771,"entified</w>":3772,"cultic</w>":3773,"flowing</w>":3774,"knees</w>":3775,"issue</w>":3776,"Possessor</w>":3777,"ardian</w>":3778,"uwaw":3779,"uumgal</w>":3780,"allim</w>":3781,"regularly</w>":3782,"choose</w>":3783,"plenty</w>":3784,"ultitu":3785,"twoyear</w>":3786,"True</w>":3787,"flicted</w>":3788,"levy</w>":3789,"uprooted</w>":3790,"unidentified</w>":3791,"Hillock":3792,"29</w>":3793,"31</w>":3794,"96</w>":3795,"Aimbabbar</w>":3796,"Blu":3797,"Gan":3798,"Igi":3799,"Mam":3800,"Man</w>":3801,"Numuda</w>":3802,"Sm":3803,"Sir":3804,"Sealed</w>":3805,"Unu":3806,"cts</w>":3807,"cised</w>":3808,"dent</w>":3809,"el</w>":3810,"fing":3811,"fare</w>":3812,"flow</w>":3813,"grow":3814,"mir":3815,"mill</w>":3816,"ointed</w>":3817,"tful</w>":3818,"yel":3819,"thick":3820,"aries</w>":3821,"once</w>":3822,"altogether</w>":3823,"roam":3824,"roaring</w>":3825,"enting</w>":3826,"rest":3827,"rebel":3828,"refined</w>":3829,"mat</w>":3830,"tails</w>":3831,"gol":3832,"har</w>":3833,"silence</w>":3834,"earth":3835,"spending</w>":3836,"superior</w>":3837,"plar</w>":3838,"played</w>":3839,"builder</w>":3840,"ppak</w>":3841,"dogs</w>":3842,"White</w>":3843,"Inscription</w>":3844,"workmen</w>":3845,"caught</w>":3846,"Lugalu":3847,"Lugalnig":3848,"sick":3849,"imu</w>":3850,"LuNinubur</w>":3851,"peoples</w>":3852,"Anta":3853,"marshes</w>":3854,"marvel</w>":3855,"uba</w>":3856,"border":3857,"beads</w>":3858,"poplar</w>":3859,"fashion</w>":3860,"possessed</w>":3861,"possesses</w>":3862,"gigigal</w>":3863,"necks</w>":3864,"Shrine</w>":3865,"porter</w>":3866,"pouring</w>":3867,"pion</w>":3868,"pick":3869,"ARAD</w>":3870,"life":3871,"dark</w>":3872,"strike</w>":3873,"performing</w>":3874,"hung</w>":3875,"citizen</w>":3876,"death</w>":3877,"leatherworkers</w>":3878,"multiplied</w>":3879,"perforated</w>":3880,"quarrel</w>":3881,"settlements</w>":3882,"uruppak</w>":3883,"plundered</w>":3884,"designations</w>":3885,"circ":3886,"devastated</w>":3887,"Akitu</w>":3888,"sacrifi":3889,"Hillockof":3890,"Bluallim</w>":3891,"Au":3892,"Agi</w>":3893,"Do":3894,"EPA</w>":3895,"Huwaw":3896,"Pe":3897,"Stel":3898,"Whi":3899,"batt":3900,"dged</w>":3901,"gri":3902,"hab":3903,"how":3904,"hood</w>":3905,"ii":3906,"ial</w>":3907,"kil":3908,"knew</w>":3909,"lugal":3910,"mouse</w>":3911,"nur":3912,"nug":3913,"nuna</w>":3914,"nim</w>":3915,"ople</w>":3916,"oath</w>":3917,"tin</w>":3918,"twi":3919,"wn</w>":3920,"arro":3921,"arom":3922,"ership</w>":3923,"eats</w>":3924,"orter</w>":3925,"alent</w>":3926,"alam</w>":3927,"rode</w>":3928,"ator</w>":3929,"respec":3930,"liqu":3931,"rig</w>":3932,"river":3933,"let":3934,"lected</w>":3935,"taver":3936,"pled</w>":3937,"unloaded</w>":3938,"distress</w>":3939,"differ":3940,"gotten</w>":3941,"bartab</w>":3942,"seed":3943,"fixed</w>":3944,"Urbartab</w>":3945,"uma</w>":3946,"ission</w>":3947,"keep</w>":3948,"acia</w>":3949,"suma":3950,"term</w>":3951,"sapp":3952,"Ningir":3953,"loan</w>":3954,"exist</w>":3955,"Lugirizal</w>":3956,"moon":3957,"moon</w>":3958,"conver":3959,"concer":3960,"Lugalbanda</w>":3961,"run</w>":3962,"impor":3963,"Anzu</w>":3964,"ferred</w>":3965,"cared</w>":3966,"cise</w>":3967,"guardian</w>":3968,"izi</w>":3969,"ivalent</w>":3970,"weak</w>":3971,"uzga</w>":3972,"utes</w>":3973,"ghee</w>":3974,"creatures</w>":3975,"lapis":3976,"eping</w>":3977,"fication</w>":3978,"baa</w>":3979,"common</w>":3980,"abandon</w>":3981,"speckled</w>":3982,"seeking</w>":3983,"straw</w>":3984,"humble</w>":3985,"drag":3986,"dragon</w>":3987,"equid</w>":3988,"steppe</w>":3989,"bran</w>":3990,"sumun</w>":3991,"magure</w>":3992,"nesag</w>":3993,"double</w>":3994,"Dilimbabbar</w>":3995,"town</w>":3996,"extended</w>":3997,"tremble</w>":3998,"12th</w>":3999,"piles</w>":4000,"exercise</w>":4001,"Asall":4002,"Water</w>":4003,"booty</w>":4004,"uhi</w>":4005,"insulted</w>":4006,"walked</w>":4007,"judgments</w>":4008,"crushed</w>":4009,"nir2</w>":4010,"PuzriDagan</w>":4011,"scratched</w>":4012,"Gazelle</w>":4013,"bedchamber</w>":4014,"stitute</w>":4015,"Igalim</w>":4016,"divinity</w>":4017,"locust</w>":4018,"leeks</w>":4019,"deprived</w>":4020,"surveyor</w>":4021,"Unug</w>":4022,"Antasura</w>":4023,"People</w>":4024,"Which</w>":4025,"liquor</w>":4026,"tavern</w>":4027,"different</w>":4028,"72</w>":4029,"Ean":4030,"Elam":4031,"GI":4032,"Go":4033,"Gr":4034,"Nim":4035,"Tira</w>":4036,"With":4037,"big":4038,"bgal</w>":4039,"dness</w>":4040,"eve</w>":4041,"fal":4042,"fast</w>":4043,"hy":4044,"jac":4045,"kn":4046,"ka</w>":4047,"kisi":4048,"nor</w>":4049,"ry":4050,"soo":4051,"tee":4052,"ution</w>":4053,"wol":4054,"wearing</w>":4055,"arab":4056,"arch":4057,"east</w>":4058,"eaten</w>":4059,"itary</w>":4060,"sting":4061,"stern</w>":4062,"shar":4063,"roof</w>":4064,"rose</w>":4065,"ref":4066,"rest</w>":4067,"rebuilt</w>":4068,"redu":4069,"liar</w>":4070,"maid":4071,"eland</w>":4072,"plo":4073,"ung":4074,"uni</w>":4075,"units</w>":4076,"unir</w>":4077,"total":4078,"silent</w>":4079,"hire":4080,"sprin":4081,"spend</w>":4082,"acacia</w>":4083,"fast":4084,"Ninins":4085,"Ninsumun</w>":4086,"mong</w>":4087,"terror</w>":4088,"Supreme</w>":4089,"sake</w>":4090,"gras":4091,"Thunderbird</w>":4092,"Inab</w>":4093,"rulers</w>":4094,"duces</w>":4095,"six</w>":4096,"rup":4097,"ruins</w>":4098,"combat</w>":4099,"boa":4100,"cord</w>":4101,"canals</w>":4102,"flouri":4103,"Gududu</w>":4104,"Sumer":4105,"hoed</w>":4106,"gues</w>":4107,"offering":4108,"broad":4109,"paras":4110,"smite</w>":4111,"beam</w>":4112,"alkali</w>":4113,"endursag</w>":4114,"lower</w>":4115,"subjug":4116,"queenship</w>":4117,"enemies</w>":4118,"emble":4119,"milling</w>":4120,"assigned</w>":4121,"ayamu</w>":4122,"Hari</w>":4123,"fect</w>":4124,"fleec":4125,"seek</w>":4126,"complete</w>":4127,"equivalent</w>":4128,"Gilgame</w>":4129,"repea":4130,"sweet":4131,"shouting</w>":4132,"groats</w>":4133,"supporter</w>":4134,"descend":4135,"intellect</w>":4136,"lady":4137,"peaflour</w>":4138,"headgur</w>":4139,"contents</w>":4140,"corpses</w>":4141,"from":4142,"transferred</w>":4143,"wellbeing</w>":4144,"stretched</w>":4145,"youth":4146,"reveres</w>":4147,"keeper</w>":4148,"Ninhursag</w>":4149,"rejoiced</w>":4150,"previously</w>":4151,"Nabasa</w>":4152,"benefit</w>":4153,"stead":4154,"solidi":4155,"gardener</w>":4156,"golden</w>":4157,"Stele</w>":4158,"Asalluhi</w>":4159,"Nininsina</w>":4160,"Among</w>":4161,"Bur":4162,"Bir":4163,"Eeng":4164,"Flight</w>":4165,"Im":4166,"Ka":4167,"La":4168,"No":4169,"Pa":4170,"Ra":4171,"Sag":4172,"Sowing</w>":4173,"achie":4174,"bab":4175,"cke":4176,"dow":4177,"dows</w>":4178,"eani</w>":4179,"gree":4180,"han":4181,"ise":4182,"jenn":4183,"lds</w>":4184,"ock</w>":4185,"pour</w>":4186,"ru</w>":4187,"san":4188,"sem":4189,"ssed</w>":4190,"uzu</w>":4191,"inher":4192,"intro":4193,"increa":4194,"orn</w>":4195,"ilu</w>":4196,"enced</w>":4197,"revo":4198,"livest":4199,"mah":4200,"mas":4201,"rier</w>":4202,"ribut":4203,"tash</w>":4204,"unu</w>":4205,"unto</w>":4206,"unum</w>":4207,"ulation</w>":4208,"dike</w>":4209,"disc":4210,"diworker</w>":4211,"bara</w>":4212,"chas":4213,"olution</w>":4214,"tim":4215,"hips</w>":4216,"Urkun":4217,"iding</w>":4218,"spa":4219,"Ninki</w>":4220,"play</w>":4221,"ppar</w>":4222,"lot</w>":4223,"exi":4224,"surplus</w>":4225,"profound":4226,"cause</w>":4227,"duty</w>":4228,"attribut":4229,"ceed</w>":4230,"board</w>":4231,"correc":4232,"Anunna</w>":4233,"prec":4234,"prep":4235,"forehead</w>":4236,"musician</w>":4237,"wells</w>":4238,"kalma</w>":4239,"weaver</w>":4240,"lead</w>":4241,"decrees</w>":4242,"Urub</w>":4243,"potash</w>":4244,"knowled":4245,"lux":4246,"lukur</w>":4247,"horned</w>":4248,"icket</w>":4249,"embrace</w>":4250,"remote</w>":4251,"former</w>":4252,"everlasting</w>":4253,"inspector</w>":4254,"Zabalam</w>":4255,"Adda":4256,"interest</w>":4257,"Together</w>":4258,"nun</w>":4259,"shouted</w>":4260,"Dadaga</w>":4261,"Sippar</w>":4262,"sleeping</w>":4263,"holding</w>":4264,"sancti":4265,"chambers</w>":4266,"touched</w>":4267,"green</w>":4268,"Meslam":4269,"mouth":4270,"mouths</w>":4271,"double":4272,"heroes</w>":4273,"hunger</w>":4274,"Ninkilim</w>":4275,"Ninkasi</w>":4276,"WaradSin</w>":4277,"brewery</w>":4278,"famili":4279,"Watch</w>":4280,"Possessing</w>":4281,"dirt</w>":4282,"obeis":4283,"consumed</w>":4284,"half":4285,"sukkalma</w>":4286,"Guedena</w>":4287,"Dingir":4288,"carpenter</w>":4289,"sworn</w>":4290,"herdsman</w>":4291,"roads</w>":4292,"acquire</w>":4293,"cowherd</w>":4294,"satisfied</w>":4295,"eternal</w>":4296,"reedbed</w>":4297,"separated</w>":4298,"Lugalemae</w>":4299,"dingirmu</w>":4300,"Levee</w>":4301,"idiot</w>":4302,"goods</w>":4303,"edubaa</w>":4304,"whether</w>":4305,"confused</w>":4306,"teeming</w>":4307,"important</w>":4308,"lapislazuli</w>":4309,"Sumerian</w>":4310,"Eengura</w>":4311,"livestock</w>":4312,"37</w>":4313,"44</w>":4314,"47</w>":4315,"AR</w>":4316,"Bo":4317,"Bad":4318,"Con":4319,"Duga</w>":4320,"Even</w>":4321,"Etar</w>":4322,"Etar":4323,"Gar":4324,"Lu</w>":4325,"Nan":4326,"Nasa</w>":4327,"New</w>":4328,"Tw":4329,"cess</w>":4330,"ett":4331,"festiv":4332,"gin</w>":4333,"grows</w>":4334,"gate":4335,"lard</w>":4336,"oh":4337,"pon":4338,"pin</w>":4339,"piv":4340,"rend":4341,"sl":4342,"spl":4343,"ts":4344,"udu</w>":4345,"using</w>":4346,"vat</w>":4347,"yi":4348,"thicket</w>":4349,"inct</w>":4350,"anima":4351,"arri":4352,"arti":4353,"ited</w>":4354,"iting</w>":4355,"itance</w>":4356,"oring</w>":4357,"state</w>":4358,"already</w>":4359,"illi":4360,"ilum</w>":4361,"atu</w>":4362,"rem":4363,"repl":4364,"lips</w>":4365,"eldest</w>":4366,"rider</w>":4367,"raises</w>":4368,"dig":4369,"disea":4370,"disapp":4371,"read</w>":4372,"bet":4373,"bare</w>":4374,"cher</w>":4375,"setting</w>":4376,"older</w>":4377,"working</w>":4378,"Urdu":4379,"UrLisi</w>":4380,"ump":4381,"buy</w>":4382,"forgotten</w>":4383,"ides</w>":4384,"idle</w>":4385,"earance</w>":4386,"acity</w>":4387,"cop":4388,"strange</w>":4389,"stranger</w>":4390,"ested</w>":4391,"dom":4392,"Susa</w>":4393,"Inann":4394,"exu":4395,"ext</w>":4396,"rulership</w>":4397,"workday</w>":4398,"serving</w>":4399,"serves</w>":4400,"Lugalzag":4401,"price</w>":4402,"prison</w>":4403,"minus</w>":4404,"boat":4405,"belongs</w>":4406,"care":4407,"cubit</w>":4408,"bbing</w>":4409,"brothers</w>":4410,"parape":4411,"meadows</w>":4412,"decl":4413,"utation</w>":4414,"harp</w>":4415,"overturn</w>":4416,"claim":4417,"calen":4418,"Dumuzida</w>":4419,"morning</w>":4420,"mortar</w>":4421,"possessor</w>":4422,"back":4423,"trade</w>":4424,"embra":4425,"mill":4426,"willow</w>":4427,"provided</w>":4428,"wish</w>":4429,"capacity</w>":4430,"interest":4431,"ceremon":4432,"mercy</w>":4433,"furrow</w>":4434,"ulgiayamu</w>":4435,"facility</w>":4436,"settled</w>":4437,"crip":4438,"touching</w>":4439,"winds</w>":4440,"fruits</w>":4441,"Siniddinam</w>":4442,"Aratt":4443,"constantly</w>":4444,"Narua</w>":4445,"knee</w>":4446,"gifted</w>":4447,"Regarding</w>":4448,"allot":4449,"team</w>":4450,"fishermen</w>":4451,"terrible</w>":4452,"smote</w>":4453,"reno":4454,"initiate</w>":4455,"lagare</w>":4456,"Bricks</w>":4457,"sixty</w>":4458,"smallshekels</w>":4459,"Gursar</w>":4460,"harvested</w>":4461,"square</w>":4462,"bestowed</w>":4463,"fifty</w>":4464,"Mami</w>":4465,"Sirara</w>":4466,"aromatic</w>":4467,"Ningirsu":4468,"moonlight</w>":4469,"inheritance</w>":4470,"attributes</w>":4471,"prepare</w>":4472,"familiar</w>":4473,"Etarsirsir</w>":4474,"festivals</w>":4475,"animal</w>":4476,"replying</w>":4477,"15":4478,"46</w>":4479,"53</w>":4480,"64</w>":4481,"Aw":4482,"Dag":4483,"Des":4484,"Fir":4485,"Go</w>":4486,"Gula</w>":4487,"Ir":4488,"Il</w>":4489,"Mel":4490,"Oh</w>":4491,"Sand</w>":4492,"Son</w>":4493,"Sea</w>":4494,"Ure":4495,"Was</w>":4496,"Zan":4497,"bought</w>":4498,"bond</w>":4499,"cam":4500,"coura":4501,"dson</w>":4502,"dings</w>":4503,"dnim</w>":4504,"equal":4505,"frowned</w>":4506,"ious</w>":4507,"kar</w>":4508,"mly</w>":4509,"multitu":4510,"pun":4511,"poun":4512,"pron":4513,"prou":4514,"ssing</w>":4515,"sign</w>":4516,"ular</w>":4517,"vate</w>":4518,"zer</w>":4519,"thes</w>":4520,"thigh</w>":4521,"aning</w>":4522,"arazu</w>":4523,"eal":4524,"stal":4525,"shoo":4526,"ron</w>":4527,"room</w>":4528,"attering</w>":4529,"ense</w>":4530,"lious</w>":4531,"light":4532,"lack</w>":4533,"rises</w>":4534,"legal</w>":4535,"rain":4536,"reaches</w>":4537,"abtum</w>":4538,"chec":4539,"eso":4540,"UrE":4541,"UrNin":4542,"UrUtu</w>":4543,"UrDumuzida</w>":4544,"forti":4545,"isa</w>":4546,"spent</w>":4547,"accu":4548,"suc":4549,"strings</w>":4550,"resin</w>":4551,"lodged</w>":4552,"surr":4553,"sury</w>":4554,"prostitute</w>":4555,"destroying</w>":4556,"casting":4557,"conqu":4558,"Lugalk":4559,"Lugalazida</w>":4560,"Lugalmagure</w>":4561,"turtle</w>":4562,"ruined</w>":4563,"ckish</w>":4564,"compla":4565,"wicke":4566,"mixed</w>":4567,"Sumu":4568,"ivist</w>":4569,"beaten</w>":4570,"Eridug</w>":4571,"bundled</w>":4572,"harrow</w>":4573,"managers</w>":4574,"voy</w>":4575,"knowing</w>":4576,"attentive</w>":4577,"subject</w>":4578,"seizes</w>":4579,"followed</w>":4580,"understanding</w>":4581,"Abbagina</w>":4582,"prayed</w>":4583,"treasury</w>":4584,"plowoxen</w>":4585,"threshed</w>":4586,"capti":4587,"snakes</w>":4588,"kian</w>":4589,"cured</w>":4590,"afflicted</w>":4591,"shines</w>":4592,"cloth</w>":4593,"message</w>":4594,"seeds</w>":4595,"Nammah":4596,"complex</w>":4597,"messengers</w>":4598,"humbly</w>":4599,"equal</w>":4600,"floated</w>":4601,"furni":4602,"brackish</w>":4603,"sanctum</w>":4604,"scribes</w>":4605,"object</w>":4606,"number</w>":4607,"moulds</w>":4608,"magni":4609,"purified</w>":4610,"Since</w>":4611,"irrigated</w>":4612,"resplendently</w>":4613,"celiness</w>":4614,"illage</w>":4615,"obedient</w>":4616,"Exalted</w>":4617,"quiver</w>":4618,"snare</w>":4619,"revealed</w>":4620,"requis":4621,"Guedina</w>":4622,"neglect</w>":4623,"violence</w>":4624,"goodness</w>":4625,"Emut":4626,"imple":4627,"stormwind</w>":4628,"malevolent</w>":4629,"frightened</w>":4630,"shovel</w>":4631,"exorcised</w>":4632,"transported</w>":4633,"gladdens</w>":4634,"enclosure</w>":4635,"relax":4636,"Nindara</w>":4637,"grasped</w>":4638,"rebellious</w>":4639,"Lugaluur</w>":4640,"Lugalniglagare</w>":4641,"nugig</w>":4642,"sumac</w>":4643,"fleeced</w>":4644,"ladyship</w>":4645,"timber</w>":4646,"profoundly</w>":4647,"luxuri":4648,"Lugalzagesi</w>":4649,"parapet</w>":4650,"declared</w>":4651,"Aratta</w>":4652,"pronoun":4653,"15th</w>":4654,"21st</w>":4655,"76</w>":4656,"Ass":4657,"Be":4658,"Br":4659,"Ev":4660,"Esar</w>":4661,"Gung":4662,"Hou":4663,"Hab":4664,"Ikalla</w>":4665,"Ne":4666,"Ri":4667,"Res":4668,"ber":4669,"call</w>":4670,"cried</w>":4671,"crying</w>":4672,"drun":4673,"eb":4674,"every</w>":4675,"fying</w>":4676,"hit</w>":4677,"izu</w>":4678,"kid":4679,"meland</w>":4680,"nun":4681,"nights</w>":4682,"night":4683,"py":4684,"pop":4685,"qti":4686,"sor":4687,"sab":4688,"sound</w>":4689,"sort</w>":4690,"ting":4691,"tent</w>":4692,"usu":4693,"wed</w>":4694,"wings</w>":4695,"zam</w>":4696,"thie":4697,"inten":4698,"anepada</w>":4699,"art":4700,"arrows</w>":4701,"ere":4702,"orac":4703,"ordin":4704,"onag":4705,"sters</w>":4706,"still</w>":4707,"always</w>":4708,"roof":4709,"rodent</w>":4710,"replace</w>":4711,"reverse</w>":4712,"maid</w>":4713,"noise</w>":4714,"ements</w>":4715,"unfamiliar</w>":4716,"dimin":4717,"Enak":4718,"beer":4719,"secured</w>":4720,"asag":4721,"haz":4722,"haunted</w>":4723,"UrZababa</w>":4724,"umma</w>":4725,"ugu":4726,"ugid</w>":4727,"verdic":4728,"acti":4729,"fame</w>":4730,"plan</w>":4731,"screa":4732,"estic</w>":4733,"doe</w>":4734,"sad":4735,"brilli":4736,"loving</w>":4737,"rule</w>":4738,"add</w>":4739,"petu":4740,"Lugina</w>":4741,"Lugalnes":4742,"ships</w>":4743,"LuBaba</w>":4744,"box</w>":4745,"ope</w>":4746,"oxen":4747,"homeland</w>":4748,"musici":4749,"engend":4750,"leader</w>":4751,"brow</w>":4752,"entire</w>":4753,"pain":4754,"paths</w>":4755,"trun":4756,"divisions</w>":4757,"reeing</w>":4758,"firmly</w>":4759,"beams</w>":4760,"endowed</w>":4761,"poor</w>":4762,"midwife</w>":4763,"sheephides</w>":4764,"provide</w>":4765,"city":4766,"overturned</w>":4767,"folds</w>":4768,"singers</w>":4769,"Dumuzi":4770,"Kuda</w>":4771,"longfleeced</w>":4772,"tracts</w>":4773,"military</w>":4774,"looking</w>":4775,"Mari</w>":4776,"shake</w>":4777,"straigh":4778,"attached</w>":4779,"thorn":4780,"sagrig</w>":4781,"desire</w>":4782,"drove</w>":4783,"Give</w>":4784,"touch</w>":4785,"fearing</w>":4786,"imakian</w>":4787,"containers</w>":4788,"incantations</w>":4789,"foremen</w>":4790,"clear</w>":4791,"Irikug</w>":4792,"Irisagrig</w>":4793,"Headed</w>":4794,"cella</w>":4795,"veness</w>":4796,"illama</w>":4797,"tedly</w>":4798,"sustain</w>":4799,"swore</w>":4800,"Getinana</w>":4801,"distribu":4802,"heavenly</w>":4803,"Having</w>":4804,"flood":4805,"NaramSin</w>":4806,"churn</w>":4807,"spirits</w>":4808,"IddinDagan</w>":4809,"Piglet":4810,"smitten</w>":4811,"plucked</w>":4812,"assignment</w>":4813,"zabar":4814,"Urnig</w>":4815,"scorpion</w>":4816,"colleagues</w>":4817,"roamed</w>":4818,"Huwawa</w>":4819,"reduced</w>":4820,"hirelings</w>":4821,"grasp</w>":4822,"repeatedly</w>":4823,"fromby</w>":4824,"steadfast</w>":4825,"introduces</w>":4826,"Urkununa</w>":4827,"precinct</w>":4828,"obeisances</w>":4829,"Two</w>":4830,"disease</w>":4831,"interestbearing</w>":4832,"lightning</w>":4833,"castingnet</w>":4834,"magnific":4835,"Gungunum</w>":4836,"House":4837,"nighttime</w>":4838,"pyard</w>":4839,"qtidnim</w>":4840,"diminish</w>":4841,"Lugalnesage</w>":4842,"Pigletfeast</w>":4843,"14th</w>":4844,"28":4845,"26th</w>":4846,"54</w>":4847,"51</w>":4848,"58</w>":4849,"68</w>":4850,"75</w>":4851,"Ipae</w>":4852,"Kal":4853,"Kur":4854,"Kam":4855,"Mun":4856,"Nas":4857,"Pab":4858,"Ut":4859,"Wall</w>":4860,"bas":4861,"bone</w>":4862,"cab":4863,"dge</w>":4864,"fled</w>":4865,"glor":4866,"ha</w>":4867,"hu</w>":4868,"ib":4869,"iander</w>":4870,"jec":4871,"kor</w>":4872,"kum</w>":4873,"kuga</w>":4874,"nanum</w>":4875,"oved</w>":4876,"pt</w>":4877,"pec":4878,"rent</w>":4879,"rate</w>":4880,"splend":4881,"ula":4882,"vity</w>":4883,"vation</w>":4884,"thra":4885,"thus":4886,"theless</w>":4887,"ony</w>":4888,"sten":4889,"stered</w>":4890,"aloud</w>":4891,"rol":4892,"robb":4893,"rel":4894,"lish</w>":4895,"lift</w>":4896,"lahar</w>":4897,"else</w>":4898,"elled</w>":4899,"demo":4900,"deities</w>":4901,"unknown</w>":4902,"tom</w>":4903,"toil</w>":4904,"today</w>":4905,"ran</w>":4906,"rage</w>":4907,"dan</w>":4908,"daises</w>":4909,"Enk":4910,"bedro":4911,"ige</w>":4912,"sees</w>":4913,"asc":4914,"asses</w>":4915,"esses</w>":4916,"UrMami</w>":4917,"anni":4918,"amyou</w>":4919,"fort":4920,"Ninmu":4921,"Nininimgina</w>":4922,"mongoose</w>":4923,"Suen":4924,"While</w>":4925,"loss</w>":4926,"Into</w>":4927,"exvo":4928,"experi":4929,"gizi</w>":4930,"worked</w>":4931,"Lugalkig":4932,"coriander</w>":4933,"count</w>":4934,"watch</w>":4935,"flatten":4936,"pregn":4937,"prebend</w>":4938,"Akak</w>":4939,"opens</w>":4940,"marry</w>":4941,"cutting</w>":4942,"cutter</w>":4943,"bira</w>":4944,"kalama</w>":4945,"swept</w>":4946,"decreeing</w>":4947,"ubi":4948,"color":4949,"borns</w>":4950,"appointed</w>":4951,"Abu</w>":4952,"abundant</w>":4953,"drew</w>":4954,"distressed</w>":4955,"princeliness</w>":4956,"galnuna</w>":4957,"giguna</w>":4958,"utions</w>":4959,"toral</w>":4960,"weigh":4961,"weights</w>":4962,"captain</w>":4963,"bla</w>":4964,"There":4965,"bowed</w>":4966,"ancest":4967,"Zabala</w>":4968,"weep</w>":4969,"suited</w>":4970,"pipe</w>":4971,"changes</w>":4972,"floating</w>":4973,"nubanda</w>":4974,"Dais</w>":4975,"therein</w>":4976,"perfects</w>":4977,"bales</w>":4978,"oblig":4979,"flax</w>":4980,"Enunna</w>":4981,"yokes</w>":4982,"Ayakala</w>":4983,"Prince</w>":4984,"evildoers</w>":4985,"judgment</w>":4986,"fet":4987,"feed</w>":4988,"Damgalnuna</w>":4989,"omens</w>":4990,"Amnanum</w>":4991,"blocked</w>":4992,"sukkal</w>":4993,"granted</w>":4994,"granary</w>":4995,"scrat":4996,"excess</w>":4997,"Gazelle":4998,"tumuli</w>":4999,"herdsmen</w>":5000,"written</w>":5001,"third</w>":5002,"Deficit</w>":5003,"region</w>":5004,"Woe</w>":5005,"mountainnetherworld</w>":5006,"equipped</w>":5007,"northern</w>":5008,"hanging</w>":5009,"newborns</w>":5010,"composite</w>":5011,"covering</w>":5012,"GIR":5013,"Within</w>":5014,"teeth</w>":5015,"archivist</w>":5016,"down":5017,"Meslamtaea</w>":5018,"halflabor</w>":5019,"pivot</w>":5020,"Nammahni</w>":5021,"Emutbala</w>":5022,"drunk</w>":5023,"bedroom</w>":5024,"24th</w>":5025,"29th</w>":5026,"25th</w>":5027,"28th</w>":5028,"65</w>":5029,"67</w>":5030,"95</w>":5031,"Black</w>":5032,"Dub":5033,"Emah</w>":5034,"Good</w>":5035,"Has</w>":5036,"Hear":5037,"Is":5038,"Is</w>":5039,"Kas</w>":5040,"Kugani</w>":5041,"Namma</w>":5042,"Ox":5043,"Seal</w>":5044,"Uta":5045,"Ukun":5046,"Wise</w>":5047,"ai</w>":5048,"bad</w>":5049,"cul":5050,"cle</w>":5051,"cult</w>":5052,"dun":5053,"fallow</w>":5054,"gle</w>":5055,"ipar</w>":5056,"jars</w>":5057,"kau":5058,"mun":5059,"mol":5060,"mis":5061,"mitum</w>":5062,"native</w>":5063,"next</w>":5064,"omen</w>":5065,"pou":5066,"pen":5067,"pes</w>":5068,"rite</w>":5069,"rented</w>":5070,"sal":5071,"tely</w>":5072,"ulag":5073,"zam":5074,"thin</w>":5075,"inder</w>":5076,"arr":5077,"arose</w>":5078,"erer</w>":5079,"eroo":5080,"organ":5081,"onent</w>":5082,"stac":5083,"stay</w>":5084,"station</w>":5085,"star</w>":5086,"stance</w>":5087,"stars</w>":5088,"stup":5089,"ilt</w>":5090,"atter</w>":5091,"rely</w>":5092,"lions</w>":5093,"laugh":5094,"urum</w>":5095,"depos":5096,"noon</w>":5097,"noser":5098,"dim</w>":5099,"seven":5100,"ols</w>":5101,"olen</w>":5102,"ugi</w>":5103,"spends</w>":5104,"acts</w>":5105,"Nine":5106,"scream</w>":5107,"Ningiz":5108,"perfu":5109,"ofin</w>":5110,"mankind</w>":5111,"manhood</w>":5112,"lamu</w>":5113,"herd</w>":5114,"moved</w>":5115,"due</w>":5116,"shield</w>":5117,"shipyard</w>":5118,"andals</w>":5119,"LuSuen</w>":5120,"Lusaga</w>":5121,"allation</w>":5122,"corve</w>":5123,"corpor":5124,"corner</w>":5125,"counted</w>":5126,"breath</w>":5127,"Anzu":5128,"opening</w>":5129,"carries</w>":5130,"burning</w>":5131,"swear</w>":5132,"towardson</w>":5133,"eyes":5134,"beats</w>":5135,"creation</w>":5136,"waves</w>":5137,"younger</w>":5138,"priestesses</w>":5139,"dwells</w>":5140,"dwellings</w>":5141,"lows</w>":5142,"pot":5143,"dont</w>":5144,"ska</w>":5145,"skilled</w>":5146,"skill":5147,"princess</w>":5148,"Abbakala</w>":5149,"Abbasag":5150,"installation</w>":5151,"compani":5152,"prayer":5153,"bears</w>":5154,"bearers</w>":5155,"nigdab":5156,"looks</w>":5157,"tors</w>":5158,"Enlilbani</w>":5159,"iff</w>":5160,"resident</w>":5161,"tell</w>":5162,"approaches</w>":5163,"Ekinual</w>":5164,"Namtar</w>":5165,"drinks</w>":5166,"watered</w>":5167,"debt</w>":5168,"produced</w>":5169,"highland</w>":5170,"reputation</w>":5171,"bitterness</w>":5172,"Nannama":5173,"limit":5174,"limit</w>":5175,"therefro":5176,"perfectly</w>":5177,"balag</w>":5178,"onetalent</w>":5179,"sisa</w>":5180,"stripped</w>":5181,"Nuska</w>":5182,"funer":5183,"fodder":5184,"incantation":5185,"purifies</w>":5186,"13th</w>":5187,"nesses</w>":5188,"utterances</w>":5189,"submission</w>":5190,"Arali</w>":5191,"tower</w>":5192,"cultivated</w>":5193,"thema</w>":5194,"famous</w>":5195,"enedudu</w>":5196,"disper":5197,"diri</w>":5198,"instruments</w>":5199,"Kinunir</w>":5200,"Lulubu</w>":5201,"Tower</w>":5202,"exhausted</w>":5203,"driven</w>":5204,"opponent</w>":5205,"reveal</w>":5206,"alike</w>":5207,"honor</w>":5208,"pige":5209,"Lamma":5210,"Lamatu</w>":5211,"smashed</w>":5212,"writing</w>":5213,"sparkling</w>":5214,"cowherds</w>":5215,"district</w>":5216,"rejoices</w>":5217,"afterwards</w>":5218,"regions</w>":5219,"dagger</w>":5220,"libation</w>":5221,"GANma</w>":5222,"darkness</w>":5223,"NrAdad</w>":5224,"soldiers</w>":5225,"human</w>":5226,"charged</w>":5227,"vegetable</w>":5228,"circled</w>":5229,"habit":5230,"iib</w>":5231,"wolf</w>":5232,"sharp":5233,"refuge</w>":5234,"totals</w>":5235,"flourish</w>":5236,"subjugator</w>":5237,"correctly</w>":5238,"calendar</w>":5239,"Ningirsus</w>":5240,"Lugalkugani</w>":5241,"River</w>":5242,"thief</w>":5243,"hazin</w>":5244,"Nasilim</w>":5245,"thusly</w>":5246,"demolished</w>":5247,"Lugalkigenedudu</w>":5248,"pregnant</w>":5249,"colorful</w>":5250,"Therefrom</w>":5251,"Dubla":5252,"Heart</w>":5253,"ulagana</w>":5254,"noserope</w>":5255,"Ningizida</w>":5256,"perfume</w>":5257,"Abbasagas</w>":5258,"companion</w>":5259,"nigdaboffering</w>":5260,"Nannamaba</w>":5261,"therefroms</w>":5262,"3th</w>":5263,"Agu</w>":5264,"Bu":5265,"Bring</w>":5266,"Ch":5267,"Ea</w>":5268,"Ebi":5269,"Edam</w>":5270,"Hi":5271,"Hal":5272,"Ili":5273,"Lama</w>":5274,"Latur</w>":5275,"Men":5276,"Tid":5277,"Youn":5278,"au</w>":5279,"ada":5280,"cre":5281,"cal</w>":5282,"cation</w>":5283,"cyp":5284,"dil":5285,"dum":5286,"deal</w>":5287,"eda":5288,"freed</w>":5289,"gates</w>":5290,"ied</w>":5291,"ima</w>":5292,"kura</w>":5293,"mem":5294,"os</w>":5295,"pers</w>":5296,"pite</w>":5297,"put":5298,"sour":5299,"sides</w>":5300,"tear</w>":5301,"temp":5302,"wing</w>":5303,"won":5304,"wro":5305,"zen":5306,"thing":5307,"thrown</w>":5308,"insp":5309,"inlaid</w>":5310,"aned</w>":5311,"ange":5312,"ard":5313,"arrum":5314,"outs</w>":5315,"eagle</w>":5316,"stream</w>":5317,"alal</w>":5318,"ila</w>":5319,"shap":5320,"shop</w>":5321,"ata</w>":5322,"ating":5323,"ene</w>":5324,"ences</w>":5325,"ensi</w>":5326,"encoura":5327,"reck":5328,"reared</w>":5329,"reigned</w>":5330,"lion":5331,"maj":5332,"ell":5333,"ell</w>":5334,"whatever</w>":5335,"lec":5336,"taxes</w>":5337,"dev":5338,"deser":5339,"plough</w>":5340,"told</w>":5341,"ram":5342,"dies</w>":5343,"Enig":5344,"iring</w>":5345,"befitting</w>":5346,"able":5347,"charms</w>":5348,"chick</w>":5349,"agala</w>":5350,"escap":5351,"ties</w>":5352,"word":5353,"silver":5354,"Ura</w>":5355,"bush</w>":5356,"eared</w>":5357,"kedou":5358,"subor":5359,"susten":5360,"mony</w>":5361,"greater</w>":5362,"pping</w>":5363,"doors</w>":5364,"eeds</w>":5365,"resses</w>":5366,"load</w>":5367,"Thr":5368,"prow":5369,"profit</w>":5370,"profound</w>":5371,"workforce</w>":5372,"Lugal</w>":5373,"neigh":5374,"move</w>":5375,"concea":5376,"confron":5377,"scribed</w>":5378,"dub</w>":5379,"mounded</w>":5380,"sion":5381,"rush</w>":5382,"andso</w>":5383,"cedar":5384,"imua</w>":5385,"compar":5386,"Lubal":5387,"boast</w>":5388,"counsel":5389,"heart":5390,"wicked</w>":5391,"aware</w>":5392,"ciously</w>":5393,"home</w>":5394,"governors</w>":5395,"tre</w>":5396,"iece</w>":5397,"passing</w>":5398,"utter</w>":5399,"soandso</w>":5400,"palms</w>":5401,"standardi":5402,"thrones</w>":5403,"trusted</w>":5404,"statement</w>":5405,"inning</w>":5406,"presence</w>":5407,"apples</w>":5408,"sheepfolds</w>":5409,"triump":5410,"dinate</w>":5411,"Kuara</w>":5412,"nig2":5413,"treasures</w>":5414,"traver":5415,"Mardu</w>":5416,"Marai</w>":5417,"finish</w>":5418,"pleasure</w>":5419,"steles</w>":5420,"clothed</w>":5421,"runner</w>":5422,"ousness</w>":5423,"spreads</w>":5424,"weapon":5425,"officiant</w>":5426,"surpass</w>":5427,"cereal</w>":5428,"highpriest</w>":5429,"destinies</w>":5430,"sweetly</w>":5431,"sweetened</w>":5432,"desired</w>":5433,"craft</w>":5434,"felled</w>":5435,"faced</w>":5436,"widow</w>":5437,"Gipar</w>":5438,"winno":5439,"loads</w>":5440,"ARADNanna</w>":5441,"reddish</w>":5442,"Against</w>":5443,"1343</w>":5444,"eggs</w>":5445,"multiply</w>":5446,"blessing</w>":5447,"handed</w>":5448,"dispatched</w>":5449,"bookedou":5450,"answered</w>":5451,"insults</w>":5452,"Uramma</w>":5453,"exhaust</w>":5454,"kigala</w>":5455,"taker</w>":5456,"keeps</w>":5457,"kissed</w>":5458,"smoke</w>":5459,"sustains</w>":5460,"Egalesi</w>":5461,"Beloved</w>":5462,"beginning</w>":5463,"neglected</w>":5464,"previous</w>":5465,"Utuegal</w>":5466,"remainder</w>":5467,"cooling</w>":5468,"occup":5469,"Field</w>":5470,"shrines</w>":5471,"soldier</w>":5472,"Girin":5473,"ranges</w>":5474,"witnesses</w>":5475,"excavated</w>":5476,"obliterated</w>":5477,"choice</w>":5478,"Ganzer</w>":5479,"growth</w>":5480,"yellow</w>":5481,"sickness</w>":5482,"respect</w>":5483,"kisiki</w>":5484,"renovated</w>":5485,"Despite</w>":5486,"Meluh":5487,"Zanr</w>":5488,"checked</w>":5489,"UrEe</w>":5490,"surrounded</w>":5491,"wickedness</w>":5492,"luxuriant</w>":5493,"artfully</w>":5494,"ugust</w>":5495,"musicians</w>":5496,"pectoral</w>":5497,"exvoto</w>":5498,"Ukunut":5499,"zamzam</w>":5500,"eroom</w>":5501,"dispersed</w>":5502,"Ebih</w>":5503,"Young</w>":5504,"cypress</w>":5505,"wrote</w>":5506,"zenith</w>":5507,"encourag":5508,"subordinate</w>":5509,"sustenance</w>":5510,"triumph</w>":5511,"bookedouts</w>":5512,"11th</w>":5513,"39</w>":5514,"52</w>":5515,"63</w>":5516,"92</w>":5517,"Ag":5518,"Ara":5519,"Asag</w>":5520,"Amur":5521,"Bl":5522,"Bida</w>":5523,"Dra":5524,"Dad":5525,"El":5526,"Eana</w>":5527,"Etem":5528,"Long":5529,"Man":5530,"NI":5531,"PA":5532,"Qu":5533,"Ro":5534,"Spea":5535,"august</w>":5536,"basketoftablets</w>":5537,"bling</w>":5538,"ces":5539,"ctor":5540,"cket</w>":5541,"egi":5542,"edu</w>":5543,"ekala</w>":5544,"far":5545,"fight</w>":5546,"fected</w>":5547,"gab":5548,"gyp":5549,"huge</w>":5550,"ified</w>":5551,"jour":5552,"ka":5553,"kan</w>":5554,"koh":5555,"mated</w>":5556,"mood</w>":5557,"nth</w>":5558,"pat":5559,"pene":5560,"pond</w>":5561,"sits</w>":5562,"sandals</w>":5563,"tation</w>":5564,"uh</w>":5565,"uu</w>":5566,"ued</w>":5567,"van":5568,"vir":5569,"vagina</w>":5570,"wear</w>":5571,"zig":5572,"thro":5573,"thood</w>":5574,"throw":5575,"though":5576,"intake</w>":5577,"inscribed</w>":5578,"anas</w>":5579,"arth</w>":5580,"eras":5581,"eas</w>":5582,"itions</w>":5583,"stin":5584,"star":5585,"stro":5586,"along":5587,"alaba":5588,"shore</w>":5589,"rod</w>":5590,"atal</w>":5591,"repa":5592,"replaced</w>":5593,"restra":5594,"leveled</w>":5595,"tools</w>":5596,"dal</w>":5597,"dikes</w>":5598,"direc":5599,"Endingirmu</w>":5600,"ounds</w>":5601,"abgal</w>":5602,"abala</w>":5603,"sex":5604,"ingre":5605,"agri":5606,"agents</w>":5607,"esthood</w>":5608,"tibira</w>":5609,"silt</w>":5610,"UrEninnu</w>":5611,"UrNingezida</w>":5612,"UrEnlila</w>":5613,"UrDamu</w>":5614,"umea</w>":5615,"amp</w>":5616,"forget</w>":5617,"ided</w>":5618,"early</w>":5619,"spice</w>":5620,"kequi":5621,"vertheless</w>":5622,"father":5623,"sume</w>":5624,"supre":5625,"Ninnu":5626,"heap</w>":5627,"scal":5628,"ests</w>":5629,"ofbecause</w>":5630,"love</w>":5631,"lamenting</w>":5632,"exub":5633,"giri":5634,"prosp":5635,"prolong":5636,"adm":5637,"ney</w>":5638,"nevertheless</w>":5639,"stores</w>":5640,"consume</w>":5641,"Lugalsaga</w>":5642,"turban</w>":5643,"priesthood</w>":5644,"ceful</w>":5645,"counting</w>":5646,"warehouse</w>":5647,"canopy</w>":5648,"preter</w>":5649,"preemin":5650,"victor":5651,"ferry":5652,"Guz":5653,"cares</w>":5654,"aweso":5655,"mix</w>":5656,"governor":5657,"tening</w>":5658,"colored</w>":5659,"brigh":5660,"delight</w>":5661,"borders</w>":5662,"beat</w>":5663,"wail</w>":5664,"returning</w>":5665,"tooth</w>":5666,"irig":5667,"attended</w>":5668,"citys</w>":5669,"claws</w>":5670,"sack</w>":5671,"lubum</w>":5672,"singing</w>":5673,"bail":5674,"cumin</w>":5675,"hegal</w>":5676,"compelled</w>":5677,"ical</w>":5678,"Kusu</w>":5679,"treat</w>":5680,"travel":5681,"milate</w>":5682,"cases</w>":5683,"loom</w>":5684,"loose</w>":5685,"thresh":5686,"weighty</w>":5687,"Gemee":5688,"Shuruppak</w>":5689,"Alulu</w>":5690,"slaughtering</w>":5691,"warriors</w>":5692,"chase</w>":5693,"Adumu</w>":5694,"completely</w>":5695,"bison</w>":5696,"production</w>":5697,"destined</w>":5698,"replied</w>":5699,"favor</w>":5700,"favoura":5701,"clever</w>":5702,"dron</w>":5703,"Daaga</w>":5704,"determining</w>":5705,"crossed</w>":5706,"instructed</w>":5707,"stock</w>":5708,"groom</w>":5709,"streets</w>":5710,"Nungal</w>":5711,"wind":5712,"brickbuilt</w>":5713,"mali":5714,"joyous</w>":5715,"friend":5716,"womens</w>":5717,"clou":5718,"cloud</w>":5719,"Enunugal":5720,"extends</w>":5721,"cauldron</w>":5722,"trembled</w>":5723,"Ilum":5724,"issued</w>":5725,"18th</w>":5726,"pure":5727,"Asz":5728,"decides</w>":5729,"heifers</w>":5730,"inquire</w>":5731,"answers</w>":5732,"offer</w>":5733,"offshoo":5734,"Amauum":5735,"statuett":5736,"Lullubum</w>":5737,"Lumma</w>":5738,"halub</w>":5739,"LipitEtar</w>":5740,"pulses</w>":5741,"anathema</w>":5742,"Dingira</w>":5743,"begotten</w>":5744,"carpenters</w>":5745,"efface</w>":5746,"leatherworker</w>":5747,"roasted</w>":5748,"Dugamu</w>":5749,"Igalima</w>":5750,"satisfy</w>":5751,"eternity</w>":5752,"Bau</w>":5753,"filling</w>":5754,"ploughmen</w>":5755,"addition":5756,"Womans</w>":5757,"supplication</w>":5758,"supplications</w>":5759,"NurAdad</w>":5760,"cooled</w>":5761,"Duran":5762,"darkened</w>":5763,"Stand":5764,"Urlumma</w>":5765,"assimilate</w>":5766,"executes</w>":5767,"overwhelmed</w>":5768,"grandly</w>":5769,"bordering</w>":5770,"lifegiving</w>":5771,"concerning</w>":5772,"Eanatum</w>":5773,"Elamite</w>":5774,"Going</w>":5775,"arabdu</w>":5776,"maiden</w>":5777,"offeringritual</w>":5778,"parasite</w>":5779,"youthful</w>":5780,"Bird</w>":5781,"greeting</w>":5782,"jenny</w>":5783,"Badtibira</w>":5784,"splitting</w>":5785,"yield</w>":5786,"arrived</w>":5787,"claimed</w>":5788,"trunk</w>":5789,"zabardab</w>":5790,"magnificent</w>":5791,"jects</w>":5792,"splendor</w>":5793,"annihil":5794,"flattened</w>":5795,"limitprofit</w>":5796,"funerary</w>":5797,"fodderreed</w>":5798,"wonder":5799,"desert</w>":5800,"Eniggal</w>":5801,"escaped</w>":5802,"concealed</w>":5803,"standardized</w>":5804,"Etemen":5805,"gypsum</w>":5806,"kohl</w>":5807,"penetr":5808,"thoughts</w>":5809,"kequids</w>":5810,"Ninnudu</w>":5811,"exuber":5812,"Amauumgalana</w>":5813,"statuette</w>":5814,"additional</w>":5815,"16th</w>":5816,"2th</w>":5817,"23rd</w>":5818,"41</w>":5819,"49</w>":5820,"84</w>":5821,"98</w>":5822,"Along</w>":5823,"Basa</w>":5824,"Dun":5825,"Div":5826,"Day":5827,"Eating</w>":5828,"Gol":5829,"Hurti</w>":5830,"Ip":5831,"KU":5832,"Kis":5833,"Mu":5834,"Mea":5835,"Nor</w>":5836,"Nin</w>":5837,"Or":5838,"Pu":5839,"Pla":5840,"Pow":5841,"Rim":5842,"Say</w>":5843,"Ti":5844,"Tur":5845,"Zi":5846,"ame</w>":5847,"adi":5848,"air</w>":5849,"aar</w>":5850,"aworker</w>":5851,"bones</w>":5852,"battering</w>":5853,"ca</w>":5854,"cow":5855,"cold</w>":5856,"center</w>":5857,"dough</w>":5858,"dry</w>":5859,"ek":5860,"eds</w>":5861,"ege</w>":5862,"either</w>":5863,"fer</w>":5864,"fow":5865,"four":5866,"gent</w>":5867,"gara</w>":5868,"gida</w>":5869,"hook</w>":5870,"iag</w>":5871,"iously</w>":5872,"iron</w>":5873,"ld":5874,"memb":5875,"non":5876,"oh</w>":5877,"pine</w>":5878,"paw":5879,"rat</w>":5880,"sen":5881,"ttom</w>":5882,"uty</w>":5883,"village</w>":5884,"west":5885,"west</w>":5886,"wrest":5887,"thin":5888,"ints</w>":5889,"ant":5890,"ardu</w>":5891,"arable</w>":5892,"arrang":5893,"ittle</w>":5894,"ster":5895,"stall</w>":5896,"stolen</w>":5897,"alum</w>":5898,"shment</w>":5899,"shorn</w>":5900,"roar</w>":5901,"engur</w>":5902,"reli":5903,"resting</w>":5904,"lier</w>":5905,"lal</w>":5906,"mad":5907,"mash</w>":5908,"uring</w>":5909,"rid":5910,"riage</w>":5911,"ripped</w>":5912,"plenti":5913,"dap":5914,"shedonkey</w>":5915,"ull</w>":5916,"ulla":5917,"ulum</w>":5918,"dign":5919,"reach</w>":5920,"reaching</w>":5921,"Enmen":5922,"Enul</w>":5923,"iry</w>":5924,"got</w>":5925,"best</w>":5926,"behave</w>":5927,"beside</w>":5928,"igns</w>":5929,"barag":5930,"baras":5931,"barber</w>":5932,"ably</w>":5933,"chs</w>":5934,"agent</w>":5935,"Urge":5936,"UrIkur</w>":5937,"UrItaran</w>":5938,"umin":5939,"amoun":5940,"earlier</w>":5941,"spear</w>":5942,"kept</w>":5943,"acting</w>":5944,"Nina</w>":5945,"Nintin":5946,"Ninmah</w>":5947,"play":5948,"eey":5949,"eeding</w>":5950,"perfected</w>":5951,"Whose</w>":5952,"Whatever</w>":5953,"loy":5954,"exist":5955,"adds</w>":5956,"pel</w>":5957,"ned":5958,"storeroom</w>":5959,"nails</w>":5960,"Lugalme":5961,"Lugalnir":5962,"turns</w>":5963,"dul</w>":5964,"whip</w>":5965,"sively</w>":5966,"atters</w>":5967,"comb</w>":5968,"Lubanda</w>":5969,"bottom</w>":5970,"corrup":5971,"pret":5972,"Akia</w>":5973,"foreig":5974,"awe":5975,"gahouse</w>":5976,"bbed</w>":5977,"hot</w>":5978,"self":5979,"gut</w>":5980,"guar":5981,"child":5982,"Life</w>":5983,"swallow</w>":5984,"fulness</w>":5985,"fulfilled</w>":5986,"paue</w>":5987,"tens</w>":5988,"divide</w>":5989,"uzgahouse</w>":5990,"utum</w>":5991,"sobbing</w>":5992,"bridal</w>":5993,"truth":5994,"nindan</w>":5995,"beauty</w>":5996,"establishing</w>":5997,"create</w>":5998,"edges</w>":5999,"position</w>":6000,"way":6001,"appearance</w>":6002,"names</w>":6003,"Aba":6004,"Abgal</w>":6005,"pressed</w>":6006,"iries</w>":6007,"midday</w>":6008,"aka</w>":6009,"akuge</w>":6010,"prince":6011,"princes</w>":6012,"calf":6013,"calm</w>":6014,"bathed</w>":6015,"heed</w>":6016,"uriqtidnim</w>":6017,"compare</w>":6018,"frond</w>":6019,"KuNanna</w>":6020,"niguru</w>":6021,"tram":6022,"blade</w>":6023,"neck":6024,"weed</w>":6025,"captive</w>":6026,"Shara</w>":6027,"blown</w>":6028,"blue</w>":6029,"beautiful":6030,"kiag</w>":6031,"clothes</w>":6032,"rightful</w>":6033,"godfearing</w>":6034,"Snkid</w>":6035,"Erra":6036,"duration</w>":6037,"Adalal</w>":6038,"waterskin</w>":6039,"watercourse</w>":6040,"dabin</w>":6041,"GemeNarua</w>":6042,"Nigar":6043,"drawn</w>":6044,"tained</w>":6045,"Nannak":6046,"design</w>":6047,"craved</w>":6048,"cracks</w>":6049,"Bara":6050,"sung</w>":6051,"sunrise</w>":6052,"Babati</w>":6053,"window</w>":6054,"mallet</w>":6055,"purification</w>":6056,"submitted</w>":6057,"favored</w>":6058,"flowering</w>":6059,"listen</w>":6060,"learn</w>":6061,"girl</w>":6062,"inquired</w>":6063,"answer</w>":6064,"offspring</w>":6065,"144</w>":6066,"takers</w>":6067,"boxes</w>":6068,"agreement</w>":6069,"terrified</w>":6070,"Luma</w>":6071,"initiated</w>":6072,"Egalmah</w>":6073,"effect</w>":6074,"honey":6075,"smash</w>":6076,"heavenAn</w>":6077,"Have</w>":6078,"begat</w>":6079,"ploughman</w>":6080,"NEgar</w>":6081,"NENEgar</w>":6082,"During</w>":6083,"Piglet</w>":6084,"Urlugal</w>":6085,"conveyed</w>":6086,"sacrifice</w>":6087,"HillockofUrbartab</w>":6088,"fastened</w>":6089,"emblem</w>":6090,"Nothing</w>":6091,"increased</w>":6092,"knowledge</w>":6093,"digir</w>":6094,"copies</w>":6095,"domestic</w>":6096,"embraced</w>":6097,"millstone</w>":6098,"campa":6099,"proud</w>":6100,"stallion</w>":6101,"complaint</w>":6102,"sabar</w>":6103,"ordinary</w>":6104,"actively</w>":6105,"painful</w>":6106,"Dumuziabzu</w>":6107,"distributed</w>":6108,"Enkis</w>":6109,"weighed</w>":6110,"Gazellefeast</w>":6111,"Isina</w>":6112,"kausa</w>":6113,"Chosen</w>":6114,"putting</w>":6115,"source</w>":6116,"devour":6117,"Lubalasaga</w>":6118,"nig2diri</w>":6119,"weaponry</w>":6120,"Ukunuti</w>":6121,"encouragement</w>":6122,"throat</w>":6123,"alongside</w>":6124,"alabaster</w>":6125,"ingredient</w>":6126,"agricul":6127,"prolonged</w>":6128,"preeminent</w>":6129,"Duranki</w>":6130,"Etemenniguru</w>":6131,"Divine</w>":6132,"western</w>":6133,"barasiga</w>":6134,"Urgepar</w>":6135,"Lugalnirgal</w>":6136,"corrupting</w>":6137,"27th</w>":6138,"71</w>":6139,"83</w>":6140,"At":6141,"Auni</w>":6142,"Ban":6143,"Bit":6144,"Em":6145,"Ebla</w>":6146,"Earth</w>":6147,"Gig":6148,"Ho":6149,"Hand</w>":6150,"Hum":6151,"Hani</w>":6152,"Idi":6153,"Isi":6154,"Irin":6155,"Ju":6156,"Kas":6157,"Nri":6158,"Nana":6159,"Out":6160,"Pl":6161,"Pure</w>":6162,"SI":6163,"She":6164,"Sni":6165,"Solution</w>":6166,"ae</w>":6167,"by":6168,"bun":6169,"bag":6170,"bale</w>":6171,"bam</w>":6172,"bows</w>":6173,"battle":6174,"bni</w>":6175,"cable</w>":6176,"crum":6177,"cement</w>":6178,"di</w>":6179,"drea":6180,"dres":6181,"eved</w>":6182,"fre":6183,"fug":6184,"feel</w>":6185,"gas":6186,"gna":6187,"grin":6188,"glea":6189,"hall":6190,"ius</w>":6191,"jected</w>":6192,"ling":6193,"lent</w>":6194,"lum</w>":6195,"lance</w>":6196,"lthy</w>":6197,"ment":6198,"muriqtidnim</w>":6199,"nment</w>":6200,"ok</w>":6201,"oak</w>":6202,"pa</w>":6203,"pol":6204,"pha":6205,"puni":6206,"qi":6207,"qan</w>":6208,"ri</w>":6209,"renti":6210,"sar":6211,"sand</w>":6212,"ssu":6213,"sation</w>":6214,"splen":6215,"sland":6216,"tara</w>":6217,"uten":6218,"uku":6219,"ulaga</w>":6220,"vine</w>":6221,"vast</w>":6222,"zing</w>":6223,"th6</w>":6224,"ines</w>":6225,"inter</w>":6226,"inflour</w>":6227,"angu":6228,"armi":6229,"erda</w>":6230,"its":6231,"ital</w>":6232,"ald</w>":6233,"alter":6234,"alim</w>":6235,"ilstones</w>":6236,"shook</w>":6237,"ross</w>":6238,"rosett":6239,"ately</w>":6240,"resc":6241,"reci":6242,"rect</w>":6243,"restit":6244,"lad</w>":6245,"last</w>":6246,"ele":6247,"elt</w>":6248,"ursag":6249,"ride</w>":6250,"riad</w>":6251,"ribs</w>":6252,"leop":6253,"deeds</w>":6254,"noises</w>":6255,"ems</w>":6256,"rais":6257,"raid</w>":6258,"racti":6259,"rayed</w>":6260,"ulg":6261,"diss":6262,"Enam":6263,"irrevo":6264,"igar</w>":6265,"bartu</w>":6266,"charm":6267,"hailstones</w>":6268,"esaga</w>":6269,"essed</w>":6270,"tiil":6271,"silenced</w>":6272,"fier</w>":6273,"Urg":6274,"UrSu":6275,"Urtur</w>":6276,"Urugal":6277,"amtara</w>":6278,"fort</w>":6279,"forces</w>":6280,"iduga</w>":6281,"isen</w>":6282,"isare</w>":6283,"verted</w>":6284,"across</w>":6285,"banda":6286,"Ninma</w>":6287,"Ninsi":6288,"Ninaz":6289,"NinIsina</w>":6290,"tables</w>":6291,"placing</w>":6292,"builds</w>":6293,"strate</w>":6294,"doing</w>":6295,"doves</w>":6296,"Subartu</w>":6297,"reside</w>":6298,"mani</w>":6299,"manded</w>":6300,"located</w>":6301,"lamb":6302,"Incant":6303,"explo":6304,"proved</w>":6305,"promi":6306,"proced":6307,"ades</w>":6308,"added</w>":6309,"admir":6310,"herders</w>":6311,"herald</w>":6312,"workshop</w>":6313,"Lugaln":6314,"Lugalan":6315,"Lugalmu":6316,"Lugalane</w>":6317,"Lugalgig":6318,"Lugalegal</w>":6319,"Lugalkis":6320,"unders</w>":6321,"tural</w>":6322,"sik":6323,"attend":6324,"attracti":6325,"anda</w>":6326,"impure</w>":6327,"Lub":6328,"Lulal</w>":6329,"heard</w>":6330,"flown</w>":6331,"preced":6332,"marker</w>":6333,"carrier</w>":6334,"caressed</w>":6335,"awa":6336,"cucum":6337,"gather</w>":6338,"buried</w>":6339,"bba</w>":6340,"seless</w>":6341,"musi":6342,"getin":6343,"gebur</w>":6344,"practi":6345,"weak":6346,"broke</w>":6347,"swamp</w>":6348,"parents</w>":6349,"tends</w>":6350,"passes</w>":6351,"standards</w>":6352,"collec":6353,"bride</w>":6354,"eye":6355,"deliver</w>":6356,"trust</w>":6357,"wastel":6358,"return":6359,"appea":6360,"appear</w>":6361,"apprenti":6362,"pression</w>":6363,"lowland</w>":6364,"structure</w>":6365,"tub</w>":6366,"azi</w>":6367,"seizing</w>":6368,"bake</w>":6369,"accepting</w>":6370,"possession</w>":6371,"treach":6372,"gigi</w>":6373,"approval</w>":6374,"trap</w>":6375,"tract</w>":6376,"provides</w>":6377,"wet</w>":6378,"outlying</w>":6379,"afraid</w>":6380,"pleased</w>":6381,"clods</w>":6382,"bowls</w>":6383,"shaking</w>":6384,"shadow</w>":6385,"spreading</w>":6386,"seeding</w>":6387,"Simtiil":6388,"attacking</w>":6389,"help</w>":6390,"helpers</w>":6391,"hurting</w>":6392,"dabinflour</w>":6393,"Gemebarasiga</w>":6394,"debts</w>":6395,"drag</w>":6396,"draw</w>":6397,"sweetens</w>":6398,"judges</w>":6399,"happily</w>":6400,"determines</w>":6401,"faces</w>":6402,"braiding</w>":6403,"widows</w>":6404,"hole</w>":6405,"settle</w>":6406,"touches</w>":6407,"commander</w>":6408,"imaki</w>":6409,"descend</w>":6410,"joyfully</w>":6411,"flashing</w>":6412,"ziana</w>":6413,"friends</w>":6414,"purify</w>":6415,"illness</w>":6416,"illumin":6417,"evilly</w>":6418,"peaceful</w>":6419,"content</w>":6420,"contest</w>":6421,"contemp":6422,"sceptre</w>":6423,"constructing</w>":6424,"Gatumdug</w>":6425,"wrought</w>":6426,"defeat</w>":6427,"puts</w>":6428,"exerc":6429,"figs</w>":6430,"rank</w>":6431,"ranking</w>":6432,"yre</w>":6433,"deciding</w>":6434,"amazi</w>":6435,"inquiries</w>":6436,"answering</w>":6437,"recite</w>":6438,"Kinir</w>":6439,"Lull":6440,"fearsome</w>":6441,"crushing</w>":6442,"teams</w>":6443,"stretches</w>":6444,"Make</w>":6445,"fisherman</w>":6446,"snatched</w>":6447,"Erekigala</w>":6448,"kiss</w>":6449,"openhands</w>":6450,"opensticks</w>":6451,"fleeing</w>":6452,"uwer</w>":6453,"doorman</w>":6454,"bindings</w>":6455,"sparkle</w>":6456,"larsa</w>":6457,"fills</w>":6458,"value</w>":6459,"valued</w>":6460,"settlement</w>":6461,"NurSuen</w>":6462,"Nagabtum</w>":6463,"remaining</w>":6464,"equids</w>":6465,"churning</w>":6466,"north</w>":6467,"pasture</w>":6468,"witness</w>":6469,"assist":6470,"Subir</w>":6471,"Subtotal</w>":6472,"NannaSuen</w>":6473,"Gae</w>":6474,"Silver</w>":6475,"hangs</w>":6476,"invoked</w>":6477,"pickaxe</w>":6478,"griev":6479,"however</w>":6480,"nurse</w>":6481,"nurse":6482,"arrog":6483,"arrowh":6484,"seedcubits</w>":6485,"Grand</w>":6486,"Nimgir":6487,"broadly</w>":6488,"emblems</w>":6489,"descendant</w>":6490,"achieved</w>":6491,"hang</w>":6492,"sank</w>":6493,"chased</w>":6494,"existed</w>":6495,"sanctified</w>":6496,"Both</w>":6497,"slander</w>":6498,"Urdun</w>":6499,"exuding</w>":6500,"ceremony</w>":6501,"equalranking</w>":6502,"punting</w>":6503,"succeed</w>":6504,"conquered</w>":6505,"Sumuqan</w>":6506,"Bringing</w>":6507,"Evil</w>":6508,"oracular</w>":6509,"Kamari</w>":6510,"Pabil":6511,"cabin</w>":6512,"thrashing</w>":6513,"experienced</w>":6514,"ancestors</w>":6515,"Utami":6516,"molds</w>":6517,"penis</w>":6518,"stupor</w>":6519,"corporate</w>":6520,"Anzud</w>":6521,"skillfully</w>":6522,"pigeon</w>":6523,"confronted</w>":6524,"cedars</w>":6525,"compares</w>":6526,"traversed</w>":6527,"winnowed</w>":6528,"Meluhha</w>":6529,"journey</w>":6530,"bailiff</w>":6531,"favourable</w>":6532,"clouds</w>":6533,"Dunnum</w>":6534,"paws</w>":6535,"plentiful</w>":6536,"dignity</w>":6537,"Nintinuga</w>":6538,"princeship</w>":6539,"campaign</w>":6540,"agricultural</w>":6541,"Nril</w>":6542,"armies</w>":6543,"restitutions</w>":6544,"leopard</w>":6545,"irrevocable</w>":6546,"Urugalama</w>":6547,"exploit</w>":6548,"promise</w>":6549,"procedure</w>":6550,"Lugalgigire</w>":6551,"attractiveness</w>":6552,"wasteland</w>":6553,"19th</w>":6554,"17th</w>":6555,"77</w>":6556,"85</w>":6557,"AB":6558,"Az":6559,"Au</w>":6560,"Abu":6561,"Adu</w>":6562,"Abitumen</w>":6563,"Aanepada</w>":6564,"Alamu</w>":6565,"Auwer</w>":6566,"Car":6567,"Dead</w>":6568,"Eal":6569,"Eab":6570,"EAbitumen</w>":6571,"God</w>":6572,"Ib":6573,"IM</w>":6574,"Ium</w>":6575,"Itur":6576,"Imma</w>":6577,"Kee":6578,"Kigal</w>":6579,"LA":6580,"Lun":6581,"Loo":6582,"Large</w>":6583,"More</w>":6584,"Over</w>":6585,"Pri":6586,"Stor":6587,"Set</w>":6588,"Ul":6589,"Ubi":6590,"Umani</w>":6591,"Would</w>":6592,"Winter</w>":6593,"Zam":6594,"Zuzu</w>":6595,"Zulum</w>":6596,"aa</w>":6597,"ava":6598,"bles</w>":6599,"brown</w>":6600,"bouts</w>":6601,"crou":6602,"dition</w>":6603,"dressed</w>":6604,"ehouses</w>":6605,"fra":6606,"foun":6607,"fears</w>":6608,"fran":6609,"frequ":6610,"gig</w>":6611,"goring</w>":6612,"hani</w>":6613,"iman":6614,"kku":6615,"kasses</w>":6616,"lly</w>":6617,"mere</w>":6618,"mil</w>":6619,"migh":6620,"nt</w>":6621,"nee":6622,"oqu":6623,"oval</w>":6624,"pan":6625,"pum</w>":6626,"pile</w>":6627,"qam</w>":6628,"re</w>":6629,"ril":6630,"sy":6631,"ser</w>":6632,"sli":6633,"sof":6634,"sened</w>":6635,"situ":6636,"tear":6637,"test":6638,"upl":6639,"utu</w>":6640,"uErra</w>":6641,"vating</w>":6642,"wear":6643,"ze":6644,"za</w>":6645,"indu</w>":6646,"inspir":6647,"ankug</w>":6648,"arg":6649,"erity</w>":6650,"eabouts</w>":6651,"styl":6652,"stud":6653,"alty</w>":6654,"ild</w>":6655,"ilig</w>":6656,"ilable</w>":6657,"shor":6658,"shri":6659,"roared</w>":6660,"roffer":6661,"rochs</w>":6662,"enough</w>":6663,"enjoy</w>":6664,"enlar":6665,"envoy</w>":6666,"recor":6667,"recit":6668,"rebuild</w>":6669,"lice</w>":6670,"list</w>":6671,"lacer":6672,"masons</w>":6673,"maker</w>":6674,"ely":6675,"eli</w>":6676,"eling</w>":6677,"elev":6678,"elep":6679,"who":6680,"rim</w>":6681,"rivers</w>":6682,"tains</w>":6683,"demar":6684,"depar":6685,"devo":6686,"defic":6687,"despa":6688,"plows</w>":6689,"nobody</w>":6690,"unit</w>":6691,"raging</w>":6692,"dazi</w>":6693,"ulated</w>":6694,"reali":6695,"really</w>":6696,"Enter</w>":6697,"Enhe":6698,"irts</w>":6699,"irgida</w>":6700,"cher":6701,"set":6702,"ingforti":6703,"age":6704,"agg":6705,"agas":6706,"agar</w>":6707,"olina</w>":6708,"worth</w>":6709,"Ursil":6710,"UrNanna</w>":6711,"UrNinurta</w>":6712,"UrEma</w>":6713,"bushes</w>":6714,"forced</w>":6715,"idence</w>":6716,"sprou":6717,"coated</w>":6718,"fairs</w>":6719,"suspi":6720,"Ninul</w>":6721,"Ninagala</w>":6722,"string</w>":6723,"ecstati":6724,"scra":6725,"sadu</w>":6726,"sailing</w>":6727,"resound</w>":6728,"resounded</w>":6729,"offic":6730,"lock</w>":6731,"location</w>":6732,"Iniman":6733,"exter":6734,"prom":6735,"prow</w>":6736,"prolong</w>":6737,"advi":6738,"adala</w>":6739,"workingforti":6740,"news</w>":6741,"neither</w>":6742,"moored</w>":6743,"consi":6744,"confine</w>":6745,"conve":6746,"Lugalun":6747,"dub":6748,"ckly</w>":6749,"anded</w>":6750,"imda</w>":6751,"immun":6752,"comb":6753,"compe":6754,"bodied</w>":6755,"correct</w>":6756,"breach</w>":6757,"canal":6758,"flowed</w>":6759,"Anam</w>":6760,"marked</w>":6761,"marriage</w>":6762,"away":6763,"burned</w>":6764,"Summer</w>":6765,"sely</w>":6766,"guilt</w>":6767,"mud":6768,"mustered</w>":6769,"ives</w>":6770,"pherd</w>":6771,"liness</w>":6772,"grun":6773,"leaves</w>":6774,"dicated</w>":6775,"path":6776,"meadow</w>":6777,"trough</w>":6778,"pala</w>":6779,"Akkadi":6780,"slave":6781,"colin</w>":6782,"collap":6783,"bright":6784,"beating</w>":6785,"toothed</w>":6786,"midnight</w>":6787,"ski":6788,"skins</w>":6789,"skirts</w>":6790,"overflowing</w>":6791,"submer":6792,"sacks</w>":6793,"sacril":6794,"soninlaw</w>":6795,"cally</w>":6796,"Abbag":6797,"Abbamu</w>":6798,"height</w>":6799,"talk</w>":6800,"enemy":6801,"ceaseless</w>":6802,"himthem</w>":6803,"longlasting</w>":6804,"gigur</w>":6805,"travel</w>":6806,"assign</w>":6807,"loosen</w>":6808,"loosened</w>":6809,"kua</w>":6810,"kuroffer":6811,"torch</w>":6812,"ayasi</w>":6813,"wet":6814,"ween</w>":6815,"Gemed":6816,"outskirts</w>":6817,"phan":6818,"Although</w>":6819,"twin</w>":6820,"aurochs</w>":6821,"pleases</w>":6822,"perished</w>":6823,"courrier</w>":6824,"weeds</w>":6825,"Namhani</w>":6826,"changing</w>":6827,"Enanedu</w>":6828,"fury</w>":6829,"repay</w>":6830,"sagkal</w>":6831,"responding</w>":6832,"ulgiil</w>":6833,"steps</w>":6834,"stepped</w>":6835,"Daily</w>":6836,"ought":6837,"oughout</w>":6838,"stop</w>":6839,"fact</w>":6840,"faceey":6841,"assembly":6842,"muring</w>":6843,"siskuroffer":6844,"winter</w>":6845,"support</w>":6846,"righteousness</w>":6847,"observe</w>":6848,"breeding</w>":6849,"Apil":6850,"Mesilim</w>":6851,"flame</w>":6852,"magir</w>":6853,"Lisin</w>":6854,"textil":6855,"cleaned</w>":6856,"cleansed</w>":6857,"peace</w>":6858,"myyour</w>":6859,"scho":6860,"blew</w>":6861,"flowers</w>":6862,"Ezin":6863,"extend</w>":6864,"trembling</w>":6865,"Gebare</w>":6866,"whereabouts</w>":6867,"AmarSuen":6868,"girl":6869,"GAN</w>":6870,"walking</w>":6871,"147</w>":6872,"Extra</w>":6873,"expand</w>":6874,"teacher</w>":6875,"quickly</w>":6876,"consuming</w>":6877,"reverent</w>":6878,"fisheries</w>":6879,"alien</w>":6880,"Ninhursaga</w>":6881,"Itarn</w>":6882,"doorgate</w>":6883,"pigs</w>":6884,"Getinanna</w>":6885,"binds</w>":6886,"binding</w>":6887,"sanctuaries</w>":6888,"195</w>":6889,"began</w>":6890,"Brick":6891,"incense</w>":6892,"Festivalofulgi</w>":6893,"NaramSuen</w>":6894,"crafty</w>":6895,"gudupriest</w>":6896,"guduofficiant</w>":6897,"Take</w>":6898,"tilimda</w>":6899,"advised</w>":6900,"lungs</w>":6901,"szur":6902,"excavating</w>":6903,"obliterate</w>":6904,"pack</w>":6905,"accomplish</w>":6906,"consign":6907,"Smla":6908,"yellowed</w>":6909,"Door</w>":6910,"battlea":6911,"battles</w>":6912,"twice</w>":6913,"twisted</w>":6914,"riverbank</w>":6915,"Elamites</w>":6916,"hyena</w>":6917,"sprinkling</w>":6918,"boasting</w>":6919,"sweetwort</w>":6920,"descendants</w>":6921,"solidify</w>":6922,"BurSin</w>":6923,"Paue</w>":6924,"semolina</w>":6925,"gatekeeper</w>":6926,"artis":6927,"disappear</w>":6928,"between</w>":6929,"crippled</w>":6930,"allotted</w>":6931,"captivity</w>":6932,"furnished</w>":6933,"requisition":6934,"requisitions</w>":6935,"implement</w>":6936,"implements</w>":6937,"relaxing</w>":6938,"relaxation</w>":6939,"Residence</w>":6940,"population</w>":6941,"eredigir</w>":6942,"onagers</w>":6943,"verdicts</w>":6944,"Houseof":6945,"Munus":6946,"obligations</w>":6947,"GIRgal</w>":6948,"downstream</w>":6949,"sharpened</w>":6950,"Halankug</w>":6951,"dumugi</w>":6952,"temple":6953,"shaped</w>":6954,"ablebodied</w>":6955,"Longtablet</w>":6956,"egial</w>":6957,"prosperity</w>":6958,"ferryboat</w>":6959,"governorgeneral</w>":6960,"threshold</w>":6961,"fowler</w>":6962,"wrestler</w>":6963,"baragesi</w>":6964,"loyal</w>":6965,"Lugalmelam</w>":6966,"Nigarkidu</w>":6967,"Hoe</w>":6968,"Shepherd</w>":6969,"bags</w>":6970,"Ninazimua</w>":6971,"Incantation</w>":6972,"attendant</w>":6973,"precedence</w>":6974,"grievous</w>":6975,"available</w>":6976,"francolin</w>":6977,"stylus</w>":6978,"eleph":6979,"deficits</w>":6980,"Enhedu":6981,"agasilig</w>":6982,"ecstatic</w>":6983,"Inimanizi</w>":6984,"advise</w>":6985,"workingfortifying</w>":6986,"immune</w>":6987,"sacrilege</w>":6988,"textiles</w>":6989,"216</w>":6990,"73</w>":6991,"74</w>":6992,"AN</w>":6993,"Adudu</w>":6994,"Agrun":6995,"Bal":6996,"Bro":6997,"Big</w>":6998,"Battle</w>":6999,"Born</w>":7000,"Biduga</w>":7001,"Cities</w>":7002,"Di":7003,"Dest":7004,"Dim":7005,"Emu</w>":7006,"Fla":7007,"Found":7008,"Him</w>":7009,"Hous":7010,"Iw":7011,"KI":7012,"Lands</w>":7013,"Me</w>":7014,"Mal":7015,"Mighty</w>":7016,"NU":7017,"Parti":7018,"SA":7019,"Se":7020,"SAR</w>":7021,"Tab":7022,"Wor":7023,"Youth</w>":7024,"av":7025,"ath":7026,"aver":7027,"adab</w>":7028,"aint":7029,"ben":7030,"bad":7031,"bloo":7032,"con</w>":7033,"cress</w>":7034,"dor":7035,"dat":7036,"dul":7037,"dga</w>":7038,"dMound</w>":7039,"drank</w>":7040,"edar</w>":7041,"fared</w>":7042,"fate":7043,"gear</w>":7044,"hi</w>":7045,"hing":7046,"hated</w>":7047,"hea</w>":7048,"ids</w>":7049,"ibar":7050,"ister</w>":7051,"jam":7052,"kers</w>":7053,"lth</w>":7054,"lyre</w>":7055,"mn</w>":7056,"min</w>":7057,"mul":7058,"mats</w>":7059,"mena</w>":7060,"nal</w>":7061,"nina</w>":7062,"oper":7063,"otter</w>":7064,"pin":7065,"pity</w>":7066,"sul":7067,"sur</w>":7068,"sage</w>":7069,"uin":7070,"uted</w>":7071,"uses</w>":7072,"ures</w>":7073,"uSin</w>":7074,"vig":7075,"wlearned</w>":7076,"yare</w>":7077,"ywhere</w>":7078,"yment</w>":7079,"zard</w>":7080,"zage</w>":7081,"threa":7082,"insur":7083,"infer":7084,"inkua</w>":7085,"anx":7086,"anti":7087,"ance":7088,"anus</w>":7089,"anointed</w>":7090,"andul</w>":7091,"anamtara</w>":7092,"ar2</w>":7093,"arin</w>":7094,"ould":7095,"eaflour</w>":7096,"oning</w>":7097,"still":7098,"alab":7099,"algar</w>":7100,"alsi</w>":7101,"ildo":7102,"shel":7103,"show</w>":7104,"shows</w>":7105,"atam</w>":7106,"enery</w>":7107,"repla":7108,"rety</w>":7109,"recum":7110,"regar":7111,"rested</w>":7112,"rests</w>":7113,"reiter":7114,"lik</w>":7115,"lidga</w>":7116,"ladies</w>":7117,"macy</w>":7118,"eloqu":7119,"wheel</w>":7120,"ured</w>":7121,"urity</w>":7122,"urmuring</w>":7123,"rival":7124,"leg":7125,"less":7126,"tad":7127,"tax</w>":7128,"tamar":7129,"tavern":7130,"demanded</w>":7131,"plated</w>":7132,"plored</w>":7133,"plunders</w>":7134,"notin":7135,"nobly</w>":7136,"emu</w>":7137,"ununa</w>":7138,"unrefined</w>":7139,"unalter":7140,"dawn</w>":7141,"ulma</w>":7142,"uluh</w>":7143,"dias</w>":7144,"dida</w>":7145,"diso":7146,"diarr":7147,"reason</w>":7148,"irgal</w>":7149,"becoming</w>":7150,"bedient</w>":7151,"becomes</w>":7152,"igi":7153,"barbed</w>":7154,"abs":7155,"abi</w>":7156,"chew</w>":7157,"ingir</w>":7158,"ages</w>":7159,"agrun</w>":7160,"ascer":7161,"hai</w>":7162,"essive</w>":7163,"wore</w>":7164,"silos</w>":7165,"fire":7166,"fist</w>":7167,"UrEnlil</w>":7168,"Urku":7169,"UrImma</w>":7170,"oods</w>":7171,"bued</w>":7172,"amen":7173,"spac":7174,"fasting</w>":7175,"Nintu</w>":7176,"Ninkuzu</w>":7177,"Ninsadu</w>":7178,"monkey</w>":7179,"playing</w>":7180,"plains</w>":7181,"builders</w>":7182,"scon":7183,"ester</w>":7184,"que</w>":7185,"quad":7186,"dove</w>":7187,"domain</w>":7188,"sailed</w>":7189,"Ningiri":7190,"royalty</w>":7191,"destal</w>":7192,"perpetu":7193,"brought":7194,"Inda":7195,"Inside</w>":7196,"Inuin":7197,"exal":7198,"exam":7199,"extrem":7200,"excel":7201,"exting":7202,"extent</w>":7203,"proclaimed</w>":7204,"adult</w>":7205,"adjac":7206,"pedestal</w>":7207,"causing</w>":7208,"season</w>":7209,"need</w>":7210,"moke</w>":7211,"mobil":7212,"mothers</w>":7213,"mooring</w>":7214,"conc":7215,"converse</w>":7216,"convoy</w>":7217,"condition</w>":7218,"undul":7219,"dust":7220,"side":7221,"prime</w>":7222,"imti</w>":7223,"impetu":7224,"implored</w>":7225,"LuInanna</w>":7226,"Luaya</w>":7227,"aller</w>":7228,"cords</w>":7229,"bellowing</w>":7230,"breaking</w>":7231,"flatt":7232,"flute</w>":7233,"Anu</w>":7234,"marvel":7235,"oses</w>":7236,"selected</w>":7237,"gudu</w>":7238,"musc":7239,"get":7240,"gets</w>":7241,"praising</w>":7242,"praise":7243,"womans</w>":7244,"kalam</w>":7245,"UrNigar</w>":7246,"joicing</w>":7247,"grant</w>":7248,"armed</w>":7249,"brother":7250,"entation</w>":7251,"entru":7252,"entries</w>":7253,"pays</w>":7254,"payment</w>":7255,"divor":7256,"utters</w>":7257,"ritu":7258,"sow</w>":7259,"standing":7260,"collected</w>":7261,"colony</w>":7262,"smurmuring</w>":7263,"borne</w>":7264,"bility</w>":7265,"creat":7266,"edly</w>":7267,"waiting</w>":7268,"returns</w>":7269,"Abi":7270,"endless</w>":7271,"Amarayasi</w>":7272,"pots</w>":7273,"post</w>":7274,"apiece</w>":7275,"apinkua</w>":7276,"daughters</w>":7277,"fashions</w>":7278,"akkan</w>":7279,"subsi":7280,"clan</w>":7281,"follows</w>":7282,"undertaken</w>":7283,"horses</w>":7284,"singular</w>":7285,"Abbau</w>":7286,"butcher</w>":7287,"hews</w>":7288,"Dumuzid</w>":7289,"garkid":7290,"trim":7291,"committed</w>":7292,"treating</w>":7293,"arik</w>":7294,"aria</w>":7295,"plowing</w>":7296,"tiness</w>":7297,"outlet</w>":7298,"Marhai</w>":7299,"capital</w>":7300,"blind</w>":7301,"itive</w>":7302,"slaughter</w>":7303,"everywhere</w>":7304,"affairs</w>":7305,"residences</w>":7306,"flee</w>":7307,"cloister</w>":7308,"court</w>":7309,"mater":7310,"chain</w>":7311,"officials</w>":7312,"Adgarkid":7313,"Simat":7314,"Simnum</w>":7315,"interpreter</w>":7316,"watery</w>":7317,"cheek</w>":7318,"hurts</w>":7319,"Faith":7320,"Nigurum</w>":7321,"Enanatum":7322,"highlands</w>":7323,"usku</w>":7324,"usiga</w>":7325,"Nannas</w>":7326,"Nannam":7327,"shouts</w>":7328,"limits</w>":7329,"designs</w>":7330,"cantor</w>":7331,"Baranamtara</w>":7332,"crook</w>":7333,"felt</w>":7334,"facing</w>":7335,"balbale</w>":7336,"foot":7337,"ignor":7338,"genius</w>":7339,"holders</w>":7340,"nannies</w>":7341,"blacksmith</w>":7342,"Giapinkua</w>":7343,"touch":7344,"onehalf</w>":7345,"disorder</w>":7346,"dislodged</w>":7347,"striking</w>":7348,"loaf</w>":7349,"greenery</w>":7350,"Warada":7351,"imagi</w>":7352,"objects</w>":7353,"irrigate</w>":7354,"abode</w>":7355,"containing</w>":7356,"breeder</w>":7357,"performer</w>":7358,"Mesanepada</w>":7359,"farmers</w>":7360,"joyously</w>":7361,"text</w>":7362,"purifier</w>":7363,"secre":7364,"fuller</w>":7365,"utterly</w>":7366,"egar</w>":7367,"heroic</w>":7368,"myriad</w>":7369,"construction</w>":7370,"firstfruit</w>":7371,"knewlearned</w>":7372,"126</w>":7373,"issuing</w>":7374,"issues</w>":7375,"pushed</w>":7376,"frog</w>":7377,"emerging</w>":7378,"allot</w>":7379,"boot</w>":7380,"soup</w>":7381,"dirty</w>":7382,"generals</w>":7383,"walks</w>":7384,"Kinira</w>":7385,"Kindazi</w>":7386,"stretch</w>":7387,"takarin</w>":7388,"consumes</w>":7389,"PuzurMama</w>":7390,"intest":7391,"pulled</w>":7392,"initiates</w>":7393,"involving</w>":7394,"anibgal</w>":7395,"control":7396,"piglet</w>":7397,"Getinanas</w>":7398,"Until</w>":7399,"acquaint":7400,"thirty</w>":7401,"violent</w>":7402,"afternoon</w>":7403,"incite</w>":7404,"addition</w>":7405,"flooded</w>":7406,"sixties</w>":7407,"smallshekel</w>":7408,"landmountain</w>":7409,"designation</w>":7410,"crafts":7411,"165</w>":7412,"ukk":7413,"smiting</w>":7414,"malevolently</w>":7415,"pluck</w>":7416,"emonth6</w>":7417,"sigflour</w>":7418,"mirror</w>":7419,"lifetime</w>":7420,"kiln</w>":7421,"respectful</w>":7422,"dragon":7423,"dragged</w>":7424,"jackasses</w>":7425,"kisiki":7426,"solidifies</w>":7427,"Imsag</w>":7428,"Sagub</w>":7429,"jennies</w>":7430,"discer":7431,"chases</w>":7432,"exists</w>":7433,"knowledg":7434,"Nane":7435,"renders</w>":7436,"boatmen</w>":7437,"carefully</w>":7438,"First":7439,"First</w>":7440,"multitudes</w>":7441,"pounding</w>":7442,"rainbow</w>":7443,"captives</w>":7444,"pronounced</w>":7445,"Assur</w>":7446,"Neti</w>":7447,"ebony</w>":7448,"verdict</w>":7449,"screamed</w>":7450,"screaming</w>":7451,"brilliance</w>":7452,"oxenmanager</w>":7453,"engendered</w>":7454,"floodstorm</w>":7455,"robber</w>":7456,"fortresses</w>":7457,"fetch</w>":7458,"scratching</w>":7459,"Oxen</w>":7460,"dunes</w>":7461,"pouches</w>":7462,"eyesmoke</w>":7463,"incantationsmurmuring</w>":7464,"Hiyare</w>":7465,"Tidnum</w>":7466,"things":7467,"inspected</w>":7468,"angel</w>":7469,"reckoned</w>":7470,"occupies</w>":7471,"Girini":7472,"virgin</w>":7473,"ziggur":7474,"restrain</w>":7475,"supremacy</w>":7476,"admired</w>":7477,"awesome</w>":7478,"friendly</w>":7479,"offshoot</w>":7480,"penetrate</w>":7481,"GoldMound</w>":7482,"Ipqu":7483,"Powers</w>":7484,"cowpen</w>":7485,"senior</w>":7486,"reliable</w>":7487,"ridden</w>":7488,"amounts</w>":7489,"pretty</w>":7490,"foreigners</w>":7491,"guaran":7492,"Humanity</w>":7493,"Isimud</w>":7494,"Nanaia</w>":7495,"Sniqam</w>":7496,"crumbs</w>":7497,"freely":7498,"hallsanctum</w>":7499,"punishment</w>":7500,"splendid</w>":7501,"itstheir</w>":7502,"raisins</w>":7503,"lambhides</w>":7504,"Lugalkisalsi</w>":7505,"sikil</w>":7506,"practice</w>":7507,"exercises</w>":7508,"Lullubu</w>":7509,"arrowhead</w>":7510,"Utamiar":7511,"Ealubi</w>":7512,"Eabani</w>":7513,"Ibni":7514,"Iturungal</w>":7515,"uplands</w>":7516,"inspiring</w>":7517,"shrie":7518,"elevated</w>":7519,"departed</w>":7520,"despair</w>":7521,"suspiciously</w>":7522,"promised</w>":7523,"combined</w>":7524,"Akkadian</w>":7525,"enemyevil</w>":7526,"Gemedardu</w>":7527,"siskuroffering</w>":7528,"school":7529,"girlfriend</w>":7530,"Brickwork</w>":7531,"artisans</w>":7532,"elephant</w>":7533,"Flash</w>":7534,"Housemonth6</w>":7535,"Iwould":7536,"Partial</w>":7537,"fatedetermining</w>":7538,"ibartum</w>":7539,"insurgent</w>":7540,"regarded</w>":7541,"notindeed</w>":7542,"unalterable</w>":7543,"disobedient</w>":7544,"diarrhea</w>":7545,"quadru":7546,"Inuinak</w>":7547,"extingu":7548,"impetuous</w>":7549,"Enanatuma</w>":7550,"Waradama</w>":7551,"Iwouldlive</w>":7552,"24":7553,"22nd</w>":7554,"255</w>":7555,"35":7556,"432</w>":7557,"81</w>":7558,"94</w>":7559,"Af":7560,"Aua</w>":7561,"Aian</w>":7562,"Bi":7563,"Bil":7564,"DU":7565,"DN</w>":7566,"Dre":7567,"Day</w>":7568,"Dec":7569,"Drum</w>":7570,"Ed":7571,"En</w>":7572,"El</w>":7573,"Est":7574,"Eumea</w>":7575,"Eaar</w>":7576,"Eengur</w>":7577,"Eusiga</w>":7578,"Esikil</w>":7579,"Food</w>":7580,"Furi":7581,"Fitting</w>":7582,"Feast</w>":7583,"Grain</w>":7584,"HI</w>":7585,"IL</w>":7586,"Iar":7587,"Ibe":7588,"KA</w>":7589,"Kak":7590,"ME":7591,"Ma</w>":7592,"Mak":7593,"Mess":7594,"Mani</w>":7595,"Malt</w>":7596,"Multitu":7597,"Mubi":7598,"Nal":7599,"Nation</w>":7600,"Not</w>":7601,"Nusku</w>":7602,"Op":7603,"PN</w>":7604,"Pal":7605,"Range</w>":7606,"SZ":7607,"Sp":7608,"Sna":7609,"Ste":7610,"Sett":7611,"Soh":7612,"Tar":7613,"Tut":7614,"Trees</w>":7615,"Ug":7616,"Um":7617,"UR</w>":7618,"Ubi</w>":7619,"Village</w>":7620,"Zub":7621,"ah":7622,"az</w>":7623,"aur":7624,"aking</w>":7625,"ail</w>":7626,"ashes</w>":7627,"aKusu</w>":7628,"bite</w>":7629,"blowing</w>":7630,"bends</w>":7631,"cs</w>":7632,"cate</w>":7633,"clam":7634,"cements</w>":7635,"dr":7636,"dress</w>":7637,"dens</w>":7638,"date":7639,"eI</w>":7640,"eli":7641,"elabor":7642,"eight</w>":7643,"fat":7644,"flam":7645,"free":7646,"feeding</w>":7647,"ger":7648,"gil":7649,"gated</w>":7650,"glowing</w>":7651,"gmil</w>":7652,"hur</w>":7653,"hee":7654,"hate</w>":7655,"hill</w>":7656,"hund":7657,"hire</w>":7658,"ida":7659,"ibe":7660,"isting</w>":7661,"jew":7662,"kure</w>":7663,"li</w>":7664,"lu</w>":7665,"lou":7666,"lon":7667,"lku</w>":7668,"luma</w>":7669,"matters</w>":7670,"none</w>":7671,"nue</w>":7672,"other":7673,"pel":7674,"ple":7675,"pest":7676,"qar</w>":7677,"rated</w>":7678,"rings</w>":7679,"rout":7680,"sold</w>":7681,"sations</w>":7682,"sks</w>":7683,"sounded</w>":7684,"sasa</w>":7685,"tug":7686,"tted</w>":7687,"trow":7688,"tut":7689,"uta":7690,"uum</w>":7691,"uss</w>":7692,"ubur":7693,"uMama</w>":7694,"uiliu</w>":7695,"wra":7696,"wage</w>":7697,"xe</w>":7698,"xim":7699,"year":7700,"zab":7701,"zid":7702,"thal</w>":7703,"thigh":7704,"thread</w>":7705,"indi":7706,"inwith</w>":7707,"inund":7708,"invest":7709,"inhabit":7710,"anu":7711,"anno":7712,"anirgal</w>":7713,"arth":7714,"aran</w>":7715,"argue</w>":7716,"arrayed</w>":7717,"areI</w>":7718,"erect</w>":7719,"oubled</w>":7720,"ean</w>":7721,"eastern</w>":7722,"iti</w>":7723,"itch</w>":7724,"itors</w>":7725,"ories</w>":7726,"orpha":7727,"ste</w>":7728,"stay":7729,"step</w>":7730,"stone":7731,"role</w>":7732,"root</w>":7733,"rogue</w>":7734,"atam":7735,"atexcess</w>":7736,"enter":7737,"endu</w>":7738,"ennu":7739,"enjoy":7740,"enboot</w>":7741,"rein":7742,"revi":7743,"retri":7744,"revol":7745,"lip</w>":7746,"lived</w>":7747,"ligh":7748,"lipit":7749,"lizard</w>":7750,"law":7751,"lab</w>":7752,"lain</w>":7753,"eled</w>":7754,"elea":7755,"elary</w>":7756,"ellu":7757,"elders</w>":7758,"eluge</w>":7759,"urine</w>":7760,"urtur":7761,"urra</w>":7762,"rib</w>":7763,"rich":7764,"riers</w>":7765,"riding</w>":7766,"leg</w>":7767,"ded":7768,"del</w>":7769,"depart</w>":7770,"plann":7771,"plent":7772,"noses</w>":7773,"embel":7774,"emble</w>":7775,"emost</w>":7776,"und</w>":7777,"unsuitable</w>":7778,"unseen</w>":7779,"tox":7780,"ral</w>":7781,"ults</w>":7782,"diverted</w>":7783,"beds</w>":7784,"betro":7785,"igate</w>":7786,"igigal</w>":7787,"chann":7788,"ched":7789,"chick":7790,"sess</w>":7791,"agi":7792,"ago</w>":7793,"ased</w>":7794,"asking</w>":7795,"ham":7796,"hair":7797,"esz":7798,"tion":7799,"tiara</w>":7800,"tiveness</w>":7801,"silently</w>":7802,"hip</w>":7803,"UrS":7804,"UrDumuzi</w>":7805,"UrUrbartab</w>":7806,"UrIgalim</w>":7807,"ument</w>":7808,"idated</w>":7809,"span</w>":7810,"spended</w>":7811,"kett":7812,"vering</w>":7813,"coal</w>":7814,"fault":7815,"bansa</w>":7816,"suf":7817,"sue</w>":7818,"surely</w>":7819,"suspended</w>":7820,"Ninmu</w>":7821,"Ninmena</w>":7822,"heat</w>":7823,"healthy</w>":7824,"building":7825,"buildings</w>":7826,"strated</w>":7827,"streng":7828,"econ":7829,"scru":7830,"Sud</w>":7831,"Suens</w>":7832,"Sutium</w>":7833,"sadug</w>":7834,"saizu</w>":7835,"resolution</w>":7836,"field":7837,"lable</w>":7838,"grave</w>":7839,"gracious</w>":7840,"graced":7841,"bring":7842,"lots</w>":7843,"exper":7844,"extre":7845,"exchanged</w>":7846,"prop":7847,"proclaim</w>":7848,"adze</w>":7849,"herds</w>":7850,"works</w>":7851,"pede</w>":7852,"cake</w>":7853,"moving</w>":7854,"storms</w>":7855,"storehouses</w>":7856,"confi":7857,"confront</w>":7858,"Lugalpiri":7859,"Lugalanda</w>":7860,"turning</w>":7861,"dua</w>":7862,"shiver</w>":7863,"rushing</w>":7864,"imbued</w>":7865,"impede</w>":7866,"Luug":7867,"LuEnlila</w>":7868,"LuUru</w>":7869,"allum</w>":7870,"corresponding</w>":7871,"counten":7872,"breast":7873,"breathed</w>":7874,"breasts</w>":7875,"flan":7876,"Anum</w>":7877,"wishes</w>":7878,"thermore</w>":7879,"Guti":7880,"marveled</w>":7881,"oxdri":7882,"awoods</w>":7883,"gakku":7884,"hoisting</w>":7885,"gug</w>":7886,"getin</w>":7887,"ivory</w>":7888,"wool":7889,"paral":7890,"parti":7891,"entum</w>":7892,"dicating":7893,"paw</w>":7894,"trough":7895,"decide</w>":7896,"some</w>":7897,"brid</w>":7898,"just":7899,"deliber":7900,"smoo":7901,"stature</w>":7902,"establishes</w>":7903,"wake</w>":7904,"washing</w>":7905,"appeared</w>":7906,"About</w>":7907,"Abund":7908,"dwell":7909,"dwelled</w>":7910,"apidated</w>":7911,"minishekels</w>":7912,"voi":7913,"tuku</w>":7914,"provin":7915,"cites</w>":7916,"substance</w>":7917,"cept</w>":7918,"lumah</w>":7919,"horse</w>":7920,"galama</w>":7921,"bag</w>":7922,"cumulated</w>":7923,"hem</w>":7924,"spot</w>":7925,"KuBaba</w>":7926,"tread</w>":7927,"traveled</w>":7928,"traitors</w>":7929,"tory</w>":7930,"planking</w>":7931,"planks</w>":7932,"necess":7933,"Gemem":7934,"iff":7935,"Shall</w>":7936,"Should</w>":7937,"Shining</w>":7938,"blunted</w>":7939,"slaughters</w>":7940,"finds</w>":7941,"current</w>":7942,"kinds</w>":7943,"ezib":7944,"affixed</w>":7945,"fecting</w>":7946,"please</w>":7947,"close</w>":7948,"cloist":7949,"dingir</w>":7950,"lamenters</w>":7951,"lamentations</w>":7952,"runs</w>":7953,"ancy</w>":7954,"shame</w>":7955,"shaved</w>":7956,"maturity</w>":7957,"approaching</w>":7958,"chair":7959,"attach</w>":7960,"thorn</w>":7961,"protection</w>":7962,"cerning</w>":7963,"debased</w>":7964,"floatexcess</w>":7965,"furthermore</w>":7966,"highways</w>":7967,"cleared</w>":7968,"limb":7969,"crab</w>":7970,"drop</w>":7971,"Dada":7972,"junior":7973,"releasing</w>":7974,"stopped</w>":7975,"Enmebaragesi</w>":7976,"widened</w>":7977,"grove</w>":7978,"territories</w>":7979,"genit":7980,"holder</w>":7981,"crime</w>":7982,"crimin":7983,"disgraced":7984,"siskure</w>":7985,"strikes</w>":7986,"Com":7987,"furiously</w>":7988,"Sinmagir</w>":7989,"fully":7990,"fullbody</w>":7991,"egala</w>":7992,"stair":7993,"stairs</w>":7994,"headplowmen</w>":7995,"Duk":7996,"Aruru</w>":7997,"favorite</w>":7998,"favorably</w>":7999,"Ninkununa</w>":8000,"cultivate</w>":8001,"cultivation</w>":8002,"ugalam</w>":8003,"flower</w>":8004,"Ezida</w>":8005,"Karar</w>":8006,"kurgar</w>":8007,"vase</w>":8008,"extensive</w>":8009,"184</w>":8010,"186</w>":8011,"pupp":8012,"pila":8013,"pillar</w>":8014,"sherds</w>":8015,"famine</w>":8016,"emerge</w>":8017,"dispos":8018,"denigr":8019,"ranks</w>":8020,"kungar</w>":8021,"alloyed</w>":8022,"learning</w>":8023,"AmarSuentum</w>":8024,"girls</w>":8025,"transg":8026,"Uraya</w>":8027,"walk</w>":8028,"chario":8029,"manifested</w>":8030,"expend":8031,"exhausts</w>":8032,"Bazige</w>":8033,"taklku</w>":8034,"hostility</w>":8035,"youpl</w>":8036,"Damiq":8037,"Damqi":8038,"intent</w>":8039,"alien":8040,"requested</w>":8041,"Enmah":8042,"carcass</w>":8043,"Donkey</w>":8044,"block</w>":8045,"blocks</w>":8046,"elapse</w>":8047,"eradicated</w>":8048,"Ninhursag":8049,"shoulders</w>":8050,"arakiag</w>":8051,"doorkeeper</w>":8052,"Egalma</w>":8053,"arahi</w>":8054,"physi":8055,"multiplies</w>":8056,"Belat":8057,"Dugru</w>":8058,"violently</w>":8059,"inclu":8060,"addressed</w>":8061,"flooding</w>":8062,"quarreling</w>":8063,"plundering</w>":8064,"Nagsu</w>":8065,"hills</w>":8066,"Lugalebansa</w>":8067,"Forthat</w>":8068,"Foremost</w>":8069,"Gurz":8070,"Stand</w>":8071,"Tahi":8072,"occur":8073,"BigStele</w>":8074,"Fierce</w>":8075,"conveyances</w>":8076,"pastured</w>":8077,"Acclaim</w>":8078,"frightening</w>":8079,"goose":8080,"charcoal</w>":8081,"executed</w>":8082,"Greatbarge</w>":8083,"vegetables</w>":8084,"gladdened</w>":8085,"Nindanirgal</w>":8086,"newborn</w>":8087,"composition</w>":8088,"overwhelm</w>":8089,"assignments</w>":8090,"Perfect</w>":8091,"iqbi</w>":8092,"signs</w>":8093,"invoking</w>":8094,"invoke</w>":8095,"chopped</w>":8096,"consort</w>":8097,"Smaller</w>":8098,"finger</w>":8099,"finger":8100,"sickles</w>":8101,"Dog</w>":8102,"grieve</w>":8103,"falcon</w>":8104,"hybrid</w>":8105,"kneel</w>":8106,"soothing</w>":8107,"soothed</w>":8108,"parasites</w>":8109,"Birurtur":8110,"Raised</w>":8111,"discuss</w>":8112,"sanctifies</w>":8113,"sling":8114,"yiel":8115,"remission</w>":8116,"Urdukuga</w>":8117,"copy</w>":8118,"claims</w>":8119,"embracing</w>":8120,"Awan</w>":8121,"Dagn</w>":8122,"Irnina</w>":8123,"multitude</w>":8124,"proudly</w>":8125,"accused</w>":8126,"Evildo":8127,"sorcer":8128,"intentions</w>":8129,"onager</w>":8130,"engenders</w>":8131,"thornbushes</w>":8132,"floodwater</w>":8133,"Household</w>":8134,"288</w>":8135,"Kalkal</w>":8136,"basin</w>":8137,"ascended</w>":8138,"obligation</w>":8139,"Oxenboot</w>":8140,"dung</w>":8141,"organiz":8142,"organized</w>":8143,"laughing</w>":8144,"deposited</w>":8145,"Dublama</w>":8146,"dilapidated</w>":8147,"prowls</w>":8148,"neighbor":8149,"counselor</w>":8150,"Draw</w>":8151,"Dadumu</w>":8152,"Quay</w>":8153,"kaid</w>":8154,"patri":8155,"throwstick</w>":8156,"fatherinlaw</w>":8157,"scales</w>":8158,"Enunugalana</w>":8159,"Aszszur":8160,"wonderful</w>":8161,"exuberance</w>":8162,"Ordeal</w>":8163,"Place</w>":8164,"dappled</w>":8165,"existence</w>":8166,"aweinspiring</w>":8167,"truthfully</w>":8168,"AbaEnlil":8169,"Idiot</w>":8170,"Justice</w>":8171,"fugitive</w>":8172,"grinding</w>":8173,"ssuiqbi</w>":8174,"ulgira</w>":8175,"Lubimu</w>":8176,"awake</w>":8177,"eyeface</w>":8178,"apprentice</w>":8179,"treachery</w>":8180,"illuminate</w>":8181,"contempt</w>":8182,"nursemaid</w>":8183,"arrogance</w>":8184,"Pabilsag</w>":8185,"ABbread</w>":8186,"mighty":8187,"needle</w>":8188,"recorder</w>":8189,"lacerated</w>":8190,"demarcated</w>":8191,"devoted</w>":8192,"cherished</w>":8193,"aggres":8194,"consisting</w>":8195,"convey</w>":8196,"Lugalunire</w>":8197,"dubdub</w>":8198,"faceeye</w>":8199,"EzinaKusu</w>":8200,"AmarSuenarakiag</w>":8201,"SmlaIl</w>":8202,"battleaxe</w>":8203,"Agrunkug</w>":8204,"Destroy":8205,"Foundation</w>":8206,"jamb</w>":8207,"operate</w>":8208,"anxious</w>":8209,"stillborn</w>":8210,"replacement</w>":8211,"recumbent</w>":8212,"reiterated</w>":8213,"rivaled</w>":8214,"absence</w>":8215,"Urkusu</w>":8216,"Ningirim</w>":8217,"excellent</w>":8218,"adjacent</w>":8219,"muscles</w>":8220,"Adgarkidug</w>":8221,"footstool</w>":8222,"intestines</w>":8223,"dragonface</w>":8224,"Giriniisa</w>":8225,"Drehem</w>":8226,"Establi":8227,"Furious</w>":8228,"Multitudes</w>":8229,"Nalus</w>":8230,"Palace</w>":8231,"Sohn</w>":8232,"elaborate</w>":8233,"gilsa</w>":8234,"hundred</w>":8235,"loudly</w>":8236,"otherwise</w>":8237,"pestle</w>":8238,"trowel</w>":8239,"tutelary</w>":8240,"thighs</w>":8241,"orphan</w>":8242,"stayed</w>":8243,"retrieve</w>":8244,"lipitItar</w>":8245,"richly</w>":8246,"betrothal</w>":8247,"faultless</w>":8248,"extreme</w>":8249,"Lugalpirig":8250,"gakkul</w>":8251,"ezibtum</w>":8252,"disgraceddebased</w>":8253,"Damqiiliu</w>":8254,"134</w>":8255,"1troop</w>":8256,"276</w>":8257,"59</w>":8258,"69</w>":8259,"676</w>":8260,"78</w>":8261,"79</w>":8262,"86</w>":8263,"93</w>":8264,"99</w>":8265,"Aa</w>":8266,"Aban":8267,"Agu":8268,"Abil":8269,"Ahun":8270,"Aabba</w>":8271,"Ca":8272,"Coun":8273,"Cattle":8274,"Chil":8275,"Der</w>":8276,"Dist":8277,"Dabala</w>":8278,"Eg":8279,"Ever":8280,"Eme":8281,"Edar</w>":8282,"Ekur":8283,"Fro":8284,"Fire</w>":8285,"Gab":8286,"Giri":8287,"Ida":8288,"Ilu":8289,"Ikur":8290,"Iran</w>":8291,"Igigi</w>":8292,"Kan":8293,"King":8294,"Kut":8295,"Low":8296,"Lama":8297,"Little</w>":8298,"Mor":8299,"Men</w>":8300,"Mad":8301,"Most</w>":8302,"Manum</w>":8303,"Matur</w>":8304,"Naw":8305,"Noses</w>":8306,"Or</w>":8307,"RI":8308,"Ru":8309,"Rul":8310,"Sk":8311,"Sw":8312,"Sz":8313,"Sur":8314,"Str":8315,"Sever":8316,"Seven</w>":8317,"Tir":8318,"Truly</w>":8319,"Tram":8320,"Tirig":8321,"Ud":8322,"Up</w>":8323,"Ubu":8324,"Upper</w>":8325,"Uarum</w>":8326,"Uram</w>":8327,"Ubar</w>":8328,"Way</w>":8329,"Writ":8330,"Weal":8331,"Zubi</w>":8332,"amade</w>":8333,"akal":8334,"ball":8335,"bid</w>":8336,"blin":8337,"breed</w>":8338,"cun":8339,"cent</w>":8340,"cup</w>":8341,"cooked</w>":8342,"cist</w>":8343,"dled</w>":8344,"dying</w>":8345,"dra</w>":8346,"dumu":8347,"dili</w>":8348,"dkura</w>":8349,"deluge</w>":8350,"ey</w>":8351,"ef</w>":8352,"eig":8353,"eover</w>":8354,"elam</w>":8355,"ebra":8356,"euten":8357,"fang":8358,"fool</w>":8359,"gir</w>":8360,"gee":8361,"gstranger</w>":8362,"gems</w>":8363,"hat":8364,"hat</w>":8365,"hul":8366,"hir":8367,"hear</w>":8368,"hum</w>":8369,"ison</w>":8370,"imony</w>":8371,"je":8372,"jun":8373,"jum":8374,"kisal</w>":8375,"lat":8376,"leng":8377,"lulla":8378,"langu":8379,"mri":8380,"mbo":8381,"mates</w>":8382,"mely</w>":8383,"n6</w>":8384,"ning":8385,"nag":8386,"ness":8387,"oil":8388,"others</w>":8389,"oars</w>":8390,"pent</w>":8391,"pad":8392,"pated</w>":8393,"ption</w>":8394,"pounded</w>":8395,"piece</w>":8396,"round</w>":8397,"rough</w>":8398,"sas</w>":8399,"swel":8400,"sight</w>":8401,"song":8402,"sword</w>":8403,"sending</w>":8404,"tried</w>":8405,"till":8406,"tiring</w>":8407,"va</w>":8408,"var":8409,"von</w>":8410,"ving":8411,"vened</w>":8412,"vals</w>":8413,"wing":8414,"wig</w>":8415,"wand":8416,"wears</w>":8417,"wash</w>":8418,"wander</w>":8419,"xHI</w>":8420,"yond</w>":8421,"zo":8422,"zir":8423,"three":8424,"inal</w>":8425,"inspi":8426,"inflicted</w>":8427,"inhab":8428,"incites</w>":8429,"ane":8430,"anew</w>":8431,"ankle</w>":8432,"anka</w>":8433,"arre":8434,"argu":8435,"araz":8436,"arzi</w>":8437,"arsi</w>":8438,"arisen</w>":8439,"oused</w>":8440,"ity":8441,"iture</w>":8442,"org":8443,"orig":8444,"stun":8445,"stable</w>":8446,"stead</w>":8447,"steal</w>":8448,"ala":8449,"alad</w>":8450,"aluge</w>":8451,"although</w>":8452,"alized</w>":8453,"ild":8454,"ilda":8455,"shly</w>":8456,"shad":8457,"shings</w>":8458,"rob</w>":8459,"roam</w>":8460,"ated":8461,"atura</w>":8462,"atecon":8463,"enra":8464,"enuru</w>":8465,"enkar</w>":8466,"enkum</w>":8467,"encircled</w>":8468,"reco":8469,"refu":8470,"rejected</w>":8471,"lieuten":8472,"lavi":8473,"laying</w>":8474,"layed</w>":8475,"mag</w>":8476,"mast</w>":8477,"mada</w>":8478,"eleli</w>":8479,"ria</w>":8480,"rie</w>":8481,"rides</w>":8482,"rivals</w>":8483,"lever</w>":8484,"lement</w>":8485,"legs</w>":8486,"leaning</w>":8487,"taway</w>":8488,"taught</w>":8489,"tasks</w>":8490,"dem</w>":8491,"desp":8492,"deep":8493,"desec":8494,"depression</w>":8495,"planned</w>":8496,"eme":8497,"emplo":8498,"unable</w>":8499,"unsealed</w>":8500,"unble":8501,"unuk":8502,"unshorn</w>":8503,"unrivaled</w>":8504,"tog":8505,"tops</w>":8506,"rav":8507,"rays</w>":8508,"raise":8509,"daist":8510,"shed":8511,"shegoat</w>":8512,"diment</w>":8513,"reason":8514,"Enent":8515,"irum</w>":8516,"irtum</w>":8517,"goes":8518,"beyond</w>":8519,"igara</w>":8520,"bark</w>":8521,"ounced</w>":8522,"abum</w>":8523,"abra</w>":8524,"ability</w>":8525,"sear":8526,"setad":8527,"agi</w>":8528,"aged</w>":8529,"agal</w>":8530,"olved</w>":8531,"eshe</w>":8532,"tie</w>":8533,"UrEn":8534,"UrNingal</w>":8535,"Ursag</w>":8536,"UrEanna</w>":8537,"UrNinmar</w>":8538,"Urlamma</w>":8539,"ugan":8540,"ugid":8541,"ugita</w>":8542,"announced</w>":8543,"ambush</w>":8544,"amutum</w>":8545,"forest":8546,"force":8547,"idd":8548,"idden</w>":8549,"idingir</w>":8550,"isk</w>":8551,"spittle</w>":8552,"spelt</w>":8553,"keep":8554,"verified</w>":8555,"acles</w>":8556,"actu":8557,"coa":8558,"cost</w>":8559,"coals</w>":8560,"copul":8561,"banidu</w>":8562,"suhur</w>":8563,"Nindar</w>":8564,"Ninubur":8565,"atified</w>":8566,"monial</w>":8567,"money</w>":8568,"plaque</w>":8569,"eces</w>":8570,"scatter</w>":8571,"ppers</w>":8572,"terinlaw</w>":8573,"quie":8574,"docks</w>":8575,"dogstranger</w>":8576,"sail":8577,"safe</w>":8578,"Ningek":8579,"desto":8580,"percedar</w>":8581,"ofthe":8582,"manu":8583,"manu</w>":8584,"manacles</w>":8585,"grapes</w>":8586,"Whit":8587,"series</w>":8588,"serpent</w>":8589,"Inta":8590,"Inana</w>":8591,"Indeed</w>":8592,"exit</w>":8593,"exul":8594,"sured</w>":8595,"proli":8596,"probab":8597,"proceed</w>":8598,"proces":8599,"admi":8600,"herding</w>":8601,"herbs</w>":8602,"destroyer</w>":8603,"servants</w>":8604,"peds</w>":8605,"Lugula</w>":8606,"cada":8607,"seal":8608,"nets</w>":8609,"moist</w>":8610,"stored</w>":8611,"Lugalge</w>":8612,"Lugalgudu":8613,"Lugalemu</w>":8614,"Lugalsiskure</w>":8615,"turni":8616,"duck</w>":8617,"dubb":8618,"dubla</w>":8619,"mounted</w>":8620,"sim":8621,"sia</w>":8622,"size</w>":8623,"anding</w>":8624,"pride</w>":8625,"private</w>":8626,"ceding</w>":8627,"imit":8628,"Lue":8629,"LuNarua</w>":8630,"LuZabala</w>":8631,"Lusaizu</w>":8632,"alluring</w>":8633,"labortroop</w>":8634,"boar</w>":8635,"countr":8636,"belong":8637,"breaks</w>":8638,"watching</w>":8639,"flu":8640,"flows</w>":8641,"flatter</w>":8642,"Anheaven</w>":8643,"Angry</w>":8644,"lordly</w>":8645,"met</w>":8646,"metal":8647,"meaning</w>":8648,"wives</w>":8649,"view":8650,"thering</w>":8651,"marsh":8652,"marki</w>":8653,"marsa</w>":8654,"marries</w>":8655,"cargo</w>":8656,"mished</w>":8657,"cut":8658,"cub</w>":8659,"cupi":8660,"hoof</w>":8661,"birch</w>":8662,"select</w>":8663,"gusur</w>":8664,"oured</w>":8665,"mua</w>":8666,"muster</w>":8667,"muda</w>":8668,"gem</w>":8669,"ization</w>":8670,"praises</w>":8671,"verness</w>":8672,"kalam":8673,"wealth</w>":8674,"Lion</w>":8675,"joining</w>":8676,"gratified</w>":8677,"knobs</w>":8678,"entrea":8679,"fulfill</w>":8680,"troubled</w>":8681,"dividing</w>":8682,"divided</w>":8683,"past</w>":8684,"ubis":8685,"ubar</w>":8686,"ritic</w>":8687,"sole":8688,"slain</w>":8689,"slapped</w>":8690,"bridge</w>":8691,"throughout</w>":8692,"deligh":8693,"smites</w>":8694,"bitch</w>":8695,"receiving</w>":8696,"edgathered</w>":8697,"poses</w>":8698,"possess</w>":8699,"wax</w>":8700,"washed</w>":8701,"waqar</w>":8702,"anga</w>":8703,"angled</w>":8704,"name":8705,"innum</w>":8706,"Abisare</w>":8707,"presentation</w>":8708,"endent</w>":8709,"enduring</w>":8710,"abundantly</w>":8711,"potter</w>":8712,"point</w>":8713,"poison</w>":8714,"iribam</w>":8715,"daughterinlaw</w>":8716,"voys</w>":8717,"vocate</w>":8718,"overcome</w>":8719,"distur":8720,"aker</w>":8721,"akara</w>":8722,"clay":8723,"understand</w>":8724,"undertaker</w>":8725,"luhu</w>":8726,"singly</w>":8727,"galatura</w>":8728,"Abba</w>":8729,"heights</w>":8730,"heirs</w>":8731,"tallow</w>":8732,"houseborn</w>":8733,"mortal</w>":8734,"dines</w>":8735,"withstand</w>":8736,"icating</w>":8737,"KuNingal</w>":8738,"trapre":8739,"ttled</w>":8740,"Larsas</w>":8741,"milk":8742,"miles</w>":8743,"milking</w>":8744,"emptied</w>":8745,"plowed</w>":8746,"tintox":8747,"plantoil</w>":8748,"weigh</w>":8749,"Geme</w>":8750,"outcry</w>":8751,"donkey":8752,"ifest</w>":8753,"heavily</w>":8754,"Albanidu</w>":8755,"itious</w>":8756,"slaughter":8757,"fini":8758,"finalized</w>":8759,"kiag":8760,"curved</w>":8761,"kindly</w>":8762,"resides</w>":8763,"aua</w>":8764,"auz</w>":8765,"flew</w>":8766,"pleasur":8767,"stela</w>":8768,"Adaga</w>":8769,"orchard":8770,"smiths</w>":8771,"Sni</w>":8772,"Snbal":8773,"pours</w>":8774,"inspectors</w>":8775,"Zabu</w>":8776,"matron</w>":8777,"Ere</w>":8778,"chapel</w>":8779,"interrup":8780,"picked</w>":8781,"Top</w>":8782,"hurled</w>":8783,"Gemegan":8784,"produces</w>":8785,"producing</w>":8786,"highway</w>":8787,"usi</w>":8788,"lifting</w>":8789,"liters</w>":8790,"favour</w>":8791,"sweeper</w>":8792,"sweeping</w>":8793,"sweetintox":8794,"cleverness</w>":8795,"cracked</w>":8796,"junipercedar</w>":8797,"thereby</w>":8798,"sunset</w>":8799,"crops</w>":8800,"scriptions</w>":8801,"genous</w>":8802,"sumed</w>":8803,"champion</w>":8804,"murder":8805,"discover</w>":8806,"Baba":8807,"righteously</w>":8808,"males</w>":8809,"Meskiag":8810,"function</w>":8811,"flap</w>":8812,"radiant</w>":8813,"gazelle":8814,"135</w>":8815,"Siniribam</w>":8816,"fullers</w>":8817,"fulltime</w>":8818,"clut":8819,"egkur":8820,"entirety</w>":8821,"content":8822,"MeEnlil</w>":8823,"ornaments</w>":8824,"cattlepens</w>":8825,"multicolored</w>":8826,"Iribare</w>":8827,"firstfruits</w>":8828,"itude</w>":8829,"Ilbani</w>":8830,"venge</w>":8831,"piling</w>":8832,"gathering</w>":8833,"lication</w>":8834,"exercised</w>":8835,"Protec":8836,"Return</w>":8837,"figurine</w>":8838,"allocated</w>":8839,"listened</w>":8840,"bolts</w>":8841,"upon":8842,"InimInanna</w>":8843,"transfer</w>":8844,"Urabba</w>":8845,"udugita</w>":8846,"142</w>":8847,"expanding</w>":8848,"exhausti":8849,"intelligent</w>":8850,"feeling</w>":8851,"viser</w>":8852,"Barley":8853,"stically</w>":8854,"keel</w>":8855,"terrifying</w>":8856,"PuzurShulgi</w>":8857,"Lumelam</w>":8858,"opener</w>":8859,"blocking</w>":8860,"render</w>":8861,"sinew</w>":8862,"excessive</w>":8863,"regulations</w>":8864,"tumult</w>":8865,"bedding</w>":8866,"incise</w>":8867,"choosing</w>":8868,"multiplication</w>":8869,"198</w>":8870,"large":8871,"thirst</w>":8872,"performs</w>":8873,"trusty</w>":8874,"afterward</w>":8875,"filthy</w>":8876,"reedbeds</w>":8877,"FestivalofNinazu</w>":8878,"FestivalofMekigal</w>":8879,"Emudkura</w>":8880,"fog</w>":8881,"remain</w>":8882,"libations</w>":8883,"mountainland</w>":8884,"diviner</w>":8885,"GANxHI</w>":8886,"166</w>":8887,"IddinErra</w>":8888,"Forever</w>":8889,"Magu":8890,"Magure</w>":8891,"NrAdda</w>":8892,"Stone</w>":8893,"occupi":8894,"locusts</w>":8895,"Akiti</w>":8896,"Bigfestival</w>":8897,"catch</w>":8898,"shrine":8899,"conveyor</w>":8900,"paste</w>":8901,"According</w>":8902,"Account</w>":8903,"Girnun</w>":8904,"lunch</w>":8905,"lunches</w>":8906,"squee":8907,"exorcist</w>":8908,"Greatstele</w>":8909,"vegetation</w>":8910,"transport</w>":8911,"Gave</w>":8912,"purity</w>":8913,"relax</w>":8914,"accomplished</w>":8915,"apex</w>":8916,"eminates</w>":8917,"grasping</w>":8918,"fingers</w>":8919,"thickened</w>":8920,"earthcarrying</w>":8921,"earthmoving</w>":8922,"circle</w>":8923,"sacrificed</w>":8924,"sacrifices</w>":8925,"Hillockofacacia</w>":8926,"Hillockofplantoil</w>":8927,"Author":8928,"Does</w>":8929,"Huwawamade</w>":8930,"howling</w>":8931,"lugalane</w>":8932,"lugalbanda</w>":8933,"rivercanal</w>":8934,"conversation</w>":8935,"concern</w>":8936,"Eania</w>":8937,"Govern":8938,"biggovernor</w>":8939,"bigcheese</w>":8940,"falsely</w>":8941,"wolves</w>":8942,"archit":8943,"sprinkle</w>":8944,"boasted</w>":8945,"Noble</w>":8946,"achieve</w>":8947,"sang</w>":8948,"semen</w>":8949,"revoked</w>":8950,"massive</w>":8951,"spadi":8952,"doubleh":8953,"Dingirma</w>":8954,"Boats</w>":8955,"ponds</w>":8956,"remit</w>":8957,"disappearance</w>":8958,"betters</w>":8959,"Inannaka</w>":8960,"caretaker</w>":8961,"allotments</w>":8962,"punched</w>":8963,"pounds</w>":8964,"stalk</w>":8965,"fortification</w>":8966,"Sumuel</w>":8967,"furnishings</w>":8968,"pronouncements</w>":8969,"Habra</w>":8970,"oracle</w>":8971,"ordinances</w>":8972,"Enakale</w>":8973,"activity</w>":8974,"brilliant</w>":8975,"painfully</w>":8976,"straightened</w>":8977,"straightaway</w>":8978,"distribution</w>":8979,"Pabilu</w>":8980,"basalt</w>":8981,"glory</w>":8982,"roll</w>":8983,"robbers</w>":8984,"relative</w>":8985,"ascend</w>":8986,"fetters</w>":8987,"stacked</w>":8988,"seventh</w>":8989,"potters</w>":8990,"prayerofferingritual</w>":8991,"sharpening</w>":8992,"Built</w>":8993,"meme</w>":8994,"lioness</w>":8995,"majestic</w>":8996,"wordcase</w>":8997,"Throne</w>":8998,"sional</w>":8999,"Agugu</w>":9000,"Agades</w>":9001,"Arad":9002,"Manifest</w>":9003,"Roam":9004,"Speak</w>":9005,"vanced</w>":9006,"throwsticks</w>":9007,"sexual</w>":9008,"sexually</w>":9009,"victories</w>":9010,"brightly</w>":9011,"purebright</w>":9012,"Standing</w>":9013,"exuberant</w>":9014,"Puauz</w>":9015,"member</w>":9016,"members</w>":9017,"thinned</w>":9018,"madaria</w>":9019,"player</w>":9020,"trampled</w>":9021,"neckstock</w>":9022,"devouring</w>":9023,"Plough":9024,"dressing</w>":9025,"gleaming</w>":9026,"poles</w>":9027,"slanderer</w>":9028,"rosettes</w>":9029,"rescind</w>":9030,"charming</w>":9031,"Ninsiana</w>":9032,"admiration</w>":9033,"Lugalmumag</w>":9034,"cucumbers</w>":9035,"musical</w>":9036,"getinanna</w>":9037,"weakened</w>":9038,"collector</w>":9039,"Simtiilak</w>":9040,"assistants</w>":9041,"Keekug</w>":9042,"LAK":9043,"Ubifeast</w>":9044,"symbo":9045,"testimony</w>":9046,"weary</w>":9047,"student</w>":9048,"shores</w>":9049,"enlarged</w>":9050,"recited</w>":9051,"whoever</w>":9052,"realised</w>":9053,"pathas</w>":9054,"slavegirl</w>":9055,"Abbagena</w>":9056,"wetnurse</w>":9057,"requisitioners</w>":9058,"Munusgilsa</w>":9059,"KIAN</w>":9060,"duly</w>":9061,"shelter</w>":9062,"lessly</w>":9063,"tamarisk</w>":9064,"tavernbrewery</w>":9065,"amenable</w>":9066,"Indasu</w>":9067,"extremely</w>":9068,"flatten</w>":9069,"marvelsee</w>":9070,"getina</w>":9071,"brotherhood</w>":9072,"rituals</w>":9073,"standingplace</w>":9074,"subsistance</w>":9075,"trimmed</w>":9076,"Faithfully</w>":9077,"acquaintances</w>":9078,"discernment</w>":9079,"NaneGIRgal</w>":9080,"Firstfruits</w>":9081,"thingsfood</w>":9082,"guarantor</w>":9083,"freelyhumbly</w>":9084,"quadrupeds</w>":9085,"After":9086,"Ibex":9087,"Mubiana</w>":9088,"Opening</w>":9089,"Tarsirsir</w>":9090,"Zubaga</w>":9091,"datepalm</w>":9092,"freedom</w>":9093,"ibex</w>":9094,"jewels</w>":9095,"route</w>":9096,"indigenous</w>":9097,"inundated</w>":9098,"arthritic</w>":9099,"ennupriest</w>":9100,"elluDagan</w>":9101,"suffer</w>":9102,"propitious</w>":9103,"countenance</w>":9104,"Gutians</w>":9105,"Gememunuk":9106,"cloisters</w>":9107,"disposal</w>":9108,"transgress</w>":9109,"chariotry</w>":9110,"expenditure</w>":9111,"Damiqiliu</w>":9112,"slingstones</w>":9113,"yielded</w>":9114,"Evildoers</w>":9115,"organizedgathered</w>":9116,"patrimonial</w>":9117,"AbaEnlilgin</w>":9118,"Destroyer</w>":9119,"Kutalla</w>":9120,"Moreover</w>":9121,"Rushes</w>":9122,"Ruler</w>":9123,"Sweet</w>":9124,"Tirigan</w>":9125,"cunning</w>":9126,"geese</w>":9127,"junction</w>":9128,"lullaby</w>":9129,"language</w>":9130,"mriqtidnim</w>":9131,"varie":9132,"arazame</w>":9133,"ildag</w>":9134,"ateconsumed</w>":9135,"recogn":9136,"lavishly</w>":9137,"desecrated</w>":9138,"unblemished</w>":9139,"daistent</w>":9140,"Enentarzi</w>":9141,"setadvanced</w>":9142,"keepers</w>":9143,"probably</w>":9144,"Lugalgudua</w>":9145,"turnips</w>":9146,"dubban</w>":9147,"belonging</w>":9148,"Snbalssuiqbi</w>":9149,"Gemeganun</w>":9150,"sweetintoxicating</w>":9151,"egkuraga</w>":9152,"occupied</w>":9153,"Gememunukuga</w>":9154,"112</w>":9155,"115</w>":9156,"123</w>":9157,"111</w>":9158,"125</w>":9159,"242</w>":9160,"215":9161,"292</w>":9162,"33":9163,"4f</w>":9164,"648</w>":9165,"746</w>":9166,"765</w>":9167,"91</w>":9168,"97</w>":9169,"AN":9170,"AD</w>":9171,"Ash":9172,"Ali":9173,"Abe":9174,"Aru":9175,"Apart</w>":9176,"AEnlil":9177,"Away</w>":9178,"Api":9179,"Aia</w>":9180,"Amag":9181,"Aud":9182,"BI":9183,"Bea":9184,"Booked</w>":9185,"Barge</w>":9186,"BAD</w>":9187,"Cau":9188,"Clad</w>":9189,"Cedar</w>":9190,"Dr</w>":9191,"Dir":9192,"Dab":9193,"Daz":9194,"Es":9195,"Eur":9196,"Eig":9197,"Eam":9198,"Edu":9199,"Eki</w>":9200,"Ebgal</w>":9201,"Eunir</w>":9202,"Epum</w>":9203,"Fl":9204,"Fol":9205,"Fear</w>":9206,"Fine</w>":9207,"Fatten":9208,"Fearing</w>":9209,"Ger":9210,"Gold</w>":9211,"Growing</w>":9212,"GUR</w>":9213,"He":9214,"Hor":9215,"Head</w>":9216,"Hendursag</w>":9217,"Hamazi</w>":9218,"Ig":9219,"It":9220,"Iti":9221,"Itra":9222,"Ikn":9223,"Juni":9224,"Kat":9225,"Kir":9226,"Kiri":9227,"Kuli</w>":9228,"LU":9229,"Le":9230,"Long</w>":9231,"Lala</w>":9232,"Lap":9233,"Look</w>":9234,"Mer":9235,"Mil":9236,"May":9237,"Mada</w>":9238,"Muru</w>":9239,"NE</w>":9240,"New":9241,"Nanibgal</w>":9242,"Pu</w>":9243,"Pas":9244,"Piri":9245,"Pap":9246,"Pada</w>":9247,"Preg":9248,"Pirig":9249,"Rising</w>":9250,"Run</w>":9251,"So":9252,"Sla":9253,"Sel":9254,"Sit</w>":9255,"Sec":9256,"Shou":9257,"Tu":9258,"Tul":9259,"Thi":9260,"Tam":9261,"Tarm":9262,"TAR</w>":9263,"Uu</w>":9264,"Ubar":9265,"Ulu":9266,"Umu</w>":9267,"Ugn":9268,"Ugur":9269,"Vin":9270,"Wind</w>":9271,"Wool</w>":9272,"Wild</w>":9273,"Zu":9274,"Zim":9275,"Zaz":9276,"Zamu</w>":9277,"aq":9278,"ah</w>":9279,"aana</w>":9280,"amah</w>":9281,"aagar</w>":9282,"bu</w>":9283,"bon":9284,"bin</w>":9285,"boun":9286,"bis":9287,"bidden</w>":9288,"crow</w>":9289,"ccheese</w>":9290,"cran":9291,"ceeds</w>":9292,"dur</w>":9293,"dum</w>":9294,"driver</w>":9295,"drowned</w>":9296,"et":9297,"ebr":9298,"eship</w>":9299,"equality</w>":9300,"fated</w>":9301,"figh":9302,"fought</w>":9303,"frow":9304,"frown</w>":9305,"gon":9306,"gers</w>":9307,"gug":9308,"gala</w>":9309,"glance</w>":9310,"gadala</w>":9311,"hin":9312,"hen":9313,"hind</w>":9314,"hard</w>":9315,"hali</w>":9316,"heeds</w>":9317,"ion</w>":9318,"ime</w>":9319,"ium</w>":9320,"iam</w>":9321,"ires</w>":9322,"idab</w>":9323,"ja</w>":9324,"jail</w>":9325,"kit":9326,"kad":9327,"kkan</w>":9328,"kallum</w>":9329,"len":9330,"lum":9331,"latum</w>":9332,"lative</w>":9333,"mit</w>":9334,"mss</w>":9335,"mous</w>":9336,"mmu</w>":9337,"mbles</w>":9338,"nu</w>":9339,"naga</w>":9340,"ol</w>":9341,"oting</w>":9342,"ocy</w>":9343,"pr":9344,"ping":9345,"pum":9346,"pus</w>":9347,"pub":9348,"pment</w>":9349,"pada</w>":9350,"qa</w>":9351,"rani</w>":9352,"rough":9353,"sm</w>":9354,"sz</w>":9355,"sal</w>":9356,"sig</w>":9357,"sown</w>":9358,"sings</w>":9359,"sowed</w>":9360,"sense</w>":9361,"tun":9362,"tig":9363,"till</w>":9364,"tigh":9365,"tings</w>":9366,"twis":9367,"teat</w>":9368,"tition</w>":9369,"tly":9370,"use":9371,"ush</w>":9372,"uda</w>":9373,"uded</w>":9374,"uku</w>":9375,"uper</w>":9376,"uana</w>":9377,"udar</w>":9378,"utaklku</w>":9379,"vul":9380,"vil</w>":9381,"vings</w>":9382,"win</w>":9383,"wrea":9384,"wned</w>":9385,"winter":9386,"yers</w>":9387,"yside</w>":9388,"yhappiness</w>":9389,"yria</w>":9390,"zit":9391,"zabala</w>":9392,"zze":9393,"tha</w>":9394,"thmother</w>":9395,"throw</w>":9396,"thened</w>":9397,"inf":9398,"inon</w>":9399,"inas</w>":9400,"inta":9401,"intab":9402,"indu":9403,"indle</w>":9404,"inaba":9405,"induces</w>":9406,"ans":9407,"aning":9408,"anzu</w>":9409,"angr":9410,"antre":9411,"anced</w>":9412,"anizi</w>":9413,"anumea</w>":9414,"anvil</w>":9415,"arz":9416,"arr</w>":9417,"arku</w>":9418,"arkal":9419,"arlu":9420,"artum</w>":9421,"arlings</w>":9422,"arinnum</w>":9423,"erin</w>":9424,"erim":9425,"erless</w>":9426,"errum":9427,"eridingir</w>":9428,"eala</w>":9429,"itana</w>":9430,"itute</w>":9431,"itab</w>":9432,"itae</w>":9433,"ori":9434,"orate</w>":9435,"ormous</w>":9436,"onrushing</w>":9437,"sty</w>":9438,"ston":9439,"sten</w>":9440,"stag</w>":9441,"start</w>":9442,"stalli":9443,"alum":9444,"alad":9445,"algar":9446,"altum</w>":9447,"alub</w>":9448,"alag</w>":9449,"alaya</w>":9450,"aluh</w>":9451,"ilen</w>":9452,"ilty</w>":9453,"ilpa":9454,"sham":9455,"shut":9456,"shell</w>":9457,"roars</w>":9458,"roiling</w>":9459,"rotten</w>":9460,"ropes</w>":9461,"atch</w>":9462,"ening":9463,"eness</w>":9464,"enthr":9465,"enched</w>":9466,"enact</w>":9467,"encing</w>":9468,"envoys</w>":9469,"enormous</w>":9470,"reward</w>":9471,"relied</w>":9472,"retreat</w>":9473,"lim</w>":9474,"liage</w>":9475,"lama</w>":9476,"laden</w>":9477,"lagar</w>":9478,"lamas":9479,"mak":9480,"may":9481,"masa":9482,"mama</w>":9483,"mapriest</w>":9484,"mament</w>":9485,"makum</w>":9486,"maxim":9487,"elds</w>":9488,"elite</w>":9489,"whir":9490,"urtum</w>":9491,"rible</w>":9492,"ripe</w>":9493,"lex":9494,"leen</w>":9495,"level":9496,"task":9497,"debr":9498,"dedu":9499,"dece":9500,"despread</w>":9501,"defam":9502,"degroom</w>":9503,"pleland</w>":9504,"novice</w>":9505,"unu":9506,"unir":9507,"unlea":9508,"unpar":9509,"unclean":9510,"unka</w>":9511,"unchanging</w>":9512,"tol</w>":9513,"tofor</w>":9514,"toms</w>":9515,"tocks</w>":9516,"rag":9517,"rather</w>":9518,"rade</w>":9519,"rains</w>":9520,"races</w>":9521,"raining</w>":9522,"razed</w>":9523,"rabid</w>":9524,"dakig":9525,"dairy</w>":9526,"dawned</w>":9527,"shearlings</w>":9528,"ull":9529,"ulgal</w>":9530,"ularly</w>":9531,"dif":9532,"dience</w>":9533,"diwork</w>":9534,"diworkers</w>":9535,"dirie</w>":9536,"Enann":9537,"EnEnlil":9538,"Enedu":9539,"irina</w>":9540,"irsag</w>":9541,"beha":9542,"beings</w>":9543,"barbar":9544,"barrage</w>":9545,"abz":9546,"aben</w>":9547,"abuse</w>":9548,"abta</w>":9549,"abzu":9550,"chhouse</w>":9551,"chos":9552,"charm</w>":9553,"chaff</w>":9554,"change":9555,"sequ":9556,"seways</w>":9557,"agu</w>":9558,"agir":9559,"agugal</w>":9560,"agrig</w>":9561,"agadala</w>":9562,"ass</w>":9563,"asked</w>":9564,"asks</w>":9565,"aslum</w>":9566,"olds</w>":9567,"hak</w>":9568,"haver</w>":9569,"hama</w>":9570,"haps</w>":9571,"havo":9572,"escor":9573,"esplaces</w>":9574,"tial</w>":9575,"tiea</w>":9576,"worn</w>":9577,"worried</w>":9578,"sils</w>":9579,"silvery</w>":9580,"silences</w>":9581,"hiding</w>":9582,"hirim</w>":9583,"fix":9584,"fig</w>":9585,"fishes</w>":9586,"Urb":9587,"UrEnki</w>":9588,"Ursag":9589,"UrEbabbar</w>":9590,"Urdar":9591,"Urgu</w>":9592,"Urendursag</w>":9593,"Urru</w>":9594,"UrEnunna</w>":9595,"Ursukkal</w>":9596,"UrGig":9597,"UrGebare</w>":9598,"Urkisal</w>":9599,"umbil":9600,"umph":9601,"anni</w>":9602,"amid":9603,"amid</w>":9604,"amarm":9605,"fork</w>":9606,"forsa":9607,"forward</w>":9608,"forbidden</w>":9609,"idary</w>":9610,"idug</w>":9611,"isaba</w>":9612,"ission":9613,"earrings</w>":9614,"spared</w>":9615,"spattered</w>":9616,"spell</w>":9617,"spades</w>":9618,"spindle</w>":9619,"spleen</w>":9620,"keys</w>":9621,"aces</w>":9622,"acking</w>":9623,"accumulated</w>":9624,"fair</w>":9625,"sup":9626,"suit</w>":9627,"sucking</w>":9628,"Ninim":9629,"Ninnig":9630,"Ninki":9631,"NinSAR</w>":9632,"Ninegala</w>":9633,"Ninild":9634,"atim</w>":9635,"atics</w>":9636,"monster</w>":9637,"monious</w>":9638,"strations</w>":9639,"ecrown</w>":9640,"grease</w>":9641,"terran":9642,"teric</w>":9643,"terpreter</w>":9644,"esty</w>":9645,"esting</w>":9646,"estar</w>":9647,"quit</w>":9648,"doc":9649,"sam</w>":9650,"saman</w>":9651,"sapar</w>":9652,"ression</w>":9653,"perman":9654,"ofwhere</w>":9655,"ofHeaven</w>":9656,"manworker</w>":9657,"mananyone</w>":9658,"Whe":9659,"Three</w>":9660,"Inima":9661,"Indag":9662,"Instead</w>":9663,"exiled</w>":9664,"exceed</w>":9665,"extract</w>":9666,"extol</w>":9667,"ruling</w>":9668,"surve":9669,"adue</w>":9670,"aduga</w>":9671,"adjoining</w>":9672,"advocate</w>":9673,"adviser</w>":9674,"here":9675,"worker":9676,"worktroop":9677,"pea</w>":9678,"pezo":9679,"peerless</w>":9680,"cakes</w>":9681,"casting</w>":9682,"casts</w>":9683,"causes</w>":9684,"castically</w>":9685,"seas</w>":9686,"mote":9687,"mottled</w>":9688,"store</w>":9689,"conif":9690,"contem":9691,"convened</w>":9692,"Lugald":9693,"Lugalm":9694,"Lugala</w>":9695,"Lugalam":9696,"Lugaleng":9697,"Lugalala</w>":9698,"Lugalpae</w>":9699,"Lugaluumgal</w>":9700,"Lugalgiri":9701,"undo</w>":9702,"turt":9703,"sim</w>":9704,"sisters</w>":9705,"sibility</w>":9706,"ruin":9707,"ruvillage</w>":9708,"rubbed</w>":9709,"prime":9710,"ime":9711,"impro":9712,"immu</w>":9713,"improved</w>":9714,"immobil":9715,"comrade</w>":9716,"Luz":9717,"LuGudea</w>":9718,"Luba</w>":9719,"Luazida</w>":9720,"Luulgira</w>":9721,"allknowing</w>":9722,"alleled</w>":9723,"mined</w>":9724,"minating</w>":9725,"minterpreter</w>":9726,"boy</w>":9727,"boiled</w>":9728,"bovine</w>":9729,"bellows</w>":9730,"breath":9731,"peopleland</w>":9732,"warp</w>":9733,"warf</w>":9734,"watched</w>":9735,"canebra":9736,"Ann":9737,"Ans</w>":9738,"Anthe</w>":9739,"Anun":9740,"Answ":9741,"wishing</w>":9742,"widespread</w>":9743,"vie</w>":9744,"viper</w>":9745,"ferry</w>":9746,"fermen":9747,"Aktu</w>":9748,"Akala</w>":9749,"Gubin</w>":9750,"marhali</w>":9751,"oxend":9752,"caress</w>":9753,"carriers</w>":9754,"cuts</w>":9755,"gathers</w>":9756,"gazi</w>":9757,"burn</w>":9758,"bursag</w>":9759,"burnt</w>":9760,"bbu</w>":9761,"cient</w>":9762,"ciful</w>":9763,"homes</w>":9764,"hosts</w>":9765,"birthmother</w>":9766,"gudap":9767,"gueship</w>":9768,"guilty</w>":9769,"mug</w>":9770,"mutt":9771,"gel</w>":9772,"gebanda</w>":9773,"getting</w>":9774,"izi":9775,"pray</w>":9776,"womanhood</w>":9777,"kalimmu</w>":9778,"UrNamn":9779,"UrNisaba</w>":9780,"grou":9781,"grind</w>":9782,"grounds</w>":9783,"leads</w>":9784,"leaving</w>":9785,"leader":9786,"towards":9787,"parts</w>":9788,"entr":9789,"entry</w>":9790,"pain</w>":9791,"pauper</w>":9792,"tended</w>":9793,"quart</w>":9794,"uzi":9795,"uba":9796,"utur</w>":9797,"utul</w>":9798,"firmament</w>":9799,"soa":9800,"socle</w>":9801,"socket</w>":9802,"UruBaba</w>":9803,"slap</w>":9804,"coloured</w>":9805,"juven":9806,"delivers</w>":9807,"delight":9808,"smeared</w>":9809,"trusts</w>":9810,"beak</w>":9811,"edged</w>":9812,"edcovers</w>":9813,"posing</w>":9814,"posit</w>":9815,"angu</w>":9816,"anging</w>":9817,"Absim":9818,"young":9819,"kingal</w>":9820,"kingmaster</w>":9821,"lapidary</w>":9822,"AmarSin</w>":9823,"Amarezem</w>":9824,"pointed</w>":9825,"police</w>":9826,"apkallum</w>":9827,"miditana</w>":9828,"tul</w>":9829,"Ninurt":9830,"skull</w>":9831,"aza</w>":9832,"azum</w>":9833,"overly</w>":9834,"distant":9835,"akal</w>":9836,"subdu":9837,"subjects</w>":9838,"clasp":9839,"lu2</w>":9840,"lumapriest</w>":9841,"lustrations</w>":9842,"singrites</w>":9843,"singularly</w>":9844,"gallo":9845,"galabzu</w>":9846,"Abbakalla</w>":9847,"buttocks</w>":9848,"hegoats</w>":9849,"feature</w>":9850,"institu":9851,"gardens</w>":9852,"trip</w>":9853,"tribe</w>":9854,"triang":9855,"triumph":9856,"commits</w>":9857,"withstood</w>":9858,"restoring</w>":9859,"restores</w>":9860,"garment":9861,"nigg":9862,"nigdab</w>":9863,"treats</w>":9864,"track</w>":9865,"Kian</w>":9866,"Larag</w>":9867,"assemble</w>":9868,"removes</w>":9869,"derly</w>":9870,"torches</w>":9871,"weir</w>":9872,"weaned</w>":9873,"forming</w>":9874,"formation</w>":9875,"formula</w>":9876,"Gemen":9877,"Marsh</w>":9878,"Marad</w>":9879,"Enlilship</w>":9880,"Enlilbni</w>":9881,"finest</w>":9882,"finely</w>":9883,"finequality</w>":9884,"residue</w>":9885,"feces</w>":9886,"fecund</w>":9887,"suckled</w>":9888,"audience</w>":9889,"pleasures</w>":9890,"clothe</w>":9891,"closed</w>":9892,"lamentation":9893,"Sngmil</w>":9894,"rung</w>":9895,"ancing</w>":9896,"shavings</w>":9897,"Named</w>":9898,"Namnun":9899,"Namzit":9900,"straint</w>":9901,"attack</w>":9902,"attacked</w>":9903,"suitable":9904,"pier":9905,"pieces</w>":9906,"surpasses</w>":9907,"watermarsh</w>":9908,"protecting</w>":9909,"Geme2":9910,"Gemeulgi</w>":9911,"GemeEanna</w>":9912,"GemeLamma</w>":9913,"GemeNinubur</w>":9914,"biya</w>":9915,"humility</w>":9916,"Nigine</w>":9917,"NigBaba</w>":9918,"flocked</w>":9919,"merely</w>":9920,"products</w>":9921,"Uriruvillage</w>":9922,"nua</w>":9923,"highest</w>":9924,"highquality</w>":9925,"usz":9926,"lifts</w>":9927,"liter</w>":9928,"sweeten</w>":9929,"Nanni</w>":9930,"saggal</w>":9931,"sagida</w>":9932,"responsibility</w>":9933,"limiting</w>":9934,"desol":9935,"ulgimuda</w>":9936,"crack</w>":9937,"DaUmma</w>":9938,"Daagi</w>":9939,"perfecting</w>":9940,"croaker</w>":9941,"fattening</w>":9942,"fatteners</w>":9943,"instruct</w>":9944,"instructing</w>":9945,"Enmeziana</w>":9946,"balk</w>":9947,"brambles</w>":9948,"widely</w>":9949,"axing</w>":9950,"ision":9951,"superlative</w>":9952,"supported</w>":9953,"ARADula</w>":9954,"brickmold</w>":9955,"observ":9956,"observed</w>":9957,"redfurious</w>":9958,"Again</w>":9959,"breeze</w>":9960,"boundaries</w>":9961,"Apsu</w>":9962,"Mesan":9963,"Meslam</w>":9964,"fruit":9965,"ligence</w>":9966,"joyfully":9967,"KAL":9968,"flashes</w>":9969,"Amorites</w>":9970,"illati</w>":9971,"ladders</w>":9972,"section</w>":9973,"138</w>":9974,"Siniq":9975,"nessed</w>":9976,"anymore</w>":9977,"cleansingrites</w>":9978,"clari":9979,"clenched</w>":9980,"peas</w>":9981,"stakes</w>":9982,"ential</w>":9983,"entirely</w>":9984,"headgear</w>":9985,"irrigates</w>":9986,"Dud":9987,"yoked</w>":9988,"powerwing</w>":9989,"towed</w>":9990,"towering</w>":9991,"towpaths</w>":9992,"constable</w>":9993,"Irigal</w>":9994,"flowered</w>":9995,"brewing</w>":9996,"handwriting</w>":9997,"Idilpa":9998,"kurun</w>":9999,"kurmeasures</w>":10000,"wrath</w>":10001,"celebr":10002,"185</w>":10003,"181</w>":10004,"piloting</w>":10005,"fromat</w>":10006,"licate</w>":10007,"emery</w>":10008,"exerted</w>":10009,"Asarlu":10010,"Replace</w>":10011,"denuded</w>":10012,"regard</w>":10013,"listening</w>":10014,"Lugalurani</w>":10015,"bolted</w>":10016,"girin":10017,"upstream</w>":10018,"inquiry</w>":10019,"inquires</w>":10020,"offabandoned</w>":10021,"illat</w>":10022,"insulter</w>":10023,"Amagetin":10024,"Urab":10025,"Urakkan</w>":10026,"udder</w>":10027,"adornment</w>":10028,"Exu":10029,"deaf":10030,"deaf</w>":10031,"solitary</w>":10032,"judgements</w>":10033,"Bazizi</w>":10034,"drive</w>":10035,"dripping</w>":10036,"kigal":10037,"consumption</w>":10038,"Making</w>":10039,"Made</w>":10040,"Makes</w>":10041,"Maazum</w>":10042,"reverence</w>":10043,"Damutaklku</w>":10044,"oppos":10045,"oppress</w>":10046,"oppression</w>":10047,"sniff":10048,"snacking</w>":10049,"revea":10050,"Puzursz":10051,"Puzris":10052,"Ambar</w>":10053,"Ammiditana</w>":10054,"Lummag":10055,"mannum</w>":10056,"intone</w>":10057,"intoned</w>":10058,"intoning</w>":10059,"decorations</w>":10060,"opened":10061,"carcases</w>":10062,"gurma</w>":10063,"pulver":10064,"appropriately</w>":10065,"functionaries</w>":10066,"tedfurnished</w>":10067,"anied</w>":10068,"excee":10069,"merchants</w>":10070,"Saman</w>":10071,"honour</w>":10072,"araamu</w>":10073,"arauma</w>":10074,"Under</w>":10075,"Unaben</w>":10076,"ffered</w>":10077,"smashing</w>":10078,"smashes</w>":10079,"dependent</w>":10080,"acquired</w>":10081,"Ningubalag</w>":10082,"heavenwards</w>":10083,"Belarik</w>":10084,"Duganizi</w>":10085,"afterbirth</w>":10086,"Baamu</w>":10087,"Dedicating":10088,"Delimiting</w>":10089,"incising</w>":10090,"ploughshare</w>":10091,"FestivalofAn</w>":10092,"FestivalofBaba</w>":10093,"dagula</w>":10094,"daggers</w>":10095,"evolent</w>":10096,"supplicate</w>":10097,"Naramil</w>":10098,"Emukalama</w>":10099,"Nagar":10100,"foe</w>":10101,"foster":10102,"foliage</w>":10103,"separate</w>":10104,"equipment</w>":10105,"craftedfurnished</w>":10106,"hili</w>":10107,"direct</w>":10108,"Taking</w>":10109,"Taken</w>":10110,"advance</w>":10111,"advance":10112,"Levels</w>":10113,"shrinesplaces</w>":10114,"pastures</w>":10115,"harvesttime</w>":10116,"idiocy</w>":10117,"shocks</w>":10118,"bestow</w>":10119,"GreatFestival</w>":10120,"GreatStele</w>":10121,"obliteration</w>":10122,"175</w>":10123,"pacif":10124,"accompanied</w>":10125,"overwhelming</w>":10126,"Anaili</w>":10127,"AnaDamutaklku</w>":10128,"Persia</w>":10129,"coveredcovers</w>":10130,"consid":10131,"confusion</w>":10132,"grandfather</w>":10133,"colleagueship</w>":10134,"Siraran</w>":10135,"fingering</w>":10136,"thicken</w>":10137,"rebellion</w>":10138,"borderland</w>":10139,"borderextreme</w>":10140,"pickaxes</w>":10141,"pickax</w>":10142,"pickaxing</w>":10143,"Audagula</w>":10144,"kila</w>":10145,"kills</w>":10146,"riverine</w>":10147,"sumaccheese</w>":10148,"conversing</w>":10149,"Ground</w>":10150,"Nimintab":10151,"Without</w>":10152,"bigger</w>":10153,"false</w>":10154,"soothe</w>":10155,"maidservant</w>":10156,"totality</w>":10157,"hireling</w>":10158,"fasten</w>":10159,"fastly</w>":10160,"grasses</w>":10161,"broadened</w>":10162,"subjugated</w>":10163,"repeated</w>":10164,"youthfulness</w>":10165,"steadfastly</w>":10166,"solidified</w>":10167,"Raising</w>":10168,"babies</w>":10169,"handiwork</w>":10170,"increase</w>":10171,"spade</w>":10172,"correctly":10173,"Meslamtiea</w>":10174,"mouthword</w>":10175,"doublemiles</w>":10176,"Concerning</w>":10177,"Garana</w>":10178,"Nanaya</w>":10179,"ponder</w>":10180,"ponsible</w>":10181,"rendering</w>":10182,"splits</w>":10183,"digging</w>":10184,"bettered</w>":10185,"Inanna":10186,"Inannas</w>":10187,"exude</w>":10188,"boatman</w>":10189,"calender</w>":10190,"backconfine</w>":10191,"ceremonial</w>":10192,"cripple</w>":10193,"allotment</w>":10194,"renovate</w>":10195,"Awal</w>":10196,"pounced</w>":10197,"shoots</w>":10198,"rainstorm</w>":10199,"esoteric</w>":10200,"UrNintu</w>":10201,"accusations</w>":10202,"succeeds</w>":10203,"conquer</w>":10204,"complaints</w>":10205,"wickedly</w>":10206,"Assyria</w>":10207,"Brought</w>":10208,"Netherworld</w>":10209,"Responsible</w>":10210,"popula":10211,"sorrow</w>":10212,"usually</w>":10213,"usudra</w>":10214,"Enakuana</w>":10215,"beerbread</w>":10216,"beerpouring</w>":10217,"sadd":10218,"saddle</w>":10219,"citycities</w>":10220,"straighten</w>":10221,"thorny</w>":10222,"thornbush</w>":10223,"zabardab":10224,"Kurzze":10225,"Uttu</w>":10226,"Utus</w>":10227,"gloriously</w>":10228,"ulal</w>":10229,"thrash</w>":10230,"rolls</w>":10231,"Ninmusisa</w>":10232,"Ninmueig":10233,"scratched":10234,"GazelleFeast</w>":10235,"Utaulu</w>":10236,"pouch</w>":10237,"salt":10238,"sevenheaded</w>":10239,"potsherds</w>":10240,"skillful</w>":10241,"prayerritual</w>":10242,"pigeons</w>":10243,"Lammasaga</w>":10244,"habitations</w>":10245,"Build</w>":10246,"Menil</w>":10247,"adamin</w>":10248,"crescent</w>":10249,"edada</w>":10250,"arrumil</w>":10251,"arrumbani</w>":10252,"atingsprinkling</w>":10253,"silversmith</w>":10254,"Through</w>":10255,"neighbor</w>":10256,"counseled</w>":10257,"occupy</w>":10258,"Dadu</w>":10259,"erases</w>":10260,"stinking</w>":10261,"starvation</w>":10262,"repays</w>":10263,"directs</w>":10264,"supremely</w>":10265,"awesomeness</w>":10266,"brightened</w>":10267,"traveling</w>":10268,"Gemeeila</w>":10269,"malicious</w>":10270,"offshoots</w>":10271,"annihilating</w>":10272,"wonderous</w>":10273,"Kisiga</w>":10274,"Measured</w>":10275,"Plain</w>":10276,"Tipa":10277,"Ziusudra</w>":10278,"fourth</w>":10279,"nonindigenous</w>":10280,"children":10281,"truthful</w>":10282,"calfgazelle</w>":10283,"beautifulverdant</w>":10284,"Nannakam</w>":10285,"Nannakiag</w>":10286,"honeyplants</w>":10287,"devoured</w>":10288,"Atta":10289,"Outside</w>":10290,"Outlet</w>":10291,"SIG":10292,"dreaminterpreter</w>":10293,"gleam</w>":10294,"sarcastically</w>":10295,"utensils</w>":10296,"rosettestar</w>":10297,"recieve</w>":10298,"ursaggalama</w>":10299,"Enamzu</w>":10300,"charmer</w>":10301,"bandage</w>":10302,"Ninsikila</w>":10303,"Lugalanatum</w>":10304,"cucumber</w>":10305,"music</w>":10306,"weakness</w>":10307,"appeals</w>":10308,"Simtiilhak</w>":10309,"assistant</w>":10310,"Looking</w>":10311,"Ulma</w>":10312,"Zambiya</w>":10313,"fragr":10314,"frequenting</w>":10315,"pantry</w>":10316,"situation</w>":10317,"argument</w>":10318,"Ursilalu</w>":10319,"Ursilaluh</w>":10320,"sprouts</w>":10321,"officers</w>":10322,"exterior</w>":10323,"compete</w>":10324,"collapsed</w>":10325,"brightfaced</w>":10326,"skippers</w>":10327,"phantom</w>":10328,"phantoms</w>":10329,"assemblythrone</w>":10330,"Apilk":10331,"consignment</w>":10332,"consignments</w>":10333,"Enheduana</w>":10334,"Enheduanas</w>":10335,"aveng":10336,"averaged</w>":10337,"hinges</w>":10338,"inferior</w>":10339,"eloquence</w>":10340,"legged</w>":10341,"ascertain</w>":10342,"spacecrown</w>":10343,"broughtstationed</w>":10344,"exalted":10345,"concili":10346,"undulatingsprinkling</w>":10347,"entrusted</w>":10348,"creates</w>":10349,"craftsman</w>":10350,"kisikiNinazu</w>":10351,"knowledgeable</w>":10352,"ziggurat</w>":10353,"Utamiarram</w>":10354,"extinguished</w>":10355,"244f</w>":10356,"Edana</w>":10357,"Kakug</w>":10358,"Steppe</w>":10359,"Settlement</w>":10360,"Tuttul</w>":10361,"drill</w>":10362,"fatbreads</w>":10363,"germinating</w>":10364,"heeded</w>":10365,"wrapped</w>":10366,"yearold</w>":10367,"investigate</w>":10368,"annoyed</w>":10369,"enjoyed</w>":10370,"reinforced</w>":10371,"lights</w>":10372,"plentyhappiness</w>":10373,"embellished</w>":10374,"chickpeas</w>":10375,"agiua</w>":10376,"Luugina</w>":10377,"oxdrivers</w>":10378,"woolsheep</w>":10379,"paraly":10380,"justly</w>":10381,"smoothed</w>":10382,"Abundance</w>":10383,"voices</w>":10384,"provinces</w>":10385,"criminal</w>":10386,"staircase</w>":10387,"Dukra</w>":10388,"pilasters</w>":10389,"alienated</w>":10390,"Enmahgalana</w>":10391,"included</w>":10392,"Gurzan</w>":10393,"Tahiatal</w>":10394,"occurred</w>":10395,"gooseflesh</w>":10396,"Birurtura</w>":10397,"sorcery</w>":10398,"mightyreinforced</w>":10399,"aggressively</w>":10400,"Established</w>":10401,"Ahuni</w>":10402,"Country</w>":10403,"Distantre":10404,"Madga</w>":10405,"Several</w>":10406,"hatred</w>":10407,"hirin</w>":10408,"ningtouching</w>":10409,"nagabtum</w>":10410,"wandered</w>":10411,"inspires</w>":10412,"aneously</w>":10413,"arrears</w>":10414,"organ</w>":10415,"original</w>":10416,"stunned</w>":10417,"enraged</w>":10418,"refused</w>":10419,"ravages</w>":10420,"actually</w>":10421,"coachhouse</w>":10422,"quiet</w>":10423,"destoyed</w>":10424,"exultant</w>":10425,"prolifer":10426,"cadaver</w>":10427,"sealbearer</w>":10428,"countryside</w>":10429,"marshland</w>":10430,"solemn</w>":10431,"nameyear</w>":10432,"disturbed</w>":10433,"traprestraint</w>":10434,"orchardman</w>":10435,"interrupt</w>":10436,"gazellesnake</w>":10437,"contentedly</w>":10438,"Protective</w>":10439,"Maguena</w>":10440,"shrinesea</w>":10441,"Governor</w>":10442,"doublehour</w>":10443,"Ibexof":10444,"variegated</w>":10445,"215f</w>":10446,"Ashgi</w>":10447,"Abeu</w>":10448,"Arua</w>":10449,"AEnlildirie</w>":10450,"Apiak</w>":10451,"Audatur</w>":10452,"Beauti":10453,"Causeways</w>":10454,"Kiritab</w>":10455,"LUM</w>":10456,"Lapis</w>":10457,"Pasira</w>":10458,"Pregn":10459,"Some":10460,"Slave</w>":10461,"Shouter</w>":10462,"Tulta</w>":10463,"TarmUram</w>":10464,"Uludi</w>":10465,"Ugnim</w>":10466,"cranes</w>":10467,"guggazi</w>":10468,"hinds</w>":10469,"twist</w>":10470,"wintertime</w>":10471,"intact</w>":10472,"aninga</w>":10473,"arkali":10474,"stallions</w>":10475,"shameless</w>":10476,"enthroned</w>":10477,"masab</w>":10478,"maximized</w>":10479,"taskarinnum</w>":10480,"debris</w>":10481,"unleashed</w>":10482,"unparalleled</w>":10483,"uncleanliness</w>":10484,"Eneduana</w>":10485,"havoc</w>":10486,"UrGigir</w>":10487,"umbilical</w>":10488,"amidst</w>":10489,"amarmn</w>":10490,"Ninilduma</w>":10491,"terranean</w>":10492,"Indagara</w>":10493,"moteundulatingsprinkling</w>":10494,"conifer</w>":10495,"Lugalgirizal</w>":10496,"primeval</w>":10497,"Answer</w>":10498,"fermenting</w>":10499,"gudapsm</w>":10500,"mutton</w>":10501,"UrNamnunka</w>":10502,"leaderbond</w>":10503,"towardsalone</w>":10504,"delightful</w>":10505,"Absimt</w>":10506,"distantprofound</w>":10507,"instituted</w>":10508,"Namnundakig":10509,"Namzitara</w>":10510,"suitablecarrying</w>":10511,"Siniqiam</w>":10512,"Idilpaunu</w>":10513,"Amagetinana</w>":10514,"sniffing</w>":10515,"Puzurszadue</w>":10516,"Dedicatingdedicate</w>":10517,"advancewithstand</w>":10518,"Nimintaba</w>":10519,"correctlyset</w>":10520,"populace</w>":10521,"Kurzzeilen</w>":10522,"Ninmueigimu</w>":10523,"Distantremoteundulatingsprinkling</w>":10524,"11":10525,"113</w>":10526,"13rd</w>":10527,"117</w>":10528,"161</w>":10529,"25":10530,"2e":10531,"214</w>":10532,"2mah</w>":10533,"222</w>":10534,"232</w>":10535,"243</w>":10536,"238</w>":10537,"38":10538,"356</w>":10539,"396</w>":10540,"42":10541,"442</w>":10542,"65":10543,"633</w>":10544,"7746</w>":10545,"88</w>":10546,"AG":10547,"AS</w>":10548,"Abar":10549,"Ati":10550,"Abe</w>":10551,"Aam":10552,"Ama</w>":10553,"Ane":10554,"Alin":10555,"Alu":10556,"Amar</w>":10557,"Ahu":10558,"Adingirmu</w>":10559,"Aned":10560,"Aanzu</w>":10561,"Ben":10562,"Brea":10563,"Best":10564,"Buz":10565,"Bani</w>":10566,"Baya</w>":10567,"Balu</w>":10568,"Broad</w>":10569,"Bearing</w>":10570,"Butter</w>":10571,"Bull</w>":10572,"Bulma</w>":10573,"Cit":10574,"Cre":10575,"Cam":10576,"Cover":10577,"Chair</w>":10578,"DA":10579,"DI":10580,"Dr":10581,"Daga</w>":10582,"Dara":10583,"Dread</w>":10584,"Danni":10585,"Ditch</w>":10586,"Ee</w>":10587,"Ebar":10588,"Epe</w>":10589,"Eban</w>":10590,"Esag":10591,"Emae</w>":10592,"Euzga</w>":10593,"Edge</w>":10594,"Eulma</w>":10595,"Fin":10596,"Fer":10597,"Fil":10598,"Fur":10599,"Fear":10600,"Founded</w>":10601,"Gez":10602,"God":10603,"Gaba":10604,"Girizal</w>":10605,"Hur":10606,"Hill</w>":10607,"Had</w>":10608,"Half</w>":10609,"Heshe</w>":10610,"Iu":10611,"Ish":10612,"Ilam":10613,"Imi":10614,"Itr":10615,"Ipi":10616,"Ilit":10617,"Isz":10618,"Its":10619,"Idim</w>":10620,"Jud":10621,"Jah":10622,"Kim":10623,"Kings</w>":10624,"KAn":10625,"Kbi</w>":10626,"Kitchen</w>":10627,"Lq":10628,"Lal":10629,"Lat":10630,"Lir":10631,"Lay</w>":10632,"Looked</w>":10633,"Laz":10634,"Lanim":10635,"Laba":10636,"Mi":10637,"Mes</w>":10638,"Mid":10639,"Mis":10640,"Mouth</w>":10641,"Mani":10642,"Mii":10643,"NI</w>":10644,"Nor":10645,"Nugan":10646,"Over":10647,"Old</w>":10648,"Out</w>":10649,"Open</w>":10650,"Po":10651,"Pre":10652,"Pur":10653,"Pati":10654,"Plow</w>":10655,"Praise</w>":10656,"Run":10657,"Rig":10658,"Righ":10659,"Rise</w>":10660,"Rap":10661,"Rites</w>":10662,"Risen</w>":10663,"Relea":10664,"Sea":10665,"Sta":10666,"Sto":10667,"Scep":10668,"Sigr":10669,"Sidu</w>":10670,"Sabum</w>":10671,"TU":10672,"Te":10673,"Ter":10674,"Ten</w>":10675,"Tuk":10676,"UB":10677,"Uk":10678,"UL</w>":10679,"UU</w>":10680,"Usa":10681,"Ukalimmu</w>":10682,"Very</w>":10683,"Veter":10684,"Wea":10685,"Were</w>":10686,"Well":10687,"Yar":10688,"Yet</w>":10689,"Ze":10690,"Zar":10691,"Zur":10692,"Ziz":10693,"aid</w>":10694,"aabba</w>":10695,"afar</w>":10696,"aisa</w>":10697,"astro":10698,"baba</w>":10699,"blea":10700,"bats</w>":10701,"bidu</w>":10702,"cc":10703,"cur</w>":10704,"coo":10705,"cations</w>":10706,"cles</w>":10707,"clu":10708,"ctive</w>":10709,"cage</w>":10710,"cren":10711,"couri":10712,"crowned</w>":10713,"culation</w>":10714,"crat</w>":10715,"center":10716,"climb":10717,"das</w>":10718,"dear</w>":10719,"dare</w>":10720,"dder</w>":10721,"dine</w>":10722,"dling</w>":10723,"drown</w>":10724,"dumuz":10725,"dena</w>":10726,"ddead</w>":10727,"eed</w>":10728,"ees</w>":10729,"eth</w>":10730,"edi":10731,"estr":10732,"eigh":10733,"evi":10734,"eign</w>":10735,"eNingal</w>":10736,"eform</w>":10737,"ebin":10738,"eharp</w>":10739,"eell":10740,"etub</w>":10741,"ff":10742,"fr</w>":10743,"fit":10744,"fes":10745,"fum":10746,"fted</w>":10747,"flight</w>":10748,"flies</w>":10749,"fitted</w>":10750,"gle":10751,"gons</w>":10752,"gest":10753,"gands</w>":10754,"gins</w>":10755,"glow</w>":10756,"gore</w>":10757,"gshaped</w>":10758,"gull":10759,"hem":10760,"hug":10761,"hut</w>":10762,"hating</w>":10763,"hili":10764,"hud":10765,"hana":10766,"hate":10767,"ial":10768,"ikur</w>":10769,"ired":10770,"ifies</w>":10771,"ibgal</w>":10772,"jester</w>":10773,"kit</w>":10774,"kum":10775,"kug":10776,"kad</w>":10777,"kles</w>":10778,"kiri":10779,"kak":10780,"kill":10781,"kene</w>":10782,"kInuinak</w>":10783,"ll</w>":10784,"lal":10785,"lul":10786,"late</w>":10787,"lent":10788,"lut":10789,"loud</w>":10790,"lubi</w>":10791,"lance":10792,"mel":10793,"mers</w>":10794,"mug":10795,"moo":10796,"mby</w>":10797,"mould</w>":10798,"mite</w>":10799,"milled</w>":10800,"muna</w>":10801,"mesh</w>":10802,"might":10803,"munu</w>":10804,"miting</w>":10805,"mgir</w>":10806,"ng</w>":10807,"nis":10808,"nations</w>":10809,"nana</w>":10810,"narrow</w>":10811,"nunna</w>":10812,"nene</w>":10813,"nests</w>":10814,"oy</w>":10815,"ofa":10816,"oar</w>":10817,"osed</w>":10818,"oils</w>":10819,"oint</w>":10820,"pu</w>":10821,"pis</w>":10822,"phe</w>":10823,"pant</w>":10824,"pati":10825,"pup</w>":10826,"pest</w>":10827,"para</w>":10828,"pions</w>":10829,"pSn</w>":10830,"pic":10831,"pGutium</w>":10832,"pled":10833,"qir</w>":10834,"qAdad</w>":10835,"rout</w>":10836,"rounds</w>":10837,"sc</w>":10838,"sow":10839,"sare</w>":10840,"san</w>":10841,"ssu</w>":10842,"sne":10843,"sling</w>":10844,"sala</w>":10845,"sows</w>":10846,"sired</w>":10847,"szu":10848,"sounds</w>":10849,"sanga</w>":10850,"tst":10851,"tch</w>":10852,"tents</w>":10853,"twil":10854,"tearing</w>":10855,"tangled</w>":10856,"uer":10857,"uha":10858,"usu</w>":10859,"upri":10860,"ukur</w>":10861,"udur":10862,"umar</w>":10863,"uSuen":10864,"uEa</w>":10865,"uHani</w>":10866,"uedar</w>":10867,"uEdar</w>":10868,"uIdim</w>":10869,"vy</w>":10870,"vid</w>":10871,"visi":10872,"vement</w>":10873,"villa":10874,"vision</w>":10875,"wur":10876,"wad":10877,"went":10878,"writes</w>":10879,"witch":10880,"waning</w>":10881,"ye</w>":10882,"yer</w>":10883,"yore</w>":10884,"yGatumdu</w>":10885,"zan":10886,"zer":10887,"zaga</w>":10888,"zani</w>":10889,"thouse</w>":10890,"thought</w>":10891,"thins</w>":10892,"thud":10893,"thunderbird</w>":10894,"ind":10895,"iner</w>":10896,"inab":10897,"inis":10898,"inating</w>":10899,"inappropriate</w>":10900,"inpipe</w>":10901,"inscriptions</w>":10902,"inyGatumdu</w>":10903,"anz":10904,"anga":10905,"anying</w>":10906,"anted":10907,"ansum</w>":10908,"anzam</w>":10909,"anawoods</w>":10910,"aro":10911,"ars":10912,"arf</w>":10913,"area":10914,"arke</w>":10915,"arent</w>":10916,"argi":10917,"arru":10918,"ardist":10919,"arily</w>":10920,"arrum</w>":10921,"arising</w>":10922,"artful</w>":10923,"ardson</w>":10924,"areas</w>":10925,"aramutum</w>":10926,"erv":10927,"ert</w>":10928,"erly</w>":10929,"erec":10930,"erable</w>":10931,"ered":10932,"ervice</w>":10933,"erpillar</w>":10934,"outer":10935,"ease</w>":10936,"eading</w>":10937,"eating":10938,"itu</w>":10939,"itthem</w>":10940,"itfully</w>":10941,"itating</w>":10942,"itative</w>":10943,"itself":10944,"orers</w>":10945,"ority</w>":10946,"orting</w>":10947,"orous</w>":10948,"orial</w>":10949,"ordom":10950,"ordeal</w>":10951,"oraneously</w>":10952,"ony":10953,"onin</w>":10954,"ones":10955,"stu":10956,"stal</w>":10957,"stum":10958,"stoo":10959,"stam":10960,"stworthy</w>":10961,"stincantation</w>":10962,"stfight</w>":10963,"alf":10964,"alag":10965,"ality</w>":10966,"almon":10967,"alana</w>":10968,"alama</w>":10969,"alia</w>":10970,"algame</w>":10971,"aludu</w>":10972,"alsam</w>":10973,"ily":10974,"iles</w>":10975,"ilities</w>":10976,"ilula":10977,"shy</w>":10978,"shan</w>":10979,"shac":10980,"shand":10981,"shall":10982,"shout":10983,"shot</w>":10984,"shallow</w>":10985,"shskin</w>":10986,"roiled</w>":10987,"atig":10988,"atby</w>":10989,"atop</w>":10990,"atab</w>":10991,"ens":10992,"enun":10993,"enth</w>":10994,"envi":10995,"enlarge</w>":10996,"envel":10997,"enclad</w>":10998,"encircle</w>":10999,"envy</w>":11000,"reins</w>":11001,"resee</w>":11002,"relev":11003,"revenge</w>":11004,"reposing</w>":11005,"liec":11006,"lisin</w>":11007,"lago":11008,"laws</w>":11009,"lacking</w>":11010,"lahama</w>":11011,"mads</w>":11012,"madu":11013,"maharbor</w>":11014,"maids</w>":11015,"elum</w>":11016,"eliness</w>":11017,"when":11018,"wharf</w>":11019,"urur</w>":11020,"ursu</w>":11021,"uram</w>":11022,"urker</w>":11023,"urutum</w>":11024,"urre</w>":11025,"ridge</w>":11026,"riedly</w>":11027,"legi":11028,"levi":11029,"leaned</w>":11030,"tan</w>":11031,"tamu":11032,"tacle</w>":11033,"deur</w>":11034,"desi":11035,"debil":11036,"decep":11037,"description</w>":11038,"depu":11039,"dedly</w>":11040,"deeras":11041,"noti":11042,"nobility</w>":11043,"nomads</w>":11044,"ema</w>":11045,"ement":11046,"unam":11047,"unfer":11048,"undoes</w>":11049,"unwa":11050,"uncea":11051,"unshrin":11052,"uncultivated</w>":11053,"tossed</w>":11054,"toll</w>":11055,"rape</w>":11056,"dam":11057,"dama</w>":11058,"dabeer</w>":11059,"dable</w>":11060,"dashing</w>":11061,"daya</w>":11062,"ule</w>":11063,"dish":11064,"disu":11065,"distor":11066,"diverse</w>":11067,"didabeer</w>":11068,"reading</w>":11069,"Enn":11070,"Enanna</w>":11071,"Ensi":11072,"Enough</w>":11073,"Engar":11074,"Enki":11075,"Enmer":11076,"Eneg":11077,"Endudu</w>":11078,"Ennir":11079,"irp":11080,"irer</w>":11081,"irping</w>":11082,"irdam</w>":11083,"irbam</w>":11084,"goad":11085,"goath":11086,"beset</w>":11087,"befall</w>":11088,"befell</w>":11089,"better</w>":11090,"igrates</w>":11091,"barely</w>":11092,"bareg":11093,"barasi</w>":11094,"bardili</w>":11095,"aban</w>":11096,"abad":11097,"abscon":11098,"chis":11099,"chards</w>":11100,"chirping</w>":11101,"sed":11102,"sex</w>":11103,"seers</w>":11104,"seSA":11105,"ingu":11106,"ingcrou":11107,"agal":11108,"agin</w>":11109,"agia</w>":11110,"ask</w>":11111,"asu</w>":11112,"assu":11113,"asage</w>":11114,"asila</w>":11115,"aservice</w>":11116,"olddead</w>":11117,"had":11118,"esz</w>":11119,"esig</w>":11120,"tip</w>":11121,"tic</w>":11122,"tithed</w>":11123,"tively</w>":11124,"tissu":11125,"worm</w>":11126,"worse</w>":11127,"theart</w>":11128,"hissing</w>":11129,"hicle</w>":11130,"fires</w>":11131,"fistfight</w>":11132,"Uren":11133,"Urur</w>":11134,"Urzu</w>":11135,"Urgu":11136,"Urnin":11137,"UrAlla</w>":11138,"UrMama</w>":11139,"Uruma</w>":11140,"UrLugalbanda</w>":11141,"UrGilgame</w>":11142,"Urmeme</w>":11143,"UrNingubalag</w>":11144,"ugigi</w>":11145,"among":11146,"ameli":11147,"forth":11148,"formi":11149,"forserved</w>":11150,"forsake</w>":11151,"iduh":11152,"isu</w>":11153,"isasa</w>":11154,"isimti</w>":11155,"earring</w>":11156,"spla":11157,"spins</w>":11158,"speed</w>":11159,"sprout</w>":11160,"verily</w>":11161,"action</w>":11162,"acworkers</w>":11163,"accord</w>":11164,"coho":11165,"fails</w>":11166,"such":11167,"subur":11168,"suhur":11169,"suffered</w>":11170,"Nine</w>":11171,"Nintur":11172,"Nindu":11173,"Ninme":11174,"Ninalla</w>":11175,"NinKi":11176,"Ninlil":11177,"Ninmagure</w>":11178,"Ninsisa</w>":11179,"NinArali</w>":11180,"Ninigara</w>":11181,"Ninmarki</w>":11182,"heaping</w>":11183,"month":11184,"monkeys</w>":11185,"plays</w>":11186,"plaster</w>":11187,"placated</w>":11188,"plaited</w>":11189,"plastered</w>":11190,"built":11191,"strenth</w>":11192,"sheeps</w>":11193,"ppled":11194,"ppalsam</w>":11195,"terebin":11196,"estone</w>":11197,"quit":11198,"Supp":11199,"say":11200,"saa</w>":11201,"sapl":11202,"Ningar</w>":11203,"Ninginaba":11204,"destitute</w>":11205,"results</w>":11206,"resolved</w>":11207,"percep":11208,"perhaps</w>":11209,"ofat</w>":11210,"ofNinazu</w>":11211,"ofBazi</w>":11212,"ofattached</w>":11213,"labba</w>":11214,"grazing</w>":11215,"bred</w>":11216,"logi":11217,"loins</w>":11218,"lovely</w>":11219,"Though</w>":11220,"seriously</w>":11221,"lamented</w>":11222,"lamsare</w>":11223,"Instruc":11224,"Inspec":11225,"Inim</w>":11226,"Intel":11227,"Insul":11228,"expressed</w>":11229,"exchanging</w>":11230,"giz</w>":11231,"gian</w>":11232,"survi":11233,"surged</w>":11234,"procal":11235,"prospec":11236,"propped</w>":11237,"progen":11238,"prostit":11239,"prostration</w>":11240,"prostrate</w>":11241,"prostrated</w>":11242,"profes":11243,"adu":11244,"adar":11245,"advisor</w>":11246,"herit</w>":11247,"herder":11248,"worktroop</w>":11249,"destroyers</w>":11250,"cave</w>":11251,"castrate</w>":11252,"neys</w>":11253,"neol</w>":11254,"moor</w>":11255,"moil</w>":11256,"mother":11257,"conten":11258,"contra":11259,"connec":11260,"confirm</w>":11261,"naked</w>":11262,"Lugalsi":11263,"Lugalnam":11264,"LugalKu":11265,"Lugaluri</w>":11266,"Lugalkur":11267,"Lugaligi</w>":11268,"Lugalgue</w>":11269,"Lugaldubla</w>":11270,"LugalNigine</w>":11271,"LugalEmae</w>":11272,"undone</w>":11273,"turs</w>":11274,"turners</w>":11275,"turner</w>":11276,"dus</w>":11277,"dures</w>":11278,"dupae</w>":11279,"duia</w>":11280,"dusk</w>":11281,"sized</w>":11282,"sieved</w>":11283,"shields</w>":11284,"attu</w>":11285,"attend</w>":11286,"rupriestess</w>":11287,"cken</w>":11288,"primar":11289,"cel</w>":11290,"cedes</w>":11291,"imma</w>":11292,"imate</w>":11293,"imdu</w>":11294,"immen":11295,"immem":11296,"compre":11297,"Luu</w>":11298,"Luig":11299,"LuEnki</w>":11300,"LuNane</w>":11301,"LuNinmar</w>":11302,"Lukala</w>":11303,"LuUn":11304,"LuDamu</w>":11305,"LuAbu</w>":11306,"Lualim</w>":11307,"LuGirizal</w>":11308,"allub</w>":11309,"alluha":11310,"bother</w>":11311,"boys</w>":11312,"bodies</w>":11313,"bodiment</w>":11314,"cornelian</w>":11315,"counc":11316,"counts</w>":11317,"belt</w>":11318,"bellow</w>":11319,"bellied</w>":11320,"breadone</w>":11321,"wars</w>":11322,"warlike</w>":11323,"wardly</w>":11324,"watches</w>":11325,"cantors</w>":11326,"flat":11327,"flon</w>":11328,"flattering</w>":11329,"Anne":11330,"Annu":11331,"Anzag":11332,"Anita</w>":11333,"Annun":11334,"Anshan</w>":11335,"lord":11336,"lorden</w>":11337,"med":11338,"medi":11339,"wiping</w>":11340,"viable</w>":11341,"thered</w>":11342,"opy":11343,"ops</w>":11344,"Guaba</w>":11345,"Gutar</w>":11346,"Guti</w>":11347,"Gudea":11348,"mark</w>":11349,"marke":11350,"marks</w>":11351,"marched</w>":11352,"maraz</w>":11353,"oxs</w>":11354,"carav":11355,"forefather</w>":11356,"grainheap</w>":11357,"mixes</w>":11358,"cuit</w>":11359,"cubs</w>":11360,"gaer</w>":11361,"buru</w>":11362,"burden</w>":11363,"burial</w>":11364,"ciated</w>":11365,"cipated</w>":11366,"cistincantation</w>":11367,"hosue</w>":11368,"birthing</w>":11369,"seller</w>":11370,"rowed</w>":11371,"These</w>":11372,"guz":11373,"guide</w>":11374,"gufields</w>":11375,"guards</w>":11376,"gubi</w>":11377,"gusisa</w>":11378,"gu2e":11379,"ours</w>":11380,"muhu</w>":11381,"muball":11382,"muerrum":11383,"izing</w>":11384,"izes</w>":11385,"izens</w>":11386,"wellor":11387,"shepherding</w>":11388,"woolen</w>":11389,"engage</w>":11390,"UrNumuda</w>":11391,"UrNanibgal</w>":11392,"Lik":11393,"joined</w>":11394,"linens</w>":11395,"linenclad</w>":11396,"grants</w>":11397,"knotted</w>":11398,"swallowed</w>":11399,"part":11400,"parcel</w>":11401,"entity</w>":11402,"painst":11403,"tenth</w>":11404,"tending</w>":11405,"tenderly</w>":11406,"quarts</w>":11407,"Nibul":11408,"passage</w>":11409,"ubata</w>":11410,"utes":11411,"utations</w>":11412,"sover":11413,"someness</w>":11414,"Urua</w>":11415,"Uruks</w>":11416,"palil</w>":11417,"palaces</w>":11418,"standserve</w>":11419,"slay</w>":11420,"slack":11421,"bridegroom</w>":11422,"eyard</w>":11423,"smel":11424,"smell</w>":11425,"ninani</w>":11426,"bead</w>":11427,"beasts</w>":11428,"established":11429,"receding</w>":11430,"bilak</w>":11431,"creating</w>":11432,"creations</w>":11433,"edina</w>":11434,"edtaken</w>":11435,"edbettered</w>":11436,"positi":11437,"wait</w>":11438,"anged</w>":11439,"apparent</w>":11440,"nament</w>":11441,"innards</w>":11442,"Abzu":11443,"Abisimti</w>":11444,"presents</w>":11445,"presenting</w>":11446,"dweller</w>":11447,"harbor":11448,"harness</w>":11449,"harhar</w>":11450,"harmony</w>":11451,"harnessed</w>":11452,"unified</w>":11453,"Amarki":11454,"Amaregal</w>":11455,"pover":11456,"potion</w>":11457,"polished</w>":11458,"apults</w>":11459,"behalf":11460,"midribs</w>":11461,"midrib</w>":11462,"eps":11463,"dredged</w>":11464,"vocal":11465,"vocab":11466,"vomiting</w>":11467,"tual</w>":11468,"tutu</w>":11469,"tuku":11470,"Ninursaa</w>":11471,"attentiveness</w>":11472,"sky":11473,"skies</w>":11474,"overtaken</w>":11475,"overflow</w>":11476,"overseers</w>":11477,"distance</w>":11478,"distingu":11479,"akam</w>":11480,"akuzu</w>":11481,"subtra":11482,"substitute</w>":11483,"subjected</w>":11484,"subterranean</w>":11485,"clash</w>":11486,"lukur":11487,"lucent</w>":11488,"lusc</w>":11489,"calculation</w>":11490,"horse":11491,"single":11492,"queen":11493,"queens</w>":11494,"galanna</w>":11495,"butted</w>":11496,"cumins</w>":11497,"hew</w>":11498,"feathers</w>":11499,"tals</w>":11500,"install</w>":11501,"housetemple</w>":11502,"spoiled</w>":11503,"computation</w>":11504,"praying":11505,"trip":11506,"veter":11507,"vehicle</w>":11508,"tyface</w>":11509,"essence</w>":11510,"commission":11511,"ewed</w>":11512,"ewing</w>":11513,"Eninnus</w>":11514,"abandons</w>":11515,"spectacle</w>":11516,"Nisaba":11517,"fronds</w>":11518,"icles</w>":11519,"backs</w>":11520,"KuNinura</w>":11521,"Kulab</w>":11522,"Kutha</w>":11523,"niglam</w>":11524,"approving":11525,"embers</w>":11526,"emptiness</w>":11527,"wildly</w>":11528,"aristo":11529,"offices</w>":11530,"blazing</w>":11531,"kuda</w>":11532,"providing</w>":11533,"removal</w>":11534,"wisdom":11535,"planting</w>":11536,"weirdam</w>":11537,"formerly</w>":11538,"outstanding</w>":11539,"outstretched</w>":11540,"outflattened</w>":11541,"Enlilamah</w>":11542,"captains</w>":11543,"administered</w>":11544,"ShuSuen</w>":11545,"ShinyGatumdu</w>":11546,"snake":11547,"Alu</w>":11548,"Alla":11549,"Alum":11550,"itikal</w>":11551,"financi":11552,"curled</w>":11553,"ezimu</w>":11554,"afear</w>":11555,"affirmed</w>":11556,"vessel":11557,"resided</w>":11558,"residing</w>":11559,"fects</w>":11560,"nip":11561,"nia</w>":11562,"auspi":11563,"fleshskin</w>":11564,"cloak</w>":11565,"dingly</w>":11566,"portion</w>":11567,"porridge</w>":11568,"portending</w>":11569,"orchardi":11570,"orchardist":11571,"RmAnum</w>":11572,"Snmgir</w>":11573,"Snirbam</w>":11574,"Snmuball":11575,"courses</w>":11576,"bowing</w>":11577,"bowthrowstick</w>":11578,"ances":11579,"shakes</w>":11580,"matri":11581,"duru":11582,"seeing</w>":11583,"Addat":11584,"Namrat</w>":11585,"Namninani</w>":11586,"interceding</w>":11587,"straps</w>":11588,"strapped</w>":11589,"straight":11590,"pipes</w>":11591,"Today</w>":11592,"waterpouring</w>":11593,"watercourses</w>":11594,"yourself":11595,"thorough":11596,"hurl</w>":11597,"hursag</w>":11598,"hurrying</w>":11599,"hurries</w>":11600,"GemeBaba</w>":11601,"GemeAmarSuen</w>":11602,"Gemegigir</w>":11603,"GemeLisi</w>":11604,"GemeNungal</w>":11605,"bium</w>":11606,"biErra</w>":11607,"humans</w>":11608,"humili":11609,"Nigdupae</w>":11610,"drawing</w>":11611,"drainpipe</w>":11612,"flock</w>":11613,"merry</w>":11614,"merstone":11615,"merciful</w>":11616,"product</w>":11617,"productive</w>":11618,"reptile</w>":11619,"taining</w>":11620,"sweeps</w>":11621,"Nannad":11622,"Nannazi</w>":11623,"responded</w>":11624,"juniors</w>":11625,"therewith</w>":11626,"Baragir":11627,"suner</w>":11628,"cross":11629,"crotch</w>":11630,"felling</w>":11631,"fellow</w>":11632,"face":11633,"factory</w>":11634,"balaservice</w>":11635,"brae</w>":11636,"braying</w>":11637,"foolish</w>":11638,"widen</w>":11639,"gamlum</w>":11640,"hold":11641,"summer</w>":11642,"inseminates</w>":11643,"murder</w>":11644,"Given</w>":11645,"cricket</w>":11646,"crippled":11647,"onethird</w>":11648,"disk</w>":11649,"dissi":11650,"disbur":11651,"discovered</w>":11652,"disordered</w>":11653,"disrup":11654,"superim":11655,"command":11656,"tendons</w>":11657,"Baban":11658,"Nunbareg":11659,"strict</w>":11660,"stricken</w>":11661,"fearfully</w>":11662,"waggons</w>":11663,"ARAD2":11664,"ARADara</w>":11665,"ARADnene</w>":11666,"imama</w>":11667,"imagian</w>":11668,"breeders</w>":11669,"inimical</w>":11670,"Meskalam":11671,"Nuumar</w>":11672,"funnel</w>":11673,"KAL</w>":11674,"flash</w>":11675,"flask</w>":11676,"flacc":11677,"mouthed</w>":11678,"mouflon</w>":11679,"Monthly</w>":11680,"textst":11681,"zium</w>":11682,"ziagal</w>":11683,"ladder</w>":11684,"radiated</w>":11685,"sections</w>":11686,"132</w>":11687,"womb":11688,"cleanse</w>":11689,"doubled</w>":11690,"egory</w>":11691,"egulation</w>":11692,"eggshaped</w>":11693,"MeItaran</w>":11694,"powerfully</w>":11695,"level</w>":11696,"hungry</w>":11697,"tows</w>":11698,"WaradNanna</w>":11699,"WaradErra</w>":11700,"Iriaz</w>":11701,"pitched</w>":11702,"pitfall</w>":11703,"yllable</w>":11704,"Ezimu</w>":11705,"brewers</w>":11706,"handmirror</w>":11707,"construct</w>":11708,"Heaven":11709,"Karaar</w>":11710,"kurgara</w>":11711,"kurubata</w>":11712,"kneeling</w>":11713,"itually</w>":11714,"gift":11715,"128</w>":11716,"Ill":11717,"Ili</w>":11718,"Ilur":11719,"venom</w>":11720,"venuer":11721,"push</w>":11722,"falls</w>":11723,"dispelled</w>":11724,"exert</w>":11725,"exerts</w>":11726,"Prov":11727,"Reed</w>":11728,"Rejoicing</w>":11729,"denigrates</w>":11730,"denedbettered</w>":11731,"rang</w>":11732,"wherever</w>":11733,"Watarum</w>":11734,"amamu</w>":11735,"sheaf</w>":11736,"boots</w>":11737,"uplifted</w>":11738,"inquirer</w>":11739,"dirge</w>":11740,"offers</w>":11741,"evildoing</w>":11742,"rouch</w>":11743,"translucent</w>":11744,"insult</w>":11745,"GAL</w>":11746,"Uramana</w>":11747,"obey</w>":11748,"wellbuilt</w>":11749,"wellfounded</w>":11750,"statueform</w>":11751,"145</w>":11752,"141</w>":11753,"Towardson</w>":11754,"solve</w>":11755,"solutions</w>":11756,"expounded</w>":11757,"expanded</w>":11758,"exhaust":11759,"Baza</w>":11760,"satout</w>":11761,"preparedtaken</w>":11762,"Madaga</w>":11763,"reversing</w>":11764,"platform":11765,"daybreak</w>":11766,"Damimama</w>":11767,"Nera</w>":11768,"oppresses</w>":11769,"opposed</w>":11770,"revere</w>":11771,"terrifies</w>":11772,"Puzuril</w>":11773,"PuzurSuen</w>":11774,"Amm":11775,"Amri":11776,"Ammadu":11777,"Erekigal":11778,"Lumma":11779,"alive</w>":11780,"request</w>":11781,"Enmagal</w>":11782,"openhand</w>":11783,"elapses</w>":11784,"guru</w>":11785,"gurdub</w>":11786,"grandeur</w>":11787,"zuzu</w>":11788,"alliya</w>":11789,"sustained</w>":11790,"doorkeepers</w>":11791,"regular":11792,"Egalgas":11793,"effecting</w>":11794,"honest</w>":11795,"defile</w>":11796,"lyingcrou":11797,"chooses</w>":11798,"sparrow</w>":11799,"authoritati":11800,"193</w>":11801,"197</w>":11802,"199</w>":11803,"Below</w>":11804,"Belitikal</w>":11805,"larak</w>":11806,"performan":11807,"Brick</w>":11808,"Nabi":11809,"Nabu</w>":11810,"filtered</w>":11811,"gladdenedbettered</w>":11812,"mourner</w>":11813,"incised</w>":11814,"goodness":11815,"reedmats</w>":11816,"sixth</w>":11817,"smaller</w>":11818,"foes</w>":11819,"foam</w>":11820,"landpeople</w>":11821,"libated</w>":11822,"coolness</w>":11823,"compassion":11824,"craft":11825,"crafted</w>":11826,"GAN2mah</w>":11827,"GANgufields</w>":11828,"164</w>":11829,"168</w>":11830,"verdant":11831,"IddinDagn</w>":11832,"Magula</w>":11833,"Magilum</w>":11834,"Magurre</w>":11835,"Stat":11836,"circuit</w>":11837,"flict</w>":11838,"occur</w>":11839,"tila</w>":11840,"tilized</w>":11841,"devastate</w>":11842,"advising</w>":11843,"advanced</w>":11844,"impose</w>":11845,"Bigstele</w>":11846,"Fier":11847,"Five</w>":11848,"catches</w>":11849,"catching</w>":11850,"catastro":11851,"caterpillar</w>":11852,"catapults</w>":11853,"ourishing</w>":11854,"harvesting</w>":11855,"huts</w>":11856,"shoes</w>":11857,"ennam</w>":11858,"charging</w>":11859,"exorcistincantation</w>":11860,"excavation</w>":11861,"Nannaisa</w>":11862,"177</w>":11863,"Gathers</w>":11864,"Gaame</w>":11865,"Silber</w>":11866,"Silaa</w>":11867,"pursu":11868,"purchased</w>":11869,"purposes</w>":11870,"fifth</w>":11871,"accompli":11872,"accompanying</w>":11873,"Anahili</w>":11874,"Perform</w>":11875,"benefic":11876,"iqum</w>":11877,"grandstele</w>":11878,"colleague</w>":11879,"gardeners</w>":11880,"SmEl</w>":11881,"growing":11882,"roams</w>":11883,"roaming</w>":11884,"earthbaskets</w>":11885,"Auda</w>":11886,"battlen":11887,"killing</w>":11888,"aromatics</w>":11889,"seedbarley</w>":11890,"seedlings</w>":11891,"dragging</w>":11892,"Grant</w>":11893,"Grand":11894,"jack</w>":11895,"ryman</w>":11896,"soothes</w>":11897,"teem</w>":11898,"shares</w>":11899,"reduce</w>":11900,"maidens</w>":11901,"boast":11902,"flourishes</w>":11903,"sweetly":11904,"Burmama</w>":11905,"Imgur":11906,"Kaamu</w>":11907,"KaGAN</w>":11908,"Sagku</w>":11909,"handedly</w>":11910,"isege</w>":11911,"introdu":11912,"increases</w>":11913,"revoke</w>":11914,"massu</w>":11915,"Addada</w>":11916,"Addamu</w>":11917,"Addaillat</w>":11918,"sanctify</w>":11919,"mouthvoice</w>":11920,"mouthbeak</w>":11921,"doubleedged</w>":11922,"obeisance</w>":11923,"Dingirsaga</w>":11924,"Dingirsukkal</w>":11925,"Construc":11926,"Garden</w>":11927,"Garta</w>":11928,"Garanawoods</w>":11929,"gatedoor</w>":11930,"pivots</w>":11931,"rendered</w>":11932,"arrive</w>":11933,"remitted</w>":11934,"exuded</w>":11935,"boatbuilder</w>":11936,"caretaking</w>":11937,"ceremonies</w>":11938,"cripples</w>":11939,"152</w>":11940,"Dagger</w>":11941,"Melua</w>":11942,"Urema</w>":11943,"camel</w>":11944,"equally</w>":11945,"multitudeeras":11946,"eally</w>":11947,"check</w>":11948,"accusation</w>":11949,"surround</w>":11950,"furnishes</w>":11951,"pronouncement</w>":11952,"Habaluge</w>":11953,"kidomen</w>":11954,"nunta</w>":11955,"sorrow":11956,"sabitum</w>":11957,"usuh</w>":11958,"usual</w>":11959,"intention</w>":11960,"roofs</w>":11961,"roofbeams</w>":11962,"sadgal</w>":11963,"brilliantly</w>":11964,"Kurub":11965,"Kurbilak</w>":11966,"Munu":11967,"basis</w>":11968,"splendour</w>":11969,"Enkimdu</w>":11970,"fortun":11971,"fortress</w>":11972,"experience</w>":11973,"flattening</w>":11974,"ubifeast</w>":11975,"ancestral</w>":11976,"kauul</w>":11977,"munzer</w>":11978,"mollusc</w>":11979,"misfortun":11980,"salutations</w>":11981,"laughs</w>":11982,"deposit</w>":11983,"deposits</w>":11984,"Anzuchick</w>":11985,"eyesight</w>":11986,"incantations":11987,"Dublamah</w>":11988,"Hala":11989,"Ilikauul</w>":11990,"credit":11991,"dilmun</w>":11992,"dumuba":11993,"edador":11994,"memory</w>":11995,"inspire</w>":11996,"shaping</w>":11997,"lionheaded</w>":11998,"majesty</w>":11999,"majordom":12000,"ellation</w>":12001,"rampant</w>":12002,"Throughout</w>":12003,"prowled</w>":12004,"prowling</w>":12005,"cedarjuniper</w>":12006,"Girini</w>":12007,"Meluha</w>":12008,"Arair</w>":12009,"Amurru</w>":12010,"Dragon":12011,"Eldest</w>":12012,"faraway</w>":12013,"patches</w>":12014,"erased</w>":12015,"strokes</w>":12016,"restrained</w>":12017,"giriura</w>":12018,"admire</w>":12019,"victory</w>":12020,"ferryman</w>":12021,"Guzana</w>":12022,"Guzzani</w>":12023,"governorship</w>":12024,"travelling</w>":12025,"windpipe</w>":12026,"windblown</w>":12027,"malik</w>":12028,"EnunugalInanna</w>":12029,"Ilumbani</w>":12030,"Ilumbni</w>":12031,"Aszgi</w>":12032,"Standard</w>":12033,"Standserve</w>":12034,"annihilated</w>":12035,"annihilates</w>":12036,"Dayya</w>":12037,"Golden</w>":12038,"KUM":12039,"Kisurra</w>":12040,"Mukurubata</w>":12041,"Ornament</w>":12042,"Power":12043,"Time</w>":12044,"Turn</w>":12045,"fourlegged</w>":12046,"nonexist":12047,"arranged</w>":12048,"arrangements</w>":12049,"madarea</w>":12050,"Enmenana</w>":12051,"Enmenuna</w>":12052,"EnmenSAR</w>":12053,"amount</w>":12054,"nedchose</w>":12055,"prettyface</w>":12056,"foreigner</w>":12057,"guarded</w>":12058,"wayat</w>":12059,"beautifulgood</w>":12060,"Errabani</w>":12061,"Baraen":12062,"honeyed</w>":12063,"Bitter</w>":12064,"Irinabad":12065,"Kasura</w>":12066,"Kasurra</w>":12067,"bunches</w>":12068,"bundel</w>":12069,"dresser</w>":12070,"gasu</w>":12071,"gnawed</w>":12072,"grinds</w>":12073,"phabe":12074,"saruba</w>":12075,"slander":12076,"ukuku</w>":12077,"ukubum</w>":12078,"anguish</w>":12079,"rescue</w>":12080,"ursagkalama</w>":12081,"dissemin":12082,"UrSuana</w>":12083,"bandages</w>":12084,"admiring</w>":12085,"Lugalnir</w>":12086,"returnsend</w>":12087,"treacherous</w>":12088,"contemporaneously</w>":12089,"nursemaids</w>":12090,"Nimgirane</w>":12091,"Azar</w>":12092,"Azimua</w>":12093,"Keeps</w>":12094,"LAM":12095,"Lunatic</w>":12096,"Priests</w>":12097,"Storm</w>":12098,"crouched</w>":12099,"founding</w>":12100,"panic</w>":12101,"tearfully</w>":12102,"setsailed</w>":12103,"ageua</w>":12104,"sprouted</w>":12105,"scraps</w>":12106,"slavegirls</w>":12107,"collapse</w>":12108,"brightest</w>":12109,"assemblymourning</w>":12110,"requisitioner</w>":12111,"Brother</w>":12112,"Dimgalabzu</w>":12113,"Malgasu</w>":12114,"NUN":12115,"Sekel</w>":12116,"athle":12117,"bench</w>":12118,"benevolent</w>":12119,"blood":12120,"dormouse</w>":12121,"hinge</w>":12122,"mule</w>":12123,"vigour</w>":12124,"vigorous</w>":12125,"threat</w>":12126,"antimony</w>":12127,"alabor</w>":12128,"alaborers</w>":12129,"eloquent</w>":12130,"ascertained</w>":12131,"space":12132,"perpetual</w>":12133,"broughtpoured</w>":12134,"sideways</w>":12135,"praiseworthy</w>":12136,"entrust</w>":12137,"divorced</w>":12138,"creatress</w>":12139,"Abiati</w>":12140,"material</w>":12141,"SimatAdad</w>":12142,"Nannamansum</w>":12143,"ignorant</w>":12144,"ignorance</w>":12145,"touchedador":12146,"secret</w>":12147,"secrets</w>":12148,"ukkena</w>":12149,"ukkene</w>":12150,"kisikiofNinazu</w>":12151,"ziggurrat</w>":12152,"Utamiaram</w>":12153,"shriek</w>":12154,"shrieking</w>":12155,"Bilalama</w>":12156,"Makan":12157,"Messeng":12158,"Messanga":12159,"Spreading</w>":12160,"UgIL</w>":12161,"Ummaharbor</w>":12162,"aurafear</w>":12163,"clamp</w>":12164,"flames</w>":12165,"loneliness</w>":12166,"plea</w>":12167,"utag</w>":12168,"zidmunu</w>":12169,"inhabitant</w>":12170,"inhabitants</w>":12171,"atamofficial</w>":12172,"revolting</w>":12173,"planning</w>":12174,"channel</w>":12175,"hammers</w>":12176,"hammerstone":12177,"hairdresser</w>":12178,"UrSaga</w>":12179,"kettle</w>":12180,"strengthen</w>":12181,"confid":12182,"confident</w>":12183,"participated</w>":12184,"troughs</w>":12185,"deliberated</w>":12186,"dwellsit</w>":12187,"necessarily</w>":12188,"chairbearer</w>":12189,"juniorrampant</w>":12190,"puppies</w>":12191,"denigrate</w>":12192,"Ninhursagas</w>":12193,"physical</w>":12194,"Belatsuner</w>":12195,"fingernails</w>":12196,"neighborliness</w>":12197,"Aszszurmalik</w>":12198,"Lugalpirigtur</w>":12199,"Casting</w>":12200,"Cattleherder":12201,"Childish</w>":12202,"Everything</w>":12203,"Emete":12204,"Fromby</w>":12205,"Gabakara</w>":12206,"Idamaraz</w>":12207,"Kingship</w>":12208,"Lower</w>":12209,"Sky</w>":12210,"Surpassing</w>":12211,"Tirgu</w>":12212,"TramDagan</w>":12213,"Uddur":12214,"Ubuukkena</w>":12215,"Written</w>":12216,"Wealth</w>":12217,"fangs</w>":12218,"hulled</w>":12219,"jewell":12220,"later</w>":12221,"oilbutter</w>":12222,"swelling</w>":12223,"zirrupriestess</w>":12224,"arguing</w>":12225,"lieutenant</w>":12226,"despatched</w>":12227,"deepen</w>":12228,"reasoning</w>":12229,"goeswent</w>":12230,"searching</w>":12231,"forceencouragement</w>":12232,"copulated</w>":12233,"sailors</w>":12234,"Ningekimti</w>":12235,"oftheLand</w>":12236,
[...]
