#version: 0.2 - Trained by `huggingface/tokenizers`
t h
th e</w>
i n
o f</w>
a n
e d</w>
a r
e r</w>
e r
o u
e a
in g</w>
i t
o r
o n
s t
a l
i s</w>
an d</w>
h e</w>
o r</w>
i l
s h
r o
a t
e n
r e
t o</w>
i n</w>
e n</w>
l i
l a
e s</w>
o n</w>
a s</w>
m a
e l
f or</w>
w h
a t</w>
u r
r i
l e
t a
d e
p l
s e</w>
k ing</w>
h is</w>
ou r</w>
n o
e m
T he</w>
c e</w>
i t</w>
u n
it s</w>
t h</w>
t o
m e</w>
r a
d a
sh e
u l
d i
d s</w>
x x
xx x</w>
r ea
o u</w>
E n
i r
g o
b e
i g
w as</w>
t s</w>
b ar
ou n
a b
c h
no t</w>
s e
a l</w>
in g
ro m</w>
a g
y ou</w>
it h</w>
k e</w>
a s
f rom</w>
o l
pl e</w>
er s</w>
u r</w>
h a
w ith</w>
y our</w>
wh o</w>
e s
t i
m y</w>
w or
s il
er e</w>
on e</w>
th at</w>
th e
h i
b e</w>
o w
f i
U r
v e</w>
u m
u g
al l</w>
o o
b u
an n
ma n</w>
c h</w>
s on</w>
a m
f or
an t</w>
i d
i s
ea r</w>
e ar
s p
li l</w>
ar e</w>
h er</w>
hi m</w>
en t</w>
t ed</w>
k e
it y</w>
a n</w>
v er
em ple</w>
a c
h as</w>
c o
v er</w>
t er</w>
th er</w>
ou se</w>
l y</w>
En lil</w>
ann a</w>
i r</w>
t emple</w>
f a
b an
s u
b y</w>
N in
h ea
y ear</w>
l e</w>
at i
m on
ta b
g ur</w>
l d</w>
a y</w>
sil a
p la
bu il
d er</w>
sila 3</w>
st r
i g</w>
tab le
bar le
el s</w>
she e
li ke</w>
y s</w>
s t</w>
u m</w>
e c
g rea
h t</w>
s c
she k
shek els</w>
ta l</w>
on s</w>
p p
t er
e st
ou t</w>
h ouse</w>
d e</w>
q u
ban 2</w>
d o
U r</w>
barle y</w>
e e
S u
buil t</w>
s a
N ing
table ts</w>
ro y
c ity</w>
mon th</w>
de st
f e</w>
on g</w>
bar ig</w>
re s
p er
o f
v en</w>
as ke
m a</w>
in e</w>
m an
al e</w>
fi el
la b
g ra
to tal</w>
v ed</w>
W h
grea t</w>
b r
l o
shee p</w>
T h
at e</w>
i l</w>
il l</w>
F or</w>
sh all</w>
s er
t y</w>
la m
I n
di d</w>
l ed</w>
s u</w>
da ys</w>
f tablets</w>
to ftablets</w>
aske toftablets</w>
1 2</w>
B asketoftablets</w>
e x
r ul
g i
Su en</w>
H e</w>
da y</w>
s ur
ha d</w>
fiel d</w>
the ir</w>
p ro
ir su</w>
th is</w>
a d
h er
wor k
dest roy
ag a</w>
ser v
g ht</w>
g e</w>
p e
w ere</w>
L ug
c a
destroy ed</w>
w ill</w>
ha ve</w>
s ea
n e
ati on</w>
pla ce</w>
m o
I n</w>
st or
ma de</w>
at ed</w>
c on
ea ch</w>
a m</w>
serv ant</w>
ou ld</w>
sc ri
n a
u p</w>
Lug al
li fe</w>
un d
ig h
the y</w>
t ur
a r</w>
o se</w>
d u
ma y</w>
l and</w>
wh i
m oun
s i
sh i
at t
es t</w>
whi ch</w>
r u
ol d</w>
c k
an d
p ri
Ning irsu</w>
c e
ow n</w>
oo d</w>
i m
co m
L u
s ed</w>
In anna</w>
in to</w>
al l
lab or
sil ver</w>
an ds</w>
N anna</w>
m in
es s</w>
b o
i d</w>
c or
c oun
moun ta
A n</w>
b el
b rea
ing s</w>
pe o
e a</w>
M y</w>
w ar
w at
th ere</w>
st er</w>
ur e</w>
h ear
c an
f l
s h</w>
peo ple</w>
A n
rul er</w>
f ed</w>
p re
Wh en</w>
scri be</w>
l or
ti me</w>
p on</w>
m e
o il</w>
w i
f ter</w>
v i
th er
se t</w>
o d</w>
t u</w>
ear s</w>
f er
be er</w>
d u</w>
k i</w>
for e</w>
ab a</w>
hear t</w>
A k
ou ght</w>
o p
fa ce</w>
G u
bel o
M ay</w>
c k</w>
d y</w>
L aga</w>
m ar
t ing</w>
o x
hea ven</w>
na me</w>
c ar
for e
s s</w>
be en</w>
a w
ou s</w>
gra in
m i
c u
o s
n o</w>
T o</w>
m ale</w>
f em
oun d</w>
in d</w>
the m</w>
fem ale</w>
igh ty</w>
un der</w>
belo ved</w>
wh en</w>
a d</w>
g a
b ur
f our</w>
s he</w>
go d</w>
d a</w>
go od</w>
b b
wor ld</w>
sea l</w>
c i
ox en</w>
f u
on ed</w>
d ed</w>
m ighty</w>
ol y</w>
mounta in</w>
lor d</w>
str ong</w>
S um
h o
an ce</w>
z u</w>
ar ea</w>
id e</w>
En ki</w>
br ought</w>
brea d</w>
b ir
sh ed</w>
k ed</w>
ar a</w>
v ing</w>
s el
k u</w>
ro w
sh ould</w>
it e</w>
Th e
en ts</w>
go ds</w>
d ing</w>
I t</w>
g u
or der</w>
d own</w>
r in
w oo
ar d</w>
ou r
m u
wat er</w>
g e
stor m</w>
y ears</w>
i z
i v
U tu</w>
n ed</w>
shi p</w>
of fer
Sum er</w>
wh ose</w>
p her
p ra
w el
la dy</w>
ch il
th ing</w>
ma ster</w>
g i</w>
ver n
v es</w>
she pher
l ands</w>
w o
hea d</w>
en g
k al
Ur N
sur face</w>
l ing</w>
labor ers</w>
h ere</w>
i ku</w>
w ea
L i
bur 3</w>
go vern
The y</w>
g al</w>
fu l</w>
j o
ug h
I f</w>
l in
g r
p ow
do es</w>
ac coun
ar m
k no
u s</w>
I ts</w>
Y ou</w>
l ea
s ing</w>
in a</w>
ti on</w>
h oly</w>
res s</w>
Y our</w>
b ro
s w
str u
aw ay</w>
p er</w>
to war
ou th</w>
i ons</w>
p ar
govern or</w>
en t
p ure</w>
t re
u se</w>
S he</w>
pl ant</w>
di c
ul gi</w>
f ul
p a
man a</w>
t en
s ide</w>
k ur</w>
m en</w>
ear th</w>
m ea
sel f</w>
t r
work days</w>
grain fed</w>
n ers</w>
am ma</w>
an e</w>
di v
qu ar
re ed</w>
ati ons</w>
N i
r ine</w>
re e
u z
de c
i e
s es</w>
ter ed</w>
est iv
ee 3</w>
p as
u b
u t
de a</w>
mo ther</w>
lab or</w>
c ed</w>
f ir
r it
s o
Gu dea</w>
e v
lin es</w>
B aba</w>
s o</w>
Ur u
p al
y ing</w>
shepher d</w>
i es</w>
st ress</w>
st and
1 3</w>
t ro
vi a</w>
A t</w>
a fter</w>
h and</w>
k es</w>
ig ht</w>
fa ther</w>
de dic
Ak k
towar ds</w>
s la
at s</w>
can al</w>
sh rine</w>
oun d
c ol
d o</w>
Li ke</w>
le t</w>
b ri
u pon</w>
att le</w>
o w</w>
wh ere</w>
woo l</w>
o x</w>
u t</w>
Akk ad</w>
e y
g h
j u
th r
ma ke</w>
de li
is ed</w>
s m
b it
t ru
al a</w>
al f</w>
cor ners</w>
b or
ab li
n in
all a</w>
fore man</w>
mi stress</w>
st at
o ver</w>
ig n</w>
sp ea
b ea
b ul
l es</w>
m ma</w>
on g
wh at</w>
est abli
i ce</w>
t ers</w>
en ce</w>
ri ed</w>
f t</w>
be fore</w>
lam b</w>
fi sh</w>
ch ie
re ce
i se</w>
le ss</w>
b il
ab le</w>
E ri
i e</w>
on es</w>
sa r</w>
al kal
estiv al</w>
ee t</w>
u e</w>
c rea
be ing</w>
an s</w>
rece i
U mma</w>
at es</w>
ver y</w>
S n</w>
e d
p os
w a
w all</w>
re tur
ag a
k s</w>
p s</w>
an g
h ou
a pp
ec ted</w>
e fore</w>
id a</w>
chie f</w>
n am
in n
an ge</w>
A b
y oun
div ine</w>
k ing
p res
il led</w>
ch ed</w>
pri est</w>
oo ked</w>
pri est
Uru k</w>
Eri du</w>
on ions</w>
pre me</w>
d wel
i plant</w>
en d
ab und
A fter</w>
k en</w>
gra in</w>
alkal iplant</w>
a ce</w>
b le</w>
en s</w>
la p
1 5</w>
b und
f ate</w>
ur a</w>
to o
accoun t</w>
l ow
stru c
Ni pp
h ar
in s</w>
un i
Nipp ur</w>
A mar
s a</w>
an a</w>
wo man</w>
dedic ated</w>
p o
se s
wor k</w>
i ri
il ed</w>
wi fe</w>
a p
en d</w>
UrN amma</w>
c es</w>
un a</w>
be h
fl our</w>
youn g</w>
at um</w>
wor d</w>
wor ds</w>
2 3</w>
m id
ge ther</w>
per son</w>
man ag
pow ers</w>
da ugh
su preme</w>
Nin lil</w>
min i
abund ance</w>
h old</w>
l ong</w>
n ess</w>
fa shi
gi ven</w>
king ship</w>
e p
o m</w>
F rom</w>
d re
p ut</w>
go at</w>
go ats</w>
nin da</w>
b s</w>
f ound
v o
ar y</w>
shee p
row n</w>
1 4</w>
N ane</w>
i f</w>
in st</w>
co me</w>
bul l</w>
er ected</w>
be ca
eng th</w>
kno w
H is</w>
t u
m s</w>
Nin ur
lam ent</w>
d on
el y</w>
pro v
att en
daugh ter</w>
c it
sea led</w>
bb i
s k
w ant</w>
roy al</w>
pal ace</w>
I bbi
a z
o ver
r ed</w>
di st
tro op
to gether</w>
g o</w>
offer ings</w>
tre e</w>
g ate</w>
bu t</w>
a k
fi c
su b
chil d</w>
manag er</w>
c la
s ac
ha ving</w>
rul ed</w>
ce p
An d</w>
aga inst</w>
p rin
s on
se iz
f ol
w ind</w>
troop s</w>
H ouse</w>
n e</w>
und er
quar ters</w>
A s</w>
l u
ch es</w>
c al
f old</w>
bar ge</w>
establi shed</w>
dre n</w>
h or
n ing</w>
s ing
chil dren</w>
qu e
bir d</w>
g al
r on
ra ised</w>
um n</w>
col umn</w>
priest ess</w>
A bb
b a
ar ge</w>
ab b
bu t
bo at</w>
stat ue</w>
c um
h e
ou g
ma kes</w>
O ne</w>
d en</w>
st one</w>
il e</w>
ow s</w>
um uz
fashi oned</w>
f ea
o ther</w>
t al
in st
ro w</w>
hou se
oug h</w>
6 2</w>
G rea
p e</w>
pp er</w>
D umuz
en em
E kur</w>
m or
ab out</w>
ke l</w>
Ning al</w>
m ent</w>
ur i
sp o
com p
f ine</w>
re jo
table t</w>
pra y
g ar
she kel</w>
se l</w>
ac cep
pos ses
sheep fold</w>
Ibbi Suen</w>
t ri
v e
labor er</w>
ga ve</w>
t y
es s
com m
tru e</w>
too k</w>
d in
e w
En inn
be ar
ab and
am ong</w>
ful ly</w>
sp ec
br ing</w>
ck s</w>
bro ther</w>
thr one</w>
spea k</w>
bund les</w>
c ea
h ands</w>
hi m
car ried</w>
1 1</w>
N is
g a</w>
v est</w>
w ood</w>
th s</w>
ig h</w>
ti ve</w>
wi th
f ron
i c
re stor
Th at</w>
b ac
g arm
m outh</w>
pla ced</w>
sa id</w>
her o</w>
cu t</w>
mea sur
Eninn u</w>
deli very</w>
i m</w>
la r</w>
lo w</w>
gr ound</w>
beca use</w>
house hold</w>
K u
l ong
n ig
t rea
an i</w>
of f</w>
os en</w>
Nis aba</w>
g ig
du g</w>
recei ved</w>
f ood</w>
l s</w>
t ly</w>
app ro
t ra
bor n</w>
K i
c t</w>
t t
u ti
wh om</w>
em b
L ar
th ose</w>
lap is</w>
m il
em p
ag an</w>
work er</w>
b its</w>
c as
de ed</w>
ug al</w>
sa g</w>
G irsu</w>
m u</w>
w ent</w>
Wh o</w>
L and</w>
beh alf</w>
i th
r ations</w>
ch osen</w>
as s
gi ve</w>
bir th</w>
f illed</w>
l il
w il
par t</w>
Grea t</w>
F estival</w>
b ooked</w>
l oo
v ol
ar i
sh ing</w>
of fi
ther world</w>
grain s</w>
enem y</w>
b la
k u
s ay</w>
prov id
b ala</w>
m es</w>
re mo
li ght</w>
ta ke</w>
pl ow
so me
Ab zu</w>
low ing</w>
d er
t in
t or
th re
st and</w>
qu al
b attle</w>
ne therworld</w>
s in</w>
sw eet</w>
Lar sa</w>
c an</w>
h igh</w>
w is
y thing</w>
ea t</w>
pl an
found ation</w>
aband oned</w>
ec a
offer ing</w>
pra ise</w>
bac k</w>
B eca
a y
n ec
w e
sh es</w>
ag e</w>
for m
barle y
can not</w>
stand ard</w>
H ar
a k</w>
b ed</w>
r y</w>
t a</w>
w ould</w>
ul i</w>
do cum
G em
a ura</w>
c attle</w>
ou t
ho e</w>
don ke
Beca use</w>
M ar
en ter</w>
k alla</w>
p h
En lil
per son
ca p
c ould</w>
i f
k ind</w>
re s</w>
hea v
ad mini
bit ter</w>
sac red</w>
Dumuz i</w>
barley fed</w>
S h
b l
d es</w>
g ed</w>
o t</w>
s na
u Suen</w>
in deed</w>
al ted</w>
lam bs</w>
gu lar</w>
sm all</w>
seiz ed</w>
A l
b abb
it i
re gular</w>
str at
kno w</w>
sla ugh
bea uti
bil ly</w>
Amar Suen</w>
babb ar</w>
f in
k i
r ange</w>
t e
it ting</w>
en ed</w>
se e</w>
sp ouse</w>
c ur
e ver
k in
al s</w>
le ft</w>
ir a</w>
ir ed</w>
fic it</w>
que en</w>
S o</w>
work ers</w>
wea pon</w>
comm and</w>
him self</w>
admini strat
fi ed</w>
1 6</w>
O n</w>
U pon</w>
e z
e t</w>
stand ing</w>
qual ity</w>
a f
t w
v es
ri ver</w>
do m</w>
res id
retur ned</w>
dist ant</w>
1 8</w>
f ec
n i
ver ed</w>
su ck
tur e</w>
fore ign</w>
s aga</w>
ea d</w>
sh in
ta ken</w>
fiel ds</w>
a u
stru ck</w>
garm ent</w>
T emple</w>
f le
li t</w>
ta r</w>
pl ea
fa ith
fol lowing</w>
l arge</w>
li on</w>
oo l</w>
rit es</w>
restor ed</w>
wil d</w>
D agan</w>
da r</w>
pp ed</w>
mounta ins</w>
nam ed</w>
ves sel</w>
r a</w>
st el
ug a</w>
ev il</w>
beauti ful</w>
suck ling</w>
A da
c lo
m ess
ul ti
oun ded</w>
as h</w>
d ing
e p</w>
p or
y outh</w>
ri gh
se ed</w>
Th er
me ans</w>
mid st</w>
emp ty</w>
provid er</w>
wis dom</w>
s s
or ch
de ficit</w>
go d
as aga</w>
am u</w>
mon ths</w>
do or</w>
ther efore</w>
Ninur ta</w>
accep ted</w>
e ver</w>
s mi
w ay</w>
st ati
ver se</w>
str ength</w>
ho w</w>
L ag
n s</w>
z e</w>
z uli</w>
per i
lam ent
Har vest</w>
R m
S n
c our
f estival</w>
k id</w>
o d
p our
in spec
la zuli</w>
ti ons</w>
pro per
H ow</w>
b ow
c ows</w>
f eet</w>
r un
t en</w>
t el
al so</w>
cu bits</w>
know n</w>
sna ke</w>
b er</w>
t um</w>
an c
st ood</w>
sh a
go ing</w>
war ri
fl ood</w>
Z ab
g ina</w>
m at
m ight</w>
ou s
st ing</w>
de ter
pl ow</w>
ir e</w>
is h</w>
sp rea
ap ple</w>
appro a
3 r
E r
E kin
d ers</w>
w ee
st ones</w>
il y</w>
pres ent</w>
A R
d ur
n d</w>
th us</w>
en a</w>
ch a
se e
co smi
ci ous</w>
wea p
dwel ling</w>
but ter</w>
offi ci
docum ents</w>
Lag ash</w>
Rm Sn</w>
3r d</w>
cosmi c</w>
A d
N am
S im
v ers</w>
in ter
tur ned</w>
An una</w>
administrat or</w>
stati oned</w>
2 nd</w>
b an</w>
d rin
t ec
st ra
at ta
ig al</w>
sil a</w>
for th</w>
su it
E anna</w>
H oly</w>
m er</w>
p i
gi ft</w>
comp le
B y</w>
p en</w>
r um</w>
th ings</w>
or d</w>
al t</w>
al led</w>
en ted</w>
de ss</w>
pl es</w>
pa e</w>
tr y</w>
inst alled</w>
cas t</w>
T o
b ig</w>
la m</w>
ch ang
se ven</w>
for m</w>
co w</w>
sur pas
wat er
slaugh tered</w>
tw o</w>
Ther efore</w>
a part</w>
b aske
h el
t le</w>
al ong</w>
at h</w>
ch ee
ann atum</w>
co pper</w>
accoun ts</w>
ey es</w>
I sin</w>
L ord</w>
g row</w>
t e</w>
u sed</w>
y our
th or
ra ms</w>
pro tec
si ster</w>
jo y</w>
sla ve</w>
person al</w>
A la
a zu</w>
c er
h ur
th en</w>
at ing</w>
re e</w>
re ign</w>
da b
dest ro
Gem e
mess eng
god dess</w>
AR A
b i
h um
v al</w>
or s</w>
ri ght</w>
de b
ca me</w>
min a</w>
fir e</w>
retur n</w>
Ki ma</w>
warri or</w>
E annatum</w>
F a
N ig
T his</w>
c rown</w>
d ra
e qu
f lo
m er
st ice</w>
En an
pro du
ad a</w>
op en</w>
cit ies</w>
Abb asaga</w>
U ri
l ength</w>
or y</w>
woo den</w>
with in</w>
nec k</w>
f ur
n u
or t</w>
am a</w>
sp on
grea t
man y</w>
ree ds</w>
ub ur</w>
fron t</w>
some thing</w>
donke y</w>
Ekin ugal</w>
weap ons</w>
Ala s</w>
G il
h igh
u s
li f
ta in</w>
ug u</w>
dest in
under world</w>
spo ke</w>
ever ything</w>
5 6</w>
l it
s at</w>
s quar
u b</w>
re p
ta in
se er</w>
is ions</w>
fa v
pla in</w>
UrN ane</w>
sw ee
ju d
bit ter
ty pe</w>
4 th</w>
D o</w>
N ann
c le
g s</w>
r ates</w>
s ag
sh ou
re spon
li m
go ld</w>
hea ded</w>
ne t</w>
ne w</w>
2 5</w>
W ith</w>
de s
da is</w>
ul gi
ch ange</w>
ow ed</w>
ex alted</w>
ju stice</w>
stel e</w>
squar ed</w>
E babbar</w>
a g</w>
c ra
c ely</w>
d ro
n ight</w>
s ons</w>
t ears</w>
st e
en tered</w>
pl ans</w>
ne ver</w>
pas sed</w>
ey e</w>
bil um</w>
lament ation</w>
chee se</w>
C ity</w>
D a
P uz
S i
j uni
n er</w>
ou gh
st ed</w>
re lea
ig r
hi des</w>
Wh at</w>
si on</w>
coun try</w>
pow er</w>
dec reed</w>
prin ce</w>
resid ence</w>
Fa ther</w>
D id</w>
c alf</w>
d ar
em mer</w>
ha pp
Ur bilum</w>
buil d</w>
ther e
recei ve</w>
over seer</w>
fea st</w>
measur e</w>
sprea d</w>
Uri m</w>
I kur</w>
k ings</w>
li ving</w>
per fec
can t
pre cious</w>
thr ough</w>
dwel l</w>
pray er</w>
B ar
s un
an other</w>
to p</w>
do g</w>
ca se</w>
wel l</w>
uni verse</w>
remo ved</w>
deter min
offici al</w>
suit able</w>
protec tive</w>
E u
L amma</w>
c ro
c ted</w>
e house</w>
f atten
h ired</w>
t ur</w>
in struc
st o
mu st</w>
sk y</w>
ew es</w>
cea sed</w>
pour ed</w>
K ing</w>
b ound</w>
d it
f el
f ac
k ir
s le
en ing</w>
la id</w>
ma h</w>
En me
Nin ubur</w>
sa w</w>
arm s</w>
cal led</w>
tal ents</w>
rejo ice</w>
plow man</w>
b al
b ra
f oo
g rown</w>
i ck</w>
w id
th ers</w>
on ly</w>
Ur Baba</w>
id u</w>
co vered</w>
tur n</w>
messeng er</w>
Eu ph
f itting</w>
g ro
g am
l ooked</w>
ig n
ban k</w>
hea ps</w>
ter rit
br u</w>
br ings</w>
ne ther</w>
scri p
tr an
Ni bru</w>
sing le</w>
ass emb
ous ly</w>
Euph rates</w>
3 4</w>
a x
d ship</w>
g en
h ol
m ents</w>
r um
s um
s anc
t ile</w>
in s
ma king</w>
ra ise</w>
ch am
is i
Nin azu</w>
row s</w>
T igr
d ate</w>
f it</w>
m ur
n ann
w e</w>
th y</w>
se tt
ti mes</w>
ck ed</w>
ce dar</w>
cor ding</w>
bro ad</w>
vol um
faith fully</w>
orch ard</w>
bow l</w>
surpas sing</w>
kir ugu</w>
Tigr is</w>
5 7</w>
M oun
S in</w>
t em
u a</w>
z i</w>
ar t</w>
ar ound</w>
st ree
pl end
es h</w>
me tal</w>
crea ted</w>
pres ented</w>
bear er</w>
bla ck
Er ra</w>
Enan atum</w>
3 6</w>
9 th</w>
G i
c ri
i a</w>
p ar</w>
t ou
ar ds</w>
on e
ma r</w>
un ted</w>
di s
su per
scri b
att le
com man
bir ds</w>
ten d
ez ida</w>
shin ing</w>
Sim ur
B ab
E lam</w>
N un
Y ear</w>
f ounded</w>
i shed</w>
s is
u al</w>
w in
st ri
ann ed</w>
ban da</w>
su n</w>
su pp
lo a
tre es</w>
chang ed</w>
2 2</w>
2 1</w>
d one</w>
f ear
g re
l a</w>
m en
p ath</w>
u pper</w>
w ag
ul a</w>
ag ina</w>
sa ys</w>
Ning ezida</w>
righ te
ARA D
territ ory</w>
W ar
d le</w>
i ma
v ari
ac cording</w>
mo st</w>
bri ck
spea king</w>
cla y</w>
ay a</w>
To tal</w>
g er</w>
o b
an ci
er ed</w>
il i
re d
de struc
ir ri
ab o
ha ir</w>
Th us</w>
con tain
cu p
ga z
bri ck</w>
atten tion</w>
nig ar</w>
your self</w>
Gil gam
bitter ly</w>
Enme ten
Gilgam esh</w>
6 th</w>
A ga
b ree
b ound
c ti
m al
n um
p ing</w>
p ay</w>
in im
to o</w>
se a</w>
tab le</w>
per form
gra ss
sur e</w>
si ci
bo dy</w>
pal m</w>
ep t</w>
spo ken</w>
ic ing</w>
long er</w>
vari ous</w>
A p
M es
N u
f un
f ru
f arm
f od
k illed</w>
ea l</w>
al ly</w>
li g
wh ite</w>
de sc
ab zu</w>
ch ing</w>
as a</w>
ol e</w>
Ur nigar</w>
jo y
mea t</w>
dedic ate</w>
ding ira</w>
cha ir</w>
lit tle</w>
scrip tion</w>
nann y</w>
Enmeten a</w>
grass fed</w>
2 4</w>
B ut</w>
C o
K A
f la
f ound</w>
f uri
m ou
t i</w>
t ar
in tel
in cant
at um
ma g
labor troops</w>
crea ture</w>
destro y</w>
destin y</w>
assemb ly</w>
Moun tain</w>
5 th</w>
A mor
L is
M on
m ed</w>
t ex
t anned</w>
z i
ar ed</w>
no w</w>
be come</w>
for em
id din
is t</w>
stor ehouse</w>
si ons</w>
min as</w>
row ing</w>
mu d</w>
ong s</w>
mor e</w>
black headed</w>
P A</w>
f ri
o ts</w>
p uri
il l
la d
ra di
rea m</w>
se c
hi de</w>
is es</w>
sp lit</w>
ac ted</w>
sa ying</w>
du st</w>
Lu dingira</w>
bo w</w>
ev il
establi sh</w>
beh ind</w>
mil k</w>
loo k</w>
plan ted</w>
au thor
gaz el
iddin am</w>
1 3
1 st</w>
S in
d ates</w>
n es
an y
ar m</w>
la y</w>
ul pae</w>
ati ve</w>
Lu kalla</w>
wo m
ful l
ut ter
gar ding</w>
ew e</w>
cour ty
baske t</w>
cle an
foo t</w>
anci ent</w>
H er</w>
N o</w>
c l
d ou
e g
m ine</w>
p ea
p iled</w>
s ong</w>
st a
al one</w>
en ti
re w
de ity</w>
ra ce</w>
da ily</w>
En un
ti l</w>
Ur Lamma</w>
am n
Nin mar</w>
hea d
br on
con t
ent ly</w>
ful l</w>
hou ses</w>
posses sions</w>
bear ing</w>
irri g
courty ard</w>
D u
K e</w>
L et</w>
M e
e gal</w>
f all</w>
g es</w>
n ation</w>
o st</w>
y o
y ed</w>
th ed</w>
an ces</w>
or der
sc ep
ter ing</w>
her o
war d</w>
pow er
tr a</w>
sub m
rejo icing</w>
peri od</w>
stree t</w>
bron ze</w>
A r
L ad
k igal</w>
m y
r ying</w>
v el
or nam
al as</w>
ur i</w>
le ve
se en</w>
grea tly</w>
bo th</w>
An an</w>
gig ir</w>
approa ched</w>
fav or
determin ed</w>
Amor ite</w>
D il
I tar</w>
M ound</w>
c attle
g on</w>
h un
m ulti
r ing</w>
r ation</w>
s ch
s alt</w>
al i</w>
il s</w>
to w
ug e</w>
ke t</w>
Nin k
hea ds</w>
con st
bul ls</w>
know s</w>
ba ked</w>
proper ly</w>
deb it</w>
War ad
bound ary</w>
farm er</w>
furi ous</w>
1 7</w>
7 th</w>
I ri
N ar
S um</w>
b at</w>
b le
c ulti
p it
y l
ar um</w>
st s</w>
da b</w>
the se</w>
ug al
lam ma</w>
all ure</w>
fl ow
pa id</w>
pas s</w>
thre shing</w>
out side</w>
righte ous</w>
abo ve</w>
inim gina</w>
Lad y</w>
E z
b rew
f ear</w>
h and
s ite</w>
v est
y a</w>
th em
th ly</w>
ea ting</w>
it self</w>
en ded</w>
em ent</w>
Ur gigir</w>
ec t</w>
res plend
man s</w>
gi ving</w>
con struc
me Dagan</w>
Ak k</w>
The ir</w>
fir st
har vest</w>
iri t</w>
cit iz
prin cely</w>
cur se</w>
scrib al</w>
order ed</w>
G atum
H ea
I d
I meDagan</w>
K i</w>
K ar
j ug
k ur
k ne
k idu</w>
s it</w>
s outh</w>
t ant</w>
v a
w r
in side</w>
it u
de fea
ra m</w>
se con
wor thy</w>
oo k</w>
is ing</w>
sp irit</w>
ex ten
gi f
work man</w>
ca ul
coun sel</w>
ther n</w>
tre m
wa iled</w>
Ada b</w>
lif ted</w>
Nun amn
1 2
I l
O f</w>
c el
f atta
n a</w>
v en
v ey
in ess</w>
an y</w>
li ve</w>
ma ce</w>
de mon
un til</w>
is su
buil ding</w>
du du</w>
min d</w>
cor p
wi se</w>
bri cks</w>
hor iz
pray ers</w>
measur ing</w>
Sh ulgi</w>
fin ished</w>
proper ty</w>
tem ples</w>
Lis i</w>
Mon th</w>
any one</w>
secon d</w>
1 8
e e</w>
p u
p il
w ept</w>
er ous</w>
sh er
at ched</w>
ta ea</w>
de m
wor t</w>
bu ck</w>
pla ces</w>
com ing</w>
ga ther
fir st</w>
ang er</w>
ki ds</w>
fod der</w>
Co me</w>
ornam ent</w>
cattle pen</w>
Nunamn ir</w>
fatta iled</w>
A y
G e
f ro
f am
f all
k ni
u n</w>
in ed</w>
en e
li c
em er
di ed</w>
di sp
ch arge</w>
su res</w>
ex er
ru shes</w>
Ak alla</w>
fore ver</w>
kal a</w>
tu res</w>
ve l</w>
trea ted</w>
horiz on</w>
kni fe</w>
A s
P ro
P rin
R e
d en
e m</w>
e ven</w>
f ig
o p</w>
p unted</w>
r an
y r
or ite</w>
re g
wh er
ra in</w>
ch est</w>
es ar</w>
is al</w>
lo ad
ex tra</w>
vi ce</w>
dec id
he if
some one</w>
plan ts</w>
heav ens</w>
great ness</w>
fel l</w>
volum esar</w>
loa ves</w>
cup bearer</w>
Aga de</w>
P os
W at
a ma
e kalla</w>
j ar</w>
k un
s k</w>
ar s</w>
or e</w>
st ands</w>
al lo
sh ea
sh ort</w>
at tered</w>
li ed</w>
li st
ri se</w>
le ar
ig i</w>
ban i</w>
Nin tur</w>
mon thly</w>
gra ss</w>
Wh y</w>
br an
Lugal ur
ju st</w>
Amar Su
don ated</w>
gal ana</w>
accep t</w>
inspec tions</w>
sle ep</w>
brick work</w>
sici an</w>
scep ter</w>
sch ool</w>
dem on</w>
Pos ses
D U</w>
b a</w>
b or</w>
b ol
b oo
b order</w>
d ead</w>
g ir
p ed</w>
s ou
t ting</w>
u p
in qu
an sw
il im</w>
re t
la sting</w>
de tri
un uri</w>
di r
di g</w>
di orite</w>
for c
of f
lea n</w>
rit ual</w>
ju g</w>
po t</w>
mid dle</w>
abb a</w>
bla ck</w>
comple ted</w>
dab a</w>
gen er
radi ance</w>
evil do
fall en</w>
detri ment</w>
c are</w>
d s
i or</w>
k al</w>
r ou
u h
in str
er ing</w>
er ce</w>
al u</w>
il ing</w>
il la
re c
as t</w>
man um</w>
lo ved</w>
In im
gu e</w>
shepher ds</w>
wea vers</w>
fir m</w>
Ada d</w>
sha de</w>
hel d</w>
perfec t</w>
tran s
ins ul
cham ber</w>
forem ost</w>
wom b</w>
load ed</w>
instr um
A ma
G A
H er
K ish</w>
U R
U ra
c lean</w>
d ly</w>
g ar</w>
i c</w>
o be
s ent</w>
t or</w>
u d
w al
x ed</w>
z es</w>
in se
an ything</w>
ar i</w>
er y</w>
en forc
la w</w>
la ga</w>
be l</w>
ch ari
es i</w>
ti um</w>
Ur ulpae</w>
for ce</w>
sa il</w>
man if
Th ere</w>
ad or
ca used</w>
im babbar</w>
wel l
stat u
hor n</w>
sing er</w>
faith ful</w>
produ ce</w>
shea ves</w>
enforc er</w>
1 4
E x
K in
L ul
T ow
c ry</w>
d ea
k ak</w>
p iri
s i</w>
s or</w>
s ol
s oil</w>
s ongs</w>
u l</w>
w ine</w>
an ts</w>
en priest</w>
ma bu
un gal</w>
ha u
est ate</w>
res er
ex p
ex hau
tur ed</w>
Lu ara</w>
mu ch</w>
gr and</w>
lea ther</w>
bit um
found ations</w>
hor ns</w>
inst ead</w>
with out</w>
Ku dur
ku g</w>
drin k</w>
jud g
Si manum</w>
Bab yl
fear so
power ful</w>
Gatum du</w>
inse ct</w>
A tu</w>
B az
C an
M U
b i</w>
c ru
d ri
f ill</w>
k ig
n ir
s at
t ea
y et</w>
ar u</w>
ou ter</w>
on to</w>
st ret
en priestess</w>
re garding</w>
li ver</w>
ta k
Ur ara</w>
Ur mes</w>
qu i
sa me</w>
gra de</w>
ser ve</w>
con sum
min ated</w>
bo x
bo ats</w>
pre par
ho st
ten ed</w>
dec isions</w>
deli vered</w>
aga in</w>
har bor</w>
ba se</w>
Enlil s</w>
bl ood</w>
iti on</w>
relea sed</w>
sto ma
men ess</w>
num erous</w>
Ap isal</w>
intel lig
tex tile</w>
defea ted</w>
bran ches</w>
mabu k</w>
Kudur mabuk</w>
3 2</w>
M a
U KA
f e
g alla</w>
p it</w>
v is
v ated</w>
y ou
al low</w>
en ding</w>
re ver
el d</w>
ta sk</w>
pl at
da y
ag re
ti er</w>
fi sher
um u
fa r</w>
lo ves</w>
rul y</w>
si ble</w>
op y</w>
offer ed</w>
bund le</w>
beca me</w>
sub total</w>
tal ent</w>
fron tier</w>
long tablets</w>
heav y</w>
drin king</w>
happ y</w>
Bar le
isi on</w>
contain er</w>
bree zes</w>
demon s</w>
gather ed</w>
Lugalur ub</w>
reser vo
bitum en</w>
Babyl on</w>
D am
D ada</w>
N er
d uga</w>
f ly</w>
g one</w>
h alf</w>
l ings</w>
n est</w>
o m
o pp
s n
w all
w ide</w>
ar di
ea led</w>
on d</w>
st i
re v
no minated</w>
rea r</w>
ha un
ke e
ter ri
ter race</w>
of ty</w>
Th ose</w>
pro per</w>
pe g</w>
igh ts</w>
lor dship</w>
sel ves</w>
wa ys</w>
vo ice</w>
cal ves</w>
cap tured</w>
wee ping</w>
Puz ur
Puz ri
there from</w>
gre w</w>
caul ked</w>
UR UKA
reservo ir</w>
URUKA gina</w>
A m
E re
G az
I bi
L um
d ried</w>
e w</w>
e ter
f y</w>
g n
h al
k is
m ann
s mo
in t
in scription</w>
an ity</w>
al i
re qu
le ct</w>
de cor
ul MU
di m
En ma
go es</w>
sil o</w>
ow ner</w>
fi es</w>
fi erce</w>
Wh ere</w>
ru in</w>
op en
op ened</w>
car cas
pra ised</w>
Li pit
nin daba</w>
tt en</w>
offi ce</w>
donke ys</w>
fle e
Sn iddinam</w>
tend on</w>
sis kur</w>
fun cti
fri end</w>
yo ke</w>
my self</w>
them selves</w>
first born</w>
Her o</w>
Can al</w>
stoma ch</w>
wall s</w>
haun t</w>
D on
b lo
d rum
e lap
g ur
l ofty</w>
p ul
r en
u w
in iti
an a
an um</w>
er a
sh are</w>
ro ad</w>
re bel</w>
li e</w>
wh eat</w>
ig ned</w>
ag ara</w>
ac t</w>
su k
Nin hur
sc attered</w>
qu ay</w>
Lu Ningirsu</w>
Gu ed
Gu tium</w>
gr an
inn er</w>
priest s</w>
mini ster</w>
garm ents</w>
appro pri
Al l</w>
shou l
juni per</w>
fru it</w>
yr up</w>
plat form</w>
functi on
4 2</w>
8 7</w>
D ing
G uni
I tar
b ear</w>
f ates</w>
j ect</w>
l er</w>
l ying</w>
s in
t ter</w>
t ed
u um
u ally</w>
z u
th ough</w>
in vol
an i
an tly</w>
ar my</w>
ar ak
al li
il ity</w>
at e
li ves</w>
la g
wh y</w>
de ep</w>
da m</w>
be go
ch ose</w>
ti sp
ac worker</w>
su sta
sc r
do or
ex c
ex tisp
ad vice</w>
con tro
car p
fu ture</w>
ut e</w>
he ir</w>
fle sh</w>
plea s
mer ch
lim bs</w>
wid th</w>
ax e</w>
Nu dim
sec ure</w>
reg ul
heif er</w>
bol t</w>
manif est</w>
piri g</w>
intellig ence</w>
Gaz el
ulMU x
Guni DU</w>
1 9</w>
3 5</w>
4 5</w>
4 8</w>
8 th</w>
E gal
N ow</w>
S a
e f
h on
n i</w>
o ven</w>
p ig
s en</w>
s wor
t um
z ida</w>
th an</w>
ar a
or ders</w>
en ds</w>
de f
de bits</w>
pl ot</w>
no se</w>
di ent</w>
be d
ing ing</w>
as i</w>
ug ani</w>
am mur
res sed</w>
her ds
Lugal inimgina</w>
pri son
car p</w>
lea ther
bor e</w>
too l</w>
Ninur sag</w>
posses sing</w>
ph y
baske ts</w>
flo or</w>
fatten ed</w>
dit ches</w>
Simur um</w>
zi er</w>
wr ite</w>
Ge tin
sou thern</w>
chari ot</w>
Barle y</w>
Ner gal</w>
extisp ic
ulMUx PA</w>
2 6</w>
2 7</w>
L am
U n
b in
c y</w>
c red
f fer
g ing</w>
k agina</w>
l y
l ine</w>
m old</w>
s ma
s yrup</w>
t ruly</w>
w rit
in ing</w>
in ci
ea ble</w>
it er
it ch
st it
st ick</w>
ro a
en ship</w>
li es</w>
ma l</w>
wh ile</w>
ur u</w>
ri es</w>
de p
de er</w>
ch oo
sp ar
ac qu
co wher
ban ks</w>
Ning ub
vi zier</w>
car rying</w>
mu n</w>
ent ers</w>
ut tered</w>
Ninur saga</w>
dist ri
rejo i
restor e</w>
trea sure</w>
tor e</w>
heav en
respon sible</w>
ste ward</w>
sun light</w>
cro ss</w>
fatten er</w>
sanc tu
Simur rum</w>
destruc tive</w>
author it
utter ance</w>
multi p
resplend ent</w>
ador ned</w>
prepar ed</w>
vis or</w>
Ibi Erra</w>
mann er</w>
pleas ant</w>
Nudim mud</w>
1 9
3 3</w>
4 3</w>
6 1</w>
B el
D ug
F estiv
H a
I gal
S ar
T um
d ream</w>
g u</w>
l ar
t igi</w>
w s</w>
th ir
in anna</w>
it es</w>
or ed</w>
wh ole</w>
ur sag</w>
le d
ta il</w>
pl en
no thing</w>
ul t</w>
be g
Ur Ningirsu</w>
bu m</w>
ear ing</w>
per for
per ty</w>
ne g
ne l</w>
Lu duga</w>
wat ers</w>
pre vi
vi ol
Gu abba</w>
UrN ungal</w>
gr y</w>
ev ening</w>
bri ght</w>
sm ith</w>
tru st
ap i</w>
cla im</w>
tri but
thre e</w>
we ight</w>
af f</w>
af ter
fur rows</w>
perform ed</w>
incant ation</w>
favor able</w>
Pro perty</w>
gener al</w>
fearso meness</w>
sat is
eter n
decor ated</w>
prison ers</w>
extispic y</w>
Festiv al
Sar gon</w>
Tum mal</w>
B a
B ri
D e
G ate</w>
H ammur
N ab
S am
U tu
a b</w>
b il</w>
f il
g lad
m our
v al
v ely</w>
in c
an im
re gi
la p</w>
ur gal</w>
ri val</w>
ta kes</w>
pl ough
ul t
di sh</w>
di mini
go od
se same</w>
fa thers</w>
Th en</w>
ad d
her self</w>
work troops</w>
fl oo
mar sh</w>
mar ried</w>
woo ds</w>
quar re
ree d
dec ision</w>
fir med</w>
ak alla</w>
din ing</w>
ku zu</w>
docum ent</w>
Mar tu</w>
ez em</w>
run ning</w>
mat ter</w>
wee ps</w>
dur ing</w>
jud ge</w>
sett le
wag on</w>
destruc tion</w>
Enun ugal</w>
irrig ation</w>
const ant</w>
Ez ina</w>
construc ted</w>
AmarSu ena</w>
cred its</w>
Festival of
B efore</w>
B agara</w>
E ma</w>
M agan</w>
O val</w>
U ree</w>
W o
c king</w>
f ind</w>
i st
k ill</w>
n um</w>
t wo
u me</w>
z ed</w>
er n</w>
it ies</w>
at i</w>
li c</w>
ur u
ri sing</w>
pl under
da g
da ga</w>
ul u</w>
En kidu</w>
sp ee
co ver</w>
ati on
res h</w>
In taea</w>
ex change</w>
si x
all owed</w>
Ak urgal</w>
shepher dship</w>
mea sures</w>
ev ol
Uru kagina</w>
gh t
sm all
cea sing</w>
Ki ur</w>
Enlil a</w>
inspec tion</w>
hum anity</w>
ulgi iri
instruc tions</w>
dit ch</w>
comman ds</w>
supp lic
wag es</w>
gazel le</w>
Nar am
citiz ens</w>
Kar zida</w>
jug s</w>
va st
gif ts</w>
instrum ent</w>
box wood</w>
host ile</w>
drum s</w>
function ary</w>
merch ant</w>
Hammur api</w>
E mu
N E
N ur
N ag
N alu</w>
b and</w>
b ers</w>
b end</w>
c ing</w>
c ool</w>
f o
f resh</w>
i an</w>
l and
n ear</w>
p ole</w>
u dug</w>
z al</w>
an der</w>
ou d</w>
ou ra
sh er</w>
sh ine</w>
at ur</w>
re ma
li b
ur ti</w>
pl ots</w>
rea dy</w>
rea ched</w>
se ts</w>
se par
co ol
hea ped</w>
do w</w>
per form</w>
her der</w>
pe gs</w>
con tin
com pas
Lu Utu</w>
mounta in
belo w</w>
car ry</w>
wo men</w>
towar d</w>
div in
dec ree</w>
deli ver
spea ks</w>
remo ve</w>
plow men</w>
Mar du
person nel</w>
Zab aba</w>
destro ys</w>
equ i
respon se</w>
des ign
cra f
relea se</w>
happ iness</w>
super visor</w>
desc ended</w>
Dil mun</w>
Hea ven</w>
corp se</w>
GA N
Ningub laga</w>
dimini shed</w>
ulgiiri mu</w>
1 6
3 8</w>
5 5</w>
C opy</w>
D ur
a kala</w>
b all</w>
b ly</w>
d rum</w>
h il
h all</w>
i ck
m alt</w>
p ig</w>
s end</w>
t on
in t</w>
in tend
in law</w>
ar ing</w>
it ted</w>
st aff</w>
ro pe</w>
re es</w>
re paid</w>
el der</w>
ri ch</w>
di re
ir s</w>
ig a</w>
ch ur
ug ht</w>
for est</w>
sp ir
ver d
co vers</w>
gi ves</w>
gi par</w>
Lugal e
si ve</w>
coun tri
brea k</w>
brea st</w>
war ds</w>
lor ds</w>
fer tile</w>
gu du
ub i</w>
tro op</w>
low ed</w>
po sed</w>
plea sing</w>
inter ior</w>
Nig in</w>
great est</w>
high priestess</w>
dar k
super intend
leve es</w>
Warad Sn</w>
Id din
lear ned</w>
flee ce</w>
Don t</w>
era se</w>
invol ved</w>
arak am</w>
contro l</w>
def iled</w>
itch en</w>
authorit ative</w>
tribut e</w>
spee ch</w>
deliver ies</w>
countri es</w>
superintend ent</w>
D amu</w>
F or
G ur
M ag
N r
P ig
S t
T a
T ru
c ir
e ing</w>
f li
g an
g rowing</w>
h one
k er</w>
n or
o c
r or</w>
s ir</w>
t il
t all</w>
u g</w>
u ea</w>
z ag
ar ly</w>
st ool</w>
al ter</w>
al tered</w>
sh out</w>
li shed</w>
le v
de vast
ra ven</w>
go ose</w>
hi sher</w>
Ur Suen</w>
Ur saga</w>
is m</w>
su ch</w>
str ation</w>
sc ent</w>
ee l</w>
lo cu
lam ents</w>
ad v
moun d</w>
moun ds</w>
si ck</w>
ce d
im p
all u</w>
hear ts</w>
fl ying</w>
Ak it
wea ving</w>
mea l</w>
sla ves</w>
sk in</w>
ess els</w>
form ed</w>
Al la</w>
shin y</w>
ding ir
Zab ali</w>
mat ure</w>
hel per</w>
juni or</w>
gro an</w>
ax es</w>
cri es</w>
full grown</w>
hero ism</w>
Ay akalla</w>
Prin cely</w>
evildo er</w>
agre eable</w>
carcas ses</w>
inci pit</w>
trust worthy</w>
mour ning</w>
anim als</w>
hone y</w>
B ig
F i
L ev
M other</w>
a x</w>
b ent</w>
c at
c tion</w>
g ho
h us
p l</w>
s itting</w>
u k
v essels</w>
in ted</w>
ar row</w>
ou ri
it um</w>
it ida</w>
sh rin
li an</w>
ma e</w>
le ts</w>
un ceasing</w>
ab a
ti ed</w>
Ur l
ban que
lab a</w>
ser ved</w>
sea ted</w>
ne lian</w>
stor m
con vey
con firmed</w>
im posed</w>
com es</w>
ge t</w>
bro ken</w>
pa st
sm it
tru th</w>
crea m</w>
har vest
az ida</w>
cla d</w>
fol low</w>
gar lic</w>
gig al</w>
vol ume</w>
tin y</w>
por ters</w>
approa ch</w>
Gi bil</w>
mal evol
author ity</w>
Me kigal</w>
subm it</w>
brew er</w>
fig ure</w>
Inim ara</w>
statu es</w>
sol di
sti cks</w>
Enma galana</w>
shoul der</w>
Itar an</w>
phy sician</w>
contin ually</w>
1 th</w>
A c
A ga</w>
G ir
K az
M ama</w>
W e</w>
b ar</w>
c ated</w>
f righ
h u
i di
k ling</w>
k itchen</w>
l un
o bl
r ang
s z
s qu
u pro
w it
th ick</w>
in of</w>
or ted</w>
sh o
en n
ma ged</w>
wh el
ri sen</w>
ta b</w>
pl u
pl y</w>
em on
un id
un na</w>
da maged</w>
di e</w>
ir sir</w>
go o
be st
be ard</w>
ch ar
as si
sp ring</w>
su il
Nin egal</w>
pp e</w>
Su b
ex or
ex ec
ex ca
stor age</w>
Lugal ezem</w>
Lugal itida</w>
Lu Nanna</w>
aw e</w>
gu ard</w>
ge gigal</w>
ub u</w>
wa ve</w>
nam ely</w>
har rowing</w>
prov isions</w>
seiz e</w>
fea tures</w>
Grea t
ve ge
him her</w>
run ners</w>
see ks</w>
Ad da</w>
rep eat</w>
Nann a
instruc tion</w>
tran sp
ili u</w>
clean sing</w>
vel ed</w>
list ens</w>
umu da</w>
Ere kigal</w>
Lipit Itar</w>
elap sed</w>
appropri ate</w>
Sa ying</w>
dep th</w>
sanctu ary</w>
Sam suil
glad d
compas sion</w>
gho st</w>
hus band</w>
banque t</w>
Kaz allu</w>
obl iter
1 7
2 8</w>
G a
H aya</w>
S il
b led</w>
c ook</w>
e shekels</w>
f at</w>
f ox</w>
f ence</w>
f ree</w>
h ang
k le</w>
o o</w>
p ur
p ac
s ought</w>
s alted</w>
y p
an gry</w>
it a</w>
il i</w>
en clo
en tering</w>
re la
el ess</w>
de st</w>
no ble</w>
es ca
fi f
um u</w>
is ina</w>
sp ace</w>
ac comp
Nin d
Nin isina</w>
tab oo</w>
br inging</w>
sur a</w>
serv ice</w>
ne w
igh t
com pos
mar ket</w>
ga me</w>
ga ze</w>
ho eing</w>
row ned</w>
iz ed</w>
accoun tant</w>
stat us</w>
ed ge</w>
iri zal</w>
over whel
sac ri
gar den</w>
cea se</w>
measur ed</w>
Ku laba</w>
ass ign
fin ed</w>
cur sed</w>
peri or</w>
cour se</w>
deter mine</w>
stra ight</w>
water way</w>
dro pped</w>
hol ds</w>
volum eshekels</w>
ARAD mu</w>
gazel les</w>
Du du</w>
leve e</w>
hand le</w>
emer ged</w>
decid ed</w>
Tow ards</w>
Baz i</w>
day light</w>
sin ce</w>
bego t</w>
Mardu k</w>
ton gue</w>
dire cted</w>
verd ant</w>
Samsuil una</w>
esca pe</w>
6 6</w>
A na
B e</w>
H il
P er
W ill</w>
a pe
b it</w>
b ur</w>
b ind</w>
b ene
e du
i q
i ther</w>
k led</w>
m ing</w>
o ted</w>
p ens</w>
s ig
s irsir</w>
u d</w>
w ar</w>
x es</w>
z a
in vo
st ea
ro ots</w>
at ever</w>
ma in</w>
wh e
le e
ta king</w>
de pri
de pot</w>
pl us</w>
em in
ra ising</w>
bar ges</w>
ch o
as ide</w>
ow ing</w>
fi ve</w>
Ur n
Ur u</w>
bu cks</w>
sp i
ke y</w>
co ver
su m</w>
Nin ura</w>
Nin sun</w>
ati c</w>
sc or
per sons</w>
gra sp
lo st</w>
lo ck
sur vey
sea t</w>
con s
con fu
na il</w>
Lugal kuzu</w>
brea ds</w>
car nelian</w>
lin en</w>
gr and
lea ve</w>
so li
col lea
wa iling</w>
ep ada</w>
Ibbi Sn</w>
under bird</w>
lu stration</w>
gar den
tor n</w>
thre w</w>
iti on
te em
administrat ors</w>
orch ards</w>
Nam ani</w>
your s</w>
comman ded</w>
joy ful</w>
enti fied</w>
culti c</w>
flow ing</w>
kne es</w>
issu e</w>
Posses sor</w>
ardi an</w>
uw aw
uum gal</w>
alli m</w>
regul arly</w>
choo se</w>
plen ty</w>
ult itu
two year</w>
Tru e</w>
fli cted</w>
lev y</w>
upro oted</w>
unid entified</w>
Hil lock
2 9</w>
3 1</w>
9 6</w>
A imbabbar</w>
B lu
G an
I gi
M am
M an</w>
N umuda</w>
S m
S ir
S ealed</w>
U nu
c ts</w>
c ised</w>
d ent</w>
e l</w>
f ing
f are</w>
f low</w>
g row
m ir
m ill</w>
o inted</w>
t ful</w>
y el
th ick
ar ies</w>
on ce</w>
al together</w>
ro am
ro aring</w>
en ting</w>
re st
re bel
re fined</w>
ma t</w>
ta ils</w>
go l
ha r</w>
sil ence</w>
ear th
sp ending</w>
su perior</w>
pla r</w>
pla yed</w>
buil der</w>
pp ak</w>
do gs</w>
Wh ite</w>
In scription</w>
work men</w>
ca ught</w>
Lugal u
Lugal nig
si ck
im u</w>
Lu Ninubur</w>
peo ples</w>
An ta
mar shes</w>
mar vel</w>
ub a</w>
bor der
bea ds</w>
po plar</w>
fashi on</w>
posses sed</w>
posses ses</w>
gig igal</w>
nec ks</w>
Sh rine</w>
por ter</w>
pour ing</w>
pi on</w>
pi ck
ARA D</w>
lif e
dar k</w>
stri ke</w>
perform ing</w>
hun g</w>
citiz en</w>
dea th</w>
leather workers</w>
multip lied</w>
perfor ated</w>
quarre l</w>
settle ments</w>
uru ppak</w>
plunder ed</w>
design ations</w>
cir c
devast ated</w>
Akit u</w>
sacri fi
Hillock of
Blu allim</w>
A u
A gi</w>
D o
E PA</w>
H uwaw
P e
S tel
W hi
b att
d ged</w>
g ri
h ab
h ow
h ood</w>
i i
i al</w>
k il
k new</w>
l ugal
m ouse</w>
n ur
n ug
n una</w>
n im</w>
o ple</w>
o ath</w>
t in</w>
t wi
w n</w>
ar ro
ar om
er ship</w>
ea ts</w>
or ter</w>
al ent</w>
al am</w>
ro de</w>
at or</w>
re spec
li qu
ri g</w>
ri ver
le t
le cted</w>
ta ver
pl ed</w>
un loaded</w>
di stress</w>
di ffer
go tten</w>
bar tab</w>
se ed
fi xed</w>
Ur bartab</w>
um a</w>
is sion</w>
ke ep</w>
ac ia</w>
su ma
ter m</w>
sa pp
Ning ir
lo an</w>
ex ist</w>
Lug irizal</w>
mo on
mo on</w>
con ver
con cer
Lugal banda</w>
ru n</w>
im por
An zu</w>
fer red</w>
car ed</w>
ci se</w>
gu ardian</w>
iz i</w>
iv alent</w>
wea k</w>
uz ga</w>
ut es</w>
gh ee</w>
crea tures</w>
lap is
ep ing</w>
fic ation</w>
ba a</w>
comm on</w>
aband on</w>
spec kled</w>
see king</w>
stra w</w>
hum ble</w>
dra g
dra gon</w>
equ id</w>
ste ppe</w>
bra n</w>
sum un</w>
mag ure</w>
nes ag</w>
dou ble</w>
Dil imbabbar</w>
tow n</w>
exten ded</w>
trem ble</w>
12 th</w>
pil es</w>
exer cise</w>
As all
Wat er</w>
boo ty</w>
uh i</w>
insul ted</w>
wal ked</w>
judg ments</w>
cru shed</w>
nir 2</w>
Puzri Dagan</w>
scr atched</w>
Gazel le</w>
bed chamber</w>
stit ute</w>
Igal im</w>
divin ity</w>
locu st</w>
lee ks</w>
depri ved</w>
survey or</w>
Unu g</w>
Anta sura</w>
Pe ople</w>
Whi ch</w>
liqu or</w>
taver n</w>
differ ent</w>
7 2</w>
E an
E lam
G I
G o
G r
N im
T ira</w>
W ith
b ig
b gal</w>
d ness</w>
e ve</w>
f al
f ast</w>
h y
j ac
k n
k a</w>
k isi
n or</w>
r y
s oo
t ee
u tion</w>
w ol
w earing</w>
ar ab
ar ch
ea st</w>
ea ten</w>
it ary</w>
st ing
st ern</w>
sh ar
ro of</w>
ro se</w>
re f
re st</w>
re built</w>
re du
li ar</w>
ma id
el and</w>
pl o
un g
un i</w>
un its</w>
un ir</w>
to tal
sil ent</w>
hi re
sp rin
sp end</w>
ac acia</w>
fa st
Nin ins
Nin sumun</w>
mon g</w>
ter ror</w>
Su preme</w>
sa ke</w>
gra s
Th underbird</w>
In ab</w>
rul ers</w>
du ces</w>
si x</w>
ru p
ru ins</w>
com bat</w>
bo a
cor d</w>
can als</w>
fl ouri
Gu dudu</w>
Sum er
ho ed</w>
gu es</w>
offer ing
bro ad
par as
sm ite</w>
bea m</w>
alkal i</w>
end ursag</w>
low er</w>
sub jug
que enship</w>
enem ies</w>
emb le
mil ling</w>
ass igned</w>
ay amu</w>
Har i</w>
fec t</w>
fle ec
see k</w>
comple te</w>
equ ivalent</w>
Gil game</w>
rep ea
swee t
shou ting</w>
gro ats</w>
supp orter</w>
desc end
intel lect</w>
lad y
pea flour</w>
head gur</w>
cont ents</w>
corp ses</w>
fro m
trans ferred</w>
well being</w>
stret ched</w>
you th
rever es</w>
kee per</w>
Ninhur sag</w>
rejoi ced</w>
previ ously</w>
Nab asa</w>
bene fit</w>
stea d
soli di
garden er</w>
gol den</w>
Stel e</w>
Asall uhi</w>
Ninins ina</w>
A mong</w>
B ur
B ir
E eng
F light</w>
I m
K a
L a
N o
P a
R a
S ag
S owing</w>
a chie
b ab
c ke
d ow
d ows</w>
e ani</w>
g ree
h an
i se
j enn
l ds</w>
o ck</w>
p our</w>
r u</w>
s an
s em
s sed</w>
u zu</w>
in her
in tro
in crea
or n</w>
il u</w>
en ced</w>
re vo
li vest
ma h
ma s
ri er</w>
ri but
ta sh</w>
un u</w>
un to</w>
un um</w>
ul ation</w>
di ke</w>
di sc
di worker</w>
bar a</w>
ch as
ol ution</w>
ti m
hi ps</w>
Ur kun
id ing</w>
sp a
Nin ki</w>
pla y</w>
pp ar</w>
lo t</w>
ex i
sur plus</w>
pro found
ca use</w>
du ty</w>
att ribut
ce ed</w>
bo ard</w>
cor rec
An unna</w>
pre c
pre p
fore head</w>
mu sician</w>
wel ls</w>
kal ma</w>
wea ver</w>
lea d</w>
dec rees</w>
Uru b</w>
po tash</w>
know led
lu x
lu kur</w>
hor ned</w>
ic ket</w>
emb race</w>
remo te</w>
form er</w>
ever lasting</w>
inspec tor</w>
Zab alam</w>
Ad da
inter est</w>
To gether</w>
nu n</w>
shou ted</w>
Da daga</w>
Si ppar</w>
sle eping</w>
hol ding</w>
sanc ti
cham bers</w>
tou ched</w>
gre en</w>
Mes lam
mou th
mou ths</w>
dou ble
hero es</w>
hun ger</w>
Nink ilim</w>
Nink asi</w>
Warad Sin</w>
brew ery</w>
fam ili
Wat ch</w>
Posses sing</w>
dir t</w>
obe is
consum ed</w>
hal f
suk kalma</w>
Gued ena</w>
Ding ir
carp enter</w>
swor n</w>
herds man</w>
roa ds</w>
acqu ire</w>
cowher d</w>
satis fied</w>
etern al</w>
reed bed</w>
separ ated</w>
Lugale mae</w>
dingir mu</w>
Lev ee</w>
idi ot</w>
goo ds</w>
edu baa</w>
whe ther</w>
confu sed</w>
teem ing</w>
impor tant</w>
lapis lazuli</w>
Sumer ian</w>
Eeng ura</w>
livest ock</w>
3 7</w>
4 4</w>
4 7</w>
A R</w>
B o
B ad
C on
D uga</w>
E ven</w>
E tar</w>
E tar
G ar
L u</w>
N an
N asa</w>
N ew</w>
T w
c ess</w>
e tt
f estiv
g in</w>
g rows</w>
g ate
l ard</w>
o h
p on
p in</w>
p iv
r end
s l
s pl
t s
u du</w>
u sing</w>
v at</w>
y i
th icket</w>
in ct</w>
an ima
ar ri
ar ti
it ed</w>
it ing</w>
it ance</w>
or ing</w>
st ate</w>
al ready</w>
il li
il um</w>
at u</w>
re m
re pl
li ps</w>
el dest</w>
ri der</w>
ra ises</w>
di g
di sea
di sapp
rea d</w>
be t
bar e</w>
ch er</w>
se tting</w>
ol der</w>
wor king</w>
Ur du
Ur Lisi</w>
um p
bu y</w>
for gotten</w>
id es</w>
id le</w>
ear ance</w>
ac ity</w>
co p
str ange</w>
str anger</w>
est ed</w>
do m
Su sa</w>
In ann
ex u
ex t</w>
rul ership</w>
work day</w>
serv ing</w>
serv es</w>
Lugal zag
pri ce</w>
pri son</w>
min us</w>
bo at
bel ongs</w>
car e
cu bit</w>
bb ing</w>
bro thers</w>
par ape
mea dows</w>
dec l
ut ation</w>
har p</w>
over turn</w>
cla im
cal en
Dumuz ida</w>
mor ning</w>
mor tar</w>
posses sor</w>
bac k
tra de</w>
emb ra
mil l
wil low</w>
provid ed</w>
wis h</w>
cap acity</w>
inter est
cer emon
mer cy</w>
fur row</w>
ulgi ayamu</w>
fac ility</w>
sett led</w>
cri p
tou ching</w>
win ds</w>
fru its</w>
Sin iddinam</w>
Ar att
const antly</w>
Nar ua</w>
kne e</w>
gif ted</w>
Re garding</w>
allo t
tea m</w>
fisher men</w>
terri ble</w>
smo te</w>
ren o
initi ate</w>
lag are</w>
Bri cks</w>
six ty</w>
small shekels</w>
Gur sar</w>
harvest ed</w>
squ are</w>
best owed</w>
fif ty</w>
Mam i</w>
Sir ara</w>
arom atic</w>
Ningir su
moon light</w>
inher itance</w>
attribut es</w>
prep are</w>
famili ar</w>
Etar sirsir</w>
festiv als</w>
anima l</w>
repl ying</w>
1 5
4 6</w>
5 3</w>
6 4</w>
A w
D ag
D es
F ir
G o</w>
G ula</w>
I r
I l</w>
M el
O h</w>
S and</w>
S on</w>
S ea</w>
U re
W as</w>
Z an
b ought</w>
b ond</w>
c am
c oura
d son</w>
d ings</w>
d nim</w>
e qual
f rowned</w>
i ous</w>
k ar</w>
m ly</w>
m ultitu
p un
p oun
p ron
p rou
s sing</w>
s ign</w>
u lar</w>
v ate</w>
z er</w>
th es</w>
th igh</w>
an ing</w>
ar azu</w>
ea l
st al
sh oo
ro n</w>
ro om</w>
at tering</w>
en se</w>
li ous</w>
li ght
la ck</w>
ri ses</w>
le gal</w>
ra in
rea ches</w>
ab tum</w>
ch ec
es o
Ur E
Ur Nin
Ur Utu</w>
Ur Dumuzida</w>
for ti
is a</w>
sp ent</w>
ac cu
su c
str ings</w>
res in</w>
lo dged</w>
sur r
sur y</w>
pro stitute</w>
destroy ing</w>
ca sting
con qu
Lugal k
Lugal azida</w>
Lugal magure</w>
tur tle</w>
ru ined</w>
ck ish</w>
com pla
wi cke
mi xed</w>
Sum u
iv ist</w>
bea ten</w>
Eri dug</w>
bund led</w>
har row</w>
manag ers</w>
vo y</w>
know ing</w>
atten tive</w>
sub ject</w>
seiz es</w>
fol lowed</w>
under standing</w>
Abb agina</w>
pray ed</w>
trea sury</w>
plow oxen</w>
thre shed</w>
cap ti
sna kes</w>
ki an</w>
cur ed</w>
af flicted</w>
shin es</w>
clo th</w>
mess age</w>
see ds</w>
Nam mah
comple x</w>
messeng ers</w>
hum bly</w>
equ al</w>
flo ated</w>
fur ni
bra ckish</w>
sanc tum</w>
scrib es</w>
ob ject</w>
num ber</w>
mou lds</w>
mag ni
puri fied</w>
Sin ce</w>
irrig ated</w>
resplend ently</w>
cel iness</w>
illa ge</w>
obe dient</w>
Ex alted</w>
qui ver</w>
sn are</w>
rev ealed</w>
requ is
Gued ina</w>
neg lect</w>
viol ence</w>
good ness</w>
Emu t
imp le
storm wind</w>
malevol ent</w>
frigh tened</w>
sho vel</w>
exor cised</w>
transp orted</w>
gladd ens</w>
enclo sure</w>
rela x
Nind ara</w>
grasp ed</w>
rebel lious</w>
Lugalu ur</w>
Lugalnig lagare</w>
nug ig</w>
suma c</w>
fleec ed</w>
lady ship</w>
tim ber</w>
profound ly</w>
lux uri
Lugalzag esi</w>
parape t</w>
decl ared</w>
Aratt a</w>
pron oun
1 5th</w>
2 1st</w>
7 6</w>
A ss
B e
B r
E v
E sar</w>
G ung
H ou
H ab
I kalla</w>
N e
R i
R es
b er
c all</w>
c ried</w>
c rying</w>
d run
e b
e very</w>
f ying</w>
h it</w>
i zu</w>
k id
m eland</w>
n un
n ights</w>
n ight
p y
p op
q ti
s or
s ab
s ound</w>
s ort</w>
t ing
t ent</w>
u su
w ed</w>
w ings</w>
z am</w>
th ie
in ten
an epada</w>
ar t
ar rows</w>
er e
or ac
or din
on ag
st ers</w>
st ill</w>
al ways</w>
ro of
ro dent</w>
re place</w>
re verse</w>
ma id</w>
no ise</w>
em ents</w>
un familiar</w>
di min
En ak
be er
se cured</w>
as ag
ha z
ha unted</w>
Ur Zababa</w>
um ma</w>
ug u
ug id</w>
ver dic
ac ti
fa me</w>
pla n</w>
sc rea
est ic</w>
do e</w>
sa d
br illi
lo ving</w>
rul e</w>
ad d</w>
pe tu
Lug ina</w>
Lugal nes
shi ps</w>
Lu Baba</w>
bo x</w>
op e</w>
ox en
ho meland</w>
mu sici
eng end
lea der</w>
bro w</w>
ent ire</w>
pa in
pa ths</w>
tr un
div isions</w>
ree ing</w>
fir mly</w>
bea ms</w>
end owed</w>
po or</w>
mid wife</w>
sheep hides</w>
prov ide</w>
cit y
over turned</w>
fol ds</w>
sing ers</w>
Dumuz i
Ku da</w>
long fleeced</w>
tra cts</w>
mil itary</w>
loo king</w>
Mar i</w>
sha ke</w>
stra igh
atta ched</w>
thor n
sag rig</w>
des ire</w>
dro ve</w>
Gi ve</w>
tou ch</w>
fear ing</w>
ima kian</w>
contain ers</w>
incant ations</w>
forem en</w>
cl ear</w>
Iri kug</w>
Iri sagrig</w>
Hea ded</w>
cel la</w>
ven ess</w>
illa ma</w>
ted ly</w>
susta in</w>
swor e</w>
Getin ana</w>
distri bu
heaven ly</w>
Ha ving</w>
floo d
Naram Sin</w>
chur n</w>
spir its</w>
Iddin Dagan</w>
Pig let
smit ten</w>
plu cked</w>
assign ment</w>
za bar
Urn ig</w>
scor pion</w>
collea gues</w>
roam ed</w>
Huwaw a</w>
redu ced</w>
hire lings</w>
gras p</w>
repea tedly</w>
from by</w>
stead fast</w>
intro duces</w>
Urkun una</w>
prec inct</w>
obeis ances</w>
Tw o</w>
disea se</w>
interest bearing</w>
light ning</w>
casting net</w>
magni fic
Gung unum</w>
Hou se
night time</w>
py ard</w>
qti dnim</w>
dimin ish</w>
Lugalnes age</w>
Piglet feast</w>
1 4th</w>
2 8
2 6th</w>
5 4</w>
5 1</w>
5 8</w>
6 8</w>
7 5</w>
I pae</w>
K al
K ur
K am
M un
N as
P ab
U t
W all</w>
b as
b one</w>
c ab
d ge</w>
f led</w>
g lor
h a</w>
h u</w>
i b
i ander</w>
j ec
k or</w>
k um</w>
k uga</w>
n anum</w>
o ved</w>
p t</w>
p ec
r ent</w>
r ate</w>
s plend
u la
v ity</w>
v ation</w>
th ra
th us
th eless</w>
on y</w>
st en
st ered</w>
al oud</w>
ro l
ro bb
re l
li sh</w>
li ft</w>
la har</w>
el se</w>
el led</w>
de mo
de ities</w>
un known</w>
to m</w>
to il</w>
to day</w>
ra n</w>
ra ge</w>
da n</w>
da ises</w>
En k
be dro
ig e</w>
se es</w>
as c
as ses</w>
es ses</w>
Ur Mami</w>
ann i
am you</w>
for t
Nin mu
Nin inimgina</w>
mon goose</w>
Su en
Wh ile</w>
lo ss</w>
In to</w>
ex vo
ex peri
gi zi</w>
work ed</w>
Lugal kig
cor iander</w>
coun t</w>
wat ch</w>
fl atten
pre gn
pre bend</w>
Ak ak</w>
op ens</w>
mar ry</w>
cu tting</w>
cu tter</w>
bir a</w>
kal ama</w>
sw ept</w>
dec reeing</w>
ub i
col or
bor ns</w>
app ointed</w>
Ab u</w>
abund ant</w>
dre w</w>
dist ressed</w>
prin celiness</w>
gal nuna</w>
gig una</w>
uti ons</w>
tor al</w>
we igh
we ights</w>
cap tain</w>
bl a</w>
Ther e
bow ed</w>
anc est
Zab ala</w>
wee p</w>
suit ed</w>
pi pe</w>
chang es</w>
flo ating</w>
nu banda</w>
Da is</w>
there in</w>
perfec ts</w>
bal es</w>
ob lig
fla x</w>
Enun na</w>
yo kes</w>
Ay akala</w>
Prin ce</w>
evildo ers</w>
judg ment</w>
fe t
fe ed</w>
Dam galnuna</w>
om ens</w>
Am nanum</w>
blo cked</w>
suk kal</w>
gran ted</w>
gran ary</w>
scr at
exc ess</w>
Gazel le
tum uli</w>
herds men</w>
writ ten</w>
thir d</w>
De ficit</w>
regi on</w>
Wo e</w>
mountain netherworld</w>
equi pped</w>
nor thern</w>
hang ing</w>
new borns</w>
compos ite</w>
cover ing</w>
GI R
With in</w>
tee th</w>
arch ivist</w>
dow n
Meslam taea</w>
half labor</w>
piv ot</w>
Nammah ni</w>
Emut bala</w>
drun k</w>
bedro om</w>
2 4th</w>
2 9th</w>
2 5th</w>
2 8th</w>
6 5</w>
6 7</w>
9 5</w>
B lack</w>
D ub
E mah</w>
G ood</w>
H as</w>
H ear
I s
I s</w>
K as</w>
K ugani</w>
N amma</w>
O x
S eal</w>
U ta
U kun
W ise</w>
a i</w>
b ad</w>
c ul
c le</w>
c ult</w>
d un
f allow</w>
g le</w>
i par</w>
j ars</w>
k au
m un
m ol
m is
m itum</w>
n ative</w>
n ext</w>
o men</w>
p ou
p en
p es</w>
r ite</w>
r ented</w>
s al
t ely</w>
u lag
z am
th in</w>
in der</w>
ar r
ar ose</w>
er er</w>
er oo
or gan
on ent</w>
st ac
st ay</w>
st ation</w>
st ar</w>
st ance</w>
st ars</w>
st up
il t</w>
at ter</w>
re ly</w>
li ons</w>
la ugh
ur um</w>
de pos
no on</w>
no ser
di m</w>
se ven
ol s</w>
ol en</w>
ug i</w>
sp ends</w>
ac ts</w>
Nin e
sc ream</w>
Ning iz
per fu
of in</w>
man kind</w>
man hood</w>
lam u</w>
her d</w>
mo ved</w>
du e</w>
shi eld</w>
shi pyard</w>
and als</w>
Lu Suen</w>
Lu saga</w>
all ation</w>
cor ve</w>
cor por
cor ner</w>
coun ted</w>
brea th</w>
An zu
op ening</w>
car ries</w>
bur ning</w>
sw ear</w>
towar dson</w>
ey es
bea ts</w>
crea tion</w>
wa ves</w>
youn ger</w>
priest esses</w>
dwel ls</w>
dwel lings</w>
low s</w>
po t
don t</w>
sk a</w>
sk illed</w>
sk ill
prin cess</w>
Abb akala</w>
Abb asag
inst allation</w>
comp ani
pray er
bear s</w>
bear ers</w>
nig dab
loo ks</w>
tor s</w>
Enlil bani</w>
if f</w>
resid ent</w>
tel l</w>
approa ches</w>
Ekin ual</w>
Nam tar</w>
drin ks</w>
water ed</w>
deb t</w>
produ ced</w>
high land</w>
rep utation</w>
bitter ness</w>
Nann ama
lim it
lim it</w>
there fro
perfec tly</w>
bal ag</w>
one talent</w>
sis a</w>
stri pped</w>
Nu ska</w>
fun er
fod der
incant ation
puri fies</w>
13 th</w>
nes ses</w>
utter ances</w>
subm ission</w>
Ar ali</w>
tow er</w>
culti vated</w>
them a</w>
fam ous</w>
ene dudu</w>
disp er
dir i</w>
instrum ents</w>
Kin unir</w>
Lul ubu</w>
Tow er</w>
exhau sted</w>
dri ven</w>
opp onent</w>
rev eal</w>
ali ke</w>
hon or</w>
pig e
Lam ma
Lam atu</w>
sma shed</w>
writ ing</w>
spar kling</w>
cowher ds</w>
distri ct</w>
rejoi ces</w>
after wards</w>
regi ons</w>
dag ger</w>
lib ation</w>
GAN ma</w>
dark ness</w>
Nr Adad</w>
soldi ers</w>
hu man</w>
char ged</w>
vege table</w>
circ led</w>
hab it
ii b</w>
wol f</w>
shar p
ref uge</w>
total s</w>
flouri sh</w>
subjug ator</w>
correc tly</w>
calen dar</w>
Ningirsu s</w>
Lugalk ugani</w>
Ri ver</w>
thie f</w>
haz in</w>
Nas ilim</w>
thus ly</w>
demo lished</w>
Lugalkig enedudu</w>
pregn ant</w>
color ful</w>
There from</w>
Dub la
Hear t</w>
ulag ana</w>
noser ope</w>
Ningiz ida</w>
perfu me</w>
Abbasag as</w>
compani on</w>
nigdab offering</w>
Nannama ba</w>
therefro ms</w>
3 th</w>
A gu</w>
B u
B ring</w>
C h
E a</w>
E bi
E dam</w>
H i
H al
I li
L ama</w>
L atur</w>
M en
T id
Y oun
a u</w>
a da
c re
c al</w>
c ation</w>
c yp
d il
d um
d eal</w>
e da
f reed</w>
g ates</w>
i ed</w>
i ma</w>
k ura</w>
m em
o s</w>
p ers</w>
p ite</w>
p ut
s our
s ides</w>
t ear</w>
t emp
w ing</w>
w on
w ro
z en
th ing
th rown</w>
in sp
in laid</w>
an ed</w>
an ge
ar d
ar rum
ou ts</w>
ea gle</w>
st ream</w>
al al</w>
il a</w>
sh ap
sh op</w>
at a</w>
at ing
en e</w>
en ces</w>
en si</w>
en coura
re ck
re ared</w>
re igned</w>
li on
ma j
el l
el l</w>
wh atever</w>
le c
ta xes</w>
de v
de ser
pl ough</w>
to ld</w>
ra m
di es</w>
En ig
ir ing</w>
be fitting</w>
ab le
ch arms</w>
ch ick</w>
ag ala</w>
es cap
ti es</w>
wor d
sil ver
Ur a</w>
bu sh</w>
ear ed</w>
ke dou
su bor
su sten
mon y</w>
grea ter</w>
pp ing</w>
do ors</w>
ee ds</w>
res ses</w>
lo ad</w>
Th r
pro w
pro fit</w>
pro found</w>
work force</w>
Lug al</w>
ne igh
mo ve</w>
con cea
con fron
scri bed</w>
du b</w>
moun ded</w>
si on
ru sh</w>
and so</w>
ce dar
im ua</w>
com par
Lu bal
bo ast</w>
coun sel
hear t
wi cked</w>
aw are</w>
ci ously</w>
ho me</w>
govern ors</w>
tr e</w>
ie ce</w>
pas sing</w>
ut ter</w>
so andso</w>
pal ms</w>
stand ardi
thr ones</w>
tru sted</w>
stat ement</w>
inn ing</w>
pres ence</w>
ap ples</w>
sheep folds</w>
tri ump
din ate</w>
Ku ara</w>
nig 2
trea sures</w>
tra ver
Mar du</w>
Mar ai</w>
fin ish</w>
plea sure</w>
stel es</w>
clo thed</w>
run ner</w>
ous ness</w>
sprea ds</w>
weap on
offici ant</w>
surpas s</w>
cer eal</w>
high priest</w>
destin ies</w>
swee tly</w>
swee tened</w>
des ired</w>
cra ft</w>
fel led</w>
fac ed</w>
wid ow</w>
Gi par</w>
win no
loa ds</w>
ARAD Nanna</w>
red dish</w>
Aga inst</w>
13 43</w>
eg gs</w>
multi ply</w>
ble ssing</w>
hand ed</w>
disp atched</w>
boo kedou
answ ered</w>
insul ts</w>
Ura mma</w>
exhau st</w>
kig ala</w>
tak er</w>
kee ps</w>
kis sed</w>
smo ke</w>
susta ins</w>
Egal esi</w>
Bel oved</w>
beg inning</w>
neg lected</w>
previ ous</w>
Utu egal</w>
rema inder</w>
cool ing</w>
oc cup
Fi eld</w>
shrin es</w>
soldi er</w>
Gir in
rang es</w>
wit nesses</w>
exca vated</w>
obliter ated</w>
cho ice</w>
Gan zer</w>
grow th</w>
yel low</w>
sick ness</w>
respec t</w>
kisi ki</w>
reno vated</w>
Des pite</w>
Mel uh
Zan r</w>
chec ked</w>
UrE e</w>
surr ounded</w>
wicke dness</w>
luxuri ant</w>
art fully</w>
ugu st</w>
musici ans</w>
pec toral</w>
exvo to</w>
Ukun ut
zam zam</w>
eroo m</w>
disper sed</w>
Ebi h</w>
Youn g</w>
cyp ress</w>
wro te</w>
zen ith</w>
encoura g
subor dinate</w>
susten ance</w>
triump h</w>
bookedou ts</w>
1 1th</w>
3 9</w>
5 2</w>
6 3</w>
9 2</w>
A g
A ra
A sag</w>
A mur
B l
B ida</w>
D ra
D ad
E l
E ana</w>
E tem
L ong
M an
N I
P A
Q u
R o
S pea
a ugust</w>
b asketoftablets</w>
b ling</w>
c es
c tor
c ket</w>
e gi
e du</w>
e kala</w>
f ar
f ight</w>
f ected</w>
g ab
g yp
h uge</w>
i fied</w>
j our
k a
k an</w>
k oh
m ated</w>
m ood</w>
n th</w>
p at
p ene
p ond</w>
s its</w>
s andals</w>
t ation</w>
u h</w>
u u</w>
u ed</w>
v an
v ir
v agina</w>
w ear</w>
z ig
th ro
th ood</w>
th row
th ough
in take</w>
in scribed</w>
an as</w>
ar th</w>
er as
ea s</w>
it ions</w>
st in
st ar
st ro
al ong
al aba
sh ore</w>
ro d</w>
at al</w>
re pa
re placed</w>
re stra
le veled</w>
to ols</w>
da l</w>
di kes</w>
di rec
En dingirmu</w>
oun ds</w>
ab gal</w>
ab ala</w>
se x
ing re
ag ri
ag ents</w>
es thood</w>
ti bira</w>
sil t</w>
Ur Eninnu</w>
Ur Ningezida</w>
Ur Enlila</w>
Ur Damu</w>
um ea</w>
am p</w>
for get</w>
id ed</w>
ear ly</w>
sp ice</w>
ke qui
ver theless</w>
fa ther
su me</w>
su pre
Nin nu
hea p</w>
sc al
est s</w>
of because</w>
lo ve</w>
lam enting</w>
ex ub
gi ri
pro sp
pro long
ad m
ne y</w>
ne vertheless</w>
stor es</w>
con sume</w>
Lugal saga</w>
tur ban</w>
pri esthood</w>
ce ful</w>
coun ting</w>
war ehouse</w>
can opy</w>
pre ter</w>
pre emin
vi ctor
fer ry
Gu z
car es</w>
aw eso
mi x</w>
govern or
ten ing</w>
col ored</w>
bri gh
deli ght</w>
bor ders</w>
bea t</w>
wa il</w>
retur ning</w>
too th</w>
iri g
atten ded</w>
cit ys</w>
cla ws</w>
sac k</w>
lu bum</w>
sing ing</w>
ba il
cum in</w>
he gal</w>
comp elled</w>
ic al</w>
Ku su</w>
trea t</w>
tra vel
mil ate</w>
cas es</w>
loo m</w>
loo se</w>
thre sh
we ighty</w>
Gem ee
Sh uruppak</w>
Al ulu</w>
slaugh tering</w>
warri ors</w>
cha se</w>
Ad umu</w>
comple tely</w>
bi son</w>
produ ction</w>
destin ed</w>
rep lied</w>
fav or</w>
fav oura
cle ver</w>
dro n</w>
Da aga</w>
determin ing</w>
cro ssed</w>
instruc ted</w>
sto ck</w>
gro om</w>
stree ts</w>
Nun gal</w>
win d
brick built</w>
mal i
joy ous</w>
fri end
wom ens</w>
cl ou
cl oud</w>
Enun ugal
exten ds</w>
caul dron</w>
trem bled</w>
Il um
issu ed</w>
18 th</w>
pu re
As z
decid es</w>
heif ers</w>
inqu ire</w>
answ ers</w>
off er</w>
off shoo
Ama uum
statu ett
Lul lubum</w>
Lum ma</w>
hal ub</w>
Lipit Etar</w>
pul ses</w>
ana thema</w>
Ding ira</w>
bego tten</w>
carp enters</w>
ef face</w>
leather worker</w>
roa sted</w>
Dug amu</w>
Igal ima</w>
satis fy</w>
etern ity</w>
Ba u</w>
fil ling</w>
plough men</w>
add ition
Wo mans</w>
supplic ation</w>
supplic ations</w>
Nur Adad</w>
cool ed</w>
Dur an
dark ened</w>
St and
Url umma</w>
assi milate</w>
exec utes</w>
overwhel med</w>
grand ly</w>
border ing</w>
life giving</w>
concer ning</w>
Ean atum</w>
Elam ite</w>
Go ing</w>
arab du</w>
maid en</w>
offering ritual</w>
paras ite</w>
youth ful</w>
Bir d</w>
gree ting</w>
jenn y</w>
Bad tibira</w>
spl itting</w>
yi eld</w>
arri ved</w>
claim ed</w>
trun k</w>
zabar dab</w>
magnific ent</w>
jec ts</w>
splend or</w>
anni hil
flatten ed</w>
limit profit</w>
funer ary</w>
fodder reed</w>
won der
deser t</w>
Enig gal</w>
escap ed</w>
concea led</w>
standardi zed</w>
Etem en
gyp sum</w>
koh l</w>
pene tr
though ts</w>
kequi ds</w>
Ninnu du</w>
exub er
Amauum galana</w>
statuett e</w>
addition al</w>
1 6th</w>
2 th</w>
2 3rd</w>
4 1</w>
4 9</w>
8 4</w>
9 8</w>
A long</w>
B asa</w>
D un
D iv
D ay
E ating</w>
G ol
H urti</w>
I p
K U
K is
M u
M ea
N or</w>
N in</w>
O r
P u
P la
P ow
R im
S ay</w>
T i
T ur
Z i
a me</w>
a di
a ir</w>
a ar</w>
a worker</w>
b ones</w>
b attering</w>
c a</w>
c ow
c old</w>
c enter</w>
d ough</w>
d ry</w>
e k
e ds</w>
e ge</w>
e ither</w>
f er</w>
f ow
f our
g ent</w>
g ara</w>
g ida</w>
h ook</w>
i ag</w>
i ously</w>
i ron</w>
l d
m emb
n on
o h</w>
p ine</w>
p aw
r at</w>
s en
t tom</w>
u ty</w>
v illage</w>
w est
w est</w>
w rest
th in
in ts</w>
an t
ar du</w>
ar able</w>
ar rang
it tle</w>
st er
st all</w>
st olen</w>
al um</w>
sh ment</w>
sh orn</w>
ro ar</w>
en gur</w>
re li
re sting</w>
li er</w>
la l</w>
ma d
ma sh</w>
ur ing</w>
ri d
ri age</w>
ri pped</w>
pl enti
da p
she donkey</w>
ul l</w>
ul la
ul um</w>
di gn
rea ch</w>
rea ching</w>
En men
En ul</w>
ir y</w>
go t</w>
be st</w>
be have</w>
be side</w>
ig ns</w>
bar ag
bar as
bar ber</w>
ab ly</w>
ch s</w>
ag ent</w>
Ur ge
Ur Ikur</w>
Ur Itaran</w>
um in
am oun
ear lier</w>
sp ear</w>
ke pt</w>
ac ting</w>
Nin a</w>
Nin tin
Nin mah</w>
pla y
ee y
ee ding</w>
per fected</w>
Wh ose</w>
Wh atever</w>
lo y
ex ist
ad ds</w>
pe l</w>
ne d
stor eroom</w>
na ils</w>
Lugal me
Lugal nir
tur ns</w>
du l</w>
whi p</w>
si vely</w>
att ers</w>
com b</w>
Lu banda</w>
bo ttom</w>
cor rup
pre t
Ak ia</w>
fore ig
aw e
ga house</w>
bb ed</w>
ho t</w>
sel f
gu t</w>
gu ar
chil d
Li fe</w>
sw allow</w>
ful ness</w>
ful filled</w>
pa ue</w>
ten s</w>
div ide</w>
uz gahouse</w>
ut um</w>
so bbing</w>
bri dal</w>
tru th
nin dan</w>
bea uty</w>
establi shing</w>
crea te</w>
ed ges</w>
pos ition</w>
wa y
app earance</w>
nam es</w>
Ab a
Ab gal</w>
pres sed</w>
iri es</w>
mid day</w>
ak a</w>
ak uge</w>
prin ce
prin ces</w>
cal f
cal m</w>
ba thed</w>
he ed</w>
uri qtidnim</w>
comp are</w>
fron d</w>
Ku Nanna</w>
nig uru</w>
tra m
bla de</w>
nec k
we ed</w>
cap tive</w>
Sh ara</w>
bl own</w>
bl ue</w>
beauti ful
ki ag</w>
clo thes</w>
righ tful</w>
god fearing</w>
Sn kid</w>
Er ra
dur ation</w>
Ad alal</w>
water skin</w>
water course</w>
dab in</w>
Geme Narua</w>
Nig ar
dra wn</w>
tain ed</w>
Nann ak
des ign</w>
cra ved</w>
cra cks</w>
Bar a
sun g</w>
sun rise</w>
Bab ati</w>
win dow</w>
mal let</w>
puri fication</w>
subm itted</w>
favor ed</w>
flow ering</w>
list en</w>
lear n</w>
gir l</w>
inqu ired</w>
answ er</w>
off spring</w>
14 4</w>
tak ers</w>
box es</w>
agre ement</w>
terri fied</w>
Lum a</w>
initi ated</w>
Egal mah</w>
ef fect</w>
hon ey
sma sh</w>
heaven An</w>
Ha ve</w>
beg at</w>
plough man</w>
NE gar</w>
NE NEgar</w>
Dur ing</w>
Pig let</w>
Url ugal</w>
convey ed</w>
sacrifi ce</w>
Hillockof Urbartab</w>
fast ened</w>
emble m</w>
No thing</w>
increa sed</w>
knowled ge</w>
dig ir</w>
cop ies</w>
dom estic</w>
embra ced</w>
mill stone</w>
cam pa
prou d</w>
stal lion</w>
compla int</w>
sab ar</w>
ordin ary</w>
acti vely</w>
pain ful</w>
Dumuzi abzu</w>
distribu ted</w>
Enk is</w>
weigh ed</w>
Gazelle feast</w>
Is ina</w>
kau sa</w>
Ch osen</w>
put ting</w>
sour ce</w>
dev our
Lubal asaga</w>
nig2 diri</w>
weapon ry</w>
Ukunut i</w>
encourag ement</w>
thro at</w>
along side</w>
alaba ster</w>
ingre dient</w>
agri cul
prolong ed</w>
preemin ent</w>
Duran ki</w>
Etemen niguru</w>
Div ine</w>
west ern</w>
baras iga</w>
Urge par</w>
Lugalnir gal</w>
corrup ting</w>
2 7th</w>
7 1</w>
8 3</w>
A t
A uni</w>
B an
B it
E m
E bla</w>
E arth</w>
G ig
H o
H and</w>
H um
H ani</w>
I di
I si
I rin
J u
K as
N ri
N ana
O ut
P l
P ure</w>
S I
S he
S ni
S olution</w>
a e</w>
b y
b un
b ag
b ale</w>
b am</w>
b ows</w>
b attle
b ni</w>
c able</w>
c rum
c ement</w>
d i</w>
d rea
d res
e ved</w>
f re
f ug
f eel</w>
g as
g na
g rin
g lea
h all
i us</w>
j ected</w>
l ing
l ent</w>
l um</w>
l ance</w>
l thy</w>
m ent
m uriqtidnim</w>
n ment</w>
o k</w>
o ak</w>
p a</w>
p ol
p ha
p uni
q i
q an</w>
r i</w>
r enti
s ar
s and</w>
s su
s ation</w>
s plen
s land
t ara</w>
u ten
u ku
u laga</w>
v ine</w>
v ast</w>
z ing</w>
th 6</w>
in es</w>
in ter</w>
in flour</w>
an gu
ar mi
er da</w>
it s
it al</w>
al d</w>
al ter
al im</w>
il stones</w>
sh ook</w>
ro ss</w>
ro sett
at ely</w>
re sc
re ci
re ct</w>
re stit
la d</w>
la st</w>
el e
el t</w>
ur sag
ri de</w>
ri ad</w>
ri bs</w>
le op
de eds</w>
no ises</w>
em s</w>
ra is
ra id</w>
ra cti
ra yed</w>
ul g
di ss
En am
ir revo
ig ar</w>
bar tu</w>
ch arm
ha ilstones</w>
es aga</w>
es sed</w>
ti il
sil enced</w>
fi er</w>
Ur g
Ur Su
Ur tur</w>
Ur ugal
am tara</w>
for t</w>
for ces</w>
id uga</w>
is en</w>
is are</w>
ver ted</w>
ac ross</w>
ban da
Nin ma</w>
Nin si
Nin az
Nin Isina</w>
tab les</w>
pla cing</w>
buil ds</w>
str ate</w>
do ing</w>
do ves</w>
Su bartu</w>
res ide</w>
man i</w>
man ded</w>
lo cated</w>
lam b
In cant
ex plo
pro ved</w>
pro mi
pro ced
ad es</w>
ad ded</w>
ad mir
her ders</w>
her ald</w>
work shop</w>
Lugal n
Lugal an
Lugal mu
Lugal ane</w>
Lugal gig
Lugal egal</w>
Lugal kis
und ers</w>
tur al</w>
si k
att end
att racti
and a</w>
im pure</w>
Lu b
Lu lal</w>
hear d</w>
fl own</w>
pre ced
mar ker</w>
car rier</w>
car essed</w>
aw a
cu cum
ga ther</w>
bur ied</w>
bb a</w>
sel ess</w>
mu si
ge tin
ge bur</w>
pra cti
wea k
bro ke</w>
sw amp</w>
par ents</w>
ten ds</w>
pas ses</w>
stand ards</w>
col lec
bri de</w>
ey e
deli ver</w>
tru st</w>
wa stel
retur n
app ea
app ear</w>
app renti
pres sion</w>
low land</w>
struc ture</w>
tu b</w>
az i</w>
seiz ing</w>
ba ke</w>
accep ting</w>
posses sion</w>
trea ch
gig i</w>
appro val</w>
tra p</w>
tra ct</w>
provid es</w>
we t</w>
out lying</w>
af raid</w>
plea sed</w>
clo ds</w>
bow ls</w>
sha king</w>
sha dow</w>
sprea ding</w>
see ding</w>
Sim tiil
atta cking</w>
hel p</w>
hel pers</w>
hur ting</w>
dab inflour</w>
Geme barasiga</w>
deb ts</w>
dra g</w>
dra w</w>
swee tens</w>
jud ges</w>
happ ily</w>
determin es</w>
fac es</w>
bra iding</w>
wid ows</w>
hol e</w>
sett le</w>
tou ches</w>
comman der</w>
ima ki</w>
desc end</w>
joy fully</w>
fla shing</w>
zi ana</w>
fri ends</w>
puri fy</w>
ill ness</w>
ill umin
evil ly</w>
pea ceful</w>
cont ent</w>
cont est</w>
cont emp
scep tre</w>
construc ting</w>
Gatum dug</w>
wr ought</w>
defea t</w>
pu ts</w>
exer c
fig s</w>
ran k</w>
ran king</w>
yr e</w>
decid ing</w>
ama zi</w>
inqu iries</w>
answ ering</w>
rec ite</w>
Kin ir</w>
Lul l
fearso me</w>
cru shing</w>
tea ms</w>
stret ches</w>
Ma ke</w>
fisher man</w>
sn atched</w>
Ere kigala</w>
kis s</w>
open hands</w>
open sticks</w>
flee ing</w>
uw er</w>
door man</w>
bin dings</w>
spar kle</w>
lar sa</w>
fil ls</w>
val ue</w>
val ued</w>
settle ment</w>
Nur Suen</w>
Nag abtum</w>
rema ining</w>
equi ds</w>
chur ning</w>
nor th</w>
past ure</w>
wit ness</w>
assi st
Sub ir</w>
Sub total</w>
Nanna Suen</w>
Ga e</w>
Sil ver</w>
hang s</w>
invo ked</w>
pick axe</w>
gri ev
how ever</w>
nur se</w>
nur se
arro g
arro wh
seed cubits</w>
Gr and</w>
Nim gir
broad ly</w>
emble ms</w>
descend ant</w>
achie ved</w>
han g</w>
san k</w>
chas ed</w>
exi sted</w>
sancti fied</w>
Bo th</w>
sl ander</w>
Urdu n</w>
exu ding</w>
ceremon y</w>
equal ranking</w>
pun ting</w>
suc ceed</w>
conqu ered</w>
Sumu qan</w>
Br inging</w>
Ev il</w>
orac ular</w>
Kam ari</w>
Pab il
cab in</w>
thra shing</w>
experi enced</w>
ancest ors</w>
Uta mi
mol ds</w>
pen is</w>
stup or</w>
corpor ate</w>
Anzu d</w>
skill fully</w>
pige on</w>
confron ted</w>
cedar s</w>
compar es</w>
traver sed</w>
winno wed</w>
Meluh ha</w>
jour ney</w>
bail iff</w>
favoura ble</w>
clou ds</w>
Dun num</w>
paw s</w>
plenti ful</w>
dign ity</w>
Nintin uga</w>
prince ship</w>
campa ign</w>
agricul tural</w>
Nri l</w>
armi es</w>
restit utions</w>
leop ard</w>
irrevo cable</w>
Urugal ama</w>
explo it</w>
promi se</w>
proced ure</w>
Lugalgig ire</w>
attracti veness</w>
wastel and</w>
1 9th</w>
1 7th</w>
7 7</w>
8 5</w>
A B
A z
A u</w>
A bu
A du</w>
A bitumen</w>
A anepada</w>
A lamu</w>
A uwer</w>
C ar
D ead</w>
E al
E ab
E Abitumen</w>
G od</w>
I b
I M</w>
I um</w>
I tur
I mma</w>
K ee
K igal</w>
L A
L un
L oo
L arge</w>
M ore</w>
O ver</w>
P ri
S tor
S et</w>
U l
U bi
U mani</w>
W ould</w>
W inter</w>
Z am
Z uzu</w>
Z ulum</w>
a a</w>
a va
b les</w>
b rown</w>
b outs</w>
c rou
d ition</w>
d ressed</w>
e houses</w>
f ra
f oun
f ears</w>
f ran
f requ
g ig</w>
g oring</w>
h ani</w>
i man
k ku
k asses</w>
l ly</w>
m ere</w>
m il</w>
m igh
n t</w>
n ee
o qu
o val</w>
p an
p um</w>
p ile</w>
q am</w>
r e</w>
r il
s y
s er</w>
s li
s of
s ened</w>
s itu
t ear
t est
u pl
u tu</w>
u Erra</w>
v ating</w>
w ear
z e
z a</w>
in du</w>
in spir
an kug</w>
ar g
er ity</w>
ea bouts</w>
st yl
st ud
al ty</w>
il d</w>
il ig</w>
il able</w>
sh or
sh ri
ro ared</w>
ro ffer
ro chs</w>
en ough</w>
en joy</w>
en lar
en voy</w>
re cor
re cit
re build</w>
li ce</w>
li st</w>
la cer
ma sons</w>
ma ker</w>
el y
el i</w>
el ing</w>
el ev
el ep
wh o
ri m</w>
ri vers</w>
ta ins</w>
de mar
de par
de vo
de fic
de spa
pl ows</w>
no body</w>
un it</w>
ra ging</w>
da zi</w>
ul ated</w>
rea li
rea lly</w>
En ter</w>
En he
ir ts</w>
ir gida</w>
ch er
se t
ing forti
ag e
ag g
ag as
ag ar</w>
ol ina</w>
wor th</w>
Ur sil
Ur Nanna</w>
Ur Ninurta</w>
Ur Ema</w>
bu shes</w>
for ced</w>
id ence</w>
sp rou
co ated</w>
fa irs</w>
su spi
Nin ul</w>
Nin agala</w>
str ing</w>
ec stati
sc ra
sa du</w>
sa iling</w>
res ound</w>
res ounded</w>
of fic
lo ck</w>
lo cation</w>
In iman
ex ter
pro m
pro w</w>
pro long</w>
ad vi
ad ala</w>
work ingforti
ne ws</w>
ne ither</w>
mo ored</w>
con si
con fine</w>
con ve
Lugal un
du b
ck ly</w>
and ed</w>
im da</w>
im mun
com b
com pe
bo died</w>
cor rect</w>
brea ch</w>
can al
fl owed</w>
An am</w>
mar ked</w>
mar riage</w>
aw ay
bur ned</w>
Sum mer</w>
sel y</w>
gu ilt</w>
mu d
mu stered</w>
iv es</w>
pher d</w>
lin ess</w>
gr un
lea ves</w>
dic ated</w>
pa th
mea dow</w>
tr ough</w>
pal a</w>
Akk adi
sla ve
col in</w>
col lap
bri ght
bea ting</w>
too thed</w>
mid night</w>
sk i
sk ins</w>
sk irts</w>
over flowing</w>
sub mer
sac ks</w>
sac ril
son inlaw</w>
cal ly</w>
Abb ag
Abb amu</w>
he ight</w>
tal k</w>
enem y
cea seless</w>
him them</w>
long lasting</w>
gig ur</w>
tra vel</w>
ass ign</w>
loo sen</w>
loo sened</w>
ku a</w>
ku roffer
tor ch</w>
ay asi</w>
we t
we en</w>
Gem ed
out skirts</w>
ph an
Al though</w>
tw in</w>
au rochs</w>
plea ses</w>
peri shed</w>
cour rier</w>
wee ds</w>
Nam hani</w>
chang ing</w>
Enan edu</w>
fur y</w>
rep ay</w>
sag kal</w>
respon ding</w>
ulgi il</w>
ste ps</w>
ste pped</w>
Da ily</w>
ough t
ough out</w>
sto p</w>
fac t</w>
fac eey
assemb ly
mur ing</w>
sis kuroffer
win ter</w>
supp ort</w>
righte ousness</w>
ob serve</w>
bree ding</w>
Ap il
Mes ilim</w>
fla me</w>
mag ir</w>
Lis in</w>
tex til
clean ed</w>
clean sed</w>
pea ce</w>
my your</w>
sch o
ble w</w>
flow ers</w>
Ez in
exten d</w>
trem bling</w>
Ge bare</w>
wher eabouts</w>
AmarSu en
gir l
GA N</w>
wal king</w>
14 7</w>
Ex tra</w>
exp and</w>
tea cher</w>
qui ckly</w>
consum ing</w>
rever ent</w>
fisher ies</w>
ali en</w>
Ninhur saga</w>
Itar n</w>
door gate</w>
pig s</w>
Getin anna</w>
bin ds</w>
bin ding</w>
sanctu aries</w>
19 5</w>
beg an</w>
Bri ck
inc ense</w>
Festivalof ulgi</w>
Naram Suen</w>
craf ty</w>
gudu priest</w>
gudu officiant</w>
Ta ke</w>
til imda</w>
adv ised</w>
lun gs</w>
sz ur
exca vating</w>
obliter ate</w>
pac k</w>
accomp lish</w>
cons ign
Sm la
yel lowed</w>
Do or</w>
batt lea
batt les</w>
twi ce</w>
twi sted</w>
river bank</w>
Elam ites</w>
hy ena</w>
sprin kling</w>
boa sting</w>
sweet wort</w>
descend ants</w>
solidi fy</w>
Bur Sin</w>
Pa ue</w>
sem olina</w>
gate keeper</w>
arti s
disapp ear</w>
bet ween</w>
crip pled</w>
allot ted</w>
capti vity</w>
furni shed</w>
requis ition
requis itions</w>
imple ment</w>
imple ments</w>
relax ing</w>
relax ation</w>
Res idence</w>
pop ulation</w>
ere digir</w>
onag ers</w>
verdic ts</w>
House of
Mun us
oblig ations</w>
GIR gal</w>
down stream</w>
sharp ened</w>
Hal ankug</w>
dum ugi</w>
temp le
shap ed</w>
able bodied</w>
Long tablet</w>
egi al</w>
prosp erity</w>
ferry boat</w>
governor general</w>
thresh old</w>
fow ler</w>
wrest ler</w>
barag esi</w>
loy al</w>
Lugalme lam</w>
Nigar kidu</w>
Ho e</w>
She pherd</w>
bag s</w>
Ninaz imua</w>
Incant ation</w>
attend ant</w>
preced ence</w>
griev ous</w>
ava ilable</w>
fran colin</w>
styl us</w>
elep h
defic its</w>
Enhe du
agas ilig</w>
ecstati c</w>
Iniman izi</w>
advi se</w>
workingforti fying</w>
immun e</w>
sacril ege</w>
textil es</w>
2 16</w>
7 3</w>
7 4</w>
A N</w>
A dudu</w>
A grun
B al
B ro
B ig</w>
B attle</w>
B orn</w>
B iduga</w>
C ities</w>
D i
D est
D im
E mu</w>
F la
F ound
H im</w>
H ous
I w
K I
L ands</w>
M e</w>
M al
M ighty</w>
N U
P arti
S A
S e
S AR</w>
T ab
W or
Y outh</w>
a v
a th
a ver
a dab</w>
a int
b en
b ad
b loo
c on</w>
c ress</w>
d or
d at
d ul
d ga</w>
d Mound</w>
d rank</w>
e dar</w>
f ared</w>
f ate
g ear</w>
h i</w>
h ing
h ated</w>
h ea</w>
i ds</w>
i bar
i ster</w>
j am
k ers</w>
l th</w>
l yre</w>
m n</w>
m in</w>
m ul
m ats</w>
m ena</w>
n al</w>
n ina</w>
o per
o tter</w>
p in
p ity</w>
s ul
s ur</w>
s age</w>
u in
u ted</w>
u ses</w>
u res</w>
u Sin</w>
v ig
w learned</w>
y are</w>
y where</w>
y ment</w>
z ard</w>
z age</w>
th rea
in sur
in fer
in kua</w>
an x
an ti
an ce
an us</w>
an ointed</w>
an dul</w>
an amtara</w>
ar 2</w>
ar in</w>
ou ld
ea flour</w>
on ing</w>
st ill
al ab
al gar</w>
al si</w>
il do
sh el
sh ow</w>
sh ows</w>
at am</w>
en ery</w>
re pla
re ty</w>
re cum
re gar
re sted</w>
re sts</w>
re iter
li k</w>
li dga</w>
la dies</w>
ma cy</w>
el oqu
wh eel</w>
ur ed</w>
ur ity</w>
ur muring</w>
ri val
le g
le ss
ta d
ta x</w>
ta mar
ta vern
de manded</w>
pl ated</w>
pl ored</w>
pl unders</w>
no tin
no bly</w>
em u</w>
un una</w>
un refined</w>
un alter
da wn</w>
ul ma</w>
ul uh</w>
di as</w>
di da</w>
di so
di arr
rea son</w>
ir gal</w>
be coming</w>
be dient</w>
be comes</w>
ig i
bar bed</w>
ab s
ab i</w>
ch ew</w>
ing ir</w>
ag es</w>
ag run</w>
as cer
ha i</w>
es sive</w>
wor e</w>
sil os</w>
fi re
fi st</w>
Ur Enlil</w>
Ur ku
Ur Imma</w>
oo ds</w>
bu ed</w>
am en
sp ac
fa sting</w>
Nin tu</w>
Nin kuzu</w>
Nin sadu</w>
mon key</w>
pla ying</w>
pla ins</w>
buil ders</w>
sc on
est er</w>
qu e</w>
qu ad
do ve</w>
do main</w>
sa iled</w>
Ning iri
roy alty</w>
dest al</w>
per petu
br ought
In da
In side</w>
In uin
ex al
ex am
ex trem
ex cel
ex ting
ex tent</w>
pro claimed</w>
ad ult</w>
ad jac
pe destal</w>
ca using</w>
sea son</w>
ne ed</w>
mo ke</w>
mo bil
mo thers</w>
mo oring</w>
con c
con verse</w>
con voy</w>
con dition</w>
und ul
du st
si de
pri me</w>
im ti</w>
im petu
im plored</w>
Lu Inanna</w>
Lu aya</w>
all er</w>
cor ds</w>
bel lowing</w>
brea king</w>
fl att
fl ute</w>
An u</w>
mar vel
os es</w>
sel ected</w>
gu du</w>
mu sc
ge t
ge ts</w>
pra ising</w>
pra ise
wo mans</w>
kal am</w>
UrN igar</w>
jo icing</w>
gr ant</w>
arm ed</w>
bro ther
ent ation</w>
ent ru
ent ries</w>
pa ys</w>
pa yment</w>
div or
ut ters</w>
rit u
so w</w>
stand ing
col lected</w>
col ony</w>
sm urmuring</w>
bor ne</w>
bil ity</w>
crea t
ed ly</w>
wa iting</w>
retur ns</w>
Ab i
end less</w>
Amar ayasi</w>
po ts</w>
po st</w>
ap iece</w>
ap inkua</w>
daugh ters</w>
fashi ons</w>
ak kan</w>
sub si
cla n</w>
fol lows</w>
under taken</w>
hor ses</w>
sing ular</w>
Abb au</w>
but cher</w>
he ws</w>
Dumuz id</w>
gar kid
tri m
comm itted</w>
trea ting</w>
ari k</w>
ari a</w>
plow ing</w>
tin ess</w>
out let</w>
Mar hai</w>
cap ital</w>
bl ind</w>
iti ve</w>
slaugh ter</w>
ever ywhere</w>
af fairs</w>
resid ences</w>
fle e</w>
clo ister</w>
cour t</w>
mat er
cha in</w>
offici als</w>
Ad garkid
Sim at
Sim num</w>
inter preter</w>
water y</w>
chee k</w>
hur ts</w>
Fa ith
Nig urum</w>
Enan atum
high lands</w>
us ku</w>
us iga</w>
Nann as</w>
Nann am
shou ts</w>
lim its</w>
des igns</w>
cant or</w>
Bar anamtara</w>
cro ok</w>
fel t</w>
fac ing</w>
bal bale</w>
foo t
ign or
gen ius</w>
hol ders</w>
nann ies</w>
black smith</w>
Gi apinkua</w>
tou ch
one half</w>
dis order</w>
dis lodged</w>
stri king</w>
loa f</w>
gre enery</w>
War ada
ima gi</w>
ob jects</w>
irri gate</w>
abo de</w>
contain ing</w>
bree der</w>
perform er</w>
Mes anepada</w>
farm ers</w>
joy ously</w>
tex t</w>
puri fier</w>
sec re
full er</w>
utter ly</w>
eg ar</w>
hero ic</w>
my riad</w>
construc tion</w>
first fruit</w>
kne wlearned</w>
12 6</w>
issu ing</w>
issu es</w>
pu shed</w>
fro g</w>
emer ging</w>
allo t</w>
boo t</w>
sou p</w>
dir ty</w>
gener als</w>
wal ks</w>
Kin ira</w>
Kin dazi</w>
stret ch</w>
tak arin</w>
consum es</w>
Puzur Mama</w>
int est
pul led</w>
initi ates</w>
invol ving</w>
ani bgal</w>
contro l
pig let</w>
Getin anas</w>
Un til</w>
acqu aint
thir ty</w>
viol ent</w>
after noon</w>
inc ite</w>
add ition</w>
floo ded</w>
six ties</w>
small shekel</w>
land mountain</w>
design ation</w>
craf ts
16 5</w>
uk k
smit ing</w>
malevol ently</w>
plu ck</w>
emon th6</w>
sig flour</w>
mir ror</w>
life time</w>
kil n</w>
respec tful</w>
drag on
drag ged</w>
jac kasses</w>
kisi ki
solidi fies</w>
Im sag</w>
Sag ub</w>
jenn ies</w>
disc er
chas es</w>
exi sts</w>
knowled g
Nan e
rend ers</w>
boat men</w>
care fully</w>
Fir st
Fir st</w>
multitu des</w>
poun ding</w>
rain bow</w>
capti ves</w>
pronoun ced</w>
Ass ur</w>
Ne ti</w>
eb ony</w>
verdic t</w>
screa med</w>
screa ming</w>
brilli ance</w>
oxen manager</w>
engend ered</w>
flood storm</w>
robb er</w>
fort resses</w>
fet ch</w>
scrat ching</w>
Ox en</w>
dun es</w>
pou ches</w>
eyes moke</w>
incantation smurmuring</w>
Hi yare</w>
Tid num</w>
thing s
insp ected</w>
ange l</w>
reck oned</w>
occup ies</w>
Girin i
vir gin</w>
zig gur
restra in</w>
supre macy</w>
adm ired</w>
aweso me</w>
friend ly</w>
offshoo t</w>
penetr ate</w>
Gol dMound</w>
Ip qu
Pow ers</w>
cow pen</w>
sen ior</w>
reli able</w>
rid den</w>
amoun ts</w>
pret ty</w>
foreig ners</w>
guar an
Hum anity</w>
Isi mud</w>
Nana ia</w>
Sni qam</w>
crum bs</w>
fre ely
hall sanctum</w>
puni shment</w>
splen did</w>
its their</w>
rais ins</w>
lamb hides</w>
Lugalkis alsi</w>
sik il</w>
practi ce</w>
exerc ises</w>
Lull ubu</w>
arrowh ead</w>
Utami ar
Eal ubi</w>
Eab ani</w>
Ib ni
Itur ungal</w>
upl ands</w>
inspir ing</w>
shri e
elev ated</w>
depar ted</w>
despa ir</w>
suspi ciously</w>
prom ised</w>
comb ined</w>
Akkadi an</w>
enemy evil</w>
Gemed ardu</w>
siskuroffer ing</w>
scho ol
girl friend</w>
Brick work</w>
artis ans</w>
eleph ant</w>
Fla sh</w>
Hous emonth6</w>
Iw ould
Parti al</w>
fate determining</w>
ibar tum</w>
insur gent</w>
regar ded</w>
notin deed</w>
unalter able</w>
diso bedient</w>
diarr hea</w>
quad ru
Inuin ak</w>
exting u
impetu ous</w>
Enanatum a</w>
Warada ma</w>
Iwould live</w>
2 4
2 2nd</w>
2 55</w>
3 5
4 32</w>
8 1</w>
9 4</w>
A f
A ua</w>
A ian</w>
B i
B il
D U
D N</w>
D re
D ay</w>
D ec
D rum</w>
E d
E n</w>
E l</w>
E st
E umea</w>
E aar</w>
E engur</w>
E usiga</w>
E sikil</w>
F ood</w>
F uri
F itting</w>
F east</w>
G rain</w>
H I</w>
I L</w>
I ar
I be
K A</w>
K ak
M E
M a</w>
M ak
M ess
M ani</w>
M alt</w>
M ultitu
M ubi
N al
N ation</w>
N ot</w>
N usku</w>
O p
P N</w>
P al
R ange</w>
S Z
S p
S na
S te
S ett
S oh
T ar
T ut
T rees</w>
U g
U m
U R</w>
U bi</w>
V illage</w>
Z ub
a h
a z</w>
a ur
a king</w>
a il</w>
a shes</w>
a Kusu</w>
b ite</w>
b lowing</w>
b ends</w>
c s</w>
c ate</w>
c lam
c ements</w>
d r
d ress</w>
d ens</w>
d ate
e I</w>
e li
e labor
e ight</w>
f at
f lam
f ree
f eeding</w>
g er
g il
g ated</w>
g lowing</w>
g mil</w>
h ur</w>
h ee
h ate</w>
h ill</w>
h und
h ire</w>
i da
i be
i sting</w>
j ew
k ure</w>
l i</w>
l u</w>
l ou
l on
l ku</w>
l uma</w>
m atters</w>
n one</w>
n ue</w>
o ther
p el
p le
p est
q ar</w>
r ated</w>
r ings</w>
r out
s old</w>
s ations</w>
s ks</w>
s ounded</w>
s asa</w>
t ug
t ted</w>
t row
t ut
u ta
u um</w>
u ss</w>
u bur
u Mama</w>
u iliu</w>
w ra
w age</w>
x e</w>
x im
y ear
z ab
z id
th al</w>
th igh
th read</w>
in di
in with</w>
in und
in vest
in habit
an u
an no
an irgal</w>
ar th
ar an</w>
ar gue</w>
ar rayed</w>
ar eI</w>
er ect</w>
ou bled</w>
ea n</w>
ea stern</w>
it i</w>
it ch</w>
it ors</w>
or ies</w>
or pha
st e</w>
st ay
st ep</w>
st one
ro le</w>
ro ot</w>
ro gue</w>
at am
at excess</w>
en ter
en du</w>
en nu
en joy
en boot</w>
re in
re vi
re tri
re vol
li p</w>
li ved</w>
li gh
li pit
li zard</w>
la w
la b</w>
la in</w>
el ed</w>
el ea
el ary</w>
el lu
el ders</w>
el uge</w>
ur ine</w>
ur tur
ur ra</w>
ri b</w>
ri ch
ri ers</w>
ri ding</w>
le g</w>
de d
de l</w>
de part</w>
pl ann
pl ent
no ses</w>
em bel
em ble</w>
em ost</w>
un d</w>
un suitable</w>
un seen</w>
to x
ra l</w>
ul ts</w>
di verted</w>
be ds</w>
be tro
ig ate</w>
ig igal</w>
ch ann
ch ed
ch ick
se ss</w>
ag i
ag o</w>
as ed</w>
as king</w>
ha m
ha ir
es z
ti on
ti ara</w>
ti veness</w>
sil ently</w>
hi p</w>
Ur S
Ur Dumuzi</w>
Ur Urbartab</w>
Ur Igalim</w>
um ent</w>
id ated</w>
sp an</w>
sp ended</w>
ke tt
ver ing</w>
co al</w>
fa ult
ban sa</w>
su f
su e</w>
su rely</w>
su spended</w>
Nin mu</w>
Nin mena</w>
hea t</w>
hea lthy</w>
buil ding
buil dings</w>
str ated</w>
str eng
ec on
sc ru
Su d</w>
Su ens</w>
Su tium</w>
sa dug</w>
sa izu</w>
res olution</w>
fiel d
lab le</w>
gra ve</w>
gra cious</w>
gra ced
br ing
lo ts</w>
ex per
ex tre
ex changed</w>
pro p
pro claim</w>
ad ze</w>
her ds</w>
work s</w>
pe de</w>
ca ke</w>
mo ving</w>
stor ms</w>
stor ehouses</w>
con fi
con front</w>
Lugal piri
Lugal anda</w>
tur ning</w>
du a</w>
shi ver</w>
ru shing</w>
im bued</w>
im pede</w>
Lu ug
Lu Enlila</w>
Lu Uru</w>
all um</w>
cor responding</w>
coun ten
brea st
brea thed</w>
brea sts</w>
fl an
An um</w>
wi shes</w>
ther more</w>
Gu ti
mar veled</w>
ox dri
aw oods</w>
ga kku
ho isting</w>
gu g</w>
ge tin</w>
iv ory</w>
wo ol
par al
par ti
ent um</w>
dic ating
pa w</w>
tr ough
dec ide</w>
so me</w>
bri d</w>
ju st
deli ber
sm oo
stat ure</w>
establi shes</w>
wa ke</w>
wa shing</w>
app eared</w>
Ab out</w>
Ab und
dwel l
dwel led</w>
ap idated</w>
mini shekels</w>
vo i
tu ku</w>
prov in
cit es</w>
sub stance</w>
cep t</w>
lu mah</w>
hor se</w>
gal ama</w>
ba g</w>
cum ulated</w>
he m</w>
spo t</w>
Ku Baba</w>
trea d</w>
tra veled</w>
tra itors</w>
tor y</w>
plan king</w>
plan ks</w>
nec ess
Gem em
if f
Sh all</w>
Sh ould</w>
Sh ining</w>
bl unted</w>
slaugh ters</w>
fin ds</w>
cur rent</w>
kin ds</w>
ez ib
af fixed</w>
fec ting</w>
plea se</w>
clo se</w>
clo ist
ding ir</w>
lament ers</w>
lament ations</w>
run s</w>
anc y</w>
sha me</w>
sha ved</w>
mat urity</w>
approa ching</w>
cha ir
atta ch</w>
thor n</w>
protec tion</w>
cer ning</w>
deb ased</w>
flo atexcess</w>
fur thermore</w>
high ways</w>
cle ared</w>
lim b
cra b</w>
dro p</w>
Da da
juni or
relea sing</w>
sto pped</w>
Enme baragesi</w>
wid ened</w>
gro ve</w>
territ ories</w>
gen it
hol der</w>
cri me</w>
cri min
dis graced
sis kure</w>
stri kes</w>
Co m
furi ously</w>
Sin magir</w>
full y
full body</w>
eg ala</w>
sta ir
sta irs</w>
head plowmen</w>
Du k
Ar uru</w>
favor ite</w>
favor ably</w>
Nink ununa</w>
culti vate</w>
culti vation</w>
ugal am</w>
flow er</w>
Ez ida</w>
Kar ar</w>
kur gar</w>
va se</w>
exten sive</w>
18 4</w>
18 6</w>
pu pp
pil a
pil lar</w>
sher ds</w>
fam ine</w>
emer ge</w>
disp os
den igr
ran ks</w>
kun gar</w>
allo yed</w>
lear ning</w>
AmarSu entum</w>
gir ls</w>
trans g
Ura ya</w>
wal k</w>
chari o
manif ested</w>
exp end
exhau sts</w>
Baz ige</w>
tak lku</w>
host ility</w>
you pl</w>
Dam iq
Dam qi
int ent</w>
ali en
requ ested</w>
Enma h
carcas s</w>
Don key</w>
blo ck</w>
blo cks</w>
elap se</w>
era dicated</w>
Ninhur sag
shoul ders</w>
arak iag</w>
door keeper</w>
Egal ma</w>
ara hi</w>
phy si
multip lies</w>
Bel at
Dug ru</w>
viol ently</w>
inc lu
add ressed</w>
floo ding</w>
quarre ling</w>
plunder ing</w>
Nag su</w>
hil ls</w>
Lugale bansa</w>
For that</w>
For emost</w>
Gur z
St and</w>
Ta hi
oc cur
Big Stele</w>
Fi erce</w>
convey ances</w>
past ured</w>
Ac claim</w>
frigh tening</w>
goo se
char coal</w>
exec uted</w>
Great barge</w>
vege tables</w>
gladd ened</w>
Nind anirgal</w>
new born</w>
compos ition</w>
overwhel m</w>
assign ments</w>
Per fect</w>
iq bi</w>
sig ns</w>
invo king</w>
invo ke</w>
cho pped</w>
cons ort</w>
Sm aller</w>
fing er</w>
fing er
sick les</w>
Do g</w>
gri eve</w>
fal con</w>
hy brid</w>
kn eel</w>
soo thing</w>
soo thed</w>
paras ites</w>
Bir urtur
Ra ised</w>
disc uss</w>
sancti fies</w>
sl ing
yi el
rem ission</w>
Urdu kuga</w>
cop y</w>
claim s</w>
embra cing</w>
Aw an</w>
Dag n</w>
Ir nina</w>
multitu de</w>
prou dly</w>
accu sed</w>
Ev ildo
sor cer
inten tions</w>
onag er</w>
engend ers</w>
thorn bushes</w>
flood water</w>
House hold</w>
28 8</w>
Kal kal</w>
bas in</w>
asc ended</w>
oblig ation</w>
Ox enboot</w>
dun g</w>
organ iz
organ ized</w>
laugh ing</w>
depos ited</w>
Dubla ma</w>
dil apidated</w>
prow ls</w>
neigh bor
counsel or</w>
Dra w</w>
Dad umu</w>
Qu ay</w>
ka id</w>
pat ri
throw stick</w>
father inlaw</w>
scal es</w>
Enunugal ana</w>
Asz szur
wonder ful</w>
exuber ance</w>
Or deal</w>
Pla ce</w>
dap pled</w>
exist ence</w>
awe inspiring</w>
truth fully</w>
Aba Enlil
Idi ot</w>
Ju stice</w>
fug itive</w>
grin ding</w>
ssu iqbi</w>
ulg ira</w>
Lub imu</w>
awa ke</w>
eye face</w>
apprenti ce</w>
treach ery</w>
illumin ate</w>
contemp t</w>
nurse maid</w>
arrog ance</w>
Pabil sag</w>
AB bread</w>
migh ty
nee dle</w>
recor der</w>
lacer ated</w>
demar cated</w>
devo ted</w>
cher ished</w>
agg res
consi sting</w>
conve y</w>
Lugalun ire</w>
dub dub</w>
faceey e</w>
Ezin aKusu</w>
AmarSuen arakiag</w>
Smla Il</w>
battlea xe</w>
Agrun kug</w>
Dest roy
Found ation</w>
jam b</w>
oper ate</w>
anx ious</w>
still born</w>
repla cement</w>
recum bent</w>
reiter ated</w>
rival ed</w>
abs ence</w>
Urku su</w>
Ningiri m</w>
excel lent</w>
adjac ent</w>
musc les</w>
Adgarkid ug</w>
foot stool</w>
intest ines</w>
dragon face</w>
Girini isa</w>
Dre hem</w>
Est abli
Furi ous</w>
Multitu des</w>
Nal us</w>
Pal ace</w>
Soh n</w>
elabor ate</w>
gil sa</w>
hund red</w>
lou dly</w>
other wise</w>
pest le</w>
trow el</w>
tut elary</w>
thigh s</w>
orpha n</w>
stay ed</w>
retri eve</w>
lipit Itar</w>
rich ly</w>
betro thal</w>
fault less</w>
extre me</w>
Lugalpiri g
gakku l</w>
ezib tum</w>
disgraced debased</w>
Damqi iliu</w>
1 34</w>
1 troop</w>
2 76</w>
5 9</w>
6 9</w>
6 76</w>
7 8</w>
7 9</w>
8 6</w>
9 3</w>
9 9</w>
A a</w>
A ban
A gu
A bil
A hun
A abba</w>
C a
C oun
C attle
C hil
D er</w>
D ist
D abala</w>
E g
E ver
E me
E dar</w>
E kur
F ro
F ire</w>
G ab
G iri
I da
I lu
I kur
I ran</w>
I gigi</w>
K an
K ing
K ut
L ow
L ama
L ittle</w>
M or
M en</w>
M ad
M ost</w>
M anum</w>
M atur</w>
N aw
N oses</w>
O r</w>
R I
R u
R ul
S k
S w
S z
S ur
S tr
S ever
S even</w>
T ir
T ruly</w>
T ram
T irig
U d
U p</w>
U bu
U pper</w>
U arum</w>
U ram</w>
U bar</w>
W ay</w>
W rit
W eal
Z ubi</w>
a made</w>
a kal
b all
b id</w>
b lin
b reed</w>
c un
c ent</w>
c up</w>
c ooked</w>
c ist</w>
d led</w>
d ying</w>
d ra</w>
d umu
d ili</w>
d kura</w>
d eluge</w>
e y</w>
e f</w>
e ig
e over</w>
e lam</w>
e bra
e uten
f ang
f ool</w>
g ir</w>
g ee
g stranger</w>
g ems</w>
h at
h at</w>
h ul
h ir
h ear</w>
h um</w>
i son</w>
i mony</w>
j e
j un
j um
k isal</w>
l at
l eng
l ulla
l angu
m ri
m bo
m ates</w>
m ely</w>
n 6</w>
n ing
n ag
n ess
o il
o thers</w>
o ars</w>
p ent</w>
p ad
p ated</w>
p tion</w>
p ounded</w>
p iece</w>
r ound</w>
r ough</w>
s as</w>
s wel
s ight</w>
s ong
s word</w>
s ending</w>
t ried</w>
t ill
t iring</w>
v a</w>
v ar
v on</w>
v ing
v ened</w>
v als</w>
w ing
w ig</w>
w and
w ears</w>
w ash</w>
w ander</w>
x HI</w>
y ond</w>
z o
z ir
th ree
in al</w>
in spi
in flicted</w>
in hab
in cites</w>
an e
an ew</w>
an kle</w>
an ka</w>
ar re
ar gu
ar az
ar zi</w>
ar si</w>
ar isen</w>
ou sed</w>
it y
it ure</w>
or g
or ig
st un
st able</w>
st ead</w>
st eal</w>
al a
al ad</w>
al uge</w>
al though</w>
al ized</w>
il d
il da
sh ly</w>
sh ad
sh ings</w>
ro b</w>
ro am</w>
at ed
at ura</w>
at econ
en ra
en uru</w>
en kar</w>
en kum</w>
en circled</w>
re co
re fu
re jected</w>
li euten
la vi
la ying</w>
la yed</w>
ma g</w>
ma st</w>
ma da</w>
el eli</w>
ri a</w>
ri e</w>
ri des</w>
ri vals</w>
le ver</w>
le ment</w>
le gs</w>
le aning</w>
ta way</w>
ta ught</w>
ta sks</w>
de m</w>
de sp
de ep
de sec
de pression</w>
pl anned</w>
em e
em plo
un able</w>
un sealed</w>
un ble
un uk
un shorn</w>
un rivaled</w>
to g
to ps</w>
ra v
ra ys</w>
ra ise
da ist
she d
she goat</w>
di ment</w>
rea son
En ent
ir um</w>
ir tum</w>
go es
be yond</w>
ig ara</w>
bar k</w>
oun ced</w>
ab um</w>
ab ra</w>
ab ility</w>
se ar
se tad
ag i</w>
ag ed</w>
ag al</w>
ol ved</w>
es he</w>
ti e</w>
Ur En
Ur Ningal</w>
Ur sag</w>
Ur Eanna</w>
Ur Ninmar</w>
Ur lamma</w>
ug an
ug id
ug ita</w>
ann ounced</w>
am bush</w>
am utum</w>
for est
for ce
id d
id den</w>
id ingir</w>
is k</w>
sp ittle</w>
sp elt</w>
ke ep
ver ified</w>
ac les</w>
ac tu
co a
co st</w>
co als</w>
co pul
ban idu</w>
su hur</w>
Nin dar</w>
Nin ubur
ati fied</w>
mon ial</w>
mon ey</w>
pla que</w>
ec es</w>
sc atter</w>
pp ers</w>
ter inlaw</w>
qu ie
do cks</w>
do gstranger</w>
sa il
sa fe</w>
Ning ek
dest o
per cedar</w>
of the
man u
man u</w>
man acles</w>
gra pes</w>
Wh it
ser ies</w>
ser pent</w>
In ta
In ana</w>
In deed</w>
ex it</w>
ex ul
sur ed</w>
pro li
pro bab
pro ceed</w>
pro ces
ad mi
her ding</w>
her bs</w>
destroy er</w>
serv ants</w>
pe ds</w>
Lug ula</w>
ca da
sea l
ne ts</w>
mo ist</w>
stor ed</w>
Lugal ge</w>
Lugal gudu
Lugal emu</w>
Lugal siskure</w>
tur ni
du ck</w>
du bb
du bla</w>
moun ted</w>
si m
si a</w>
si ze</w>
and ing</w>
pri de</w>
pri vate</w>
ce ding</w>
im it
Lu e
Lu Narua</w>
Lu Zabala</w>
Lu saizu</w>
all uring</w>
labor troop</w>
bo ar</w>
coun tr
bel ong
brea ks</w>
wat ching</w>
fl u
fl ows</w>
fl atter</w>
An heaven</w>
An gry</w>
lor dly</w>
me t</w>
me tal
me aning</w>
wi ves</w>
vi ew
ther ing</w>
mar sh
mar ki</w>
mar sa</w>
mar ries</w>
car go</w>
mi shed</w>
cu t
cu b</w>
cu pi
ho of</w>
bir ch</w>
sel ect</w>
gu sur</w>
our ed</w>
mu a</w>
mu ster</w>
mu da</w>
ge m</w>
iz ation</w>
pra ises</w>
vern ess</w>
kal am
wea lth</w>
Li on</w>
jo ining</w>
gr atified</w>
kno bs</w>
ent rea
ful fill</w>
tr oubled</w>
div iding</w>
div ided</w>
pas t</w>
ub is
ub ar</w>
rit ic</w>
so le
sla in</w>
sla pped</w>
bri dge</w>
thr oughout</w>
deli gh
sm ites</w>
bit ch</w>
recei ving</w>
ed gathered</w>
pos es</w>
pos sess</w>
wa x</w>
wa shed</w>
wa qar</w>
ang a</w>
ang led</w>
nam e
inn um</w>
Ab isare</w>
pres entation</w>
end ent</w>
end uring</w>
abund antly</w>
po tter</w>
po int</w>
po ison</w>
iri bam</w>
daugh terinlaw</w>
vo ys</w>
vo cate</w>
over come</w>
dist ur
ak er</w>
ak ara</w>
cla y
under stand</w>
under taker</w>
lu hu</w>
sing ly</w>
gal atura</w>
Abb a</w>
he ights</w>
he irs</w>
tal low</w>
house born</w>
mor tal</w>
din es</w>
with stand</w>
ic ating</w>
Ku Ningal</w>
tra pre
tt led</w>
Lar sas</w>
mil k
mil es</w>
mil king</w>
emp tied</w>
plow ed</w>
tin tox
plan toil</w>
we igh</w>
Gem e</w>
out cry</w>
donke y
if est</w>
heav ily</w>
Al banidu</w>
iti ous</w>
slaugh ter
fin i
fin alized</w>
ki ag
cur ved</w>
kin dly</w>
resid es</w>
au a</w>
au z</w>
fle w</w>
plea sur
stel a</w>
Ada ga</w>
orch ard
smi ths</w>
Sn i</w>
Sn bal
pour s</w>
inspec tors</w>
Zab u</w>
mat ron</w>
Er e</w>
cha pel</w>
inter rup
pi cked</w>
To p</w>
hur led</w>
Geme gan
produ ces</w>
produ cing</w>
high way</w>
us i</w>
lif ting</w>
lit ers</w>
fav our</w>
swee per</w>
swee ping</w>
swee tintox
cle verness</w>
cra cked</w>
juni percedar</w>
there by</w>
sun set</w>
cro ps</w>
scrip tions</w>
gen ous</w>
sum ed</w>
cham pion</w>
mur der
dis cover</w>
Bab a
righte ously</w>
mal es</w>
Mes kiag
fun ction</w>
fla p</w>
radi ant</w>
gazel le
13 5</w>
Sin iribam</w>
full ers</w>
full time</w>
cl ut
eg kur
enti rety</w>
cont ent
Me Enlil</w>
ornam ents</w>
cattle pens</w>
multi colored</w>
Iri bare</w>
first fruits</w>
itu de</w>
Il bani</w>
ven ge</w>
pil ing</w>
gather ing</w>
lic ation</w>
exer cised</w>
Pro tec
Re turn</w>
fig urine</w>
allo cated</w>
list ened</w>
bol ts</w>
up on
Inim Inanna</w>
trans fer</w>
Ura bba</w>
ud ugita</w>
14 2</w>
exp anding</w>
exhau sti
intellig ent</w>
fe eling</w>
vis er</w>
Barle y
sti cally</w>
kee l</w>
terri fying</w>
Puzur Shulgi</w>
Lum elam</w>
open er</w>
blo cking</w>
ren der</w>
sin ew</w>
exc essive</w>
regul ations</w>
tum ult</w>
bed ding</w>
inci se</w>
choo sing</w>
multip lication</w>
19 8</w>
lar ge
thir st</w>
perfor ms</w>
trust y</w>
after ward</w>
fil thy</w>
reed beds</w>
Festivalof Ninazu</w>
Festivalof Mekigal</w>
Emu dkura</w>
fo g</w>
rema in</w>
lib ations</w>
mountain land</w>
divin er</w>
GAN xHI</w>
16 6</w>
Iddin Erra</w>
For ever</w>
Mag u
Mag ure</w>
Nr Adda</w>
St one</w>
oc cupi
locu sts</w>
Akit i</w>
Big festival</w>
cat ch</w>
shrin e
convey or</w>
past e</w>
Ac cording</w>
Ac count</w>
Gir nun</w>
lun ch</w>
lun ches</w>
squ ee
exor cist</w>
Great stele</w>
vege tation</w>
transp ort</w>
Ga ve</w>
pur ity</w>
rela x</w>
accomp lished</w>
ape x</w>
emin ates</w>
grasp ing</w>
fing ers</w>
thick ened</w>
earth carrying</w>
earth moving</w>
circ le</w>
sacrifi ced</w>
sacrifi ces</w>
Hillockof acacia</w>
Hillockof plantoil</w>
Au thor
Do es</w>
Huwaw amade</w>
how ling</w>
lugal ane</w>
lugal banda</w>
river canal</w>
conver sation</w>
concer n</w>
Ean ia</w>
Go vern
big governor</w>
big cheese</w>
fal sely</w>
wol ves</w>
arch it
sprin kle</w>
boa sted</w>
No ble</w>
achie ve</w>
san g</w>
sem en</w>
revo ked</w>
mas sive</w>
spa di
double h
Dingir ma</w>
Bo ats</w>
pon ds</w>
rem it</w>
disapp earance</w>
bet ters</w>
Inann aka</w>
care taker</w>
allot ments</w>
pun ched</w>
poun ds</w>
stal k</w>
forti fication</w>
Sumu el</w>
furni shings</w>
pronoun cements</w>
Hab ra</w>
orac le</w>
ordin ances</w>
Enak ale</w>
acti vity</w>
brilli ant</w>
pain fully</w>
straigh tened</w>
straigh taway</w>
distribu tion</w>
Pab ilu</w>
bas alt</w>
glor y</w>
rol l</w>
robb ers</w>
rel ative</w>
asc end</w>
fet ters</w>
stac ked</w>
seven th</w>
pot ters</w>
prayer offeringritual</w>
sharp ening</w>
Bu ilt</w>
mem e</w>
lion ess</w>
maj estic</w>
word case</w>
Thr one</w>
sion al</w>
Ag ugu</w>
Ag ades</w>
Ara d
Man ifest</w>
Ro am
Spea k</w>
van ced</w>
throw sticks</w>
sex ual</w>
sex ually</w>
victor ies</w>
brigh tly</w>
pure bright</w>
Stand ing</w>
exuber ant</w>
Pu auz</w>
memb er</w>
memb ers</w>
thin ned</w>
mad aria</w>
play er</w>
tram pled</w>
neck stock</w>
devour ing</w>
Pl ough
dres sing</w>
glea ming</w>
pol es</w>
sland erer</w>
rosett es</w>
resc ind</w>
charm ing</w>
Ninsi ana</w>
admir ation</w>
Lugalmu mag</w>
cucum bers</w>
musi cal</w>
getin anna</w>
weak ened</w>
collec tor</w>
Simtiil ak</w>
assist ants</w>
Kee kug</w>
LA K
Ubi feast</w>
sy mbo
test imony</w>
wear y</w>
stud ent</w>
shor es</w>
enlar ged</w>
recit ed</w>
who ever</w>
reali sed</w>
path as</w>
slave girl</w>
Abbag ena</w>
wet nurse</w>
requisition ers</w>
Munus gilsa</w>
KI AN</w>
dul y</w>
shel ter</w>
less ly</w>
tamar isk</w>
tavern brewery</w>
amen able</w>
Inda su</w>
extrem ely</w>
flatt en</w>
marvel see</w>
get ina</w>
brother hood</w>
ritu als</w>
standing place</w>
subsi stance</w>
trim med</w>
Faith fully</w>
acquaint ances</w>
discer nment</w>
Nane GIRgal</w>
First fruits</w>
things food</w>
guaran tor</w>
freely humbly</w>
quadru peds</w>
Af ter
Ibe x
Mubi ana</w>
Op ening</w>
Tar sirsir</w>
Zub aga</w>
date palm</w>
free dom</w>
ibe x</w>
jew els</w>
rout e</w>
indi genous</w>
inund ated</w>
arth ritic</w>
ennu priest</w>
ellu Dagan</w>
suf fer</w>
prop itious</w>
counten ance</w>
Guti ans</w>
Gemem unuk
cloist ers</w>
dispos al</w>
transg ress</w>
chario try</w>
expend iture</w>
Damiq iliu</w>
sling stones</w>
yiel ded</w>
Evildo ers</w>
organiz edgathered</w>
patri monial</w>
AbaEnlil gin</w>
Destroy er</w>
Kut alla</w>
Mor eover</w>
Ru shes</w>
Rul er</w>
Sw eet</w>
Tirig an</w>
cun ning</w>
gee se</w>
jun ction</w>
lulla by</w>
langu age</w>
mri qtidnim</w>
var ie
araz ame</w>
ilda g</w>
atecon sumed</w>
reco gn
lavi shly</w>
desec rated</w>
unble mished</w>
daist ent</w>
Enent arzi</w>
setad vanced</w>
keep ers</w>
probab ly</w>
Lugalgudu a</w>
turni ps</w>
dubb an</w>
belong ing</w>
Snbal ssuiqbi</w>
Gemegan un</w>
sweetintox icating</w>
egkur aga</w>
occupi ed</w>
Gememunuk uga</w>
1 12</w>
1 15</w>
1 23</w>
1 11</w>
1 25</w>
2 42</w>
2 15
2 92</w>
3 3
4 f</w>
6 48</w>
7 46</w>
7 65</w>
9 1</w>
9 7</w>
A N
A D</w>
A sh
A li
A be
A ru
A part</w>
A Enlil
A way</w>
A pi
A ia</w>
A mag
A ud
B I
B ea
B ooked</w>
B arge</w>
B AD</w>
C au
C lad</w>
C edar</w>
D r</w>
D ir
D ab
D az
E s
E ur
E ig
E am
E du
E ki</w>
E bgal</w>
E unir</w>
E pum</w>
F l
F ol
F ear</w>
F ine</w>
F atten
F earing</w>
G er
G old</w>
G rowing</w>
G UR</w>
H e
H or
H ead</w>
H endursag</w>
H amazi</w>
I g
I t
I ti
I tra
I kn
J uni
K at
K ir
K iri
K uli</w>
L U
L e
L ong</w>
L ala</w>
L ap
L ook</w>
M er
M il
M ay
M ada</w>
M uru</w>
N E</w>
N ew
N anibgal</w>
P u</w>
P as
P iri
P ap
P ada</w>
P reg
P irig
R ising</w>
R un</w>
S o
S la
S el
S it</w>
S ec
S hou
T u
T ul
T hi
T am
T arm
T AR</w>
U u</w>
U bar
U lu
U mu</w>
U gn
U gur
V in
W ind</w>
W ool</w>
W ild</w>
Z u
Z im
Z az
Z amu</w>
a q
a h</w>
a ana</w>
a mah</w>
a agar</w>
b u</w>
b on
b in</w>
b oun
b is
b idden</w>
c row</w>
c cheese</w>
c ran
c eeds</w>
d ur</w>
d um</w>
d river</w>
d rowned</w>
e t
e br
e ship</w>
e quality</w>
f ated</w>
f igh
f ought</w>
f row
f rown</w>
g on
g ers</w>
g ug
g ala</w>
g lance</w>
g adala</w>
h in
h en
h ind</w>
h ard</w>
h ali</w>
h eeds</w>
i on</w>
i me</w>
i um</w>
i am</w>
i res</w>
i dab</w>
j a</w>
j ail</w>
k it
k ad
k kan</w>
k allum</w>
l en
l um
l atum</w>
l ative</w>
m it</w>
m ss</w>
m ous</w>
m mu</w>
m bles</w>
n u</w>
n aga</w>
o l</w>
o ting</w>
o cy</w>
p r
p ing
p um
p us</w>
p ub
p ment</w>
p ada</w>
q a</w>
r ani</w>
r ough
s m</w>
s z</w>
s al</w>
s ig</w>
s own</w>
s ings</w>
s owed</w>
s ense</w>
t un
t ig
t ill</w>
t igh
t ings</w>
t wis
t eat</w>
t ition</w>
t ly
u se
u sh</w>
u da</w>
u ded</w>
u ku</w>
u per</w>
u ana</w>
u dar</w>
u taklku</w>
v ul
v il</w>
v ings</w>
w in</w>
w rea
w ned</w>
w inter
y ers</w>
y side</w>
y happiness</w>
y ria</w>
z it
z abala</w>
z ze
th a</w>
th mother</w>
th row</w>
th ened</w>
in f
in on</w>
in as</w>
in ta
in tab
in du
in dle</w>
in aba
in duces</w>
an s
an ing
an zu</w>
an gr
an tre
an ced</w>
an izi</w>
an umea</w>
an vil</w>
ar z
ar r</w>
ar ku</w>
ar kal
ar lu
ar tum</w>
ar lings</w>
ar innum</w>
er in</w>
er im
er less</w>
er rum
er idingir</w>
ea la</w>
it ana</w>
it ute</w>
it ab</w>
it ae</w>
or i
or ate</w>
or mous</w>
on rushing</w>
st y</w>
st on
st en</w>
st ag</w>
st art</w>
st alli
al um
al ad
al gar
al tum</w>
al ub</w>
al ag</w>
al aya</w>
al uh</w>
il en</w>
il ty</w>
il pa
sh am
sh ut
sh ell</w>
ro ars</w>
ro iling</w>
ro tten</w>
ro pes</w>
at ch</w>
en ing
en ess</w>
en thr
en ched</w>
en act</w>
en cing</w>
en voys</w>
en ormous</w>
re ward</w>
re lied</w>
re treat</w>
li m</w>
li age</w>
la ma</w>
la den</w>
la gar</w>
la mas
ma k
ma y
ma sa
ma ma</w>
ma priest</w>
ma ment</w>
ma kum</w>
ma xim
el ds</w>
el ite</w>
wh ir
ur tum</w>
ri ble</w>
ri pe</w>
le x
le en</w>
le vel
ta sk
de br
de du
de ce
de spread</w>
de fam
de groom</w>
pl eland</w>
no vice</w>
un u
un ir
un lea
un par
un clean
un ka</w>
un changing</w>
to l</w>
to for</w>
to ms</w>
to cks</w>
ra g
ra ther</w>
ra de</w>
ra ins</w>
ra ces</w>
ra ining</w>
ra zed</w>
ra bid</w>
da kig
da iry</w>
da wned</w>
she arlings</w>
ul l
ul gal</w>
ul arly</w>
di f
di ence</w>
di work</w>
di workers</w>
di rie</w>
En ann
En Enlil
En edu
ir ina</w>
ir sag</w>
be ha
be ings</w>
bar bar
bar rage</w>
ab z
ab en</w>
ab use</w>
ab ta</w>
ab zu
ch house</w>
ch os
ch arm</w>
ch aff</w>
ch ange
se qu
se ways</w>
ag u</w>
ag ir
ag ugal</w>
ag rig</w>
ag adala</w>
as s</w>
as ked</w>
as ks</w>
as lum</w>
ol ds</w>
ha k</w>
ha ver</w>
ha ma</w>
ha ps</w>
ha vo
es cor
es places</w>
ti al</w>
ti ea</w>
wor n</w>
wor ried</w>
sil s</w>
sil very</w>
sil ences</w>
hi ding</w>
hi rim</w>
fi x
fi g</w>
fi shes</w>
Ur b
Ur Enki</w>
Ur sag
Ur Ebabbar</w>
Ur dar
Ur gu</w>
Ur endursag</w>
Ur ru</w>
Ur Enunna</w>
Ur sukkal</w>
Ur Gig
Ur Gebare</w>
Ur kisal</w>
um bil
um ph
ann i</w>
am id
am id</w>
am arm
for k</w>
for sa
for ward</w>
for bidden</w>
id ary</w>
id ug</w>
is aba</w>
is sion
ear rings</w>
sp ared</w>
sp attered</w>
sp ell</w>
sp ades</w>
sp indle</w>
sp leen</w>
ke ys</w>
ac es</w>
ac king</w>
ac cumulated</w>
fa ir</w>
su p
su it</w>
su cking</w>
Nin im
Nin nig
Nin ki
Nin SAR</w>
Nin egala</w>
Nin ild
ati m</w>
ati cs</w>
mon ster</w>
mon ious</w>
str ations</w>
ec rown</w>
grea se</w>
ter ran
ter ic</w>
ter preter</w>
est y</w>
est ing</w>
est ar</w>
qu it</w>
do c
sa m</w>
sa man</w>
sa par</w>
res sion</w>
per man
of where</w>
of Heaven</w>
man worker</w>
man anyone</w>
Wh e
Th ree</w>
In ima
In dag
In stead</w>
ex iled</w>
ex ceed</w>
ex tract</w>
ex tol</w>
rul ing</w>
sur ve
ad ue</w>
ad uga</w>
ad joining</w>
ad vocate</w>
ad viser</w>
her e
work er
work troop
pe a</w>
pe zo
pe erless</w>
ca kes</w>
ca sting</w>
ca sts</w>
ca uses</w>
ca stically</w>
sea s</w>
mo te
mo ttled</w>
stor e</w>
con if
con tem
con vened</w>
Lugal d
Lugal m
Lugal a</w>
Lugal am
Lugal eng
Lugal ala</w>
Lugal pae</w>
Lugal uumgal</w>
Lugal giri
und o</w>
tur t
si m</w>
si sters</w>
si bility</w>
ru in
ru village</w>
ru bbed</w>
pri me
im e
im pro
im mu</w>
im proved</w>
im mobil
com rade</w>
Lu z
Lu Gudea</w>
Lu ba</w>
Lu azida</w>
Lu ulgira</w>
all knowing</w>
all eled</w>
min ed</w>
min ating</w>
min terpreter</w>
bo y</w>
bo iled</w>
bo vine</w>
bel lows</w>
brea th
peo pleland</w>
war p</w>
war f</w>
wat ched</w>
can ebra
An n
An s</w>
An the</w>
An un
An sw
wi shing</w>
wi despread</w>
vi e</w>
vi per</w>
fer ry</w>
fer men
Ak tu</w>
Ak ala</w>
Gu bin</w>
mar hali</w>
ox end
car ess</w>
car riers</w>
cu ts</w>
ga thers</w>
ga zi</w>
bur n</w>
bur sag</w>
bur nt</w>
bb u</w>
ci ent</w>
ci ful</w>
ho mes</w>
ho sts</w>
bir thmother</w>
gu dap
gu eship</w>
gu ilty</w>
mu g</w>
mu tt
ge l</w>
ge banda</w>
ge tting</w>
iz i
pra y</w>
wo manhood</w>
kal immu</w>
UrN amn
UrN isaba</w>
gr ou
gr ind</w>
gr ounds</w>
lea ds</w>
lea ving</w>
lea der
towar ds
par ts</w>
ent r
ent ry</w>
pa in</w>
pa uper</w>
ten ded</w>
quar t</w>
uz i
ub a
ut ur</w>
ut ul</w>
fir mament</w>
so a
so cle</w>
so cket</w>
Uru Baba</w>
sla p</w>
col oured</w>
ju ven
deli vers</w>
deli ght
sm eared</w>
tru sts</w>
bea k</w>
ed ged</w>
ed covers</w>
pos ing</w>
pos it</w>
ang u</w>
ang ing</w>
Ab sim
youn g
king al</w>
king master</w>
lap idary</w>
Amar Sin</w>
Amar ezem</w>
po inted</w>
po lice</w>
ap kallum</w>
mid itana</w>
tu l</w>
Ninur t
sk ull</w>
az a</w>
az um</w>
over ly</w>
dist ant
ak al</w>
sub du
sub jects</w>
cla sp
lu 2</w>
lu mapriest</w>
lu strations</w>
sing rites</w>
sing ularly</w>
gal lo
gal abzu</w>
Abb akalla</w>
but tocks</w>
he goats</w>
fea ture</w>
inst itu
gar dens</w>
tri p</w>
tri be</w>
tri ang
tri umph
comm its</w>
with stood</w>
restor ing</w>
restor es</w>
garm ent
nig g
nig dab</w>
trea ts</w>
tra ck</w>
Ki an</w>
Lar ag</w>
ass emble</w>
remo ves</w>
der ly</w>
tor ches</w>
we ir</w>
we aned</w>
form ing</w>
form ation</w>
form ula</w>
Gem en
Mar sh</w>
Mar ad</w>
Enlil ship</w>
Enlil bni</w>
fin est</w>
fin ely</w>
fin equality</w>
resid ue</w>
fec es</w>
fec und</w>
suck led</w>
au dience</w>
plea sures</w>
clo the</w>
clo sed</w>
lament ation
Sn gmil</w>
run g</w>
anc ing</w>
sha vings</w>
Nam ed</w>
Nam nun
Nam zit
stra int</w>
atta ck</w>
atta cked</w>
suit able
pi er
pi eces</w>
surpas ses</w>
water marsh</w>
protec ting</w>
Geme 2
Geme ulgi</w>
Geme Eanna</w>
Geme Lamma</w>
Geme Ninubur</w>
bi ya</w>
hum ility</w>
Nig ine</w>
Nig Baba</w>
flo cked</w>
mer ely</w>
produ cts</w>
Uri ruvillage</w>
nu a</w>
high est</w>
high quality</w>
us z
lif ts</w>
lit er</w>
swee ten</w>
Nann i</w>
sag gal</w>
sag ida</w>
respon sibility</w>
lim iting</w>
des ol
ulgi muda</w>
cra ck</w>
Da Umma</w>
Da agi</w>
perfec ting</w>
cro aker</w>
fatten ing</w>
fatten ers</w>
instruc t</w>
instruc ting</w>
Enme ziana</w>
bal k</w>
bra mbles</w>
wid ely</w>
ax ing</w>
isi on
super lative</w>
supp orted</w>
ARAD ula</w>
brick mold</w>
ob serv
ob served</w>
red furious</w>
Aga in</w>
bree ze</w>
bound aries</w>
Ap su</w>
Mes an
Mes lam</w>
fru it
lig ence</w>
joy fully
KA L
fla shes</w>
Amor ites</w>
ill ati</w>
lad ders</w>
sec tion</w>
13 8</w>
Sin iq
nes sed</w>
any more</w>
clean singrites</w>
cl ari
cl enched</w>
pea s</w>
sta kes</w>
enti al</w>
enti rely</w>
head gear</w>
irrig ates</w>
Du d
yo ked</w>
power wing</w>
tow ed</w>
tow ering</w>
tow paths</w>
const able</w>
Iri gal</w>
flow ered</w>
brew ing</w>
hand writing</w>
Id ilpa
kur un</w>
kur measures</w>
wr ath</w>
cel ebr
18 5</w>
18 1</w>
pil oting</w>
fro mat</w>
lic ate</w>
emer y</w>
exer ted</w>
As arlu
Re place</w>
den uded</w>
reg ard</w>
list ening</w>
Lugalur ani</w>
bol ted</w>
gir in
up stream</w>
inqu iry</w>
inqu ires</w>
off abandoned</w>
illa t</w>
insul ter</w>
Ama getin
Ura b
Ura kkan</w>
ud der</w>
ador nment</w>
Ex u
dea f
dea f</w>
sol itary</w>
judg ements</w>
Baz izi</w>
dri ve</w>
dri pping</w>
kig al
consum ption</w>
Ma king</w>
Ma de</w>
Ma kes</w>
Ma azum</w>
rever ence</w>
Dam utaklku</w>
opp os
opp ress</w>
opp ression</w>
sn iff
sn acking</w>
rev ea
Puzur sz
Puzri s
Am bar</w>
Am miditana</w>
Lum mag
mann um</w>
int one</w>
int oned</w>
int oning</w>
decor ations</w>
open ed
carcas es</w>
gur ma</w>
pul ver
appropri ately</w>
function aries</w>
ted furnished</w>
ani ed</w>
exc ee
merch ants</w>
Sa man</w>
hon our</w>
ara amu</w>
ara uma</w>
Un der</w>
Un aben</w>
ffer ed</w>
sma shing</w>
sma shes</w>
dep endent</w>
acqu ired</w>
Ningub alag</w>
heaven wards</w>
Bel arik</w>
Dug anizi</w>
after birth</w>
Ba amu</w>
De dicating
De limiting</w>
inc ising</w>
plough share</w>
Festivalof An</w>
Festivalof Baba</w>
dag ula</w>
dag gers</w>
evol ent</w>
supplic ate</w>
Naram il</w>
Emu kalama</w>
Nag ar
fo e</w>
fo ster
fo liage</w>
separ ate</w>
equi pment</w>
craf tedfurnished</w>
hil i</w>
dire ct</w>
Ta king</w>
Ta ken</w>
adv ance</w>
adv ance
Lev els</w>
shrin esplaces</w>
past ures</w>
harvest time</w>
idi ocy</w>
sho cks</w>
best ow</w>
Great Festival</w>
Great Stele</w>
obliter ation</w>
17 5</w>
pac if
accomp anied</w>
overwhel ming</w>
Ana ili</w>
Ana Damutaklku</w>
Per sia</w>
cover edcovers</w>
cons id
confu sion</w>
grand father</w>
collea gueship</w>
Sir aran</w>
fing ering</w>
thick en</w>
rebel lion</w>
border land</w>
border extreme</w>
pick axes</w>
pick ax</w>
pick axing</w>
Au dagula</w>
kil a</w>
kil ls</w>
river ine</w>
suma ccheese</w>
conver sing</w>
Gr ound</w>
Nim intab
With out</w>
big ger</w>
fal se</w>
soo the</w>
maid servant</w>
total ity</w>
hire ling</w>
fast en</w>
fast ly</w>
gras ses</w>
broad ened</w>
subjug ated</w>
repea ted</w>
youth fulness</w>
stead fastly</w>
solidi fied</w>
Ra ising</w>
bab ies</w>
han diwork</w>
increa se</w>
spa de</w>
correc tly
Meslam tiea</w>
mouth word</w>
double miles</w>
Con cerning</w>
Gar ana</w>
Nan aya</w>
pon der</w>
pon sible</w>
rend ering</w>
spl its</w>
dig ging</w>
bet tered</w>
Inann a
Inann as</w>
exu de</w>
boat man</w>
calen der</w>
back confine</w>
ceremon ial</w>
crip ple</w>
allot ment</w>
reno vate</w>
Aw al</w>
poun ced</w>
shoo ts</w>
rain storm</w>
eso teric</w>
UrNin tu</w>
accu sations</w>
suc ceeds</w>
conqu er</w>
compla ints</w>
wicke dly</w>
Ass yria</w>
Br ought</w>
Ne therworld</w>
Res ponsible</w>
pop ula
sor row</w>
usu ally</w>
usu dra</w>
Enak uana</w>
beer bread</w>
beer pouring</w>
sad d
sad dle</w>
city cities</w>
straigh ten</w>
thorn y</w>
thorn bush</w>
zabar dab
Kur zze
Ut tu</w>
Ut us</w>
glor iously</w>
ula l</w>
thra sh</w>
rol ls</w>
Ninmu sisa</w>
Ninmu eig
scrat ched
Gazelle Feast</w>
Uta ulu</w>
pou ch</w>
sal t
seven headed</w>
pot sherds</w>
skill ful</w>
prayer ritual</w>
pige ons</w>
Lamma saga</w>
habit ations</w>
Bu ild</w>
Men il</w>
ada min</w>
cre scent</w>
eda da</w>
arrum il</w>
arrum bani</w>
ating sprinkling</w>
silver smith</w>
Thr ough</w>
neigh bor</w>
counsel ed</w>
occup y</w>
Dad u</w>
eras es</w>
stin king</w>
star vation</w>
repa ys</w>
direc ts</w>
supre mely</w>
aweso meness</w>
brigh tened</w>
travel ing</w>
Gemee ila</w>
mali cious</w>
offshoo ts</w>
annihil ating</w>
wonder ous</w>
Kis iga</w>
Mea sured</w>
Pla in</w>
Ti pa
Zi usudra</w>
four th</w>
non indigenous</w>
child ren
truth ful</w>
calf gazelle</w>
beautiful verdant</w>
Nannak am</w>
Nannak iag</w>
honey plants</w>
devour ed</w>
At ta
Out side</w>
Out let</w>
SI G
drea minterpreter</w>
glea m</w>
sar castically</w>
uten sils</w>
rosett estar</w>
reci eve</w>
ursag galama</w>
Enam zu</w>
charm er</w>
banda ge</w>
Ninsi kila</w>
Lugalan atum</w>
cucum ber</w>
musi c</w>
weak ness</w>
appea ls</w>
Simtiil hak</w>
assist ant</w>
Loo king</w>
Ul ma</w>
Zam biya</w>
fra gr
frequ enting</w>
pan try</w>
situ ation</w>
arg ument</w>
Ursil alu</w>
Ursil aluh</w>
sprou ts</w>
offic ers</w>
exter ior</w>
compe te</w>
collap sed</w>
bright faced</w>
ski ppers</w>
phan tom</w>
phan toms</w>
assembly throne</w>
Apil k
consign ment</w>
consign ments</w>
Enhedu ana</w>
Enhedu anas</w>
av eng
aver aged</w>
hing es</w>
infer ior</w>
eloqu ence</w>
leg ged</w>
ascer tain</w>
spac ecrown</w>
brought stationed</w>
exal ted
conc ili
undul atingsprinkling</w>
entru sted</w>
creat es</w>
crafts man</w>
kisiki Ninazu</w>
knowledg eable</w>
ziggur at</w>
Utamiar ram</w>
extingu ished</w>
24 4f</w>
Ed ana</w>
Kak ug</w>
Ste ppe</w>
Sett lement</w>
Tut tul</w>
dr ill</w>
fat breads</w>
ger minating</w>
hee ded</w>
wra pped</w>
year old</w>
invest igate</w>
anno yed</w>
enjoy ed</w>
rein forced</w>
ligh ts</w>
plent yhappiness</w>
embel lished</w>
chick peas</w>
agi ua</w>
Luug ina</w>
oxdri vers</w>
wool sheep</w>
paral y
just ly</w>
smoo thed</w>
Abund ance</w>
voi ces</w>
provin ces</w>
crimin al</w>
stair case</w>
Duk ra</w>
pila sters</w>
alien ated</w>
Enmah galana</w>
inclu ded</w>
Gurz an</w>
Tahi atal</w>
occur red</w>
goose flesh</w>
Birurtur a</w>
sorcer y</w>
mighty reinforced</w>
aggres sively</w>
Establi shed</w>
Ahun i</w>
Coun try</w>
Dist antre
Mad ga</w>
Sever al</w>
hat red</w>
hir in</w>
ning touching</w>
nag abtum</w>
wand ered</w>
inspi res</w>
ane ously</w>
arre ars</w>
org an</w>
orig inal</w>
stun ned</w>
enra ged</w>
refu sed</w>
rav ages</w>
actu ally</w>
coa chhouse</w>
quie t</w>
desto yed</w>
exul tant</w>
proli fer
cada ver</w>
seal bearer</w>
countr yside</w>
marsh land</w>
sole mn</w>
name year</w>
distur bed</w>
trapre straint</w>
orchard man</w>
interrup t</w>
gazelle snake</w>
content edly</w>
Protec tive</w>
Magu ena</w>
shrine sea</w>
Govern or</w>
doubleh our</w>
Ibex of
varie gated</w>
215 f</w>
Ash gi</w>
Abe u</w>
Aru a</w>
AEnlil dirie</w>
Api ak</w>
Aud atur</w>
Bea uti
Cau seways</w>
Kir itab</w>
LU M</w>
Lap is</w>
Pas ira</w>
Preg n
So me
Sla ve</w>
Shou ter</w>
Tul ta</w>
Tarm Uram</w>
Ulu di</w>
Ugn im</w>
cran es</w>
gug gazi</w>
hin ds</w>
twis t</w>
winter time</w>
inta ct</w>
aning a</w>
arkal i
stalli ons</w>
sham eless</w>
enthr oned</w>
masa b</w>
maxim ized</w>
task arinnum</w>
debr is</w>
unlea shed</w>
unpar alleled</w>
unclean liness</w>
Enedu ana</w>
havo c</w>
UrGig ir</w>
umbil ical</w>
amid st</w>
amarm n</w>
Ninild uma</w>
terran ean</w>
Indag ara</w>
mote undulatingsprinkling</w>
conif er</w>
Lugalgiri zal</w>
prime val</w>
Answ er</w>
fermen ting</w>
gudap sm</w>
mutt on</w>
UrNamn unka</w>
leader bond</w>
towards alone</w>
delight ful</w>
Absim t</w>
distant profound</w>
institu ted</w>
Namnun dakig
Namzit ara</w>
suitable carrying</w>
Siniq iam</w>
Idilpa unu</w>
Amagetin ana</w>
sniff ing</w>
Puzursz adue</w>
Dedicating dedicate</w>
advance withstand</w>
Nimintab a</w>
correctly set</w>
popula ce</w>
Kurzze ilen</w>
Ninmueig imu</w>
Distantre moteundulatingsprinkling</w>
1 1
1 13</w>
1 3rd</w>
1 17</w>
1 61</w>
2 5
2 e
2 14</w>
2 mah</w>
2 22</w>
2 32</w>
2 43</w>
2 38</w>
3 8
3 56</w>
3 96</w>
4 2
4 42</w>
6 5
6 33</w>
7 746</w>
8 8</w>
A G
A S</w>
A bar
A ti
A be</w>
A am
A ma</w>
A ne
A lin
A lu
A mar</w>
A hu
A dingirmu</w>
A ned
A anzu</w>
B en
B rea
B est
B uz
B ani</w>
B aya</w>
B alu</w>
B road</w>
B earing</w>
B utter</w>
B ull</w>
B ulma</w>
C it
C re
C am
C over
C hair</w>
D A
D I
D r
D aga</w>
D ara
D read</w>
D anni
D itch</w>
E e</w>
E bar
E pe</w>
E ban</w>
E sag
E mae</w>
E uzga</w>
E dge</w>
E ulma</w>
F in
F er
F il
F ur
F ear
F ounded</w>
G ez
G od
G aba
G irizal</w>
H ur
H ill</w>
H ad</w>
H alf</w>
H eshe</w>
I u
I sh
I lam
I mi
I tr
I pi
I lit
I sz
I ts
I dim</w>
J ud
J ah
K im
K ings</w>
K An
K bi</w>
K itchen</w>
L q
L al
L at
L ir
L ay</w>
L ooked</w>
L az
L anim
L aba
M i
M es</w>
M id
M is
M outh</w>
M ani
M ii
N I</w>
N or
N ugan
O ver
O ld</w>
O ut</w>
O pen</w>
P o
P re
P ur
P ati
P low</w>
P raise</w>
R un
R ig
R igh
R ise</w>
R ap
R ites</w>
R isen</w>
R elea
S ea
S ta
S to
S cep
S igr
S idu</w>
S abum</w>
T U
T e
T er
T en</w>
T uk
U B
U k
U L</w>
U U</w>
U sa
U kalimmu</w>
V ery</w>
V eter
W ea
W ere</w>
W ell
Y ar
Y et</w>
Z e
Z ar
Z ur
Z iz
a id</w>
a abba</w>
a far</w>
a isa</w>
a stro
b aba</w>
b lea
b ats</w>
b idu</w>
c c
c ur</w>
c oo
c ations</w>
c les</w>
c lu
c tive</w>
c age</w>
c ren
c ouri
c rowned</w>
c ulation</w>
c rat</w>
c enter
c limb
d as</w>
d ear</w>
d are</w>
d der</w>
d ine</w>
d ling</w>
d rown</w>
d umuz
d ena</w>
d dead</w>
e ed</w>
e es</w>
e th</w>
e di
e str
e igh
e vi
e ign</w>
e Ningal</w>
e form</w>
e bin
e harp</w>
e ell
e tub</w>
f f
f r</w>
f it
f es
f um
f ted</w>
f light</w>
f lies</w>
f itted</w>
g le
g ons</w>
g est
g ands</w>
g ins</w>
g low</w>
g ore</w>
g shaped</w>
g ull
h em
h ug
h ut</w>
h ating</w>
h ili
h ud
h ana
h ate
i al
i kur</w>
i red
i fies</w>
i bgal</w>
j ester</w>
k it</w>
k um
k ug
k ad</w>
k les</w>
k iri
k ak
k ill
k ene</w>
k Inuinak</w>
l l</w>
l al
l ul
l ate</w>
l ent
l ut
l oud</w>
l ubi</w>
l ance
m el
m ers</w>
m ug
m oo
m by</w>
m ould</w>
m ite</w>
m illed</w>
m una</w>
m esh</w>
m ight
m unu</w>
m iting</w>
m gir</w>
n g</w>
n is
n ations</w>
n ana</w>
n arrow</w>
n unna</w>
n ene</w>
n ests</w>
o y</w>
o fa
o ar</w>
o sed</w>
o ils</w>
o int</w>
p u</w>
p is</w>
p he</w>
p ant</w>
p ati
p up</w>
p est</w>
p ara</w>
p ions</w>
p Sn</w>
p ic
p Gutium</w>
p led
q ir</w>
q Adad</w>
r out</w>
r ounds</w>
s c</w>
s ow
s are</w>
s an</w>
s su</w>
s ne
s ling</w>
s ala</w>
s ows</w>
s ired</w>
s zu
s ounds</w>
s anga</w>
t st
t ch</w>
t ents</w>
t wil
t earing</w>
t angled</w>
u er
u ha
u su</w>
u pri
u kur</w>
u dur
u mar</w>
u Suen
u Ea</w>
u Hani</w>
u edar</w>
u Edar</w>
u Idim</w>
v y</w>
v id</w>
v isi
v ement</w>
v illa
v ision</w>
w ur
w ad
w ent
w rites</w>
w itch
w aning</w>
y e</w>
y er</w>
y ore</w>
y Gatumdu</w>
z an
z er
z aga</w>
z ani</w>
th ouse</w>
th ought</w>
th ins</w>
th ud
th underbird</w>
in d
in er</w>
in ab
in is
in ating</w>
in appropriate</w>
in pipe</w>
in scriptions</w>
in yGatumdu</w>
an z
an ga
an ying</w>
an ted
an sum</w>
an zam</w>
an awoods</w>
ar o
ar s
ar f</w>
ar ea
ar ke</w>
ar ent</w>
ar gi
ar ru
ar dist
ar ily</w>
ar rum</w>
ar ising</w>
ar tful</w>
ar dson</w>
ar eas</w>
ar amutum</w>
er v
er t</w>
er ly</w>
er ec
er able</w>
er ed
er vice</w>
er pillar</w>
ou ter
ea se</w>
ea ding</w>
ea ting
it u</w>
it them</w>
it fully</w>
it ating</w>
it ative</w>
it self
or ers</w>
or ity</w>
or ting</w>
or ous</w>
or ial</w>
or dom
or deal</w>
or aneously</w>
on y
on in</w>
on es
st u
st al</w>
st um
st oo
st am
st worthy</w>
st incantation</w>
st fight</w>
al f
al ag
al ity</w>
al mon
al ana</w>
al ama</w>
al ia</w>
al game</w>
al udu</w>
al sam</w>
il y
il es</w>
il ities</w>
il ula
sh y</w>
sh an</w>
sh ac
sh and
sh all
sh out
sh ot</w>
sh allow</w>
sh skin</w>
ro iled</w>
at ig
at by</w>
at op</w>
at ab</w>
en s
en un
en th</w>
en vi
en large</w>
en vel
en clad</w>
en circle</w>
en vy</w>
re ins</w>
re see</w>
re lev
re venge</w>
re posing</w>
li ec
li sin</w>
la go
la ws</w>
la cking</w>
la hama</w>
ma ds</w>
ma du
ma harbor</w>
ma ids</w>
el um</w>
el iness</w>
wh en
wh arf</w>
ur ur</w>
ur su</w>
ur am</w>
ur ker</w>
ur utum</w>
ur re</w>
ri dge</w>
ri edly</w>
le gi
le vi
le aned</w>
ta n</w>
ta mu
ta cle</w>
de ur</w>
de si
de bil
de cep
de scription</w>
de pu
de dly</w>
de eras
no ti
no bility</w>
no mads</w>
em a</w>
em ent
un am
un fer
un does</w>
un wa
un cea
un shrin
un cultivated</w>
to ssed</w>
to ll</w>
ra pe</w>
da m
da ma</w>
da beer</w>
da ble</w>
da shing</w>
da ya</w>
ul e</w>
di sh
di su
di stor
di verse</w>
di dabeer</w>
rea ding</w>
En n
En anna</w>
En si
En ough</w>
En gar
En ki
En mer
En eg
En dudu</w>
En nir
ir p
ir er</w>
ir ping</w>
ir dam</w>
ir bam</w>
go ad
go ath
be set</w>
be fall</w>
be fell</w>
be tter</w>
ig rates</w>
bar ely</w>
bar eg
bar asi</w>
bar dili</w>
ab an</w>
ab ad
ab scon
ch is
ch ards</w>
ch irping</w>
se d
se x</w>
se ers</w>
se SA
ing u
ing crou
ag al
ag in</w>
ag ia</w>
as k</w>
as u</w>
as su
as age</w>
as ila</w>
as ervice</w>
ol ddead</w>
ha d
es z</w>
es ig</w>
ti p</w>
ti c</w>
ti thed</w>
ti vely</w>
ti ssu
wor m</w>
wor se</w>
the art</w>
hi ssing</w>
hi cle</w>
fi res</w>
fi stfight</w>
Ur en
Ur ur</w>
Ur zu</w>
Ur gu
Ur nin
Ur Alla</w>
Ur Mama</w>
Ur uma</w>
Ur Lugalbanda</w>
Ur Gilgame</w>
Ur meme</w>
Ur Ningubalag</w>
ug igi</w>
am ong
am eli
for th
for mi
for served</w>
for sake</w>
id uh
is u</w>
is asa</w>
is imti</w>
ear ring</w>
sp la
sp ins</w>
sp eed</w>
sp rout</w>
ver ily</w>
ac tion</w>
ac workers</w>
ac cord</w>
co ho
fa ils</w>
su ch
su bur
su hur
su ffered</w>
Nin e</w>
Nin tur
Nin du
Nin me
Nin alla</w>
Nin Ki
Nin lil
Nin magure</w>
Nin sisa</w>
Nin Arali</w>
Nin igara</w>
Nin marki</w>
hea ping</w>
mon th
mon keys</w>
pla ys</w>
pla ster</w>
pla cated</w>
pla ited</w>
pla stered</w>
buil t
str enth</w>
shee ps</w>
pp led
pp alsam</w>
ter ebin
est one</w>
qu it
Su pp
sa y
sa a</w>
sa pl
Ning ar</w>
Ning inaba
dest itute</w>
res ults</w>
res olved</w>
per cep
per haps</w>
of at</w>
of Ninazu</w>
of Bazi</w>
of attached</w>
lab ba</w>
gra zing</w>
br ed</w>
lo gi
lo ins</w>
lo vely</w>
Th ough</w>
ser iously</w>
lam ented</w>
lam sare</w>
In struc
In spec
In im</w>
In tel
In sul
ex pressed</w>
ex changing</w>
gi z</w>
gi an</w>
sur vi
sur ged</w>
pro cal
pro spec
pro pped</w>
pro gen
pro stit
pro stration</w>
pro strate</w>
pro strated</w>
pro fes
ad u
ad ar
ad visor</w>
her it</w>
her der
work troop</w>
destroy ers</w>
ca ve</w>
ca strate</w>
ne ys</w>
ne ol</w>
mo or</w>
mo il</w>
mo ther
con ten
con tra
con nec
con firm</w>
na ked</w>
Lugal si
Lugal nam
Lugal Ku
Lugal uri</w>
Lugal kur
Lugal igi</w>
Lugal gue</w>
Lugal dubla</w>
Lugal Nigine</w>
Lugal Emae</w>
und one</w>
tur s</w>
tur ners</w>
tur ner</w>
du s</w>
du res</w>
du pae</w>
du ia</w>
du sk</w>
si zed</w>
si eved</w>
shi elds</w>
att u</w>
att end</w>
ru priestess</w>
ck en</w>
pri mar
ce l</w>
ce des</w>
im ma</w>
im ate</w>
im du</w>
im men
im mem
com pre
Lu u</w>
Lu ig
Lu Enki</w>
Lu Nane</w>
Lu Ninmar</w>
Lu kala</w>
Lu Un
Lu Damu</w>
Lu Abu</w>
Lu alim</w>
Lu Girizal</w>
all ub</w>
all uha
bo ther</w>
bo ys</w>
bo dies</w>
bo diment</w>
cor nelian</w>
coun c
coun ts</w>
bel t</w>
bel low</w>
bel lied</w>
brea done</w>
war s</w>
war like</w>
war dly</w>
wat ches</w>
can tors</w>
fl at
fl on</w>
fl attering</w>
An ne
An nu
An zag
An ita</w>
An nun
An shan</w>
lor d
lor den</w>
me d
me di
wi ping</w>
vi able</w>
ther ed</w>
op y
op s</w>
Gu aba</w>
Gu tar</w>
Gu ti</w>
Gu dea
mar k</w>
mar ke
mar ks</w>
mar ched</w>
mar az</w>
ox s</w>
car av
fore father</w>
grain heap</w>
mi xes</w>
cu it</w>
cu bs</w>
ga er</w>
bur u</w>
bur den</w>
bur ial</w>
ci ated</w>
ci pated</w>
ci stincantation</w>
ho sue</w>
bir thing</w>
sel ler</w>
row ed</w>
The se</w>
gu z
gu ide</w>
gu fields</w>
gu ards</w>
gu bi</w>
gu sisa</w>
gu 2e
our s</w>
mu hu</w>
mu ball
mu errum
iz ing</w>
iz es</w>
iz ens</w>
wel lor
shepher ding</w>
wo olen</w>
eng age</w>
UrN umuda</w>
UrN anibgal</w>
Li k
jo ined</w>
lin ens</w>
lin enclad</w>
gr ants</w>
kno tted</w>
sw allowed</w>
par t
par cel</w>
ent ity</w>
pa inst
ten th</w>
ten ding</w>
ten derly</w>
quar ts</w>
Ni bul
pas sage</w>
ub ata</w>
ut es
ut ations</w>
so ver
so meness</w>
Uru a</w>
Uru ks</w>
pal il</w>
pal aces</w>
stand serve</w>
sla y</w>
sla ck
bri degroom</w>
ey ard</w>
sm el
sm ell</w>
nin ani</w>
bea d</w>
bea sts</w>
establi shed
rece ding</w>
bil ak</w>
crea ting</w>
crea tions</w>
ed ina</w>
ed taken</w>
ed bettered</w>
pos iti
wa it</w>
ang ed</w>
app arent</w>
nam ent</w>
inn ards</w>
Ab zu
Ab isimti</w>
pres ents</w>
pres enting</w>
dwel ler</w>
har bor
har ness</w>
har har</w>
har mony</w>
har nessed</w>
uni fied</w>
Amar ki
Amar egal</w>
po ver
po tion</w>
po lished</w>
ap ults</w>
beh alf
mid ribs</w>
mid rib</w>
ep s
dre dged</w>
vo cal
vo cab
vo miting</w>
tu al</w>
tu tu</w>
tu ku
Ninur saa</w>
atten tiveness</w>
sk y
sk ies</w>
over taken</w>
over flow</w>
over seers</w>
dist ance</w>
dist ingu
ak am</w>
ak uzu</w>
sub tra
sub stitute</w>
sub jected</w>
sub terranean</w>
cla sh</w>
lu kur
lu cent</w>
lu sc</w>
cal culation</w>
hor se
sing le
que en
que ens</w>
gal anna</w>
but ted</w>
cum ins</w>
he w</w>
fea thers</w>
tal s</w>
inst all</w>
house temple</w>
spo iled</w>
comp utation</w>
pray ing
tri p
ve ter
ve hicle</w>
ty face</w>
ess ence</w>
comm ission
ew ed</w>
ew ing</w>
Eninn us</w>
aband ons</w>
spec tacle</w>
Nis aba
fron ds</w>
ic les</w>
bac ks</w>
Ku Ninura</w>
Ku lab</w>
Ku tha</w>
nig lam</w>
appro ving
emb ers</w>
emp tiness</w>
wil dly</w>
ari sto
offi ces</w>
bla zing</w>
ku da</w>
provid ing</w>
remo val</w>
wis dom
plan ting</w>
we irdam</w>
form erly</w>
out standing</w>
out stretched</w>
out flattened</w>
Enlil amah</w>
cap tains</w>
admini stered</w>
Sh uSuen</w>
Sh inyGatumdu</w>
sna ke
Al u</w>
Al la
Al um
iti kal</w>
fin anci
cur led</w>
ez imu</w>
af ear</w>
af firmed</w>
ves sel
resid ed</w>
resid ing</w>
fec ts</w>
ni p
ni a</w>
au spi
fle shskin</w>
clo ak</w>
ding ly</w>
por tion</w>
por ridge</w>
por tending</w>
orch ardi
orch ardist
Rm Anum</w>
Sn mgir</w>
Sn irbam</w>
Sn muball
cour ses</w>
bow ing</w>
bow throwstick</w>
anc es
sha kes</w>
mat ri
dur u
see ing</w>
Ad dat
Nam rat</w>
Nam ninani</w>
inter ceding</w>
stra ps</w>
stra pped</w>
stra ight
pi pes</w>
To day</w>
water pouring</w>
water courses</w>
your self
thor ough
hur l</w>
hur sag</w>
hur rying</w>
hur ries</w>
Geme Baba</w>
Geme AmarSuen</w>
Geme gigir</w>
Geme Lisi</w>
Geme Nungal</w>
bi um</w>
bi Erra</w>
hum ans</w>
hum ili
Nig dupae</w>
dra wing</w>
dra inpipe</w>
flo ck</w>
mer ry</w>
mer stone
mer ciful</w>
produ ct</w>
produ ctive</w>
rep tile</w>
tain ing</w>
swee ps</w>
Nann ad
Nann azi</w>
respon ded</w>
juni ors</w>
there with</w>
Bar agir
sun er</w>
cro ss
cro tch</w>
fel ling</w>
fel low</w>
fac e
fac tory</w>
bal aservice</w>
bra e</w>
bra ying</w>
foo lish</w>
wid en</w>
gam lum</w>
hol d
sum mer</w>
ins eminates</w>
mur der</w>
Gi ven</w>
cri cket</w>
cri ppled
one third</w>
dis k</w>
dis si
dis bur
dis covered</w>
dis ordered</w>
dis rup
super im
comman d
tend ons</w>
Bab an
Nun bareg
stri ct</w>
stri cken</w>
fear fully</w>
wag gons</w>
ARAD 2
ARAD ara</w>
ARAD nene</w>
ima ma</w>
ima gian</w>
bree ders</w>
inim ical</w>
Mes kalam
Nu umar</w>
fun nel</w>
KA L</w>
fla sh</w>
fla sk</w>
fla cc
mou thed</w>
mou flon</w>
Mon thly</w>
tex tst
zi um</w>
zi agal</w>
lad der</w>
radi ated</w>
sec tions</w>
13 2</w>
wom b
clean se</w>
dou bled</w>
eg ory</w>
eg ulation</w>
eg gshaped</w>
Me Itaran</w>
power fully</w>
leve l</w>
hun gry</w>
tow s</w>
Warad Nanna</w>
Warad Erra</w>
Iri az</w>
pit ched</w>
pit fall</w>
yl lable</w>
Ez imu</w>
brew ers</w>
hand mirror</w>
construc t</w>
Hea ven
Kar aar</w>
kur gara</w>
kur ubata</w>
kne eling</w>
itu ally</w>
gif t
12 8</w>
Il l
Il i</w>
Il ur
ven om</w>
ven uer
pu sh</w>
fall s</w>
disp elled</w>
exer t</w>
exer ts</w>
Pro v
Re ed</w>
Re joicing</w>
den igrates</w>
den edbettered</w>
ran g</w>
wher ever</w>
Wat arum</w>
ama mu</w>
shea f</w>
boo ts</w>
up lifted</w>
inqu irer</w>
dir ge</w>
off ers</w>
evildo ing</w>
rou ch</w>
trans lucent</w>
insul t</w>
GA L</w>
Ura mana</w>
obe y</w>
well built</w>
well founded</w>
statu eform</w>
14 5</w>
14 1</w>
Tow ardson</w>
sol ve</w>
sol utions</w>
exp ounded</w>
exp anded</w>
exhau st
Baz a</w>
sat out</w>
prepar edtaken</w>
Ma daga</w>
rever sing</w>
plat form
day break</w>
Dam imama</w>
Ner a</w>
opp resses</w>
opp osed</w>
rev ere</w>
terri fies</w>
Puzur il</w>
Puzur Suen</w>
Am m
Am ri
Am madu
Ere kigal
Lum ma
ali ve</w>
requ est</w>
Enma gal</w>
open hand</w>
elap ses</w>
gur u</w>
gur dub</w>
gran deur</w>
zu zu</w>
alli ya</w>
susta ined</w>
door keepers</w>
regul ar
Egal gas
ef fecting</w>
hon est</w>
def ile</w>
ly ingcrou
choo ses</w>
spar row</w>
authorit ati
19 3</w>
19 7</w>
19 9</w>
Bel ow</w>
Bel itikal</w>
lar ak</w>
perfor man
Bri ck</w>
Nab i
Nab u</w>
fil tered</w>
glad denedbettered</w>
mour ner</w>
inc ised</w>
good ness
reed mats</w>
six th</w>
small er</w>
fo es</w>
fo am</w>
land people</w>
lib ated</w>
cool ness</w>
compas sion
craf t
craf ted</w>
GAN 2mah</w>
GAN gufields</w>
16 4</w>
16 8</w>
verd ant
Iddin Dagn</w>
Mag ula</w>
Mag ilum</w>
Mag urre</w>
St at
cir cuit</w>
fli ct</w>
oc cur</w>
til a</w>
til ized</w>
devast ate</w>
adv ising</w>
adv anced</w>
imp ose</w>
Big stele</w>
Fi er
Fi ve</w>
cat ches</w>
cat ching</w>
cat astro
cat erpillar</w>
cat apults</w>
ouri shing</w>
harvest ing</w>
hu ts</w>
sho es</w>
enn am</w>
char ging</w>
exor cistincantation</w>
exca vation</w>
Nanna isa</w>
17 7</w>
Ga thers</w>
Ga ame</w>
Sil ber</w>
Sil aa</w>
pur su
pur chased</w>
pur poses</w>
fif th</w>
accomp li
accomp anying</w>
Ana hili</w>
Per form</w>
bene fic
iq um</w>
grand stele</w>
collea gue</w>
garden ers</w>
Sm El</w>
grow ing
roam s</w>
roam ing</w>
earth baskets</w>
Au da</w>
batt len
kil ling</w>
arom atics</w>
seed barley</w>
seed lings</w>
drag ging</w>
Gr ant</w>
Gr and
jac k</w>
ry man</w>
soo thes</w>
tee m</w>
shar es</w>
redu ce</w>
maid ens</w>
boa st
flouri shes</w>
sweet ly
Bur mama</w>
Im gur
Ka amu</w>
Ka GAN</w>
Sag ku</w>
han dedly</w>
ise ge</w>
intro du
increa ses</w>
revo ke</w>
mas su</w>
Adda da</w>
Adda mu</w>
Adda illat</w>
sancti fy</w>
mouth voice</w>
mouth beak</w>
double edged</w>
obeis ance</w>
Dingir saga</w>
Dingir sukkal</w>
Con struc
Gar den</w>
Gar ta</w>
Gar anawoods</w>
gate door</w>
piv ots</w>
rend ered</w>
arri ve</w>
rem itted</w>
exu ded</w>
boat builder</w>
care taking</w>
ceremon ies</w>
crip ples</w>
15 2</w>
Dag ger</w>
Mel ua</w>
Ure ma</w>
cam el</w>
equal ly</w>
multitu deeras
eal ly</w>
chec k</w>
accu sation</w>
surr ound</w>
furni shes</w>
pronoun cement</w>
Hab aluge</w>
kid omen</w>
nun ta</w>
sor row
sab itum</w>
usu h</w>
usu al</w>
inten tion</w>
roof s</w>
roof beams</w>
sad gal</w>
brilli antly</w>
Kur ub
Kur bilak</w>
Mun u
bas is</w>
splend our</w>
Enk imdu</w>
fort un
fort ress</w>
experi ence</w>
flatten ing</w>
ubi feast</w>
ancest ral</w>
kau ul</w>
mun zer</w>
mol lusc</w>
mis fortun
sal utations</w>
laugh s</w>
depos it</w>
depos its</w>
Anzu chick</w>
eyes ight</w>
incantation s
Dubla mah</w>
Hal a
Ili kauul</w>
cre dit
dil mun</w>
dum uba
eda dor
mem ory</w>
insp ire</w>
shap ing</w>
lion headed</w>
maj esty</w>
maj ordom
ell ation</w>
ram pant</w>
Thr oughout</w>
prow led</w>
prow ling</w>
cedar juniper</w>
Girin i</w>
Meluh a</w>
Ara ir</w>
Amur ru</w>
Dra gon
El dest</w>
far away</w>
pat ches</w>
eras ed</w>
stro kes</w>
restra ined</w>
giri ura</w>
adm ire</w>
victor y</w>
ferry man</w>
Guz ana</w>
Guz zani</w>
governor ship</w>
travel ling</w>
wind pipe</w>
wind blown</w>
mali k</w>
Enunugal Inanna</w>
Ilum bani</w>
Ilum bni</w>
Asz gi</w>
Stand ard</w>
Stand serve</w>
annihil ated</w>
annihil ates</w>
Day ya</w>
Gol den</w>
KU M
Kis urra</w>
Mu kurubata</w>
Or nament</w>
Pow er
Ti me</w>
Tur n</w>
four legged</w>
non exist
arrang ed</w>
arrang ements</w>
mad area</w>
Enmen ana</w>
Enmen una</w>
Enmen SAR</w>
amoun t</w>
ned chose</w>
pret tyface</w>
foreig ner</w>
guar ded</w>
way at</w>
beautiful good</w>
Erra bani</w>
Bara en
honey ed</w>
Bit ter</w>
Irin abad
Kas ura</w>
Kas urra</w>
bun ches</w>
bun del</w>
dres ser</w>
gas u</w>
gna wed</w>
grin ds</w>
pha be
sar uba</w>
sland er
uku ku</w>
uku bum</w>
angu ish</w>
resc ue</w>
ursag kalama</w>
diss emin
UrSu ana</w>
banda ges</w>
admir ing</w>
Lugaln ir</w>
return send</w>
treach erous</w>
contemp oraneously</w>
nurse maids</w>
Nimgir ane</w>
Az ar</w>
Az imua</w>
Kee ps</w>
LA M
Lun atic</w>
Pri ests</w>
Stor m</w>
crou ched</w>
foun ding</w>
pan ic</w>
tear fully</w>
set sailed</w>
age ua</w>
sprou ted</w>
scra ps</w>
slave girls</w>
collap se</w>
bright est</w>
assembly mourning</w>
requisition er</w>
Bro ther</w>
Dim galabzu</w>
Mal gasu</w>
NU N
Se kel</w>
ath le
ben ch</w>
ben evolent</w>
bloo d
dor mouse</w>
hing e</w>
mul e</w>
vig our</w>
vig orous</w>
threa t</w>
anti mony</w>
alab or</w>
alab orers</w>
eloqu ent</w>
ascer tained</w>
spac e
perpetu al</w>
brought poured</w>
side ways</w>
praise worthy</w>
entru st</w>
divor ced</w>
creat ress</w>
Abi ati</w>
mater ial</w>
Simat Adad</w>
Nannam ansum</w>
ignor ant</w>
ignor ance</w>
touch edador
secre t</w>
secre ts</w>
ukk ena</w>
ukk ene</w>
kisiki ofNinazu</w>
ziggur rat</w>
Utamiar am</w>
shrie k</w>
shrie king</w>
Bil alama</w>
Mak an
Mess eng
Mess anga
Sp reading</w>
Ug IL</w>
Um maharbor</w>
aur afear</w>
clam p</w>
flam es</w>
lon eliness</w>
ple a</w>
uta g</w>
zid munu</w>
inhabit ant</w>
inhabit ants</w>
atam official</w>
revol ting</w>
plann ing</w>
chann el</w>
ham mers</w>
ham merstone
hair dresser</w>
UrS aga</w>
kett le</w>
streng then</w>
confi d
confi dent</w>
parti cipated</w>
trough s</w>
deliber ated</w>
dwell sit</w>
necess arily</w>
chair bearer</w>
junior rampant</w>
pupp ies</w>
denigr ate</w>
Ninhursag as</w>
physi cal</w>
Belat suner</w>
finger nails</w>
neighbor liness</w>
Aszszur malik</w>
Lugalpirig tur</w>
Ca sting</w>
Cattle herder
Chil dish</w>
Ever ything</w>
Eme te
Fro mby</w>
Gab akara</w>
Ida maraz</w>
King ship</w>
Low er</w>
Sk y</w>
Sur passing</w>
Tir gu</w>
Tram Dagan</w>
Ud dur
Ubu ukkena</w>
Writ ten</w>
Weal th</w>
fang s</w>
hul led</w>
je well
lat er</w>
oil butter</w>
swel ling</w>
zir rupriestess</w>
argu ing</w>
lieuten ant</w>
desp atched</w>
deep en</w>
reason ing</w>
goes went</w>
sear ching</w>
force encouragement</w>
copul ated</w>
sail ors</w>
Ningek imti</w>
ofthe Land</w>
Inta eas</w>
proces sion</w>
admi resee</w>
imit ti</w>
Lue bgal</w>
metal worker</w>
view s</w>
cut separate</w>
deligh ted</w>
slaughter er</w>
murder ing</w>
Meskiag gaer</w>
exhausti on</w>
large goat</w>
Author itative</w>
archit ra
spadi x</w>
Arad gu</w>
Plough ofBazi</w>
LAK 175</w>
symbo l</w>
recogn ised</w>
AN B
Dab rum</w>
Es ara</w>
Eur bidu</w>
Fol low</w>
Fatten ing</w>
Ger ste</w>
It arm
Kiri LUM</w>
Mil k</w>
Thi ck
Tam eNingal</w>
Ugur tur</w>
Vin eyard</w>
Zaz aru</w>
bon ds</w>
boun ty</w>
frow ning</w>
kit ub
kad ra</w>
lum ber</w>
pub lic</w>
tig er</w>
vul va</w>
angr ily</w>
ori ented</w>
alum sheep</w>
alad rum</w>
shut tle</w>
ening reversing</w>
dece itfully</w>
defam ed</w>
dif fic
Enann edu</w>
barbar ian</w>
chos en
change d
escor t</w>
Urb agara</w>
Urdar du</w>
forsa ken</w>
sup ply</w>
doc tor</w>
perman ently</w>
Whe ther</w>
worktroop ers</w>
Lugalam arku</w>
turt les</w>
immobil ised</w>
Luz ina</w>
canebra ke</w>
oxend rivers</w>
grou p</w>
entr ance</w>
soa p</w>
juven iles</w>
clasp ed</w>
gallo ped</w>
triang le</w>
pier ced</w>
fruit flower</w>
joyfully like</w>
clari fied</w>
Asarlu i</w>
Urab zu</w>
Exu ding</w>
Puzris Dagan</w>
pulver ized</w>
excee dingly</w>
foster child</w>
pacif y</w>
sadd le
Atta mannum</w>
exalted ness</w>
paraly zed</w>
prolifer ate</w>
Beauti ful</w>
Pregn ancy</w>
Some one</w>
arkali arr</w>
Namnundakig ara</w>
Alin isu</w>
Alu lim</w>
Aned anumea</w>
Best ow</w>
Cit izens</w>
Cre scent</w>
Cam pGutium</w>
Danni ya</w>
Fer ryman</w>
Fur ther</w>
Fear someness</w>
Itr ilum</w>
Ipi qAdad</w>
Its the</w>
Jud ge</w>
Jah r</w>
Lir gamlum</w>
Laz uli</w>
Lanim u</w>
Mii me</w>
Nugan elum</w>
Over seer</w>
Pati bira</w>
Run ner</w>
Rap iqum</w>
Sigr i</w>
Uk kene</w>
Veter an</w>
Ziz irtum</w>
cren ellation</w>
climb ing</w>
eigh th</w>
evi cted</w>
eell u</w>
gull alabor</w>
hud dle</w>
hate ful</w>
kiri gu</w>
kak cheese</w>
lent ils</w>
lut eharp</w>
lance t</w>
mug uba</w>
moo ing</w>
might ily</w>
sow cultivate</w>
twil ight</w>
visi ble</w>
villa ges</w>
wur de</w>
witch craft</w>
thud ding</w>
inis ige</w>
area Lagash</w>
eating drinking</w>
almon d</w>
ilula ma</w>
shac kle</w>
shand sized</w>
relev ant</w>
liec rouch</w>
lago on</w>
debil itating</w>
depu ty</w>
unfer tilized</w>
unwa vering</w>
uncea singly</w>
unshrin king</w>
disu se</w>
distor ted</w>
Enmer kar</w>
Eneg ir</w>
goad stick</w>
abscon ded</w>
chis el
seSA me</w>
tissu e</w>
among st</w>
formi dable</w>
NinKi ura</w>
terebin th</w>
Ninginaba dim</w>
percep tiveness</w>
Instruc tions</w>
Intel ligence</w>
survi ved</w>
procal s</w>
prospec tive</w>
progen y</w>
prostit utes</w>
LugalKu zu</w>
primar y</w>
immem orial</w>
LuUn u</w>
alluha b</w>
Annu al</w>
Anzag ar</w>
Gudea s</w>
gu2e 3</w>
muerrum commander</w>
painst aking</w>
Nibul mat</w>
positi oned</w>
Amarki i</w>
vocab ul
commission er</w>
approving ly</w>
aristo crat</w>
wisdom ear</w>
financi al</w>
auspi cious</w>
orchardi st</w>
orchardist s</w>
Snmuball i</w>
yourself your</w>
crippled warf</w>
disrup ted</w>
Nunbareg unu</w>
Meskalam dug</w>
flacc id</w>
textst ext</w>
venuer egulation</w>
Ammadu qa</w>
Erekigal When</w>
Egalgas ud</w>
lyingcrou ching</w>
goodness good</w>
compassion ate</w>
verdant beautiful</w>
catastro phe</w>
battlen et</w>
multitudeeras er</w>
dumuba BAD</w>
majordom o</w>
Dragon oftheLand</w>
nonexist ent</w>
Irinabad bi</w>
touchedador nedchose</w>
hammerstone shandsized</w>
Cattleherder of
1 ban2</w>
1 14</w>
1 62</w>
1 16</w>
1 18</w>
1 56</w>
1 21</w>
1 24</w>
1 16
1 55</w>
1 17
1 142</w>
2 6
2 kur</w>
2 13</w>
2 15</w>
2 offerings</w>
2 11</w>
2 25</w>
2 21</w>
2 35</w>
2 26</w>
2 33</w>
2 66</w>
2 whe
2 31</w>
2 68</w>
2 75</w>
2 65</w>
2 52</w>
2 41</w>
2 77</w>
3 x</w>
3 15</w>
3 14</w>
3 25</w>
3 57</w>
3 61</w>
3 Headed</w>
3 51</w>
3 75</w>
3 63</w>
3 LAK175</w>
4 u</w>
4 priest</w>
4 25</w>
4 22</w>
5 9
5 ra</w>
5 21</w>
5 32</w>
5 29</w>
5 71</w>
6 gur</w>
7 75</w>
7 98</w>
8 2</w>
8 9</w>
9 12</w>
A K
A S
A h
A i
A d</w>
A k</w>
A B</w>
A ur
A ri
A man
A gi
A bo
A chil
A gal</w>
A sar</w>
A ed
A gal
A abb
A mu</w>
A mat
A gam
A ya</w>
A alli
A zida</w>
A tab</w>
A za
A getin</w>
B I</w>
B at
B la
B ag
B oo
B lil</w>
B are</w>
B ind</w>
B ow</w>
B ala</w>
B eat</w>
B asaga</w>
B agina</w>
B rew
B ul</w>
B ond</w>
B uru
B eing</w>
B udu</w>
B iting</w>
C as
C rown</w>
D a</w>
D ul
D ate</w>
D age</w>
D aya</w>
D uge</w>
D UR
D itch
D imp
D anu
E 2
E N
E t
E A</w>
E er
E sh
E la
E di
E qu
E gi
E rin
E lu
E sag</w>
E lil
E mer
E dar
E abzu</w>
E duga</w>
E gan
E ither</w>
E sab
E Irikug</w>
E gab
E hegal</w>
E ek
E gida</w>
E gigi</w>
E ail</w>
E TU
E ibgal</w>
E ye</w>
E tamu
F our</w>
F em
F lo
F ate</w>
F ru
F our
F illed</w>
F od
F ort</w>
F allow</w>
G I</w>
G in
G al
G re
G un
G ra
G ug
G oo
G im
G ang
G ani</w>
G ay
G et</w>
G eg
G arum</w>
G ara
G oring</w>
G agiua</w>
H ow
H app
H igh</w>
H au
H ARA
H unuri</w>
H uh
H om
I f
I the</w>
I ab
I you</w>
I im
I bl
I rum</w>
I bilum</w>
I la</w>
I ama
I kun
I GI</w>
K o
K U</w>
K it
K il
K no
K un
K ig
K ab
K id</w>
K ub
K alla</w>
K ue</w>
K ass
K au
K esh</w>
K ubi</w>
L in
L it
L aga
L ana</w>
L ead</w>
L si</w>
L ofty</w>
M o
M ul
M ow
M ans</w>
M uri
M uti
M any</w>
M ama
M uh
M ud
M lik</w>
M Kbi</w>
N a
N 2</w>
N on
N ra
N id
N arm
N ana</w>
N amu</w>
N aua</w>
N AG
O x</w>
P it</w>
P ra
P ul
P ay</w>
P row
P ut
P ise</w>
P ed
P uri
P lowing</w>
P us
P rou
P rayed</w>
P revi
R ea
R at
R ec
R end
R eg
R imu</w>
R itually</w>
S U
S c
S ou
S on
S al
S ch
S ha
S hi
S aba</w>
S our
S ulgi</w>
S ala</w>
S aga
S tri
S wee
S asa</w>
S tar
S tea
S cat
S irsir</w>
S wearing</w>
S eal
S tad
S erv
S yllable</w>
T U</w>
T in
T ea
T em
T ra
T ari
T ree</w>
T ook</w>
T umu
T abala</w>
T utu</w>
T iti</w>
T AB</w>
U D
U N
U i
U q
U N</w>
U D</w>
U ar
U ur
U gig
U ub</w>
U tum
U rees</w>
U ser</w>
V e
V ic
V illa
V izi
W il
W is
W ee
W ine</w>
W ar</w>
W ic
W add
W aq
Y es</w>
Y ears</w>
Y adi
Z al
Z ir
Z ak
Z iq
a w</w>
a an
a sh
a ds</w>
a ur</w>
a ys</w>
a aga</w>
a pri
a Nanna</w>
a ster</w>
a head</w>
a us</w>
a stra
a ia</w>
a abzu</w>
a eg
a thed</w>
a ali</w>
a dep
a urum</w>
a dem</w>
a venge</w>
b l</w>
b ou
b es</w>
b our</w>
b al</w>
b els</w>
b lam
b end
b tum</w>
b one
b attered</w>
b ering</w>
b ending</w>
b bed
b stin
b azi</w>
b yre</w>
b cage</w>
c t
c ou
c ant</w>
c tur
c all
c row
c ates</w>
c agan</w>
c tions</w>
c rates</w>
c ry
c tual</w>
d al
d in</w>
d on</w>
d ol
d ug
d old</w>
d ance</w>
d should</w>
d ana</w>
d den</w>
d lar</w>
d ily</w>
d ances</w>
d hun
d anum</w>
d ugani</w>
d ung
d ata</w>
d cracks</w>
d gel</w>
e 2
e i
e b</w>
e en</w>
e temple</w>
e ec
e da</w>
e ps</w>
e priest</w>
e tu
e tur</w>
e dab</w>
e dudu</w>
e cho
e taxes</w>
e taker</w>
e bbed</w>
e kiag</w>
e incise</w>
f r
f o</w>
f f</w>
f es</w>
f ab
f ox
f ins</w>
f lit</w>
f right</w>
f lic
f fal
f fects</w>
g un
g id
g is
g ale</w>
g irsu</w>
g end
g ugal</w>
g ged</w>
g ula</w>
g ghost</w>
g lad</w>
g ele
h its</w>
h oo
h ue</w>
h inn
h ep
h itch</w>
h eshe</w>
h tan</w>
i a
i de
i ra
i ag
i il</w>
i pe
i ar</w>
i dea</w>
i shing</w>
i shes</w>
i als</w>
i ors</w>
i banda</w>
i aya</w>
i ya</w>
i ram</w>
i fication</w>
i kura</w>
i atal</w>
i bbu</w>
i ority</w>
j ump
j eal
j aw</w>
k y</w>
k n</w>
k m</w>
k an
k er
k en
k in</w>
k are</w>
k su
k out</w>
k am</w>
k ara</w>
k kal
k ment</w>
k kal</w>
k ana
k led
k roots</w>
k abtum</w>
k containers</w>
k sof
k abta</w>
l t</w>
l ouse</w>
l ane</w>
l ub
l calf</w>
l ere
l urker</w>
m 2
m 2</w>
m and</w>
m as</w>
m es
m son</w>
m are</w>
m ee
m att
m grain</w>
m ens</w>
m atum</w>
m uga</w>
m itted</w>
m timber</w>
n r
n s
n x</w>
n 2</w>
n 1</w>
n el
n em
n ab
n as
n ir</w>
n els</w>
n ine</w>
n up</w>
n igh
n iri
n ic
n one
n uri</w>
n ants</w>
n ership</w>
n ourishing</w>
o a
o g
o v
o ster</w>
o vi
o ks</w>
o vo
o ms</w>
o ever</w>
o iling</w>
o tic</w>
p s
p i</w>
p its</w>
p ts</w>
p ab
p ted</w>
p ose</w>
p ings</w>
p ress</w>
p ened</w>
p run
p ill
p snare</w>
p elt</w>
p El</w>
p esz
q at
q um</w>
q tum
q artum</w>
r or
r ati
r ons</w>
r atched</w>
r anger</w>
s p</w>
s q</w>
s king</w>
s els</w>
s ma</w>
s ale</w>
s si
s woo
s storm</w>
s ound
s able</w>
s sa</w>
s una</w>
s ary</w>
s lu
s ugal</w>
s rites</w>
s ugu</w>
s ement</w>
s ights</w>
s ends</w>
s iding</w>
s instruments</w>
s answers</w>
s goes
s wishing</w>
s theart</w>
s feathers</w>
s nip
s vocabul
t on</w>
t with</w>
t are</w>
t els</w>
t ons</w>
t ying</w>
t ue</w>
t ary</w>
t ire</w>
t bearer</w>
t fall</w>
t ants</w>
t town</w>
t ested</w>
t shy</w>
u k</w>
u re
u bu
u Enlil</w>
u ban
u de</w>
u sea
u vi
u sel
u ship</w>
u kal
u bird</w>
u Itar</w>
u bum</w>
u uni</w>
u alaya</w>
u 2kur</w>
v it
v eng
v ats</w>
v ali
v andals</w>
w s
w w
w an
w es</w>
w ri
w ig
w as
w ed
w edge</w>
x ing</w>
x en</w>
x foundation</w>
x ture</w>
x li</w>
y es</w>
y le</w>
y stac
y riad</w>
y mn</w>
z m</w>
z ur</w>
z atum</w>
z rum</w>
z eb
z ige</w>
z szur
th ri
th is
th ru
th ous
th rowing</w>
th ud</w>
th Wind</w>
in no
in ce</w>
in da
in from</w>
in hi
in by</w>
in ated</w>
in ting</w>
in im</w>
in te
in cur
in form</w>
in lay</w>
in dem
in different</w>
in cloth</w>
in finish</w>
in tained</w>
in flam
in flu
in exhausti
in dependent</w>
in wardly</w>
in exhaust
in flict</w>
an n</w>
an g</w>
an u</w>
an ch
an as
an am</w>
an ions</w>
an tel
an ag</w>
an ee</w>
an sive</w>
an thema</w>
an arrum
an ity
an oint</w>
ar as</w>
ar ce</w>
ar aga</w>
ar id</w>
ar An
ar ound
ar ise</w>
ar ed
ar ak</w>
ar planted</w>
ar azida</w>
ar hu
ar Anu</w>
ar oused</w>
ar agugal</w>
ar atig
ar med
er c
er ab
er ol
er of
er ved</w>
er gi
er us</w>
er ever</w>
er od
er rum</w>
er hal
er musician</w>
er shout
ou ses</w>
ea t
ea ds</w>
ea ter</w>
ea sed</w>
ea pon</w>
ea ga</w>
ea ss
it a
it er</w>
it iv
it tum</w>
it ives</w>
or da
or man
or ary</w>
or ic</w>
or supervisor</w>
or tation</w>
or ningtouching</w>
on ies</w>
on gh
on ep
on eal
on rush</w>
on ion</w>
st le</w>
st of
st ated</w>
st ence</w>
st rew
st ering</w>
st rode</w>
st rol
st anti
st ops</w>
st eps
st yle</w>
al at
al ti
al hear
al ign</w>
al ters</w>
al tar</w>
al ert</w>
al coho
il er</w>
il am
il lu
il Marduk</w>
il izing</w>
il uvi
sh s</w>
sh ing
sh one</w>
sh own</w>
sh da</w>
sh ut</w>
sh tu
sh Dagan</w>
sh owed</w>
sh red
sh attered</w>
sh atters</w>
sh flit</w>
ro ds</w>
ro be</w>
ro ved</w>
ro ad
ro cks</w>
ro ped</w>
ro cket</w>
ro gated</w>
ro bes</w>
at d</w>
at the
at is
at Enlil</w>
at ure</w>
at ches</w>
at form</w>
at ory</w>
at ilu</w>
at its
at eness</w>
at ofHeaven</w>
at illati</w>
at ursu</w>
at akuzu</w>
en da
en gra
en si
en da</w>
en gi</w>
en jo
en na</w>
en cy</w>
en sem
en told</w>
en usi</w>
en giz</w>
en ergi
re b</w>
re sp
re ling</w>
re less</w>
re fle
re plend
re building</w>
re produce</w>
re ject</w>
re ply</w>
re fashion</w>
re marries</w>
re concili
re marks</w>
re shaping</w>
re bels</w>
li p
li d</w>
li ver
li um</w>
li ce
li cor
li ve
la e</w>
la ce</w>
la me</w>
la ga
la zu</w>
la ced</w>
la cks</w>
la ged</w>
la sted</w>
la sting
la yers</w>
la htan</w>
ma p</w>
ma sc
ma gi
ma ce
ma ki</w>
ma inst
ma sz
ma inten
ma sters</w>
ma kers</w>
ma imma</w>
ma intained</w>
el f</w>
el ong
wh at
wh is
wh ouse</w>
ur a
ur t
ur y</w>
ur se</w>
ur il</w>
ur igal</w>
ur si</w>
ur gara</w>
ur 5ra</w>
ri p</w>
ri ches</w>
ri ment</w>
ri gu</w>
ri bcage</w>
le s
le l</w>
le ans</w>
le dit
le tting</w>
ta k</w>
ta e</w>
ta sted</w>
ta mmu</w>
de em
de fi
de vice</w>
de dness</w>
de ified</w>
de arth</w>
de tained</w>
pl um</w>
pl ate</w>
pl ars</w>
pl arplanted</w>
no ise
no ok</w>
no haver</w>
no ctur
em ur</w>
em ban
em bit
em itting</w>
em mer
em mah</w>
em esig</w>
un g</w>
un as</w>
un like</w>
un sc
un ga</w>
un covered</w>
un fit</w>
un ua</w>
un taea</w>
un clean</w>
un ending</w>
un married</w>
un ited</w>
un cle</w>
un favourable</w>
un control
un tiring</w>
un weaned</w>
un noti
to s</w>
to e</w>
to w</w>
to from</w>
to we
to pic
ra h</w>
ra se</w>
ra ked</w>
ra ban</w>
ra ils</w>
ra herder</w>
ra yers</w>
da a</w>
da u</w>
da in</w>
da man
da du</w>
da da</w>
da gal</w>
da ment</w>
da mah</w>
da woods</w>
da zed</w>
da stal</w>
she art</w>
she ared</w>
ul u
ul ed</w>
ul me</w>
ul tu
ul utul</w>
di e
di al
di um
di ance</w>
di ving</w>
di dly</w>
di adem</w>
rea ch
En m
En u
En in
En ar</w>
En nam
En bi
En zi</w>
En num
En un</w>
En dingir
En sig
En nail</w>
En nug
En Ningirsu
En Pri
En Nane
En Mesan
En urigal</w>
ir kiag</w>
ir re</w>
ir nunta</w>
go ad</w>
go ssi
be ver
be ge
be ans</w>
be see
be gets</w>
ig ir
ig ant</w>
ig ated</w>
ig ating</w>
ig idu</w>
ig alag
bar s</w>
bar ab
bar su
bar sur
bar ad
bar ak
bar itum</w>
bar bar</w>
bar aabzu</w>
oun ding</w>
ab al</w>
ab atum</w>
ab sent</w>
ab ud
ab ib
ab uu</w>
ab lum</w>
ab aluge</w>
ab rogated</w>
ch e
ch ant</w>
ch ap
ch anc
ch ivist</w>
ch ewed</w>
se was</w>
se dre
se ga</w>
se pot</w>
se maid</w>
se ploughmen</w>
se diment</w>
se ffects</w>
ing u</w>
ing set</w>
ing ents</w>
ing ira</w>
ing making</w>
ing bringing</w>
ag h
ag ar
ag ing</w>
ag reed</w>
ag ula</w>
ag ubi</w>
as ser
as so
as word</w>
as ag</w>
as sailed</w>
as zrum</w>
as elf</w>
ol den</w>
ha y</w>
ha mat
ha iry</w>
ha sten</w>
ha ystac
es a</w>
es u</w>
es par
es offerings</w>
es wood</w>
es beauti
es yrup</w>
es sively</w>
es agricultural</w>
es ze
es burial</w>
es irkiag</w>
ti d</w>
ti se</w>
ti bu
ti est</w>
ti mi
ti res</w>
ti fied</w>
ti uga</w>
ti thes</w>
ti eth</w>
wor ms</w>
wor ry</w>
wor lds</w>
wor ld
sil ig</w>
sil encing</w>
hi z</w>
hi dden</w>
ow from</w>
ow ners</w>
fi sh
fi ed
fi ber</w>
fi bers</w>
fi xes</w>
Ur G
Ur p
Ur s</w>
Ur ur
Ur su
Ur Lugal
Ur Inanna</w>
Ur du</w>
Ur da</w>
Ur nam
Ur ubur</w>
Ur Ninazu</w>
Ur dingira</w>
Ur Anan</w>
Ur kidu</w>
Ur kig
Ur Getin
Ur Tummal</w>
Ur Bagara</w>
Ur Haya</w>
Ur Agi</w>
Ur Gula</w>
Ur Abu</w>
Ur sasa</w>
Ur galama</w>
Ur ulgira</w>
Ur rani</w>
Ur uzi
Ur KAn
Ur dumuz
um ed</w>
um me</w>
um ra
um man</w>
um ents</w>
um ps</w>
um priest</w>
um idu</w>
um un</w>
um bani</w>
um erable</w>
um kitub
um anag</w>
ug en</w>
ug an</w>
ug ua</w>
ug ees</w>
ug ulme</w>
bu cked</w>
bu cket</w>
bu ffal
ann um</w>
am ed</w>
am ine</w>
am us</w>
am ana</w>
am ati</w>
am atillati</w>
for ear
for towards</w>
for ob
for ordered</w>
for fe
for rest
for ests</w>
for get
for nic
id er</w>
id en</w>
id ent</w>
id ity</w>
id ates</w>
id inn
id ba
is i</w>
is on
is im
ear er</w>
ear then</w>
sp in</w>
sp oil</w>
sp ears</w>
sp illed</w>
sp ous
sp un</w>
sp ouses</w>
sp rayers</w>
ke zu</w>
ke eping</w>
ke dness</w>
ke prepare</w>
ver b</w>
ver te
ver min</w>
ver sary</w>
ac c
ac y</w>
ac qui
ac iously</w>
co t</w>
co at</w>
co iled</w>
co hor
fa th
fa ir
fa il</w>
fa wn</w>
ban a</w>
ban 3</w>
ban zige</w>
su s</w>
su h</w>
su b</w>
su re
su da</w>
su pper</w>
su rety</w>
Nin n
Nin ag
Nin irsu</w>
Nin tu
Nin he
Nin sag</w>
Nin kalla</w>
Nin Da
Nin ti</w>
Nin kala</w>
Nin dingir
Nin sig
Nin eb
Nin ib
Nin lu</w>
Nin suna</w>
Nin arhu
Nin esirkiag</w>
Nin tiuga</w>
hea led</w>
hea lth</w>
hea ded
ati a</w>
ati l</w>
tab ulation</w>
sila 2</w>
pla ce
pla ces
pla stering</w>
str ands</w>
str ong
str ative</w>
str anded</w>
str ongh
table th
shee t</w>
ec k</w>
ec utter</w>
sc ur
sc ul
sc are</w>
sc lo
sc ate</w>
sc ent
sc orch
sc ented</w>
sc attering</w>
sc outs</w>
sc arce</w>
sc atches</w>
shek el
pp atum</w>
pp ery</w>
pp earance</w>
ter races</w>
ter aban</w>
est i
est er
est ers</w>
est ates</w>
qu a
qu ished</w>
qu dum</w>
qu ince</w>
do es
do mini
do xen</w>
ee p</w>
ee ting</w>
ee festival</w>
ee gara</w>
Su kkal
sa u</w>
sa ve</w>
sa du
sa pped</w>
sa ws</w>
Ning als</w>
Ning et
Ning akam</w>
res sing</w>
res spec
res ult</w>
res sive</w>
res figure</w>
res emble</w>
per ch</w>
per ish</w>
per mit</w>
of be</w>
of old</w>
of heaven</w>
of Enki</w>
of settle</w>
of scru
man king</w>
man ly</w>
man ually</w>
lab ies</w>
gra pe
gra bbing</w>
gra bbed</w>
Wh en
Wh erever</w>
br ation</w>
br ush</w>
lo g</w>
lo in</w>
lo se</w>
lo ver</w>
lo cked</w>
lo cking</w>
lo aned</w>
lo incloth</w>
Th in
ser ious</w>
lam enter</w>
In sasa</w>
In scriptions</w>
In nana</w>
ex pl
ex pe
ex tr
ex pres
ex hum
ex plain</w>
ex claimed</w>
ex pression</w>
ex cept</w>
ex otic</w>
rul ings</w>
gi ver</w>
gi ven
gi dim</w>
sur u</w>
sur eat</w>
sur nas
pro ve</w>
pro ce
pro created</w>
pro ble
pro xim
pro verb</w>
ad u</w>
ad ani</w>
ad udu</w>
ad urgara</w>
ad versary</w>
her where</w>
her bal
serv ile</w>
serv itude</w>
pe bb
pe ding</w>
pe tre</w>
pe tition</w>
pe gged</w>
pe dastal</w>
Lug a</w>
Lug ale</w>
Lug uz
Lug amu</w>
ca pri
ca strated</w>
mo at</w>
mo th</w>
mo ves</w>
mo tion</w>
mo ment</w>
mo aning</w>
mo aned</w>
mo del</w>
con du
con fined</w>
con cord</w>
con tracts</w>
con tains</w>
con text</w>
con cept</w>
na kabtum</w>
Lugal a
Lugal x
Lugal and
Lugal gu
Lugal gi</w>
Lugal sa</w>
Lugal iri
Lugal lu
Lugal mu</w>
Lugal kin
Lugal annatum</w>
Lugal Ninubur</w>
Lugal KA
Lugal tar
Lugal abba</w>
Lugal bi</w>
Lugal dingirmu</w>
Lugal sisa</w>
Lugal hegal</w>
Lugal sul
Lugal igi
Lugal TAR</w>
Lugal erin</w>
Lugal ema</w>
Lugal ukkene</w>
Lugal inim</w>
Lugal barab
Lugal hamat
und u</w>
und ressed</w>
tur ned
tur moil</w>
du cks</w>
du official</w>
whi ps</w>
moun dcracks</w>
si um</w>
si fied</w>
si eve</w>
si ege</w>
si fted</w>
shi pped</w>
att emp
ru shed</w>
ru bbing</w>
ru bbed
and u</w>
ce ded</w>
im at
im mu
im Utu</w>
im prov
im zi</w>
im dua</w>
im poses</w>
im medi
im barbar</w>
com bin
com pel</w>
com fort</w>
com ingbringing</w>
Lu 2
Lu Nin
Lu Laga</w>
Lu Eridu</w>
Lu iri
Lu ena</w>
Lu Ikur</w>
Lu mah</w>
Lu egal</w>
Lu igi</w>
Lu Mag
Lu Haya</w>
Lu Ninura</w>
Lu Asalluhi</w>
Lu pa</w>
Lu utu</w>
Lu Gebare</w>
Lu Inannaka</w>
Lu Daya</w>
all i</w>
min ation</w>
min ded</w>
bo thering</w>
cor rid
cor ral</w>
cor nel
coun ter
coun tant</w>
coun cel
coun sels</w>
mounta ins
mounta inside</w>
bel i</w>
bel ong</w>
bel owed</w>
bel ly
bel lowed</w>
brea d
brea ched</w>
peo ple
war dess</w>
wat cher</w>
hear ing</w>
hear tr
can opy
fl our
fl int</w>
fl ints</w>
fl utes
fl ung</w>
An ana</w>
An ything</w>
An dab
An ger</w>
An ati</w>
An ubu</w>
An ump
An dul</w>
An san</w>
An ikura</w>
An uship</w>
An arAnu</w>
pre g
pre t</w>
pre ci
pre fect</w>
pre dat
pre ceding</w>
pre ceded</w>
me ts</w>
me you</w>
me tro
me te
me gran
wi eld</w>
wi fes</w>
vi or</w>
vi es</w>
vi cer
fer ment
Ak a</w>
Ak iar</w>
op h
op o
op ed</w>
op es</w>
op timi
Gu ugu</w>
Gu ardian</w>
Gu udu</w>
Gu dena</w>
Gu ugua</w>
mar es</w>
mar ches</w>
mar tial</w>
ox hide</w>
car ing</w>
car ps</w>
car ry
car riage</w>
car neol</w>
fore ign
fore Emah</w>
aw eapon</w>
grain heaps</w>
grain fattened</w>
mi qtum
mi xing</w>
cu sto
cu ff
cu dgel</w>
fem al
ga in</w>
ga ve
ga damah</w>
bur gi
bur ulgi</w>
bur ns</w>
bur zi
bb i</w>
bb atum</w>
ci stern</w>
ci ating
ci ster
fu lex
fu scate</w>
ho li
ho es</w>
ho vering</w>
bir ths</w>
bir ds
bir dhun
gu n</w>
gu ur</w>
gu dug</w>
gu shing</w>
gu ak</w>
gu dab
gu ard
woo d
mu ir</w>
mu til
ge ous</w>
ge make</w>
ge tation</w>
iz e</w>
iz en</w>
iz um</w>
iv eness</w>
pra ys</w>
pra ying</w>
pra ct
shepher ded</w>
wo e</w>
wo ven</w>
wo ken</w>
wo manly</w>
eng al</w>
eng ursi</w>
UrN in</w>
wea ve</w>
wea lthy</w>
wea ving
Li st
Li ve</w>
Li ving</w>
Li burulgi</w>
jo int</w>
jo ints</w>
ugh ing</w>
ugh ty</w>
lin te
lin tels</w>
gr y
gr ound
gr ounded</w>
accoun ting</w>
accoun tants</w>
arm or</w>
arm rests</w>
kno tting</w>
kno tter</w>
kno cking</w>
lea ding</w>
bro om</w>
sw ears</w>
sw ind
sw ays</w>
towar d
par ty</w>
par ked</w>
par ches</w>
ent ates</w>
ent ary</w>
ent destructive</w>
ent angled</w>
ent rails</w>
tre eswood</w>
pa ils</w>
pa ined</w>
pa irs</w>
pa iring</w>
pa ired
pa ittum</w>
pa umpriest</w>
ten d</w>
ten tial</w>
mea n</w>
mea ls</w>
div ision</w>
Ni rah</w>
uz i</w>
dec ision
dec imate</w>
dec eased</w>
ie ku</w>
pas sion</w>
pas sable</w>
ub il
ub tem
ub aya</w>
ub ae</w>
ut a</w>
ut uku</w>
ut ilizing</w>
rit e
rit esofferings</w>
so on</w>
so ak</w>
so cles</w>
so bstin
ev ent</w>
ev ents</w>
ev ap
ev ident</w>
pal m
tro d</w>
dedic ation</w>
dedic atd</w>
sla b</w>
sla very</w>
col onies</w>
bri m</w>
bri gands</w>
ey eb
ey estone</w>
ey erol
gh ymn</w>
thr ough
thr one
thr ones
deli cious</w>
bit uram</w>
tru sting</w>
nin digir</w>
stat utes</w>
spea king
spea ker</w>
bea tings</w>
bea mtimber</w>
bul lcalf</w>
ong ed</w>
rece ded</w>
rece ives</w>
bil e</w>
bil ly
Eri dus</w>
crea tor</w>
recei pt</w>
recei pts</w>
ed in
ed ge
ed disapp
ed repa
wa vers</w>
wa ils</w>
aga inst
ang ers</w>
ang els</w>
app e</w>
app or
app ears</w>
app enda
nam ing</w>
nam ub</w>
nam ita</w>
nam yriad</w>
inn ard
inn umerable</w>
Ab a</w>
Ab ak
Ab uni</w>
Ab abi</w>
Ab agal
pres ent
pres ser</w>
pres erved</w>
dwel ling
end killed</w>
low ered</w>
struc tu
struc tures</w>
har sa</w>
har dship</w>
har monious</w>
har rowed</w>
uni son</w>
Amar asi</w>
Amar uba</w>
Amar NI
po lice
po plars</w>
po megran
po tential</w>
ap ply</w>
beh old</w>
mid heaven</w>
mid stheart</w>
manag e</w>
ep ony
found ation
vo tive</w>
sheep house</w>
sheep hide</w>
beca use
know until</w>
tu n</w>
tu resfigure</w>
Ninur ra</w>
Ninur sag
prov isi
cit ing</w>
sk in
sk igal</w>
sk ele
az bala</w>
az ige</w>
az agar</w>
over laid</w>
over comes</w>
over flowed</w>
dist inct</w>
ak ku</w>
ak tum
sub scrip
sub stanti
cla shing</w>
cla wed</w>
cla sp</w>
cla ws
cep ted</w>
cep urse</w>
son apprentice</w>
son ghymn</w>
seiz e
fol k</w>
under stood</w>
under foot</w>
under taking</w>
lu sh</w>
lu rest
cal ary</w>
cal cul
hor rible</w>
sing ador
sing ermusician</w>
gal esi</w>
Abb aduga</w>
ba the</w>
ba de</w>
ba kes</w>
ba Marduk</w>
but ter
fea ther</w>
fea turesfigure</w>
tal king</w>
tal ons</w>
tal ent
tal lied</w>
inst igate</w>
house of
Grea tly</w>
mor tals</w>
uri a</w>
uri m</w>
spo on</w>
comp lic
comp anions</w>
gar mets</w>
tri ple</w>
tri pping</w>
ty pi
ty exec
ess ential</w>
comm it</w>
comm entary</w>
Eninn u
bear ded</w>
bear dedness</w>
spec kled
cea ses</w>
him self
with you</w>
with surpassing</w>
with drew</w>
with corpor
with drawn</w>
fron t
ic ir
ic le</w>
measur eass
long tablet</w>
long distance</w>
nig diri</w>
nig aana</w>
nig suru</w>
gig anti
tra der</w>
tra verse</w>
tra ders</w>
tra pezo
tra psnare</w>
Ki ur
Ki utu</w>
Ki arAn
uti on
emb les</w>
Lar ak</w>
mil ler</w>
ass orted</w>
ass igns</w>
ass umed</w>
lil a</w>
lil is</w>
lil ng</w>
bla des</w>
bla dder</w>
ku 3</w>
ku kur
ku bum</w>
ku qir</w>
ku data</w>
remo v
remo tely</w>
der ed</w>
der top</w>
tor ched</w>
tor rent</w>
plan ts
Beca usea
nec ked</w>
form ations</w>
barley crops</w>
Har ali</w>
out waterway</w>
out sides</w>
out set
out side
out flatt
Mar da</w>
Mar rying</w>
ph rase</w>
Enlil massu</w>
person nels</w>
cap tor</w>
admini strative</w>
Sh eep</w>
bl elea
Al one</w>
Al ala</w>
Al lamu</w>
Al alum</w>
Al latum</w>
Al phabe
strat ing</w>
ki b
ki b</w>
ki ur
ki utag</w>
te ch
te ousness</w>
te doxen</w>
cur ses</w>
kin dness</w>
kin dling</w>
af firm</w>
af flic
tw ear</w>
tw ine</w>
tw eeting</w>
tw ofold</w>
ni fication</w>
suck lilng</w>
shin ed</w>
plea s</w>
plea sedre
Ada d
Ada ma</w>
clo ck</w>
mess ages</w>
por t</w>
por cup
por tant</w>
por tent</w>
righ t
righ tly</w>
ss ings</w>
god ss</w>
Lag i
lament a</w>
lament vocal
Sn b
Sn im
Sn ri</w>
Sn magir</w>
Sn taklku</w>
Sn kaid</w>
Sn imit
Sn lamas
Sn usel
cour riers</w>
od or</w>
inspec ting</w>
run awa
Zab aali</w>
mat ur</w>
mat ch</w>
mat ter
mat ory</w>
mat rons</w>
ous watching</w>
Er ram
Er reb</w>
Er baMarduk</w>
wee ping
AR A</w>
AR BI</w>
dur allu</w>
cha os</w>
see king
Ad du</w>
Ad ding</w>
Ad ata</w>
Ad dressing</w>
Ad orningtouching</w>
Nam mah</w>
Nam zium</w>
Sim udar</w>
inter val</w>
inter course</w>
inter cedes</w>
inter pret</w>
inter calary</w>
stra r</w>
stra p</w>
atta in</w>
atta ins</w>
comple xfoundation</w>
surpas sed</w>
surpas sing
water way
water roiling</w>
water clock</w>
chee sepot</w>
protec tion
cer vid</w>
cer tified</w>
hur in</w>
hur ry</w>
hur riedly</w>
hur twith</w>
dab zu</w>
dab alaborers</w>
Geme Suen</w>
Geme Utu</w>
Geme Ningal</w>
Geme Enlila</w>
Geme ubar</w>
hum a</w>
hum bled</w>
hum anity
deb tors</w>
deb tbearer</w>
Nig in
Nig ing
Nig gina</w>
Nig gur
Nig indu</w>
Nig tuku</w>
Nig erim
Nig tuku
Nig dugani</w>
dra w
dra gs</w>
dra ined</w>
flo or
flo at</w>
flo ats</w>
mer riment</w>
Enan epada</w>
fur n
fur ther</w>
nu di</w>
great barge</w>
great stele</w>
great soldier</w>
lif es</w>
lit er
lit ter</w>
lit re</w>
tain ment</w>
tain range</w>
swee p</w>
swee tening</w>
jud ged</w>
bitter painful</w>
bitter toothed</w>
Nann agugal</w>
Nann aludu</w>
sag du</w>
sag ara</w>
sag ursag</w>
sag gig</w>
sag aciously</w>
respon d</w>
respon ses</w>
ulgi a
ulgi ay
ulgi kiur
dro ps</w>
dro op</w>
ste m</w>
ste pping</w>
ste wardess</w>
Da ys</w>
Si x
Si x</w>
Si um</w>
Si ster</w>
Si pa
Si makum</w>
Si maki</w>
juni pers</w>
relea seploughmen</w>
there upon</w>
Bar i</w>
Bar asag
Bar sal
sun k</w>
sun god</w>
Eu sega</w>
cro p</w>
cro aking</w>
dit na</w>
fac tured</w>
kir i</w>
sle w</w>
sle ep
sle dge</w>
sle pt</w>
sle eps</w>
bal ag
bal um</w>
bal iff</w>
bra y</w>
bra ve</w>
foo twear</w>
wid ening</w>
gro ans</w>
scrip t</w>
assemb led</w>
ax esagricultural</w>
gen ie</w>
hol es</w>
sanc tary</w>
cham ber
mur ky</w>
sett ing
Moun t</w>
Moun tains</w>
Moun tainrange</w>
stree ttown</w>
Gi ving</w>
cri mson</w>
dis z</w>
dis cover
dis arrayed</w>
dis inte
dis dain</w>
super b</w>
super imposed</w>
Bab as</w>
Bab aya</w>
Bab atursu</w>
sis kur
win dow
stri p</w>
stri de</w>
stri ding</w>
supp lied</w>
fear disdain</w>
wag ed</w>
ARAD u</w>
ARAD 2</w>
ARAD ani</w>
ARAD hul
War m</w>
ima ge</w>
ob tained</w>
ob fuscate</w>
anci entold</w>
ili ma</w>
red ly</w>
red dish
red jeal
abo mination</w>
contain ed</w>
cup board</w>
gaz ing</w>
cti fy</w>
cti vely</w>
mal ts</w>
mal ts
num ites</w>
inim pae</w>
perform ers</w>
Ap ply</w>
Ap indu</w>
Mes kigal</w>
Mes kigala</w>
Nu n</w>
fun dament</w>
fru ctify</w>
lig ent</w>
desc ent</w>
desc ends</w>
Co vers</w>
Co ming</w>
KA IGI</w>
KA TAB</w>
fla x
fla t</w>
fla il</w>
fla shflit</w>
atum dug</w>
mag urum</w>
Mon at</w>
Mon th6</w>
zi ppatum</w>
puri fied
ill Etar</w>
radi ate</w>
radi ates</w>
sec ret
13 1</w>
13 34</w>
13 jar</w>
Sin kaid</w>
nes sobstin
any where</w>
any thing
utter ed
clean ing</w>
clean ses</w>
cl atter</w>
dou blelea
pea k</w>
pea ce
sta ke</w>
sta ying</w>
head master</w>
head bundle</w>
head voice</w>
head denigrates</w>
head resspec
cont ingents</w>
irrig ating</w>
Du y
Du il</w>
Du kug</w>
Du Urbartab</w>
Me an
Me ki
Me baragesi</w>
Me enkar</w>
Me Ane
order seffects</w>
power equipped</w>
subm it
subm its</w>
Ar atum</w>
Ar oused</w>
Ar chivist</w>
Ar bituram</w>
Lad y
Dil imbarbar</w>
hun gry
multi coloured</w>
tow ns</w>
Nink arke</w>
ble ssings</w>
culti v
culti cally</w>
Ez agin</w>
hand tablet</w>
hand cuff
Id ena</w>
Id nun</w>
Id daya</w>
Kar da</w>
Kar har</w>
Kar kar</w>
kur ub</w>
va ster</w>
va ult</w>
wr ong</w>
exten ding</w>
exten sively</w>
trem end
12 4
12 7
12 9</w>
12 32</w>
12 96</w>
Il ulu</w>
Il pur
Il uni</w>
Il nem
demon fate</w>
demon disease</w>
demon strate</w>
18 3</w>
18 2</w>
18 8</w>
18 22</w>
pil i</w>
pil laged</w>
sher d</w>
gather ers</w>
fro st</w>
fam ily</w>
fam ily
emer ges</w>
emer gent</w>
disp atch</w>
disp laced</w>
exer tion</w>
As al</w>
As surnas
Prin cess</w>
Prin celiness</w>
Re bel</w>
den izen</w>
fig ures</w>
fig ure
decid er</w>
Wat ers</w>
ama ssed</w>
ama ikur</w>
kun ga</w>
allo ted</w>
allo cation</w>
bran ch</w>
Lugalur tur</w>
Posses sed</w>
Posses sions</w>
sou redjeal
up wards</w>
up imposed</w>
inqu iring</w>
off ended</w>
gener ously</w>
rou sed</w>
illa ssu</w>
Inim zi</w>
trans formed</w>
insul ting</w>
Ama gina</w>
Ama getina</w>
Ama barasi</w>
Ama engursi</w>
GA G</w>
UR tum</w>
obe di
obe yed</w>
chari ots</w>
well pond</w>
well tended</w>
well anch
well cistern</w>
14 8</w>
14 9</w>
Ex c
Ex ces
Kin unir
Lul zi</w>
Lul ubum</w>
Lul guak</w>
dea ling</w>
dea thly</w>
dea dold</w>
reser ved</w>
exp ose</w>
exp ands</w>
exp ect</w>
exp lic
exp licate</w>
exp ansive</w>
judg ing</w>
Babyl ons</w>
MU NU
cru sh</w>
cru stac
cru shing
dri vers</w>
dri vel
kig gal</w>
nir muir</w>
sat ory</w>
stret ching</w>
stret ched
host ilities</w>
stoma chs</w>
Ma iden</w>
Ma keprepare</w>
fe tid</w>
you on</w>
you him</w>
rever sed</w>
rever ber
day storm</w>
day laborers</w>
day daylight</w>
day sstorm</w>
agre es</w>
fisher i
umu shda</w>
Dam dingirmu</w>
opp ose</w>
opp ressed</w>
opp oses</w>
sn atch</w>
terri fy</w>
Puzur Sn</w>
Puzur Ninlil</w>
Puzur Shara</w>
Puzri Enlil</w>
Puzri Itar</w>
Puzri shDagan</w>
Ibi Erram
Lum matur</w>
kis ses</w>
smo king</w>
smo ked</w>
smo thered</w>
int ment</w>
ali k</w>
ulMU PA</w>
open ly</w>
drum sticks</w>
elap sing</w>
gur baskets</w>
pul se</w>
pul ling</w>
ren ewing</w>
uw um</w>
ana flour</w>
ana kezu</w>
era dicating
suk aisa</w>
gran aries</w>
appropri ated</w>
appropri ations</w>
appropri ateness</w>
shoul dshould</w>
shoul dertop</w>
Ding irig
sin yes</w>
ted wall</w>
zu bara</w>
ani ya</w>
susta ining</w>
susta infinish</w>
door men</w>
exc lam
exc eeds</w>
exc essively</w>
carp filled</w>
carp flood</w>
pleas antly</w>
Nudim mud
Egal isi</w>
Sa aga</w>
ef oster</w>
hon ored</w>
pig skins</w>
tum 2</w>
ara idab</w>
ara huma</w>
bed ded</w>
bed bed</w>
ammur pin
prison er</w>
phy sici
extispic y
Lam entation</w>
Un der
Un uga</w>
Un daga</w>
cred it</w>
ly res</w>
ly nx</w>
writ ingmaking</w>
writ efoster</w>
roa sters</w>
choo singador
spar es</w>
acqu atic</w>
distri but
distri cts</w>
heaven ward</w>
19 2</w>
19 1</w>
Bel ili</w>
Dug as</w>
Dug ab
Dug azida</w>
Dug ubtem
lar va</w>
thir ds</w>
led rum</w>
neg ligent</w>
viol ated</w>
tribut etaxes</w>
etern ally</w>
Ba er</w>
Ba aga</w>
Ba ar</w>
Ba inisige</w>
Ba qartum</w>
De li
De struc
De dicated</w>
Sam ium</w>
Utu saga</w>
Utu ursag</w>
Utu hegal</w>
Utu GIRgal</w>
glad den</w>
val idates</w>
regi strar</w>
plough s</w>
plough ed</w>
dimini shes</w>
good the</w>
good ly</w>
good very</w>
good beautiful</w>
add ressing</w>
floo ds</w>
Festivalof Dumuzi</w>
Wo man</w>
two headed</w>
two thirds</w>
plunder er</w>
ation prayers</w>
supplic ationprayers</w>
vast ness</w>
NE e</w>
NE reed</w>
NE DA
Nur Ikur</w>
Nur semaid</w>
Nag Nane</w>
fo al</w>
land netherworld</w>
land making</w>
lib ir</w>
lib ate</w>
separ ating</w>
separ ately</w>
mountain range</w>
mountain foreign</w>
Mardu k
Mardu kn
craf tiness</w>
Dur ul</w>
Dur gara</w>
ton gues</w>
chur ns</w>
gudu 4</w>
gudu 4priest</w>
Mag anarrum
Ta atal</w>
Ta iatal</w>
Tru stworthy</w>
gan tshy</w>
devast ation</w>
adv ancing</w>
imp ending</w>
imp act</w>
dingir tuku</w>
Big Festival</w>
Big Barge</w>
Lev ee
cat egory</w>
uk a</w>
uk ken</w>
Url ugal
storm ing</w>
storm who</w>
storm day</w>
storm demon</w>
convey ance</w>
convey edrepa
smit er</w>
malevol entdestructive</w>
Ac cumulated</w>
Ac countant</w>
Gir ded</w>
frigh ten</w>
lun g</w>
sz ur</w>
squ eal</w>
wit ches</w>
enn u</w>
unid ug</w>
assi stance</w>
Sub mit</w>
exec ute</w>
Great festival</w>
Nanna in</w>
Nanna igi</w>
Nanna ursag</w>
Nanna Suens</w>
transp ortation</w>
gladd ening</w>
17 2</w>
17 1</w>
Sil ently</w>
Sil imUtu</w>
pur chase</w>
pur pose</w>
pac ked</w>
pac ified</w>
enclo se</w>
enclo sureat</w>
rela xed</w>
new year</w>
compos itions</w>
overwhel ms</w>
assign ment
Ana r</w>
Ana egal</w>
Ana ya</w>
Ana hep
Ana Sntaklku</w>
Per fecting</w>
za ana</w>
stea ling</w>
whe els</w>
lee k</w>
depri ve</w>
emin ently</w>
Urn untaea</w>
spi ke</w>
spi ked</w>
scor pions</w>
grand son</w>
ition er</w>
teem s</w>
uwaw a</w>
Gan un
Igi zig
Igi eala</w>
Igi anakezu</w>
Igi zubara</w>
Sm all</w>
grow ling</w>
mir ror
thick er</w>
thick ness</w>
thick ening</w>
thick trip
thick eningreversing</w>
rest onep
gol d
earth work</w>
earth covered</w>
Lugalu tak</w>
Lugalnig zu</w>
Lugalnig barad
circ ling</w>
gri eved</w>
gri ef</w>
how l</w>
how led</w>
how ls</w>
ii dab</w>
lugal nesag</w>
lugal sapar</w>
nug ig
twi sting</w>
arro gantshy</w>
river banks</w>
let basket</w>
seed grain</w>
sapp y</w>
Ningir sukaisa</w>
moon god</w>
conver ts</w>
conver ted</w>
conver sed</w>
conver sations</w>
concer ns</w>
lapis blue</w>
drag ons</w>
GI R</w>
Go ing
Nim gi
Nim gir</w>
kn elt</w>
kn ives</w>
kn eading</w>
arab i</w>
arab duofficial</w>
ref re
ref ugees</w>
plo tting</w>
sprin kled</w>
sprin kles</w>
boa ster</w>
flouri shing</w>
offering sa</w>
broad en</w>
broad ening</w>
sweet ness</w>
sweet smel
descend ent</w>
from in</w>
youth fully</w>
Bur Sn</w>
Bur ning</w>
Bur nab
Im ti
Im nia</w>
Ka a</w>
Ka ku</w>
Ka eala</w>
Ka daman
La id</w>
La mah</w>
La har</w>
La ughing</w>
No on</w>
Ra ises</w>
Ra diance</w>
Sag dana</w>
Sag dingirtuku</w>
achie vement</w>
bab ble</w>
cke d
dow namyriad</w>
gree t</w>
sem icir
mas atum</w>
mas sacred</w>
disc ord</w>
chas ing</w>
Urkun unas</w>
exi sting</w>
profound undul
Adda ya</w>
Adda bani</w>
mouth tooth</w>
mouth opener</w>
half way</w>
Dingir mah</w>
Dingir Mardu</w>
Bo atofHeaven</w>
Bad Irin
Con tents</w>
Tw in</w>
gate post</w>
gate keepers</w>
pon ders</w>
rend erer</w>
rem nants</w>
dig ger</w>
disea ses</w>
care ful</w>
back liver</w>
back wards</w>
back armrests</w>
mill ers</w>
mill house</w>
mill workers</w>
interest bering</w>
crip tion</w>
Ningirsu isa</w>
15 1</w>
Aw lama</w>
Fir m</w>
Ir i</w>
Ure mu</w>
Ure mah</w>
Ure bara</w>
Ure kuga</w>
Ure lila</w>
cam ore</w>
coura ge</w>
coura geous</w>
equal ed</w>
equal led</w>
eal lurest
rain y</w>
rain pipe</w>
UrNin su</w>
UrNin marki</w>
UrNin mug</w>
accu satory</w>
suc cess</w>
Emut balum</w>
luxuri ance</w>
Ass orted</w>
Ass embles</w>
Be er</w>
Be li
Be lab</w>
Be hind</w>
Be lazu</w>
Be foreEmah</w>
Ne ither</w>
ber ries</w>
pop ulated</w>
ting ly</w>
art fulness</w>
ere ply</w>
ere joicing</w>
roof beam</w>
roof beamtimber</w>
Enak iag
Enak igalag
beer poured</w>
haz el</w>
sad ura</w>
oxen field</w>
oxen fields</w>
musici ans
engend erer</w>
trun ks</w>
trun kroots</w>
city but</w>
city gates</w>
Dumuzi Abzu</w>
Dumuzi dabzu</w>
flood wave</w>
magnific ence</w>
magnific ently</w>
28 3</w>
Kal amu</w>
Kal lamu</w>
Kam ari
Kam sala</w>
Mun ida</w>
Ut ubae</w>
cab in
glor ification</w>
pec ked</w>
sten ch</w>
rel ent</w>
rel ations</w>
Ninmu banzige</w>
Suen iddinam</w>
Suen abuu</w>
exvo tos</w>
experi encing</w>
ubi Feast</w>
weigh s</w>
ancest or</w>
scrat ch</w>
mis erab
mis carriage</w>
arr i</w>
arr at</w>
stac ks</w>
stup id</w>
stup idity</w>
seven corner</w>
Nine izu</w>
Nine igara</w>
Nine 3LAK175</w>
corpor eal</w>
eyes gaze</w>
pot entates</w>
prayer rites</w>
funer al</w>
incantation priest</w>
Lamma a</w>
Lamma mu</w>
Lamma amamu</w>
habit ual</w>
Dubla Utu</w>
Dubla utu</w>
Hi reling</w>
Hi baritum</w>
Ili ppalsam</w>
Tid numites</w>
cre vice</w>
put established</w>
temp orary</w>
insp ired</w>
reck on</w>
reck ons</w>
lion faced</w>
ell or</w>
word ponders</w>
silver chair</w>
confron ts</w>
compar ing</w>
heart womb</w>
heart stomach</w>
heart gladdening</w>
traver sing</w>
winno wing</w>
Girin iidab</w>
encourag ement
Ara h
Amur Suen</w>
Amur rum</w>
Bl at
Bl ood</w>
Bl kaid</w>
Man ume</w>
PA a</w>
PA P</w>
PA house</w>
Qu een</w>
Ro y
Ro aring</w>
Spea ks</w>
Spea ker</w>
egi zaga</w>
far off</w>
far reaching</w>
gab IL</w>
gab atab</w>
gab raherder</w>
jour neys</w>
ka GAN</w>
van guard</w>
van quished</w>
vir gins</w>
zig iduh
stin k
stin k</w>
star ted</w>
stro king</w>
stro ke</w>
repa ir</w>
direc ting</w>
direc tion</w>
direc tor</w>
father ed</w>
scal pel</w>
giri PAa</w>
prosp erous</w>
victor ious</w>
Guz um</w>
bail iff
travel led</w>
thresh olds</w>
Gemee dam</w>
Gemee kuga</w>
Gemee kare</w>
favoura bly</w>
wind swept</w>
mali ciously</w>
friend ship</w>
clou ded</w>
Enunugal anna</w>
pure armed</w>
Asz szur</w>
penetr ating</w>
KU ge</w>
KU nigg
Mu ki</w>
Mea ger</w>
Rim Sin</w>
Rim Anum</w>
Rim ush</w>
Rim Snlamas
Zi bbatum</w>
fow l</w>
non existence</w>
wrest ling</w>
thin spread</w>
arrang ement</w>
reli eved</w>
ulla t</w>
play ground</w>
play grounds</w>
eey es</w>
loy alhear
awe bearing</w>
child citizen</w>
way decree</w>
way station</w>
calf s</w>
tram ple</w>
tram ples</w>
neck lace</w>
neck thickening</w>
beautiful faced</w>
Erra imitti</w>
Nannak uzu</w>
Bara Ilit
Ban k</w>
Ban sa</w>
Bit i</w>
Bit ter
Em es
Em bodiment</w>
Gig una</w>
Hum bly</w>
Idi a</w>
Isi qat
Irin ieku</w>
Ju st</w>
Pl atform</w>
SI G</w>
SI Aa</w>
Sni bbu</w>
by from</w>
bun ched</w>
battle field</w>
battle ments</w>
battle mace</w>
battle cry</w>
drea ms</w>
drea ming</w>
fug itives</w>
gas ura</w>
gna w</w>
gna shing</w>
gna wing</w>
hall mark</w>
ment orsupervisor</w>
splen didly</w>
uku l</w>
reci eved</w>
reci procals</w>
ele bration</w>
ulg isim
diss olved</w>
diss eminates</w>
diss atis
Enam tila</w>
Urg ula</w>
Urg agia</w>
UrSu da</w>
UrSu ena</w>
UrSu kkal</w>
banda ged</w>
Lugaln amma</w>
Lugaln emur</w>
Lugaln idba
Lugalkis una</w>
Lub ine</w>
collec tive</w>
eye turner</w>
return kill</w>
return sanswers</w>
appea sed</w>
apprenti cepurse</w>
illumin ating</w>
exerc ising</w>
arrog ant</w>
arrowh eads</w>
Nimgir inimgina</w>
Nimgir dine</w>
Pabil ga</w>
Abu GAN</w>
Car p</w>
Car etaker</w>
Lun amtara</w>
Loo kout</w>
Pri son
Stor eroom</w>
Ubi kura</w>
Zam ug</w>
Zam uban
fra me</w>
fra grant</w>
foun der</w>
foun ded
frequ ented</w>
migh tiest</w>
nee ded</w>
sy camore</w>
sli p</w>
sli pped</w>
sli thering</w>
sof tly</w>
situ ated</w>
situ ations</w>
tear ful</w>
test icle</w>
arg anum</w>
arg uments</w>
stud ents</w>
shor tfall</w>
enlar ging</w>
recit ing</w>
lacer ate</w>
reali ze</w>
age tin</w>
offic er</w>
offic erof
exter nal</w>
exter iors</w>
Lugalun irre</w>
compe ting</w>
compe tition</w>
canal present</w>
canal inspector</w>
canal mouths</w>
away fall</w>
away profoundundul
mud n</w>
mud dled</w>
ski pping</w>
submer ge</w>
submer ged</w>
submer ging</w>
submer gemake</w>
Abbag ula</w>
wet lands</w>
faceey es</w>
Smla il</w>
battlea x</w>
Houseof woman</w>
Houseof Heaven</w>
Houseof Day
Bro ken</w>
Bro thers</w>
Di orite</w>
Di strict</w>
Dim atEnlil</w>
KI SA
Mal t
NU N</w>
Tab let</w>
Tab letbasket</w>
Wor thy</w>
aver age</w>
bad u</w>
bad ly</w>
bloo dy</w>
dat esyrup</w>
pin pectoral</w>
infer iority</w>
tamar am</w>
fire is</w>
fire shade</w>
scon cerning</w>
perpetu ity</w>
exal ts</w>
exam ined</w>
exam iner</w>
extrem ities</w>
mobil ization</w>
conc lu
dust I</w>
dust earth</w>
dust wrea
divor ces</w>
ritu al
standing serving</w>
subsi stence</w>
mater nal</w>
Simat Etar</w>
Faith ful</w>
Nannam ea</w>
touch ing
control ling</w>
control superim
acquaint ance</w>
crafts men</w>
discer ning</w>
knowledg able</w>
Ipqu a</w>
Ipqu Adda</w>
freely forget
Ibni ulgi</w>
Ibni Adda</w>
school father</w>
school boy</w>
school boys</w>
extingu ish</w>
35 21</w>
Bi bi</w>
DU N</w>
DU DU</w>
Dec isions</w>
Dec ided</w>
ME Gate</w>
SZ IM</w>
Sna ke</w>
Sna kes</w>
Ste lae</w>
Sett ingset</w>
Tut ub</w>
Um man
aur aself</w>
clam or</w>
eli citing</w>
hee d
ida a</w>
ida veng
pel ted</w>
pel ting</w>
tug ma</w>
tug sag</w>
uta be</w>
zab alum</w>
zid guru</w>
invest igated</w>
anu unga</w>
stone grinding</w>
atam officials</w>
enter tainment</w>
enjoy able</w>
rein forc
revi ve</w>
revol t</w>
ligh ting</w>
law ful</w>
plann er</w>
chann els</w>
chick pea</w>
hair style</w>
esz tub</w>
UrS ulpae</w>
kett ledrum</w>
building shrine</w>
building functionary</w>
streng thened</w>
scru b</w>
field area</w>
field woods</w>
bring succeed</w>
bring sgoes
exper t</w>
exper tise</w>
Luug ida</w>
breast bone</w>
breast snip
flan k</w>
flan ks</w>
flan ksof
oxdri ving</w>
wool bearing</w>
paral lel</w>
parti ally</w>
trough bucket</w>
just ness</w>
deliber ator</w>
Abund antly</w>
provin ce</w>
necess ary</w>
chair holders</w>
limb slap</w>
Dada ya</w>
junior wild</w>
genit als</w>
genit alia</w>
crimin als</w>
Com mand</w>
fully equipped</w>
stair way</w>
Duk uge</w>
pupp y</w>
pila ster</w>
Enmah galanna</w>
Ninhursag s</w>
Belat teraban</w>
Gurz aran</w>
finger nail</w>
Birurtur as</w>
sorcer er</w>
neighbor s</w>
aggres sive</w>
Lugalpirig turs</w>
Aban isege</w>
Agu a</w>
Agu zi</w>
Ca se</w>
Cattle pen</w>
Eg ageua</w>
Eme urur</w>
Fro mat</w>
Giri Baba
Giri araidab</w>
Ilu ibbu</w>
Ikur s</w>
Kan esz</w>
Lama zatum</w>
RI banda</w>
Sk ull</w>
Sz ara</w>
Sur plus</w>
Str ong</w>
Str angers</w>
Tram il</w>
Ubu ukken</w>
Writ eincise</w>
Weal thy</w>
akal wood</w>
blin ded</w>
blin kers</w>
dumu daba</w>
dumu dabalaborers</w>
fang ed</w>
je wel
jum ping</w>
leng thened</w>
ness stupidity</w>
pad ziana</w>
swel led</w>
song festival</w>
song sinstruments</w>
till er</w>
till ers</w>
wing ed</w>
wing sfeathers</w>
inhab it</w>
inhab ited</w>
shad ows</w>
ated thudding</w>
lieuten ants</w>
eme usuh</w>
emplo y</w>
emplo yed</w>
tog ther</w>
tog gle
UrEn enusi</w>
ugid type</w>
forest for</w>
forest ers</w>
idd in</w>
Ninubur a</w>
Ningek imzi</w>
manu wood</w>
manu factured</w>
Inta e</w>
proces sional</w>
admi xture</w>
Lue b</w>
entrea ties</w>
ubis ag</w>
clay tablet</w>
clay carnelian</w>
milk fed</w>
milk cream</w>
donkey equid</w>
slaughter house</w>
fini shing</w>
pleasur eallurest
pleasur erejoicing</w>
murder ers</w>
Meskiag Nanna</w>
clut ch</w>
clut ches</w>
upon against</w>
upon exerted</w>
Barley atthe
large toothed</w>
squee zed</w>
Author ity</w>
archit ect</w>
spadi xes</w>
Arad Nanna</w>
Roam er</w>
Roam ing</w>
Plough s</w>
symbo li
After because</w>
After wards</w>
recogn ise</w>
Ali a</w>
Amag ula</w>
Amag inas</w>
BI ana</w>
BI BIana</w>
Dir t</w>
Dir itum</w>
Daz agula</w>
Eig inimpae</w>
Eam ara</w>
Edu bba</w>
Fl ood</w>
Juni or</w>
Juni per</w>
Kat ar
Kat ar</w>
Mer chant</w>
May if</w>
New SIG</w>
Pirig g
Sec ure</w>
Sec ond</w>
Ubar tutu</w>
Zu makum</w>
Zim udar</w>
bis ons</w>
figh ting</w>
figh ters</w>
pr onged</w>
pum ping</w>
pum ped</w>
rough ly</w>
rough ground</w>
tigh ten</w>
inf esting</w>
indu cing</w>
arz ana</w>
arz anaflour</w>
erim tum</w>
ston ecutter</w>
algar sura</w>
algar sur</w>
mak im</w>
may or</w>
may altum</w>
lex ical</w>
level led</w>
dedu cted</w>
unu RIbanda</w>
EnEnlil ekiag</w>
EnEnlil esu</w>
beha vior</w>
abz usi</w>
abzu ofEnki</w>
sequ ester</w>
Ninim maimma</w>
Ninki ara</w>
Ninki harsa</w>
Inima dingir</w>
surve ys</w>
here in</w>
here by</w>
worker year</w>
contem pl
contem plated</w>
Lugalm ea</w>
Lugalm umanag</w>
Lugaleng ardu</w>
ime kug</w>
ime anni</w>
impro ves</w>
Ann anee</w>
Anun pa</w>
uzi ana</w>
young est</w>
Ninurt anu</w>
subdu ed</w>
triumph ing</w>
garment sclo
nigg ilima</w>
Gemen igar</w>
lamentation great</w>
lamentation priest</w>
desol ate</w>
desol ation</w>
observ eddisapp
Mesan tum2</w>
KAL Lat
celebr ated</w>
girin ie</w>
girin hili
deaf nessobstin
deaf nessstupidity</w>
oppos ing</w>
revea ling</w>
revea ls</w>
Lummag indu</w>
Lummag irnunta</w>
Nagar pae</w>
Nagar bi</w>
consid ering</w>
Inanna ursag</w>
zabardab 5</w>
zabardab official</w>
scratched ground</w>
scratched cracked</w>
salt sumac</w>
salt petre</w>
Tipa k</w>
Tipa kInuinak</w>
children juniors</w>
children atits
SIG a</w>
fragr ance</w>
fragr ances</w>
Apilk bi</w>
aveng ereply</w>
concili atory</w>
Ibexof Abzu</w>
Ibexof Apsu</w>
38 98</w>
Abar num</w>
Ati Esag</w>
Ahu waqar</w>
Ben tammu</w>
Cover ing</w>
Dr Abu</w>
Dara abzuofEnki</w>
Esag ila</w>
Fin ished</w>
Fil ling</w>
God dess</w>
Gaba a</w>
Iu il</w>
Ish biErra</w>
Ilam kurub</w>
Imi Enlil</w>
Lq pum</w>
Mi stress</w>
Mid day</w>
Mis zszur
Mani shtu
Nor thWind</w>
Po plarplanted</w>
Pre cious</w>
Pur usz
Rig mudn</w>
Righ teousness</w>
Relea se</w>
Sea ledit
Sto od</w>
Scep ter</w>
Te umman</w>
Tuk ri</w>
UB ARA</w>
Usa ara</w>
Wea ving</w>
Well Being</w>
Zur zur</w>
coo ks</w>
clu b</w>
couri er</w>
center point</w>
edi ble</w>
estr anged</w>
fum igating</w>
hug ged</w>
kum ul</w>
kug nuna</w>
kill die</w>
lul labies</w>
nis ku</w>
pati ent</w>
pled ge</w>
sne ershout
upri ght</w>
udur ul</w>
went stood</w>
zan aru</w>
inab du</w>
anz ugulme</w>
anted iluvi
aro sewas</w>
ars rosettes</w>
argi bil</w>
arru labba</w>
erec ting</w>
ered ingir</w>
outer cover</w>
stum p</w>
stoo d
stam peding</w>
shall l</w>
enun ciating
envi ouswatching</w>
when ever</w>
legi ances
levi ed</w>
decep tively</w>
unam ugi</w>
Ensi padziana</w>
Engar zi</w>
irp al</w>
goath ouse</w>
Uren unna</w>
Urnin tu</w>
ameli orate</w>
forth coming</w>
spla shed</w>
such set</w>
subur bs</w>
Nindu ba</w>
Ninlil s</w>
built up</w>
Supp ort</w>
sapl ings</w>
logi cal</w>
Inspec tor</w>
Insul ting</w>
profes sional</w>
adar tun</w>
mother father</w>
conten ted</w>
contra ctual</w>
connec ting</w>
Lugalsi NEe</w>
Lugalnam tare</w>
Lugalkur dub</w>
immen se</w>
compre hen
Luig isasa</w>
counc il</w>
flat ter
Anne tum</w>
Annun tum</w>
carav ans</w>
wellor chards</w>
Lik eas</w>
sover eign</w>
slack ening</w>
established maintained</w>
Abzu kidu</w>
harbor s</w>
pover tyexec
behalf because</w>
sky ward</w>
distingu ished</w>
subtra ction</w>
horse fly</w>
queen ly</w>
praying flattering</w>
veter ans</w>
Nisaba andul</w>
snake charmer</w>
Alum idd
vessel mirror</w>
matri x</w>
Addat illati</w>
Nannad alla</w>
cross bar</w>
face front</w>
hold scatches</w>
dissi pated</w>
disbur sement</w>
Baban en</w>
ARAD2 mu</w>
womb matrix</w>
gift the</w>
Ill ness</w>
Ilur ugu</w>
platform ruin</w>
Amm ditna</w>
Amri ma</w>
regular ly
authoritati vely</w>
performan ce</w>
Fier cely</w>
accompli shment</w>
benefic ent</w>
growing boasting</w>
boast overly</w>
sweetly bending</w>
introdu ced</w>
Construc tedwall</w>
sorrow wailing</w>
Kurub Erra</w>
Munu skigal</w>
misfortun e</w>
incantations noise</w>
Hala Baba</w>
credit ed</w>
KUM tue</w>
Power fulex
Baraen idu</w>
dissemin ate</w>
LAM KUnigg
NUN fish</w>
athle te</w>
space face</w>
Messeng er</w>
Messanga Unuga</w>
confid ence</w>
Emete ursag</w>
Uddur u</w>
jewell ery</w>
architra ve</w>
ANB U</w>
Itarm are</w>
diffic ult</w>
chosen amed</w>
saddle hook</w>
Cattleherderof NinArali</w>
2whe eled</w>
Aur men</w>
Abo ve</w>
Achil les</w>
Aed in</w>
Agam gula</w>
Aza ar</w>
Bat asage</w>
Boo tedoxen</w>
Brew er</w>
Cas ing</w>
Dul umidu</w>
Ditch esburial</w>
Dimp imekug</w>
Danu we</w>
Et ana</w>
Eer zidguru</w>
Esh nunna</w>
Ela kuqir</w>
Edi kudata</w>
Equ al</w>
Erin da</w>
Elil i</w>
Emer y</w>
Edar ilu</w>
Egan kalama</w>
Esab ad</w>
Egab ura</w>
Eek ite</w>
ETU nigaana</w>
Etamu zu</w>
Fem ale</w>
Flo ating</w>
Four th</w>
Fod der</w>
Gim ilMarduk</w>
Gang ir</w>
Gay au</w>
How ever</w>
Happ y</w>
Hau s
HARA L</w>
Huh nuri</w>
Hom eless</w>
If may</w>
Iim ulgi</w>
Ibl pEl</w>
Iama dium
Ko ches</w>
Kil ula</w>
Kun umkitub
Kub tum</w>
Kass ite</w>
Lin en</w>
Lit igant</w>
Laga shs</w>
Mow downamyriad</w>
Muti abal</w>
Mud spattered</w>
Non precious</w>
Nra ma</w>
NAG ARBI</w>
Pra yer</w>
Prow ling</w>
Ped dlar</w>
Prou d</w>
Previ ous</w>
Rea ches</w>
Rat face</w>
Rend ering</w>
Reg ent</w>
Sc ratched</w>
Sou thern</w>
Son inlaw</w>
Sch mi
Shi pyard</w>
Sour ce</w>
Stri ke</w>
Stea dy</w>
Scat tering</w>
Seal bearer</w>
Stad t
Serv ile</w>
Tea m</w>
Tem ples</w>
Tra pezo
Tari bu</w>
Tumu hursag</w>
Ugig a</w>
Ve getation</w>
Villa ge
Vizi er</w>
Wil low</w>
Wis dom</w>
Wee ping</w>
Wic kedness</w>
Wadd ling</w>
Waq artum</w>
Yadi iil</w>
Zir ingu</w>
Ziq uril</w>
aan kar</w>
apri cot</w>
aeg is</w>
adep t</w>
blam eless</w>
bone foot</w>
call ing</w>
cry breath</w>
dung bedding</w>
eec elebration</w>
etu da</w>
echo ed</w>
fab ri
fox es</w>
gid i</w>
gis iga</w>
hinn y</w>
ipe water</w>
ker performer</w>
ksu reeds</w>
lub ir</w>
lere turn</w>
mee du</w>
matt ress</w>
nigh tly</w>
niri gi</w>
none theless</w>
ov ens</w>
ovi capri
ovo id</w>
pab il
prun ed</w>
pesz niggilima</w>
slu ice</w>
svocabul aries</w>
ukal etuda</w>
vit ality</w>
vali ant</w>
wan ting</w>
wri st</w>
wig allure</w>
was p</w>
wed ding</w>
zeb u</w>
thous and</w>
inno cent</w>
incur ring</w>
indem nification</w>
inflam matory</w>
inexhausti ble</w>
inexhaust iveness</w>
around circled</w>
armed working</w>
erod ule</w>
erhal ten</w>
orda ined</w>
orman ment</w>
oneal one</w>
steps double</w>
alti rigu</w>
ilam za</w>
shred ding</w>
engra ver</w>
enjo ying</w>
ensem ble</w>
energi es</w>
replend ently</w>
reconcili ation</w>
liver lungs</w>
licor ice</w>
live the</w>
laga b</w>
lasting ly</w>
masc ara</w>
magi c</w>
mainten ance</w>
elong ated</w>
deem ed</w>
defi cient</w>
noctur nal</w>
emban kment</w>
embit tered</w>
unsc athed</w>
uncontrol lable</w>
unnoti ced</w>
towe l</w>
topic svocabularies</w>
Enbi Itar</w>
Ensig nun</w>
Ennug i</w>
EnNingirsu kiag</w>
EnNane kiag</w>
EnMesan tum</w>
gossi p</w>
bege tter</w>
barsu d</w>
barsur ra</w>
abud ance</w>
abib im</w>
chap els</w>
chanc ellor</w>
asser tory</w>
asso ciated</w>
haystac k</w>
espar to</w>
esbeauti fies</w>
esze 3</w>
tibu bird</w>
Urkig ula</w>
UrGetin anka</w>
UrKAn ara</w>
Urdumuz ida</w>
buffal o</w>
forear m</w>
forob serving</w>
forfe it</w>
forrest ers</w>
fornic ator</w>
idinn am</w>
spous al</w>
verte brae</w>
cohor ts</w>
Ninhe du</w>
NinDa Lagash</w>
Nindingir Baba</w>
Ninib tae</w>
Ninarhu su</w>
places olution</w>
strongh olds</w>
scorch ing</w>
domini on</w>
sadu allotment</w>
Ninget ins</w>
ofscru bbed</w>
grape vine</w>
exhum es</w>
given brought</w>
proce dures</w>
proble m</w>
proxim ity</w>
herbal ist</w>
pebb les</w>
Luguz a</w>
condu cted</w>
Lugaland anuunga</w>
Lugaliri da</w>
Lugallu sasa</w>
Lugalkin edudu</w>
LugalKA NE</w>
Lugaltar si</w>
Lugalsul uu</w>
Lugalbarab e</w>
Lugalhamat i</w>
turned crossed</w>
rubbed polished</w>
immu table</w>
improv esbeautifies</w>
immedi ately</w>
combin ation</w>
Luiri sag</w>
corrid or</w>
cornel wood</w>
councel or</w>
mountains netherworld</w>
heartr ending</w>
canopy roof</w>
flour milling</w>
flutes pipes</w>
Andab si</w>
Anump u</w>
metro logical</w>
mete oric</w>
vicer oy</w>
ferment ation</w>
optimi zed</w>
miqtum person</w>
custo ms</w>
birds sparrow</w>
birdhun ters</w>
gudab zm</w>
mutil ated</w>
pract itioner</w>
linte l</w>
swind ler</w>
paired workmen</w>
evap orate</w>
eyerol ler</w>
thrones rulers</w>
speaking singing</w>
appenda ges</w>
innard sheart</w>
Abak ine</w>
dwelling sitting</w>
structu restonep
police man</w>
epony my</w>
because in</w>
provisi oned</w>
skele ton</w>
subscrip ted</w>
calcul ations</w>
complic atedthudding</w>
himself his</w>
withcorpor eally</w>
measureass ign</w>
giganti c</w>
KiarAn tu</w>
Becausea fter</w>
outset per</w>
outflatt ens</w>
Alphabe t</w>
pleasedre joicing</w>
porcup ine</w>
lamentvocal ization</w>
Snimit t</w>
Snusel li</w>
runawa ys</w>
waterway woods</w>
protection shade</w>
humanity man</w>
Niggur ani</w>
Nigtuku inabdu</w>
Barasag nudi</w>
Barsal nuna</w>
discover er</w>
disinte gr
siskur 2offerings</w>
window nook</w>
ARADhul la</w>
reddish furious</w>
malts er</w>
purified set</w>
secret ary</w>
anything food</w>
doublelea gues</w>
headresspec toral</w>
MeAne pada</w>
handcuff s</w>
Ilpur am</w>
Ilnem e</w>
Assurnas irpal</w>
figure trunk</w>
souredjeal ous</w>
wellanch ored</w>
Exces sive</w>
Kinunir kidu</w>
crustac ean</w>
crushing growling</w>
stretched out</w>
IbiErram lik</w>
eradicating gathering</w>
Dingirig idu</w>
Nudimmud has</w>
ammurpin uuni</w>
choosingador ningtouching</w>
NEDA G</w>
Mardukn ir</w>
Maganarrum a</w>
conveyedrepa ying</w>
assignment passage</w>
Anahep at</w>
Igizig alana</w>
mirror holder</w>
thicktrip licate</w>
Lugalnigbarad ug</w>
sweetsmel ling</w>
Burnab uria</w>
BadIrin a</w>
Enakiag Nanna</w>
Enakigalag uba</w>
musicians singer</w>
miserab lereturn</w>
zigiduh hum</w>
RimSnlamas sau</w>
loyalhear ted</w>
BaraIlit appe</w>
Isiqat ar</w>
Lugalnidba e</w>
Zamuban ius</w>
officerof sixty</w>
awayprofoundundul ating</w>
KISA Lsi</w>
dustwrea king</w>
controlsuperim position</w>
freelyforget fully</w>
idaveng ed</w>
bringsgoes stands</w>
breastsnip ples</w>
flanksof sheep</w>
GiriBaba idab</w>
toggle pin</w>
pleasureallurest arsrosettes</w>
garmentsclo th</w>
observeddisapp roved</w>
KALLat arak</w>
girinhili ba</w>
deafnessobstin ancy</w>
childrenatits side</w>
Miszszur abi</w>
Manishtu su</w>
Sealedit ems</w>
sneershout chew</w>
antediluvi an</w>
enunciating effecting</w>
legiances ense</w>
povertyexec essive</w>
Powerfulex alted</w>
LAMKUnigg ena</w>
Iamadium ites</w>
Kunumkitub ia</w>
ovicapri ds</w>
structurestonep ipewater</w>
