{"<sos>":0,"<eos>":1,"<pad>":2,"\"":3,"$":4,"%":5,"&":6,"'":7,"(":8,")":9,"*":10,"+":11,",":12,"-":13,".":14,"/":15,"0":16,"1":17,"2":18,"3":19,"4":20,"5":21,"6":22,"7":23,"8":24,"9":25,":":26,";":27,"=":28,"@":29,"A":30,"B":31,"C":32,"D":33,"E":34,"G":35,"H":36,"I":37,"K":38,"L":39,"M":40,"N":41,"P":42,"Q":43,"R":44,"S":45,"T":46,"U":47,"W":48,"X":49,"Z":50,"`":51,"a":52,"b":53,"c":54,"d":55,"e":56,"f":57,"g":58,"h":59,"i":60,"j":61,"k":62,"l":63,"m":64,"n":65,"o":66,"p":67,"q":68,"r":69,"s":70,"t":71,"u":72,"v":73,"w":74,"x":75,"y":76,"z":77,"{":78,"|":79,"}":80,"~":81,"×":82,"–":83,"’":84,"…":85,"1</w>":86,"l</w>":87,"2</w>":88,"r</w>":89,"u</w>":90,"5</w>":91,"7</w>":92,"i</w>":93,"3</w>":94,"m</w>":95,"9</w>":96,"d</w>":97,"b</w>":98,"a</w>":99,"U</w>":100,"4</w>":101,"6</w>":102,"R</w>":103,"x</w>":104,"L</w>":105,"e</w>":106,"g</w>":107,"(</w>":108,"n</w>":109,"G</w>":110,"I</w>":111,"M</w>":112,"Z</w>":113,"8</w>":114,"A</w>":115,"t</w>":116,"N</w>":117,"0</w>":118,"B</w>":119,"z</w>":120,"D</w>":121,"h</w>":122,"X</w>":123,"f</w>":124,"k</w>":125,"c</w>":126,"/</w>":127,"q</w>":128,"H</w>":129,"E</w>":130,"s</w>":131,"P</w>":132,"K</w>":133,"p</w>":134,".</w>":135,"=</w>":136,"S</w>":137,"y</w>":138,"T</w>":139,"}</w>":140,"*</w>":141,"C</w>":142,"o</w>":143,"&</w>":144,"v</w>":145,"|</w>":146,")</w>":147,"{</w>":148,"-</w>":149,":</w>":150,"j</w>":151,"…</w>":152,",</w>":153,"%</w>":154,"~</w>":155,"@</w>":156,"–</w>":157,"’</w>":158,"w</w>":159,";</w>":160,"+</w>":161,"$</w>":162,"`</w>":163,"'</w>":164,"\"</w>":165,"sz</w>":166,"sz":167,"di":168,"disz</w>":169,"ba":170,"ga":171,"mu</w>":172,"ni":173,"gi":174,"gu":175,"la":176,"du":177,"ki</w>":178,"asz</w>":179,"lu":180,"si":181,"ba</w>":182,"n2</w>":183,"ge":184,"ur</w>":185,"ga</w>":186,"sa":187,"gal</w>":188,"ri":189,"na</w>":190,"da</w>":191,"sila":192,"ka":193,"ta</w>":194,"sila3</w>":195,"e2</w>":196,"szu":197,"en</w>":198,"ban2</w>":199,"ti</w>":200,"lugal</w>":201,"e3</w>":202,"ma":203,"sz2</w>":204,"ku":205,"i3</w>":206,"ma</w>":207,"sza":208,"la</w>":209,"lu2</w>":210,"rig</w>":211,"sze</w>":212,"barig</w>":213,"du</w>":214,"na":215,"ra</w>":216,"gin2</w>":217,"szu</w>":218,"dumu</w>":219,"sze3</w>":220,"gesz</w>":221,"iti</w>":222,"da":223,"a2</w>":224,"bi</w>":225,"u4</w>":226,"ki":227,"gi</w>":228,"gur</w>":229,"g2</w>":230,"ni</w>":231,"su":232,"gesz2</w>":233,"li":234,"sza3</w>":235,"nin</w>":236,"la2</w>":237,"an</w>":238,"tu":239,"l2</w>":240,"udu</w>":241,"ur":242,"zi</w>":243,"kam</w>":244,"nu</w>":245,"mu":246,"m2</w>":247,"szi":248,"gur":249,"nin":250,"kal</w>":251,"hu":252,"kasz</w>":253,"nigi":254,"nigin</w>":255,"szunigin</w>":256,"nu":257,"sar</w>":258,"ninda</w>":259,"gu4</w>":260,"me</w>":261,"dub</w>":262,"r2</w>":263,"gar</w>":264,"u2</w>":265,"ku</w>":266,"kiszi":267,"b3</w>":268,"in</w>":269,"ra2</w>":270,"kiszib3</w>":271,"usz</w>":272,"ka</w>":273,"sa</w>":274,"us":275,"us2</w>":276,"ab</w>":277,"suen</w>":278,"nan":279,"ku3</w>":280,"nig2</w>":281,"11</w>":282,"zu</w>":283,"sag</w>":284,"en":285,"GA":286,"bi":287,"bar</w>":288,"ri</w>":289,"gir</w>":290,"giri":291,"N2</w>":292,"nanna</w>":293,"du3</w>":294,"mar</w>":295,"gurusz</w>":296,"GAN2</w>":297,"szum2</w>":298,"hul</w>":299,"su</w>":300,"tu</w>":301,"masz2</w>":302,"ke":303,"si</w>":304,"gu</w>":305,"10</w>":306,"sa6</w>":307,"lil2</w>":308,"u3</w>":309,"dab":310,"ugu":311,"giri3</w>":312,"ga2</w>":313,"iku</w>":314,"ugula</w>":315,"a3</w>":316,"um</w>":317,"ke4</w>":318,"niga</w>":319,"em</w>":320,"tug2</w>":321,"bi2</w>":322,"ru</w>":323,"gu2</w>":324,"mah</w>":325,"al</w>":326,"b2</w>":327,"za</w>":328,"ez":329,"sila4</w>":330,"ezem</w>":331,"r3</w>":332,"ma2</w>":333,"igi</w>":334,"sza</w>":335,"gal2</w>":336,"nam</w>":337,"esz</w>":338,"am":339,"din":340,"dingir</w>":341,"si2</w>":342,"naga</w>":343,"szul</w>":344,"dab5</w>":345,"pa</w>":346,"im</w>":347,"ensi2</w>":348,"masz</w>":349,"ne</w>":350,"hu</w>":351,"szara2</w>":352,"am3</w>":353,"amar</w>":354,"ar</w>":355,"zi3</w>":356,"kur</w>":357,"du11</w>":358,"gi4</w>":359,"sz3</w>":360,"AR":361,"ha</w>":362,"ur3</w>":363,"saga</w>":364,"ARA":365,"li2</w>":366,"me2</w>":367,"geme2</w>":368,"D2</w>":369,"du10</w>":370,"ARAD2</w>":371,"ba6</w>":372,"da3</w>":373,"hun</w>":374,"DU</w>":375,"gir2</w>":376,"lum</w>":377,"siki</w>":378,"uri":379,"nun</w>":380,"ku5</w>":381,"szesz</w>":382,"eri":383,"inanna</w>":384,"gub</w>":385,"kux</w>":386,"dam</w>":387,"bab":388,"uri5</w>":389,"li</w>":390,"du8</w>":391,"mma</w>":392,"nim</w>":393,"ban":394,"sa2</w>":395,"he2</w>":396,"d2</w>":397,"bala</w>":398,"ab2</w>":399,"kkal</w>":400,"utu</w>":401,"bur3</w>":402,"re</w>":403,"ak</w>":404,"ku6</w>":405,"banda3</w>":406,"an":407,"de3</w>":408,"esze3</w>":409,"inim</w>":410,"lu</w>":411,"gu7</w>":412,"munu":413,"d3</w>":414,"kusz</w>":415,"munus</w>":416,"bur</w>":417,"ur4</w>":418,"SZ":419,"ta2</w>":420,"tum</w>":421,"pa":422,"tur</w>":423,"sig":424,"hi</w>":425,"ia3</w>":426,"iri</w>":427,"mun</w>":428,"gid2</w>":429,"zu2</w>":430,"uru":431,"isz":432,"engar</w>":433,"mi</w>":434,"szi</w>":435,"sag":436,"sukkal</w>":437,"ta":438,"me":439,"dug</w>":440,"szen</w>":441,"u8</w>":442,"bu</w>":443,"masz":444,"un</w>":445,"bad3</w>":446,"de2</w>":447,"ur2</w>":448,"laga":449,"mu2</w>":450,"h2</w>":451,"lagasz</w>":452,"muszen</w>":453,"zal</w>":454,"usz2</w>":455,"gin":456,"babbar</w>":457,"nita2</w>":458,"ha":459,"lam</w>":460,"ag2</w>":461,"nigar</w>":462,"pa3</w>":463,"za":464,"du7</w>":465,"kim</w>":466,"ud":467,"pi":468,"kin</w>":469,"ge</w>":470,"nita</w>":471,"gu3</w>":472,"ansze</w>":473,"kar</w>":474,"ud5</w>":475,"id</w>":476,"maszkim</w>":477,"esz3</w>":478,"kas":479,"ad</w>":480,"numun</w>":481,"sag11</w>":482,"i7</w>":483,"gaba</w>":484,"ub</w>":485,"iszkur</w>":486,"mes</w>":487,"zi":488,"be2</w>":489,"pu":490,"sipa</w>":491,"puz":492,"puzur4</w>":493,"dim2</w>":494,"am</w>":495,"gin7</w>":496,"nigin2</w>":497,"dabin</w>":498,"dar</w>":499,"SZ</w>":500,"sig1":501,"ru":502,"nansze</w>":503,"umma</w>":504,"gar3</w>":505,"gan</w>":506,"erin2</w>":507,"ug":508,"lu5</w>":509,"lim</w>":510,"szubur</w>":511,"z2</w>":512,"diri</w>":513,"ziz2</w>":514,"esz":515,"di</w>":516,"ne2</w>":517,"KA</w>":518,"hur</w>":519,"gen</w>":520,"esz2</w>":521,"har</w>":522,"ig</w>":523,"dim</w>":524,"ge6</w>":525,"kur2</w>":526,"ama</w>":527,"gigir</w>":528,"ti":529,"szar2</w>":530,"si4</w>":531,"dida</w>":532,"uruda</w>":533,"tuku</w>":534,"bar2</w>":535,"babbar2</w>":536,"gu10</w>":537,"unu</w>":538,"za3</w>":539,"num2</w>":540,"bla":541,"lamma</w>":542,"gur8</w>":543,"e6</w>":544,"nk</w>":545,"blank</w>":546,"tar</w>":547,"nga</w>":548,"ib2</w>":549,"ug3</w>":550,"ur5</w>":551,"ce</w>":552,"spa":553,"space</w>":554,"guru":555,"lim":556,"l3</w>":557,"li9</w>":558,"gur2</w>":559,"ga3</w>":560,"tab</w>":561,"il2</w>":562,"unu":563,"limmu2</w>":564,"bra</w>":565,"18</w>":566,"AN</w>":567,"szabra</w>":568,"eridu</w>":569,"kiri":570,"hal":571,"muhal":572,"muhaldim</w>":573,"gesz":574,"kiri6</w>":575,"kas4</w>":576,"lam2</w>":577,"isz</w>":578,"su3</w>":579,"IG":580,"nib":581,"din</w>":582,"nibru</w>":583,"NE</w>":584,"ninnu</w>":585,"ri2</w>":586,"L2</w>":587,"tuku":588,"te</w>":589,"ib</w>":590,"szusz3</w>":591,"ab":592,"du6</w>":593,"sa10</w>":594,"e11</w>":595,"sanga</w>":596,"ne":597,"asz2</w>":598,"sig15</w>":599,"ar3</w>":600,"17</w>":601,"kusz3</w>":602,"gada</w>":603,"nir</w>":604,"er3</w>":605,"ISZ</w>":606,"IL2</w>":607,"aga3</w>":608,"szar</w>":609,"anzu2</w>":610,"de6</w>":611,"szah2</w>":612,"le</w>":613,"LA":614,"sir2</w>":615,"duh</w>":616,"12</w>":617,"ru2</w>":618,"bara2</w>":619,"ap":620,"apin</w>":621,"nesag</w>":622,"l4</w>":623,"sahar</w>":624,"tim</w>":625,"ir</w>":626,"tukul</w>":627,"sig4</w>":628,"asz":629,"sze":630,"wa</w>":631,"13</w>":632,"esz18</w>":633,"tum2</w>":634,"tusz</w>":635,"h5</w>":636,"zabar</w>":637,"mun":638,"duru":639,"ul</w>":640,"abzu</w>":641,"guz</w>":642,"IM</w>":643,"munu4</w>":644,"ka9</w>":645,"guru7</w>":646,"edin</w>":647,"r4</w>":648,"szuku</w>":649,"sagi</w>":650,"alim</w>":651,"szitim</w>":652,"u5</w>":653,"na4</w>":654,"tin</w>":655,"unu6</w>":656,"il":657,"be</w>":658,"ni2</w>":659,"ku4</w>":660,"KU</w>":661,"gesztin</w>":662,"gig</w>":663,"lal3</w>":664,"se3</w>":665,"sis":666,"SIG":667,"duru5</w>":668,"tar":669,"min</w>":670,"su2</w>":671,"isztar":672,"isztaran</w>":673,"mug</w>":674,"DISZ</w>":675,"siskur2</w>":676,"er</w>":677,"SIG7</w>":678,"szub</w>":679,"kuru":680,"ra":681,"pa4</w>":682,"gibi":683,"n3</w>":684,"ken</w>":685,"szda</w>":686,"esir2</w>":687,"kesz2</w>":688,"bu3</w>":689,"dur3</w>":690,"tu7</w>":691,"kuruszda</w>":692,"KW":693,"KWU":694,"r11</w>":695,"gul</w>":696,"sig17</w>":697,"kik":698,"at</w>":699,"kaskal</w>":700,"su7</w>":701,"m3</w>":702,"uszu":703,"giri17</w>":704,"SZx":705,"KI":706,"kalam</w>":707,"kir11</w>":708,"musz</w>":709,"gukkal</w>":710,"mah2</w>":711,"sal</w>":712,"SZE</w>":713,"uh2</w>":714,"rx</w>":715,"AR</w>":716,"NI</w>":717,"dal</w>":718,"gudu":719,"husz</w>":720,"UR":721,"ze2</w>":722,"eb</w>":723,"sal4</w>":724,"esza</w>":725,"kun</w>":726,"lah5</w>":727,"gudu4</w>":728,"san</w>":729,"sur</w>":730,"gab2</w>":731,"ugu2</w>":732,"l5</w>":733,"se":734,"h3</w>":735,"pisan</w>":736,"kas</w>":737,"nu2</w>":738,"tag</w>":739,"ASZx":740,"ASZxDISZ</w>":741,"GI":742,"elam</w>":743,"nagar</w>":744,"PA</w>":745,"du5</w>":746,"di3</w>":747,"gibil</w>":748,"szu2</w>":749,"nim":750,"kil</w>":751,"urta</w>":752,"bir</w>":753,"illa":754,"kar2</w>":755,"nimgir</w>":756,"illat</w>":757,"sikil</w>":758,"gurum2</w>":759,"dab</w>":760,"lagar</w>":761,"tum3</w>":762,"tir</w>":763,"bu":764,"iq</w>":765,"nar</w>":766,"uz</w>":767,"dli</w>":768,"didli</w>":769,"kab2</w>":770,"UD</w>":771,"szuszi":772,"dagal</w>":773,"sa12</w>":774,"szuszin</w>":775,"til</w>":776,"14":777,"dun</w>":778,"am6</w>":779,"rum</w>":780,"gab</w>":781,"kun":782,"uri</w>":783,"gala</w>":784,"gur11</w>":785,"szim</w>":786,"aszgab</w>":787,"szimasz":788,"az":789,"bala":790,"luh</w>":791,"azla":792,"qar</w>":793,"gara2</w>":794,"unu3</w>":795,"ses</w>":796,"tak":797,"nag</w>":798,"MU":799,"kunga2</w>":800,"TU":801,"ra3</w>":802,"LAK":803,"U2</w>":804,"kusz2</w>":805,"szar3</w>":806,"il</w>":807,"tak4</w>":808,"147</w>":809,"ah</w>":810,"KWU147</w>":811,"dul5</w>":812,"silim</w>":813,"tesz2</w>":814,"tam</w>":815,"hul2</w>":816,"SZIM</w>":817,"esz5</w>":818,"r7</w>":819,"dara3</w>":820,"par4</w>":821,"ga6</w>":822,"szum</w>":823,"SZE":824,"ppi":825,"bappi":826,"zah3</w>":827,"erim2</w>":828,"szeg":829,"mur</w>":830,"KIN</w>":831,"ZI</w>":832,"gi7</w>":833,"sza13</w>":834,"azlag2</w>":835,"BA":836,"libir</w>":837,"su4</w>":838,"dur</w>":839,"ka5</w>":840,"sig</w>":841,"sud3</w>":842,"gaz</w>":843,"uru11</w>":844,"ad":845,"gur4</w>":846,"nin9</w>":847,"i2</w>":848,"hasz":849,"gurx</w>":850,"kisal</w>":851,"sumun</w>":852,"NU":853,"hal</w>":854,"dur2</w>":855,"haszhur</w>":856,"nx</w>":857,"namma</w>":858,"pi4</w>":859,"en3</w>":860,"gur10</w>":861,"ASZ</w>":862,"kikken</w>":863,"16</w>":864,"ra4</w>":865,"gin3</w>":866,"gazi</w>":867,"ken2</w>":868,"kikken2</w>":869,"dan</w>":870,"kid</w>":871,"simug</w>":872,"kiszi17</w>":873,"dah</w>":874,"uk":875,"szimaszgi</w>":876,"ala":877,"tul2</w>":878,"dusu2</w>":879,"ukken</w>":880,"KA":881,"nisa":882,"nisaba</w>":883,"PA":884,"UR</w>":885,"sila</w>":886,"nam2</w>":887,"KI</w>":888,"gun3</w>":889,"sun2</w>":890,"UM</w>":891,"em":892,"E2</w>":893,"p4</w>":894,"kup4</w>":895,"dara4</w>":896,"alan</w>":897,"muru":898,"pirig</w>":899,"dul3</w>":900,"14</w>":901,"dag</w>":902,"szunigin2</w>":903,"musz3</w>":904,"EN</w>":905,"had2</w>":906,"NIG":907,"SZE3</w>":908,"ip</w>":909,"u18</w>":910,"HI</w>":911,"saggal</w>":912,"2x":913,"NIG2</w>":914,"ka2</w>":915,"ia</w>":916,"pesz3</w>":917,"lunga</w>":918,"erin</w>":919,"gam</w>":920,"sag3</w>":921,"im":922,"26</w>":923,"sakar</w>":924,"mur":925,"NI":926,"pi2</w>":927,"sin2</w>":928,"lx</w>":929,"pu</w>":930,"suh5</w>":931,"szagi":932,"muru13</w>":933,"um":934,"GIR":935,"BI":936,"PAP</w>":937,"er2</w>":938,"szagina</w>":939,"SZI":940,"AB</w>":941,"mud</w>":942,"uri2</w>":943,"kab</w>":944,"SA":945,"LAGA":946,"it</w>":947,"eme</w>":948,"lla</w>":949,"n6</w>":950,"rig":951,"bur2</w>":952,"tukum</w>":953,"qu2</w>":954,"G2</w>":955,"ge26</w>":956,"zabala":957,"szer7</w>":958,"gurdub</w>":959,"URU</w>":960,"g4</w>":961,"DU":962,"egir</w>":963,"szuba":964,"szur</w>":965,"HAR</w>":966,"we</w>":967,"baha":968,"ER":969,"kul</w>":970,"zar3</w>":971,"TUG2</w>":972,"HA</w>":973,"tur3</w>":974,"balag</w>":975,"uru4</w>":976,"asa":977,"hen":978,"dalla</w>":979,"imga":980,"GIR2</w>":981,"kisz</w>":982,"ag":983,"az</w>":984,"buru":985,"tu2</w>":986,"gag</w>":987,"imgaga3</w>":988,"hendur</w>":989,"szeg9</w>":990,"TAR</w>":991,"USZ</w>":992,"lar":993,"nigin6</w>":994,"ambar</w>":995,"UL</w>":996,"dub2</w>":997,"larsa</w>":998,"GIN2</w>":999,"mi2</w>":1000,"ARAD</w>":1001,"tibi":1002,"rig7</w>":1003,"szita</w>":1004,"sza4</w>":1005,"aszna":1006,"adab</w>":1007,"ex</w>":1008,"szid</w>":1009,"banszur</w>":1010,"asznan</w>":1011,"90</w>":1012,"hab2</w>":1013,"ERIM</w>":1014,"szuba3</w>":1015,"agrig</w>":1016,"SI</w>":1017,"ik</w>":1018,"g3</w>":1019,"surx</w>":1020,"IGI</w>":1021,"me3</w>":1022,"ME</w>":1023,"lul</w>":1024,"emen</w>":1025,"szak":1026,"SZID</w>":1027,"szim":1028,"GA</w>":1029,"szu4</w>":1030,"gur3</w>":1031,"kin2</w>":1032,"gesztu2</w>":1033,"szakka":1034,"suhusz</w>":1035,"hub2</w>":1036,"szimmar</w>":1037,"sze6</w>":1038,"pu2</w>":1039,"pesz</w>":1040,"temen</w>":1041,"bappir</w>":1042,"lik</w>":1043,"bad</w>":1044,"zex</w>":1045,"geszimmar</w>":1046,"bulu":1047,"gi2</w>":1048,"GAR</w>":1049,"eme":1050,"gir":1051,"ak":1052,"pa5</w>":1053,"zu":1054,"lag</w>":1055,"mgal</w>":1056,"nda":1057,"BU</w>":1058,"ba4</w>":1059,"dili</w>":1060,"36</w>":1061,"de":1062,"uszumgal</w>":1063,"lga":1064,"wi</w>":1065,"mete</w>":1066,"uzu</w>":1067,"bappir3</w>":1068,"iszi":1069,"gilga":1070,"buru14</w>":1071,"lu3</w>":1072,"iszib</w>":1073,"IN</w>":1074,"sa3</w>":1075,"mer</w>":1076,"gilgame":1077,"aga":1078,"murgu2</w>":1079,"ildu3</w>":1080,"ganun</w>":1081,"mul</w>":1082,"KWU6":1083,"BAD</w>":1084,"mx</w>":1085,"uszur4</w>":1086,"pa2</w>":1087,"mun2</w>":1088,"he</w>":1089,"SZ2</w>":1090,"ug5</w>":1091,"uszur3</w>":1092,"lun":1093,"nus":1094,"D3</w>":1095,"gilgames":1096,"ninda":1097,"DI</w>":1098,"ke3</w>":1099,"DA":1100,"amasz</w>":1101,"pi</w>":1102,"gug2</w>":1103,"sim</w>":1104,"dusu</w>":1105,"BAD3</w>":1106,"de5</w>":1107,"zabala3</w>":1108,"gis":1109,"suhur</w>":1110,"eb2</w>":1111,"ugu</w>":1112,"du2</w>":1113,"NIN":1114,"KUM</w>":1115,"lah":1116,"asal2</w>":1117,"gissu</w>":1118,"bil3</w>":1119,"nusku</w>":1120,"suhub2</w>":1121,"tu5</w>":1122,"uru2</w>":1123,"isin2</w>":1124,"eme6</w>":1125,"BI</w>":1126,"re2</w>":1127,"KWU636</w>":1128,"ap</w>":1129,"ub2</w>":1130,"MI</w>":1131,"gna</w>":1132,"idi":1133,"mi":1134,"idigna</w>":1135,"ge2</w>":1136,"kum</w>":1137,"tah</w>":1138,"AM":1139,"uk</w>":1140,"be6</w>":1141,"kud</w>":1142,"nig</w>":1143,"szanda":1144,"sig7</w>":1145,"szandana</w>":1146,"NUN</w>":1147,"GI</w>":1148,"u6</w>":1149,"bila</w>":1150,"01</w>":1151,"el</w>":1152,"na2</w>":1153,"bahar2</w>":1154,"szimaszgi2</w>":1155,"PI</w>":1156,"sukud</w>":1157,"gil</w>":1158,"15</w>":1159,"gisz</w>":1160,"ad6</w>":1161,"gid":1162,"ku2</w>":1163,"LAGAB</w>":1164,"uru16</w>":1165,"ulu3</w>":1166,"dib</w>":1167,"bil</w>":1168,"gum</w>":1169,"lukur</w>":1170,"gax</w>":1171,"szinig</w>":1172,"is</w>":1173,"min3</w>":1174,"TU</w>":1175,"bil2</w>":1176,"tal</w>":1177,"sin3</w>":1178,"lid2</w>":1179,"absin3</w>":1180,"SAR</w>":1181,"tibirx</w>":1182,"zx</w>":1183,"nid":1184,"ad7</w>":1185,"L3</w>":1186,"mu10</w>":1187,"ud</w>":1188,"ME":1189,"gazx</w>":1190,"ka3</w>":1191,"geszkim</w>":1192,"izi</w>":1193,"gu5</w>":1194,"anzu</w>":1195,"udru</w>":1196,"zalag</w>":1197,"MES</w>":1198,"kesz3</w>":1199,"N01</w>":1200,"suh</w>":1201,"re6</w>":1202,"ub3</w>":1203,"sa4</w>":1204,"ag</w>":1205,"giri16</w>":1206,"bin</w>":1207,"gi5</w>":1208,"gibil4</w>":1209,"umbin</w>":1210,"agar4</w>":1211,"SAL</w>":1212,"TA":1213,"rig2</w>":1214,"MUNU":1215,"pak</w>":1216,"gal5</w>":1217,"LAK4":1218,"KID</w>":1219,"GISZ</w>":1220,"rin</w>":1221,"RI</w>":1222,"KAL</w>":1223,"uszurx</w>":1224,"ge4</w>":1225,"zigum</w>":1226,"gilgamesx</w>":1227,"szeg12</w>":1228,"eme3</w>":1229,"bur":1230,"uri3</w>":1231,"aszgi</w>":1232,"mas</w>":1233,"TUR</w>":1234,"mesz</w>":1235,"uku2</w>":1236,"gesztu</w>":1237,"pu3</w>":1238,"di4</w>":1239,"aga</w>":1240,"szagan</w>":1241,"GA2x":1242,"UN</w>":1243,"HU":1244,"BIL3</w>":1245,"szuru":1246,"dab6</w>":1247,"zadim</w>":1248,"bu7</w>":1249,"n4</w>":1250,"m4</w>":1251,"gar":1252,"szurup":1253,"aktum</w>":1254,"szuruppak</w>":1255,"LU</w>":1256,"RU</w>":1257,"n5</w>":1258,"nindax</w>":1259,"men</w>":1260,"mud":1261,"MUSZx":1262,"2x</w>":1263,"nunu":1264,"NINDA":1265,"20</w>":1266,"ibila</w>":1267,"gasza":1268,"szakkan</w>":1269,"MUNUS</w>":1270,"qa2</w>":1271,"lulim</w>":1272,"LAL2</w>":1273,"na8</w>":1274,"SU</w>":1275,"nidba</w>":1276,"gaszam</w>":1277,"gum2</w>":1278,"KAx":1279,"AMA</w>":1280,"MUSZxPA</w>":1281,"da5</w>":1282,"NA":1283,"xNIG2</w>":1284,"MUSZ</w>":1285,"nunuz</w>":1286,"ugnim</w>":1287,"esz4</w>":1288,"TE</w>":1289,"urua</w>":1290,"pesz2</w>":1291,"gug</w>":1292,"SI":1293,"gigir2</w>":1294,"LAGAB":1295,"zum</w>":1296,"AK</w>":1297,"MU</w>":1298,"qi2</w>":1299,"se</w>":1300,"rib</w>":1301,"ummu":1302,"U8</w>":1303,"l6</w>":1304,"U3</w>":1305,"dul</w>":1306,"ut</w>":1307,"ul4</w>":1308,"ti2</w>":1309,"DA</w>":1310,"abul</w>":1311,"ar":1312,"rgal</w>":1313,"uh</w>":1314,"gamun2</w>":1315,"su8</w>":1316,"se12</w>":1317,"er":1318,"dul":1319,"dih3</w>":1320,"su13</w>":1321,"sag2</w>":1322,"bahar3</w>":1323,"dil":1324,"Ix":1325,"Nx":1326,"ba2</w>":1327,"sama":1328,"gud</w>":1329,"szakkan2</w>":1330,"lungax</w>":1331,"ganx</w>":1332,"BIxNIG2</w>":1333,"HIx":1334,"gir4</w>":1335,"hum</w>":1336,"dilmun</w>":1337,"szaganx</w>":1338,"MUSZ":1339,"szir3</w>":1340,"17":1341,"SZUL</w>":1342,"URU":1343,"ara":1344,"bal</w>":1345,"ad3</w>":1346,"iz</w>":1347,"r5</w>":1348,"SAG</w>":1349,"bulug3</w>":1350,"gidri</w>":1351,"bi3</w>":1352,"gubalag</w>":1353,"lla":1354,"sun5</w>":1355,"asalx</w>":1356,"HU</w>":1357,"GU":1358,"LUM</w>":1359,"udu":1360,"ne3</w>":1361,"dugud</w>":1362,"galam</w>":1363,"GAN</w>":1364,"SZU</w>":1365,"durunx</w>":1366,"DI":1367,"im2</w>":1368,"tibira</w>":1369,"ESZ</w>":1370,"MASZ</w>":1371,"URx":1372,"enku</w>":1373,"SZU2</w>":1374,"BA</w>":1375,"NA</w>":1376,"rim3</w>":1377,"pi5</w>":1378,"lunga3</w>":1379,"MUSZ3</w>":1380,"B2</w>":1381,"szu12</w>":1382,"tub</w>":1383,"mu6</w>":1384,"LAK0":1385,"ummu3</w>":1386,"iti":1387,"re":1388,"gug4</w>":1389,"esztub</w>":1390,"LU":1391,"GA2</w>":1392,"ban3</w>":1393,"NIR</w>":1394,"udul2</w>":1395,"gx</w>":1396,"nida</w>":1397,"sub3</w>":1398,"tu15</w>":1399,"esz8</w>":1400,"ug</w>":1401,"ir7</w>":1402,"du12</w>":1403,"zux</w>":1404,"10":1405,"arat":1406,"re7</w>":1407,"en6</w>":1408,"dul9</w>":1409,"lugu":1410,"Gx":1411,"usu</w>":1412,"gibil6</w>":1413,"aratta</w>":1414,"ZA</w>":1415,"imin</w>":1416,"s3</w>":1417,"lah</w>":1418,"lugud2</w>":1419,"szud3</w>":1420,"sza5</w>":1421,"IR</w>":1422,"aba4</w>":1423,"mar2</w>":1424,"bura":1425,"zur</w>":1426,"ban</w>":1427,"kan2</w>":1428,"DIN</w>":1429,"ZU</w>":1430,"iri":1431,"kad":1432,"gud3</w>":1433,"uszum</w>":1434,"r9</w>":1435,"ku7</w>":1436,"mar":1437,"engur</w>":1438,"bilx</w>":1439,"nergal</w>":1440,"gir13</w>":1441,"asza5</w>":1442,"KU":1443,"dum</w>":1444,"duk</w>":1445,"kal2</w>":1446,"tuku5</w>":1447,"sze8</w>":1448,"lah4</w>":1449,"TUM</w>":1450,"zza</w>":1451,"guzza</w>":1452,"sza2</w>":1453,"marduk</w>":1454,"IG</w>":1455,"pesz":1456,"zu5</w>":1457,"URxA</w>":1458,"anzux</w>":1459,"arhusz</w>":1460,"dadag</w>":1461,"bir3</w>":1462,"pad</w>":1463,"21</w>":1464,"NU</w>":1465,"asar</w>":1466,"ku8</w>":1467,"mudra":1468,"NINDA2x</w>":1469,"EZ":1470,"TAG</w>":1471,"LAGABx":1472,"GAM</w>":1473,"gir5</w>":1474,"mudra5</w>":1475,"zim":1476,"sira":1477,"bul5</w>":1478,"es3</w>":1479,"zar</w>":1480,"kinx</w>":1481,"suh3</w>":1482,"lil</w>":1483,"tar2</w>":1484,"gan2</w>":1485,"rah</w>":1486,"buranun</w>":1487,"kua":1488,"eri11</w>":1489,"bappir2</w>":1490,"zimbir</w>":1491,"PAD</w>":1492,"HUL2</w>":1493,"dulx</w>":1494,"sumur</w>":1495,"za7</w>":1496,"asz8</w>":1497,"szex</w>":1498,"eh</w>":1499,"pe</w>":1500,"LAK2":1501,"ESZ2</w>":1502,"szem":1503,"UR2x":1504,"KUR</w>":1505,"nga":1506,"bum2</w>":1507,"22</w>":1508,"idim</w>":1509,"UR3</w>":1510,"si3</w>":1511,"ENx":1512,"hiri":1513,"ir3</w>":1514,"gun4</w>":1515,"UR2</w>":1516,"DUB</w>":1517,"URUx":1518,"45</w>":1519,"ubi</w>":1520,"karin</w>":1521,"manga":1522,"mangaga</w>":1523,"BUR</w>":1524,"LAK5":1525,"kak</w>":1526,"KIB</w>":1527,"LAK020</w>":1528,"SZESZ2</w>":1529,"dim3</w>":1530,"SZA":1531,"azlag3</w>":1532,"hirinx</w>":1533,"nisi</w>":1534,"MIN</w>":1535,"ner</w>":1536,"LAK3":1537,"eg3</w>":1538,"AR2</w>":1539,"bun2</w>":1540,"bulug4</w>":1541,"TUR3</w>":1542,"kum2</w>":1543,"ra6</w>":1544,"KID2</w>":1545,"adkinx</w>":1546,"83</w>":1547,"gur5</w>":1548,"dul4</w>":1549,"kis":1550,"su6</w>":1551,"num</w>":1552,"da6</w>":1553,"kislah</w>":1554,"rga":1555,"ep</w>":1556,"gi6</w>":1557,"SZESZ</w>":1558,"sirara6</w>":1559,"AN":1560,"sug</w>":1561,"man</w>":1562,"kili":1563,"nin10</w>":1564,"15":1565,"34</w>":1566,"GESZ</w>":1567,"run</w>":1568,"utu":1569,"gurdub2</w>":1570,"pil</w>":1571,"usa":1572,"gan":1573,"nir7</w>":1574,"nag":1575,"GAL</w>":1576,"LI</w>":1577,"NINA</w>":1578,"nagga</w>":1579,"dux</w>":1580,"SU":1581,"KWU3":1582,"zuh</w>":1583,"agarga":1584,"ANSZE</w>":1585,"49</w>":1586,"qi3</w>":1587,"ninda2</w>":1588,"abba2</w>":1589,"IL</w>":1590,"qum</w>":1591,"nu11</w>":1592,"zaba":1593,"agargara</w>":1594,"AL</w>":1595,"pesz5</w>":1596,"lig</w>":1597,"zabala</w>":1598,"itix</w>":1599,"EDIN</w>":1600,"ama":1601,"szesz4</w>":1602,"buru5</w>":1603,"babila</w>":1604,"hul3</w>":1605,"naga3</w>":1606,"abgal</w>":1607,"ZA":1608,"asz3</w>":1609,"garig2</w>":1610,"malx</w>":1611,"ginx</w>":1612,"di2</w>":1613,"gesz3</w>":1614,"pisz</w>":1615,"ug7</w>":1616,"addi":1617,"KWU318</w>":1618,"16":1619,"ki2</w>":1620,"sagszu</w>":1621,"tilla":1622,"lah6</w>":1623,"ZUM</w>":1624,"bar7</w>":1625,"usan3</w>":1626,"96</w>":1627,"ASZ2</w>":1628,"Mx":1629,"ad2</w>":1630,"uh3</w>":1631,"uru18</w>":1632,"KAK</w>":1633,"DAG</w>":1634,"kilib3</w>":1635,"MA</w>":1636,"ugur2</w>":1637,"IR":1638,"el":1639,"ni10</w>":1640,"lagab</w>":1641,"ellag</w>":1642,"men":1643,"sum</w>":1644,"LAL</w>":1645,"skarin</w>":1646,"nina</w>":1647,"taskarin</w>":1648,"geszgal</w>":1649,"KWU8":1650,"GU4</w>":1651,"den</w>":1652,"GIR</w>":1653,"AH</w>":1654,"TA</w>":1655,"esi</w>":1656,"mil</w>":1657,"lipisz</w>":1658,"mu11</w>":1659,"GAG</w>":1660,"BAR</w>":1661,"NIM</w>":1662,"dur9</w>":1663,"KAxX</w>":1664,"ganba</w>":1665,"RA</w>":1666,"isi":1667,"u9</w>":1668,"dirig</w>":1669,"szuba</w>":1670,"sug2</w>":1671,"sumun2</w>":1672,"urasz</w>":1673,"imma":1674,"murgu</w>":1675,"zabala4</w>":1676,"PIR":1677,"LAK6":1678,"menx</w>":1679,"LUL</w>":1680,"eden</w>":1681,"gin</w>":1682,"HUB2</w>":1683,"garza</w>":1684,"PIRIG</w>":1685,"sx":1686,"szaki":1687,"DUGx":1688,"A2</w>":1689,"mir</w>":1690,"un":1691,"giz":1692,"bil4</w>":1693,"tan2</w>":1694,"NUNU":1695,"BIL</w>":1696,"13":1697,"ze</w>":1698,"dan6</w>":1699,"ru12</w>":1700,"unu2</w>":1701,"LAK7":1702,"lahtan2</w>":1703,"NUNUZ</w>":1704,"44</w>":1705,"esi":1706,"du14</w>":1707,"LAG</w>":1708,"BALAG</w>":1709,"GA2xEN</w>":1710,"SILA":1711,"19</w>":1712,"GU</w>":1713,"ubur</w>":1714,"uru5</w>":1715,"LAK17":1716,"LAK483</w>":1717,"IB</w>":1718,"sur2</w>":1719,"en8</w>":1720,"pap</w>":1721,"LAM</w>":1722,"unken</w>":1723,"ar2</w>":1724,"tab2</w>":1725,"kinda":1726,"nerah</w>":1727,"murx</w>":1728,"mudx</w>":1729,"as</w>":1730,"ebi":1731,"sug4</w>":1732,"tugx</w>":1733,"bir5</w>":1734,"NINDA2x":1735,"LAGABx</w>":1736,"LU2</w>":1737,"tal2</w>":1738,"zi2</w>":1739,"LAK490</w>":1740,"K4</w>":1741,"TIL</w>":1742,"mu4</w>":1743,"sin</w>":1744,"suh":1745,"giri2</w>":1746,"isz8</w>":1747,"MUN</w>":1748,"bulug</w>":1749,"TAK4</w>":1750,"karx</w>":1751,"kiszib</w>":1752,"urumx</w>":1753,"gar8</w>":1754,"HIxDISZ</w>":1755,"LA</w>":1756,"il3</w>":1757,"ku10</w>":1758,"par3</w>":1759,"sag10</w>":1760,"samanx</w>":1761,"27</w>":1762,"ul3</w>":1763,"kin":1764,"kig2</w>":1765,"ninni":1766,"ezi":1767,"palil2</w>":1768,"geszbun2</w>":1769,"DU6</w>":1770,"kinda2</w>":1771,"25</w>":1772,"24</w>":1773,"ih</w>":1774,"ina</w>":1775,"urx</w>":1776,"ilda":1777,"LAK449</w>":1778,"DUR2</w>":1779,"ella":1780,"usz":1781,"szer3</w>":1782,"szir</w>":1783,"NAGAR</w>":1784,"SZA3</w>":1785,"zabar3</w>":1786,"ellag2</w>":1787,"gal4</w>":1788,"da13</w>":1789,"TUL2</w>":1790,"SAGx":1791,"AM2</w>":1792,"LU2x":1793,"23</w>":1794,"77</w>":1795,"84</w>":1796,"b4</w>":1797,"silig</w>":1798,"szudul5</w>":1799,"GIR3</w>":1800,"kad4</w>":1801,"ama5</w>":1802,"29</w>":1803,"dim4</w>":1804,"szita2</w>":1805,"szeg3</w>":1806,"zabala6</w>":1807,"szuba2</w>":1808,"saman3</w>":1809,"NAM2</w>":1810,"aq</w>":1811,"pesz10</w>":1812,"de</w>":1813,"up</w>":1814,"umusz</w>":1815,"ge5</w>":1816,"girimx</w>":1817,"unug</w>":1818,"UM":1819,"gilgames2</w>":1820,"KISZ</w>":1821,"TI</w>":1822,"s2</w>":1823,"EZEN</w>":1824,"18":1825,"bul</w>":1826,"gim</w>":1827,"six</w>":1828,"kar":1829,"sux</w>":1830,"tum":1831,"mu7</w>":1832,"durux</w>":1833,"19":1834,"AD</w>":1835,"MIR</w>":1836,"szesz2</w>":1837,"ezen</w>":1838,"erisz</w>":1839,"til":1840,"d4</w>":1841,"gak":1842,"GAB</w>":1843,"gir16</w>":1844,"gidru</w>":1845,"KUSZU2</w>":1846,"kuara</w>":1847,"gizzal</w>":1848,"HAR2</w>":1849,"gub3</w>":1850,"titab2</w>":1851,"LAL":1852,"KISI":1853,"BAHAR2</w>":1854,"UMBI":1855,"KISIM":1856,"3x":1857,"ke</w>":1858,"szukur</w>":1859,"gin6</w>":1860,"gesztu":1861,"KAS":1862,"UR2xU2</w>":1863,"bx</w>":1864,"se11</w>":1865,"wu</w>":1866,"nita":1867,"tur2</w>":1868,"SZA</w>":1869,"gudux</w>":1870,"KU7</w>":1871,"LU2xESZ2</w>":1872,"KISIM5":1873,"b5</w>":1874,"era":1875,"gi16</w>":1876,"kul2</w>":1877,"szak</w>":1878,"mu5</w>":1879,"dabx</w>":1880,"tak2</w>":1881,"eresz</w>":1882,"asal</w>":1883,"r6</w>":1884,"szab</w>":1885,"rigx</w>":1886,"bur12</w>":1887,"EZENx":1888,"SILA3</w>":1889,"LAL2x":1890,"N14</w>":1891,"SA</w>":1892,"hir</w>":1893,"narx</w>":1894,"sul</w>":1895,"szita":1896,"gurun</w>":1897,"illu</w>":1898,"akszak</w>":1899,"nidba2</w>":1900,"AP":1901,"AB2</w>":1902,"DIM</w>":1903,"gir3</w>":1904,"lu7</w>":1905,"szagax</w>":1906,"numun2</w>":1907,"ensix</w>":1908,"erinx</w>":1909,"zabala5</w>":1910,"eren</w>":1911,"addirx</w>":1912,"ezina2</w>":1913,"karkar</w>":1914,"tilla2</w>":1915,"APIN</w>":1916,"28</w>":1917,"TIR</w>":1918,"lem":1919,"utul2</w>":1920,"kasz":1921,"szargal</w>":1922,"sur3</w>":1923,"sumasz</w>":1924,"LAGAR</w>":1925,"kadra</w>":1926,"tilla3</w>":1927,"KWU896</w>":1928,"szakir3</w>":1929,"UMBINx":1930,"KASKAL</w>":1931,"lem4</w>":1932,"PU3</w>":1933,"al6</w>":1934,"egir5</w>":1935,"lga</w>":1936,"ulu":1937,"szx</w>":1938,"szal2</w>":1939,"sag7</w>":1940,"sze21</w>":1941,"NAGA</w>":1942,"SUR</w>":1943,"galga</w>":1944,"san":1945,"szur2</w>":1946,"kid2</w>":1947,"tu6</w>":1948,"szibir</w>":1949,"uszur2</w>":1950,"KAD":1951,"gidlam</w>":1952,"egi2</w>":1953,"qa</w>":1954,"tun3</w>":1955,"ERI":1956,"akkil</w>":1957,"ZAG</w>":1958,"kasz4</w>":1959,"lumx</w>":1960,"tu3</w>":1961,"umbi":1962,"iti6</w>":1963,"LAL2xTUG2</w>":1964,"GUR</w>":1965,"M2</w>":1966,"TAB</w>":1967,"hasz</w>":1968,"tigi</w>":1969,"nirx</w>":1970,"ma3</w>":1971,"kum4</w>":1972,"kir</w>":1973,"gurumx</w>":1974,"agrun</w>":1975,"er9</w>":1976,"ninni5</w>":1977,"gesztux</w>":1978,"a1</w>":1979,"le2</w>":1980,"ub5</w>":1981,"gidim</w>":1982,"dara2</w>":1983,"isz11</w>":1984,"KISAL</w>":1985,"gilgames3</w>":1986,"30</w>":1987,"SUD</w>":1988,"uq</w>":1989,"gix</w>":1990,"nigin":1991,"sig3</w>":1992,"uru17</w>":1993,"rum2</w>":1994,"148":1995,"ERIN2</w>":1996,"92</w>":1997,"szudu3</w>":1998,"nag4</w>":1999,"bir4</w>":2000,"mesz3</w>":2001,"ebih</w>":2002,"g5</w>":2003,"utu2</w>":2004,"bat":2005,"bara4</w>":2006,"nab</w>":2007,"szilam</w>":2008,"birx</w>":2009,"SZU":2010,"kurun2</w>":2011,"AD2</w>":2012,"MA2</w>":2013,"N3</w>":2014,"egi</w>":2015,"tu4</w>":2016,"tumx</w>":2017,"SZIR</w>":2018,"DUG</w>":2019,"gir15</w>":2020,"ummux</w>":2021,"ENxMASZ</w>":2022,"gakkul</w>":2023,"54</w>":2024,"DAR</w>":2025,"KAR2</w>":2026,"ta3</w>":2027,"sze2</w>":2028,"bara3</w>":2029,"dur":2030,"szeg11</w>":2031,"00":2032,"58</w>":2033,"50</w>":2034,"AB":2035,"HAL</w>":2036,"qir</w>":2037,"ukusz2</w>":2038,"gisal</w>":2039,"lib</w>":2040,"nun":2041,"GA2x</w>":2042,"sed</w>":2043,"aktum2</w>":2044,"KWU634</w>":2045,"43</w>":2046,"GUR":2047,"ana</w>":2048,"b6</w>":2049,"qur</w>":2050,"dub3</w>":2051,"kuk":2052,"kilim</w>":2053,"uru</w>":2054,"zah2</w>":2055,"UR2x</w>":2056,"SZIMx":2057,"SAHAR</w>":2058,"DUL3</w>":2059,"MUNU4</w>":2060,"DIM2</w>":2061,"utua</w>":2062,"35</w>":2063,"46</w>":2064,"buru4</w>":2065,"dili2</w>":2066,"ba9</w>":2067,"nir2</w>":2068,"mus":2069,"kun5</w>":2070,"DUN</w>":2071,"zubi</w>":2072,"arad</w>":2073,"nitalam</w>":2074,"bat5</w>":2075,"33</w>":2076,"51</w>":2077,"egir4</w>":2078,"us</w>":2079,"rin2</w>":2080,"dax</w>":2081,"hux</w>":2082,"sag5</w>":2083,"zil2</w>":2084,"siskur</w>":2085,"GUG2</w>":2086,"LAK384</w>":2087,"sxBAD</w>":2088,"LAK175</w>":2089,"63</w>":2090,"xU</w>":2091,"gana2</w>":2092,"gamurx</w>":2093,"szutum2</w>":2094,"kurun</w>":2095,"mu13</w>":2096,"pu6</w>":2097,"tigix</w>":2098,"UR4</w>":2099,"URI</w>":2100,"sed4</w>":2101,"bugin</w>":2102,"LAK50":2103,"addir</w>":2104,"sxTIL</w>":2105,"40</w>":2106,"bum</w>":2107,"sub</w>":2108,"tud2</w>":2109,"pil2</w>":2110,"limmu5</w>":2111,"murub4</w>":2112,"im6</w>":2113,"NAM</w>":2114,"KAD4</w>":2115,"20":2116,"nir3</w>":2117,"nanib":2118,"dan3</w>":2119,"tag4</w>":2120,"radin":2121,"szegx</w>":2122,"peszx</w>":2123,"ZA7</w>":2124,"dur10</w>":2125,"79</w>":2126,"BU":2127,"KU3</w>":2128,"eda":2129,"mbi</w>":2130,"nna</w>":2131,"ugu4</w>":2132,"udug</w>":2133,"tum4</w>":2134,"szi2</w>":2135,"guru3</w>":2136,"kiri3</w>":2137,"NI2</w>":2138,"DIL":2139,"nundum</w>":2140,"mussa</w>":2141,"BULU":2142,"32</w>":2143,"48</w>":2144,"62</w>":2145,"GIM</w>":2146,"hx</w>":2147,"durx</w>":2148,"sab</w>":2149,"szaga</w>":2150,"danna</w>":2151,"ru14</w>":2152,"asz10</w>":2153,"murux</w>":2154,"DUN3</w>":2155,"kuara2</w>":2156,"31</w>":2157,"52</w>":2158,"E2x":2159,"G3</w>":2160,"GUL</w>":2161,"KUL</w>":2162,"KUN</w>":2163,"asi":2164,"ila":2165,"ba13</w>":2166,"tukumbi</w>":2167,"GISZ":2168,"dul10</w>":2169,"HIxASZ</w>":2170,"szembi</w>":2171,"kinda</w>":2172,"nanibgal</w>":2173,"DILMUN</w>":2174,"ilar</w>":2175,"37</w>":2176,"39</w>":2177,"55</w>":2178,"53</w>":2179,"89</w>":2180,"UDU</w>":2181,"bun</w>":2182,"ga14</w>":2183,"tur5</w>":2184,"nigin3</w>":2185,"ensi</w>":2186,"kesze2</w>":2187,"rax</w>":2188,"LAGABxHA</w>":2189,"erasu":2190,"LAK503":2191,"42</w>":2192,"amusz</w>":2193,"k4</w>":2194,"uga</w>":2195,"umun2</w>":2196,"sziti</w>":2197,"galla</w>":2198,"gubla":2199,"tun2</w>":2200,"tuk4</w>":2201,"til3</w>":2202,"nemurx</w>":2203,"aszv</w>":2204,"mur10</w>":2205,"saman4</w>":2206,"isimud</w>":2207,"imma3</w>":2208,"KISIM5x</w>":2209,"szita4</w>":2210,"nigin8</w>":2211,"BULUG3</w>":2212,"erasure</w>":2213,"gublaga</w>":2214,"57</w>":2215,"BUR2</w>":2216,"Dx":2217,"EL</w>":2218,"Qx</w>":2219,"d7</w>":2220,"pan</w>":2221,"rasz</w>":2222,"uszur</w>":2223,"szen":2224,"max</w>":2225,"tu11</w>":2226,"ur11</w>":2227,"zid2</w>":2228,"guru5</w>":2229,"KIL</w>":2230,"bux</w>":2231,"URUDU</w>":2232,"kuax</w>":2233,"ildag2</w>":2234,"edakuax</w>":2235,"38</w>":2236,"47</w>":2237,"59</w>":2238,"72</w>":2239,"ESZ":2240,"tisz":2241,"usan</w>":2242,"szkarin</w>":2243,"ger</w>":2244,"szur":2245,"gurum</w>":2246,"taszkarin</w>":2247,"aszgi2</w>":2248,"azlag4</w>":2249,"de9</w>":2250,"HIxASZ2</w>":2251,"SUH":2252,"immax</w>":2253,"tiszpak</w>":2254,"56</w>":2255,"69</w>":2256,"e4</w>":2257,"et</w>":2258,"dili":2259,"digir</w>":2260,"babi":2261,"gi8</w>":2262,"gisz":2263,"gun2</w>":2264,"dur7</w>":2265,"sir3</w>":2266,"szurx</w>":2267,"szudul</w>":2268,"szudul4</w>":2269,"kug</w>":2270,"kur6</w>":2271,"szilig</w>":2272,"rab3</w>":2273,"BIR</w>":2274,"eme5</w>":2275,"SIKIL</w>":2276,"suh6</w>":2277,"el3</w>":2278,"i5</w>":2279,"garigx</w>":2280,"gi18</w>":2281,"karadin":2282,"szarx</w>":2283,"szika</w>":2284,"tam2</w>":2285,"bud</w>":2286,"NIN</w>":2287,"zubud</w>":2288,"dilim2</w>":2289,"60</w>":2290,"98</w>":2291,"GU2</w>":2292,"am2</w>":2293,"qe2</w>":2294,"se2</w>":2295,"ut":2296,"sud</w>":2297,"sulu":2298,"hug</w>":2299,"NU11</w>":2300,"SZIM":2301,"LUGAL</w>":2302,"tum12</w>":2303,"sangax</w>":2304,"64</w>":2305,"80</w>":2306,"EN":2307,"asila</w>":2308,"epi":2309,"eger</w>":2310,"rex</w>":2311,"dil</w>":2312,"dug4</w>":2313,"szukur2</w>":2314,"szutumx</w>":2315,"sum2</w>":2316,"sun4</w>":2317,"mum</w>":2318,"GAR":2319,"limmu</w>":2320,"LAK244</w>":2321,"tilla5</w>":2322,"ebih2</w>":2323,"ildag4</w>":2324,"UMBINxLU</w>":2325,"ABx":2326,"GUR8</w>":2327,"85</w>":2328,"87</w>":2329,"93</w>":2330,"AL":2331,"as2</w>":2332,"ngu</w>":2333,"tan</w>":2334,"uz":2335,"umum</w>":2336,"nirah</w>":2337,"lak</w>":2338,"sub6</w>":2339,"musz2</w>":2340,"enkux</w>":2341,"GABA</w>":2342,"hasz2</w>":2343,"hara4</w>":2344,"pirig":2345,"kas3</w>":2346,"tuku4</w>":2347,"MUSZ2</w>":2348,"KAM</w>":2349,"AMAR</w>":2350,"gar5</w>":2351,"szem5</w>":2352,"pirig3</w>":2353,"68</w>":2354,"74</w>":2355,"erx</w>":2356,"tel</w>":2357,"ga4</w>":2358,"lax</w>":2359,"sik</w>":2360,"nax</w>":2361,"kid7</w>":2362,"lirum</w>":2363,"erim3</w>":2364,"megi":2365,"SZEN</w>":2366,"DIB</w>":2367,"kingal</w>":2368,"tum9</w>":2369,"82</w>":2370,"97</w>":2371,"LI":2372,"ix</w>":2373,"pum</w>":2374,"udun</w>":2375,"szem</w>":2376,"lag2</w>":2377,"dungu</w>":2378,"kam4</w>":2379,"naga4</w>":2380,"erisz2</w>":2381,"munu3</w>":2382,"sagdu</w>":2383,"zil</w>":2384,"asz7</w>":2385,"SIG4</w>":2386,"NUxU</w>":2387,"nindaba</w>":2388,"pesz11</w>":2389,"LAK173</w>":2390,"kukku2</w>":2391,"LAK503a</w>":2392,"SZIMxNIG2</w>":2393,"66</w>":2394,"81</w>":2395,"ux</w>":2396,"ug2</w>":2397,"lal</w>":2398,"suhu":2399,"gur7</w>":2400,"banszurx</w>":2401,"zalag2</w>":2402,"adkin</w>":2403,"ummax</w>":2404,"DU8</w>":2405,"emeda</w>":2406,"GA2xHA</w>":2407,"szakir</w>":2408,"esirx</w>":2409,"umbinx</w>":2410,"SUHUR</w>":2411,"megidax</w>":2412,"LIBIR</w>":2413,"61</w>":2414,"65</w>":2415,"U4</w>":2416,"ara3</w>":2417,"un3</w>":2418,"gig":2419,"gig2</w>":2420,"siki2</w>":2421,"rim4</w>":2422,"tu10</w>":2423,"tu17</w>":2424,"tasz3</w>":2425,"meda</w>":2426,"tim2</w>":2427,"geszbun</w>":2428,"ummeda</w>":2429,"SZITA</w>":2430,"kad5</w>":2431,"szembi3</w>":2432,"LAK526</w>":2433,"LAK777</w>":2434,"KISIM5x":2435,"ulutim2</w>":2436,"umbisag</w>":2437,"41</w>":2438,"75</w>":2439,"70</w>":2440,"88</w>":2441,"BIL2</w>":2442,"I3</w>":2443,"KUD</w>":2444,"NU2</w>":2445,"NGIR</w>":2446,"nimin</w>":2447,"la3</w>":2448,"lum":2449,"si22</w>":2450,"kan</w>":2451,"kam3</w>":2452,"szudulx</w>":2453,"nana</w>":2454,"szidim</w>":2455,"AR2x":2456,"urix</w>":2457,"SZAR2x":2458,"pad3</w>":2459,"zag</w>":2460,"tibir</w>":2461,"illar</w>":2462,"alal</w>":2463,"bulug5</w>":2464,"buru3</w>":2465,"DINGIR</w>":2466,"URUxIGI</w>":2467,"utuwa</w>":2468,"UMBINxUDU</w>":2469,"szurmin</w>":2470,"GAR3</w>":2471,"ALAN</w>":2472,"67</w>":2473,"78</w>":2474,"95</w>":2475,"94</w>":2476,"ITI</w>":2477,"alam</w>":2478,"eme2</w>":2479,"inana</w>":2480,"n7</w>":2481,"zid</w>":2482,"da2</w>":2483,"nigir</w>":2484,"GADA</w>":2485,"sagx</w>":2486,"rux</w>":2487,"neda</w>":2488,"nimbar</w>":2489,"LAK492</w>":2490,"URUxESZ</w>":2491,"esir4</w>":2492,"erased</w>":2493,"73</w>":2494,"91</w>":2495,"RS":2496,"ir9</w>":2497,"is2</w>":2498,"qu</w>":2499,"ten</w>":2500,"dup":2501,"dun5</w>":2502,"dagx</w>":2503,"engi":2504,"enkum</w>":2505,"enuru</w>":2506,"hasz4</w>":2507,"muru9</w>":2508,"SZUBUR</w>":2509,"GISZGAL</w>":2510,"giggi</w>":2511,"SZAR2xDISZ</w>":2512,"RSP":2513,"001</w>":2514,"71</w>":2515,"76</w>":2516,"SUM</w>":2517,"UB</w>":2518,"alu":2519,"ege</w>":2520,"h4</w>":2521,"nur</w>":2522,"dimx</w>":2523,"gir11</w>":2524,"lux</w>":2525,"lug</w>":2526,"siz":2527,"szag4</w>":2528,"urudu</w>":2529,"mud3</w>":2530,"hu2</w>":2531,"sag8</w>":2532,"men2</w>":2533,"ildux</w>":2534,"KWU7":2535,"GISAL</w>":2536,"TUK</w>":2537,"NUMUN</w>":2538,"NITA":2539,"bahar4</w>":2540,"bulugx</w>":2541,"DAM</w>":2542,"107</w>":2543,"buranu":2544,"SILA4</w>":2545,"suh10</w>":2546,"ninni8</w>":2547,"usz11</w>":2548,"sanga2</w>":2549,"szennur</w>":2550,"karadin5</w>":2551,"uttu</w>":2552,"ENGUR</w>":2553,"dupsik</w>":2554,"L4</w>":2555,"LISZ</w>":2556,"UDx":2557,"alla</w>":2558,"el2</w>":2559,"zer</w>":2560,"bat</w>":2561,"gilim</w>":2562,"rix</w>":2563,"kan":2564,"kusz":2565,"nus</w>":2566,"ugx</w>":2567,"abu":2568,"sze12</w>":2569,"muru2</w>":2570,"HUB":2571,"KWU844</w>":2572,"86</w>":2573,"Lx":2574,"LIL</w>":2575,"er11</w>":2576,"ia2</w>":2577,"gub2</w>":2578,"dug3</w>":2579,"kunga</w>":2580,"kuszu2</w>":2581,"gur21</w>":2582,"unux</w>":2583,"geszba2</w>":2584,"GIG</w>":2585,"nimx</w>":2586,"alamusz</w>":2587,"ummu</w>":2588,"NA2</w>":2589,"HIxNUN</w>":2590,"LUH</w>":2591,"sirara3</w>":2592,"LAK527</w>":2593,"SZA6</w>":2594,"zabala2</w>":2595,"amalu</w>":2596,"suluhu2</w>":2597,"abula</w>":2598,"2a</w>":2599,"USZx":2600,"dx</w>":2601,"ter</w>":2602,"nitah</w>":2603,"sig2</w>":2604,"simu":2605,"sib2</w>":2606,"szur3</w>":2607,"kur3</w>":2608,"sukux</w>":2609,"bir9</w>":2610,"girim2</w>":2611,"pala3</w>":2612,"ru5</w>":2613,"ugnimx</w>":2614,"eszgiri2</w>":2615,"abgal2</w>":2616,"sze22</w>":2617,"il6</w>":2618,"MUG</w>":2619,"mur7</w>":2620,"henbur</w>":2621,"zulum":2622,"lahtan</w>":2623,"GA2xX</w>":2624,"MUSZ3x":2625,"106</w>":2626,"LAK218</w>":2627,"utul</w>":2628,"isimu2</w>":2629,"180</w>":2630,"SZIMxKUSZU2</w>":2631,"babila2</w>":2632,"NITA2</w>":2633,"kusz7</w>":2634,"simug2</w>":2635,"110</w>":2636,"112</w>":2637,"99</w>":2638,"EC":2639,"ET":2640,"REC":2641,"UET":2642,"ax</w>":2643,"aka</w>":2644,"te":2645,"za2</w>":2646,"bara</w>":2647,"lub</w>":2648,"sis</w>":2649,"silag</w>":2650,"szutum</w>":2651,"szal</w>":2652,"nab3</w>":2653,"sub2</w>":2654,"sugx</w>":2655,"tukur2</w>":2656,"urin</w>":2657,"SZ4</w>":2658,"uruhx</w>":2659,"taka":2660,"KWU5":2661,"MUx":2662,"rig9</w>":2663,"DUMUx":2664,"zukum</w>":2665,"gilgamesz2</w>":2666,"garza2</w>":2667,"102</w>":2668,"103</w>":2669,"108</w>":2670,"URUxMIN</w>":2671,"SUKUD</w>":2672,"SAGxNI</w>":2673,"115</w>":2674,"GUM</w>":2675,"KASZ</w>":2676,"MAN</w>":2677,"PESZ2</w>":2678,"UNU":2679,"bu2</w>":2680,"ngal</w>":2681,"ugax</w>":2682,"gib</w>":2683,"durun</w>":2684,"kalag</w>":2685,"szuszx</w>":2686,"GAD</w>":2687,"pah</w>":2688,"sig9</w>":2689,"urud</w>":2690,"rungal</w>":2691,"szem3</w>":2692,"DU3</w>":2693,"szubax</w>":2694,"szakkan6</w>":2695,"109</w>":2696,"104</w>":2697,"EZE":2698,"LAGABxU</w>":2699,"uszx</w>":2700,"SAGxHA</w>":2701,"EZENxAN</w>":2702,"szitax</w>":2703,"kukku5</w>":2704,"asil3</w>":2705,"giszgal</w>":2706,"engiz</w>":2707,"UNUG</w>":2708,"111</w>":2709,"114</w>":2710,"101</w>":2711,"Kx":2712,"b1</w>":2713,"ed</w>":2714,"igi":2715,"sy":2716,"tasz</w>":2717,"dib2</w>":2718,"bax</w>":2719,"girx</w>":2720,"gux</w>":2721,"sax</w>":2722,"sud2</w>":2723,"szita3</w>":2724,"bit</w>":2725,"girix</w>":2726,"tabx</w>":2727,"zir":2728,"zikum</w>":2729,"il8</w>":2730,"TUKx":2731,"KALAM</w>":2732,"KASZ4</w>":2733,"DUG":2734,"TAx":2735,"GA2xGAR</w>":2736,"GUB</w>":2737,"105</w>":2738,"LAGABxX</w>":2739,"szembi2</w>":2740,"UR2xKID2</w>":2741,"kilib</w>":2742,"SUG</w>":2743,"esir</w>":2744,"SAGxTAK4</w>":2745,"epir</w>":2746,"MUSZ3xZA</w>":2747,"UET2":2748,"syl</w>":2749,"117</w>":2750,"121</w>":2751,"Ax":2752,"d5</w>":2753,"en2</w>":2754,"egir3</w>":2755,"id2</w>":2756,"is3</w>":2757,"ubara</w>":2758,"gam3</w>":2759,"ka6</w>":2760,"ma5</w>":2761,"nak</w>":2762,"tup</w>":2763,"bir2</w>":2764,"keszda</w>":2765,"zarah</w>":2766,"munsub</w>":2767,"il5</w>":2768,"GIRI3</w>":2769,"aktumx</w>":2770,"KAxIM</w>":2771,"KAxSZU</w>":2772,"100</w>":2773,"UR2xKAL</w>":2774,"160</w>":2775,"LAK672</w>":2776,"esir5</w>":2777,"asil</w>":2778,"RSP4":2779,"alurx</w>":2780,"TUKxUD</w>":2781,"118</w>":2782,"113</w>":2783,"116</w>":2784,"122</w>":2785,"72a</w>":2786,"HE2</w>":2787,"ere</w>":2788,"em3</w>":2789,"in":2790,"pel</w>":2791,"pel2</w>":2792,"qu3</w>":2793,"xDISZ</w>":2794,"garx</w>":2795,"ni5</w>":2796,"guszur</w>":2797,"dur5</w>":2798,"lugud</w>":2799,"rinx</w>":2800,"rin5</w>":2801,"mat</w>":2802,"kur9</w>":2803,"sun7</w>":2804,"lisz</w>":2805,"mu3</w>":2806,"nux</w>":2807,"GALx":2808,"pag</w>":2809,"pil3</w>":2810,"sze20</w>":2811,"rat</w>":2812,"GISZx":2813,"adda</w>":2814,"alad</w>":2815,"mitum</w>":2816,"DIMx":2817,"itima</w>":2818,"LAK263</w>":2819,"LAK636</w>":2820,"LAK672a</w>":2821,"nigin9</w>":2822,"GISZGALx":2823,"te8</w>":2824,"DUMUxNUN</w>":2825,"08</w>":2826,"120</w>":2827,"119</w>":2828,"68":2829,"DE2</w>":2830,"IM":2831,"MAL</w>":2832,"UL4</w>":2833,"azu</w>":2834,"in4</w>":2835,"m6</w>":2836,"men3</w>":2837,"nn</w>":2838,"uzu":2839,"ukur3</w>":2840,"dih2</w>":2841,"bar6</w>":2842,"nisz</w>":2843,"na3</w>":2844,"kib</w>":2845,"musz":2846,"nannax</w>":2847,"enmen2</w>":2848,"pax</w>":2849,"sag12</w>":2850,"geszpu2</w>":2851,"tukumx</w>":2852,"sze29</w>":2853,"GI4</w>":2854,"azlag5</w>":2855,"MUN":2856,"szeg6</w>":2857,"szuba4</w>":2858,"EREN</w>":2859,"burux</w>":2860,"nusku2</w>":2861,"gidlam2</w>":2862,"nidbax</w>":2863,"KAxGI</w>":2864,"NA4</w>":2865,"saman</w>":2866,"SZAGAN</w>":2867,"157</w>":2868,"ganzer</w>":2869,"DUGxX</w>":2870,"131</w>":2871,"NINDA2x2</w>":2872,"E2xSAL</w>":2873,"babilax</w>":2874,"kankal</w>":2875,"RSP468":2876,"IMMAL</w>":2877,"124</w>":2878,"AGA</w>":2879,"EN2</w>":2880,"Qn</w>":2881,"UH":2882,"as":2883,"be4</w>":2884,"es</w>":2885,"egir":2886,"imma</w>":2887,"qu":2888,"umun</w>":2889,"utah</w>":2890,"gamar</w>":2891,"lahar</w>":2892,"du9</w>":2893,"luh":2894,"sa7</w>":2895,"sa11</w>":2896,"kun3</w>":2897,"su11</w>":2898,"lib4</w>":2899,"tuk</w>":2900,"nindan</w>":2901,"kiszig2</w>":2902,"sig10</w>":2903,"eszemen</w>":2904,"LA2</w>":2905,"munx</w>":2906,"tarah</w>":2907,"azlag</w>":2908,"TUMx":2909,"BALA</w>":2910,"zabalax</w>":2911,"garasz2</w>":2912,"szembulug</w>":2913,"153</w>":2914,"LAK798</w>":2915,"NINDA2x1</w>":2916,"NINDA2xSZE</w>":2917,"usz8</w>":2918,"193</w>":2919,"KAD5</w>":2920,"AB2x":2921,"giszkim</w>":2922,"uzug5</w>":2923,"igira2</w>":2924,"zirrux</w>":2925,"egir6</w>":2926,"126</w>":2927,"136</w>":2928,"127</w>":2929,"125</w>":2930,"123</w>":2931,"MUR":2932,"NAR</w>":2933,"SAR":2934,"TIN</w>":2935,"es2</w>":2936,"h6</w>":2937,"ir":2938,"i4</w>":2939,"pr":2940,"qur2</w>":2941,"rab</w>":2942,"uma":2943,"lamx</w>":2944,"dul2</w>":2945,"sil2</w>":2946,"simx</w>":2947,"ri8</w>":2948,"kala</w>":2949,"kam2</w>":2950,"szu7</w>":2951,"szur5</w>":2952,"ninkum</w>":2953,"kiszi6</w>":2954,"GALAM</w>":2955,"bix</w>":2956,"SZUM</w>":2957,"zahx</w>":2958,"esz16</w>":2959,"tiru</w>":2960,"limx</w>":2961,"kirix</w>":2962,"kiri8</w>":2963,"ildu":2964,"141</w>":2965,"kun4</w>":2966,"azlag":2967,"KAB</w>":2968,"LAGAR":2969,"DUB2</w>":2970,"ERIN</w>":2971,"DAH</w>":2972,"GA2xSIG7</w>":2973,"KAxLI</w>":2974,"177</w>":2975,"176</w>":2976,"URUDA</w>":2977,"DISZx":2978,"URxMIN</w>":2979,"LAK262</w>":2980,"UR2xA</w>":2981,"LAK390</w>":2982,"155</w>":2983,"159</w>":2984,"161</w>":2985,"gizza":2986,"uluszi":2987,"sizkur2</w>":2988,"buranunax</w>":2989,"HUBURx":2990,"pro":2991,"umanx</w>":2992,"EL":2993,"ES":2994,"GE":2995,"Iku</w>":2996,"LES":2997,"N22</w>":2998,"Qpro":2999,"ZI":3000,"d6</w>":3001,"esze</w>":3002,"ed2</w>":3003,"ed3</w>":3004,"ru3</w>":3005,"tan":3006,"ugal</w>":3007,"xX</w>":3008,"gaz2</w>":3009,"nisig</w>":3010,"sa9</w>":3011,"saga":3012,"sah4</w>":3013,"szudum</w>":3014,"szah</w>":3015,"sur5</w>":3016,"line</w>":3017,"lilx</w>":3018,"girisz</w>":3019,"sig5</w>":3020,"tagx</w>":3021,"sze17</w>":3022,"sze23</w>":3023,"KWU4":3024,"bu10</w>":3025,"szuszinak</w>":3026,"szeg14</w>":3027,"BAP":3028,"BAL</w>":3029,"adx</w>":3030,"imgaga</w>":3031,"GA2xAN</w>":3032,"NINDA2</w>":3033,"SIKI</w>":3034,"eren2</w>":3035,"173</w>":3036,"179</w>":3037,"178</w>":3038,"LAGABxSIG7</w>":3039,"LAGABxHAL</w>":3040,"154</w>":3041,"156</w>":3042,"162</w>":3043,"tillax</w>":3044,"immal2</w>":3045,"137</w>":3046,"138</w>":3047,"198</w>":3048,"EZENxHAL</w>":3049,"SZUB</w>":3050,"002</w>":3051,"zulumhi</w>":3052,"takax</w>":3053,"DIMxSZE</w>":3054,"RSP468ter</w>":3055,"MURGU2</w>":3056,"azlag7</w>":3057,"gizzalx</w>":3058,"ELLES":3059,"Qpro001</w>":3060,"04</w>":3061,"129</w>":3062,"128</w>":3063,"2U</w>":3064,"AG</w>":3065,"ASZ":3066,"ASAR":3067,"IDIM</w>":3068,"KAR</w>":3069,"N34</w>":3070,"PIR</w>":3071,"ek</w>":3072,"eq</w>":3073,"eg2</w>":3074,"id5</w>":3075,"pe2</w>":3076,"rku2</w>":3077,"ukur2</w>":3078,"ub4</w>":3079,"gipa":3080,"gudug</w>":3081,"labx</w>":3082,"dun4</w>":3083,"kamx</w>":3084,"kan4</w>":3085,"szurum</w>":3086,"kud2</w>":3087,"kulx</w>":3088,"kurku2</w>":3089,"szax</w>":3090,"szagar</w>":3091,"name":3092,"dag2</w>":3093,"dala2</w>":3094,"kisig2</w>":3095,"sul":3096,"sum":3097,"mud2</w>":3098,"szix</w>":3099,"nigin5</w>":3100,"biz</w>":3101,"bir7</w>":3102,"girid2</w>":3103,"ugux</w>":3104,"erim</w>":3105,"pat</w>":3106,"had</w>":3107,"zaq</w>":3108,"gurud</w>":3109,"unu7</w>":3110,"abrig2</w>":3111,"asz11</w>":3112,"aszkud2</w>":3113,"kurun3</w>":3114,"140</w>":3115,"MUSZEN</w>":3116,"szeg5</w>":3117,"szeg10</w>":3118,"BADx":3119,"KA2</w>":3120,"dilmunx</w>":3121,"171</w>":3122,"174</w>":3123,"arah4</w>":3124,"LAGABxIGI</w>":3125,"SZA3x":3126,"158</w>":3127,"suh4</w>":3128,"suhurx</w>":3129,"3xAN</w>":3130,"szennux</w>":3131,"sizkur</w>":3132,"USZxSA</w>":3133,"TAxSZE</w>":3134,"GISZxTAK4</w>":3135,"UH3</w>":3136,"qum3</w>":3137,"luhszu</w>":3138,"DISZx2U</w>":3139,"saga11</w>":3140,"BAPPIR</w>":3141,"ASARI</w>":3142,"giparx</w>":3143,"nameszda</w>":3144,"134</w>":3145,"4x":3146,"AM</w>":3147,"KESZ2</w>":3148,"LU3</w>":3149,"M3</w>":3150,"MAR</w>":3151,"SU3</w>":3152,"UG</w>":3153,"a5</w>":3154,"asila3</w>":3155,"akan</w>":3156,"itu</w>":3157,"mi3</w>":3158,"mim</w>":3159,"nnn</w>":3160,"qi4</w>":3161,"usar</w>":3162,"din2</w>":3163,"dimma</w>":3164,"ni3</w>":3165,"lat</w>":3166,"lal2</w>":3167,"dun3</w>":3168,"dusux</w>":3169,"gen7</w>":3170,"ri3</w>":3171,"rin4</w>":3172,"silax</w>":3173,"szub":3174,"kurx</w>":3175,"kumx</w>":3176,"dad</w>":3177,"dan2</w>":3178,"sur":3179,"sum4</w>":3180,"sur9</w>":3181,"subx</w>":3182,"surungal</w>":3183,"tud</w>":3184,"tux</w>":3185,"turx</w>":3186,"gur6</w>":3187,"hud4</w>":3188,"GAZ</w>":3189,"girin</w>":3190,"SZAR2</w>":3191,"tap</w>":3192,"tab6</w>":3193,"lagaszx</w>":3194,"tid":3195,"gesztug2</w>":3196,"abrig</w>":3197,"ilx</w>":3198,"GIL</w>":3199,"142</w>":3200,"149</w>":3201,"TUKU":3202,"SZEG":3203,"ukkin</w>":3204,"nisaba2</w>":3205,"murum</w>":3206,"NISA":3207,"zu7</w>":3208,"NIN9</w>":3209,"GA2xMUN</w>":3210,"GA2xSILA3</w>":3211,"KAxSZE</w>":3212,"KAxBALAG</w>":3213,"KAxSZAR2</w>":3214,"LAK024</w>":3215,"LAK589</w>":3216,"LAK343</w>":3217,"zabarx</w>":3218,"163</w>":3219,"169</w>":3220,"isin</w>":3221,"132</w>":3222,"135</w>":3223,"139</w>":3224,"130</w>":3225,"LAK769</w>":3226,"ezinu2</w>":3227,"nitadam</w>":3228,"uludin2</w>":3229,"LAK503b</w>":3230,"ESZ3</w>":3231,"ESZ16</w>":3232,"ABxA</w>":3233,"uz3</w>":3234,"KWU543</w>":3235,"EZEM</w>":3236,"inszuszinak</w>":3237,"sullimx</w>":3238,"BADxDISZ</w>":3239,"TUKU5</w>":3240,"NISABA</w>":3241,"196</w>":3242,"60":3243,"BE</w>":3244,"DUR</w>":3245,"GESZ":3246,"N1</w>":3247,"N51</w>":3248,"UB2</w>":3249,"asza</w>":3250,"alla":3251,"e5</w>":3252,"hur":3253,"lm</w>":3254,"m5</w>":3255,"pisz":3256,"qab</w>":3257,"dig</w>":3258,"garadin":3259,"lah3</w>":3260,"durum</w>":3261,"durah</w>":3262,"lu4</w>":3263,"sir5</w>":3264,"sah6</w>":3265,"rim</w>":3266,"ri9</w>":3267,"risz</w>":3268,"kalm</w>":3269,"szud</w>":3270,"szumun":3271,"mal</w>":3272,"nap</w>":3273,"kisi":3274,"kim3</w>":3275,"sun</w>":3276,"su20</w>":3277,"lit</w>":3278,"liru3</w>":3279,"turungal</w>":3280,"szilamx</w>":3281,"huszx</w>":3282,"niginx</w>":3283,"nanx</w>":3284,"ensi3</w>":3285,"pana</w>":3286,"tah2</w>":3287,"esze2</w>":3288,"gurusz3</w>":3289,"kirid</w>":3290,"geszbu2</w>":3291,"abzux</w>":3292,"nesag2</w>":3293,"LAL3</w>":3294,"asznanx</w>":3295,"szed3</w>":3296,"mun4</w>":3297,"kurunx</w>":3298,"GIDIM</w>":3299,"bunin</w>":3300,"bunx</w>":3301,"bunig</w>":3302,"145</w>":3303,"143</w>":3304,"144</w>":3305,"146</w>":3306,"ad4</w>":3307,"PA5</w>":3308,"SZILAM</w>":3309,"DUMU</w>":3310,"MESZ</w>":3311,"burx</w>":3312,"SI4</w>":3313,"eresz2</w>":3314,"HIxMASZ</w>":3315,"172</w>":3316,"175</w>":3317,"170</w>":3318,"GU2x":3319,"udug2</w>":3320,"LAK046</w>":3321,"iri12</w>":3322,"URUxX</w>":3323,"LAK387</w>":3324,"151</w>":3325,"150</w>":3326,"KWU354</w>":3327,"165</w>":3328,"168</w>":3329,"immal</w>":3330,"133</w>":3331,"uszbar</w>":3332,"181</w>":3333,"epir2</w>":3334,"zulumh":3335,"EZEMx":3336,"DUGx</w>":3337,"DUGUD</w>":3338,"AxKU3</w>":3339,"musz5</w>":3340,"irh":3341,"SZEG9</w>":3342,"allax</w>":3343,"szumunda</w>":3344,"30":3345,"3a</w>":3346,"396</w>":3347,"E3</w>":3348,"EGIR</w>":3349,"KK":3350,"MUD</w>":3351,"MASZ2</w>":3352,"NNA</w>":3353,"N08</w>":3354,"UZ":3355,"UNU</w>":3356,"UKK":3357,"ay":3358,"a12</w>":3359,"bu4</w>":3360,"gx":3361,"hesz5</w>":3362,"mid</w>":3363,"par</w>":3364,"ubar</w>":3365,"ubur3</w>":3366,"u19</w>":3367,"zam":3368,"szi3</w>":3369,"dimgal</w>":3370,"gaesz2</w>":3371,"galax</w>":3372,"lam4</w>":3373,"si12</w>":3374,"sa5</w>":3375,"sagix</w>":3376,"kar3</w>":3377,"kad2</w>":3378,"mara":3379,"sza6</w>":3380,"szakan":3381,"libx</w>":3382,"szit</w>":3383,"husz2</w>":3384,"nu3</w>":3385,"nuz</w>":3386,"endib</w>":3387,"GAxDISZ</w>":3388,"SZI</w>":3389,"sag9</w>":3390,"zar2</w>":3391,"titab</w>":3392,"tigi2</w>":3393,"nerga":3394,"ildu2</w>":3395,"SIG2</w>":3396,"rag</w>":3397,"sed6</w>":3398,"148</w>":3399,"szimaszki</w>":3400,"MUL</w>":3401,"baharx</w>":3402,"larsa2</w>":3403,"szak2</w>":3404,"akszak2</w>":3405,"zukumx</w>":3406,"lunga2</w>":3407,"nuska</w>":3408,"giskim</w>":3409,"mitum2</w>":3410,"GA2xSAL</w>":3411,"nunus</w>":3412,"NAG</w>":3413,"NANNA</w>":3414,"NAGAxDISZ</w>":3415,"errax</w>":3416,"LAGABxA</w>":3417,"UR2xUD</w>":3418,"utua2</w>":3419,"167</w>":3420,"166</w>":3421,"DUGxSIG7</w>":3422,"LAK779</w>":3423,"LAK176</w>":3424,"NINDA2xHI</w>":3425,"195</w>":3426,"197</w>":3427,"199</w>":3428,"194</w>":3429,"tilmun</w>":3430,"gakkul2</w>":3431,"EZENxBAD</w>":3432,"003</w>":3433,"SZIMxPI</w>":3434,"karadinx</w>":3435,"suhub4</w>":3436,"suhubx</w>":3437,"KWU777</w>":3438,"UDxBAD</w>":3439,"UDxTIL</w>":3440,"taka4</w>":3441,"LAGARx":3442,"HUBURxGU</w>":3443,"sumur3</w>":3444,"irhan</w>":3445,"zamx</w>":3446,"marad2</w>":3447,"szakanka</w>":3448,"nergalx</w>":3449,"201</w>":3450,"377</w>":3451,"5a</w>":3452,"61":3453,"BAN</w>":3454,"B2x":3455,"HUL</w>":3456,"HTA":3457,"IB2x":3458,"KESZ":3459,"ME2</w>":3460,"P1</w>":3461,"U5</w>":3462,"USZ2</w>":3463,"UZU</w>":3464,"UMUN":3465,"Z2</w>":3466,"ZE2</w>":3467,"ah3</w>":3468,"ez</w>":3469,"eli":3470,"eri</w>":3471,"egirx</w>":3472,"it":3473,"rak</w>":3474,"te2</w>":3475,"te3</w>":3476,"tak</w>":3477,"uman</w>":3478,"xx":3479,"xU2</w>":3480,"dida2</w>":3481,"dirix</w>":3482,"badx</w>":3483,"gagi":3484,"gi3</w>":3485,"giszimmar</w>":3486,"gun5</w>":3487,"lag4</w>":3488,"kara2</w>":3489,"kara4</w>":3490,"szutur</w>":3491,"szub5</w>":3492,"kul3</w>":3493,"szap</w>":3494,"szara</w>":3495,"dar3</w>":3496,"kip</w>":3497,"kid3</w>":3498,"lib3</w>":3499,"tun</w>":3500,"mu12</w>":3501,"kiszi4</w>":3502,"kiszig</w>":3503,"kiszi8</w>":3504,"kiszi16</w>":3505,"ussu</w>":3506,"enegir3</w>":3507,"GAL2</w>":3508,"keszx</w>":3509,"palil</w>":3510,"urum2</w>":3511,"urugal2</w>":3512,"me6</w>":3513,"mex</w>":3514,"ru6</w>":3515,"eszx</w>":3516,"geszti":3517,"LAMx":3518,"LAHTA":3519,"aszte2</w>":3520,"szed4</w>":3521,"szed7</w>":3522,"SIG15</w>":3523,"KIR":3524,"URU2</w>":3525,"GID2</w>":3526,"GIBIL</w>":3527,"balax</w>":3528,"TUKU</w>":3529,"NIGI":3530,"GIRI":3531,"SA6</w>":3532,"rig8</w>":3533,"DUL</w>":3534,"gir17</w>":3535,"dehi</w>":3536,"gilgamesz3</w>":3537,"gidlam4</w>":3538,"GA2xNE</w>":3539,"GA2xMUSZ</w>":3540,"mud4</w>":3541,"arkab2</w>":3542,"NxGU</w>":3543,"GU4x":3544,"irigal</w>":3545,"iri11</w>":3546,"KU6</w>":3547,"LAGABxAN</w>":3548,"LAK277</w>":3549,"LAK264</w>":3550,"szembulugx</w>":3551,"UR2xHA</w>":3552,"URUxA</w>":3553,"LAK397</w>":3554,"152</w>":3555,"SU6</w>":3556,"amax</w>":3557,"isimu3</w>":3558,"LAK60</w>":3559,"usz7</w>":3560,"182</w>":3561,"187</w>":3562,"189</w>":3563,"191</w>":3564,"gakkul3</w>":3565,"UMBIN</w>":3566,"dur8</w>":3567,"005</w>":3568,"004</w>":3569,"006</w>":3570,"GURUSZ</w>":3571,"SUHUSZ</w>":3572,"uzugx</w>":3573,"RSP3":3574,"alurax</w>":3575,"HUB2x":3576,"KWU518</w>":3577,"uzug</w>":3578,"ildum2</w>":3579,"uluszin3</w>":3580,"GEME2</w>":3581,"ZIZ2</w>":3582,"ELLES396</w>":3583,"ASZ3</w>":3584,"szubtum":3585,"tidnum</w>":3586,"IB2x3</w>":3587,"KESZDA</w>":3588,"UMUN2x":3589,"elip</w>":3590,"xxx</w>":3591,"gagia</w>":3592,"LAMxKUR</w>":3593,"LAHTANxGU</w>":3594,"190</w>":3595,"258</w>":3596,"40":3597,"4a</w>":3598,"B3</w>":3599,"BAR":3600,"BARA":3601,"E4</w>":3602,"EME</w>":3603,"IS</w>":3604,"IRI</w>":3605,"IB2</w>":3606,"IM2</w>":3607,"KIG":3608,"KUSZ</w>":3609,"KE4</w>":3610,"MAH</w>":3611,"PU2</w>":3612,"UTUL2</w>":3613,"ZI3</w>":3614,"aba</w>":3615,"be3</w>":3616,"bru":3617,"ber":3618,"d8</w>":3619,"fo":3620,"hi":3621,"hab</w>":3622,"ir11</w>":3623,"mezem</w>":3624,"mgul</w>":3625,"p2</w>":3626,"pal</w>":3627,"pesz4</w>":3628,"qa3</w>":3629,"rkid</w>":3630,"ser3</w>":3631,"ugarx</w>":3632,"ubix</w>":3633,"dis</w>":3634,"dim6</w>":3635,"dimgul</w>":3636,"ba7</w>":3637,"barag</w>":3638,"gar2</w>":3639,"gab3</w>":3640,"galx</w>":3641,"gam4</w>":3642,"nita3</w>":3643,"nisagx</w>":3644,"lazx</w>":3645,"sili":3646,"sisix</w>":3647,"sam</w>":3648,"kax</w>":3649,"kara</w>":3650,"szu3</w>":3651,"szur6</w>":3652,"kun2</w>":3653,"szarkid</w>":3654,"na5</w>":3655,"sus":3656,"sud4</w>":3657,"lipisz":3658,"ninna2</w>":3659,"nanga</w>":3660,"enkar</w>":3661,"GANx":3662,"bis</w>":3663,"ke5</w>":3664,"mes3</w>":3665,"harax</w>":3666,"habru":3667,"zadimx</w>":3668,"pisa":3669,"pir6</w>":3670,"zib2</w>":3671,"ti8</w>":3672,"aszkud</w>":3673,"mun3</w>":3674,"munzer</w>":3675,"radin</w>":3676,"LAK131</w>":3677,"SZE3x":3678,"ad8</w>":3679,"murub2</w>":3680,"NIGIN</w>":3681,"SAN":3682,"henbur2</w>":3683,"larsam</w>":3684,"bulug2</w>":3685,"gir14</w>":3686,"akki":3687,"deh":3688,"AMBAR</w>":3689,"gar9</w>":3690,"mud5</w>":3691,"MUSZxGAD</w>":3692,"KAxA</w>":3693,"SIG</w>":3694,"arkab</w>":3695,"saman2</w>":3696,"URUDU":3697,"DIRI</w>":3698,"LAK050</w>":3699,"LAK085</w>":3700,"pesz7</w>":3701,"LAK225</w>":3702,"LAK248</w>":3703,"ENxKAR2</w>":3704,"URUxHI</w>":3705,"URUxGAR</w>":3706,"LAK358</w>":3707,"ANSZE":3708,"utulx</w>":3709,"usar4</w>":3710,"usanx</w>":3711,"SUB</w>":3712,"164</w>":3713,"isimudx</w>":3714,"isimud4</w>":3715,"DUGxNI</w>":3716,"gizkim</w>":3717,"LAK720</w>":3718,"kindagal2</w>":3719,"kindagal</w>":3720,"ildag3</w>":3721,"186</w>":3722,"192</w>":3723,"gesztu3</w>":3724,"KAS4</w>":3725,"szita5</w>":3726,"nundun</w>":3727,"SZIMxGAR</w>":3728,"202</w>":3729,"209</w>":3730,"200</w>":3731,"uttux</w>":3732,"suluhu</w>":3733,"epig</w>":3734,"KISIM5xX</w>":3735,"KISIM5xIR</w>":3736,"engiz2</w>":3737,"buranunx</w>":3738,"UET2377</w>":3739,"uzug2</w>":3740,"MUNSUB</w>":3741,"TUMxGAN2</w>":3742,"ildum3</w>":3743,"tan4</w>":3744,"tanx</w>":3745,"sur8</w>":3746,"hursag</w>":3747,"kisiga</w>":3748,"GU2xKAK</w>":3749,"zulumhi2</w>":3750,"aya2</w>":3751,"GIRI16</w>":3752,"szubtum6</w>":3753,"KIG2</w>":3754,"ber5</w>":3755,"lipiszx</w>":3756,"habrud</w>":3757,"254</w>":3758,"255</w>":3759,"253</w>":3760,"289</w>":3761,"257</w>":3762,"259</w>":3763,"256</w>":3764,"260</w>":3765,"278</w>":3766,"50":3767,"5xU2</w>":3768,"83a</w>":3769,"BUL</w>":3770,"DEN</w>":3771,"EDEN</w>":3772,"IA2</w>":3773,"LIL2</w>":3774,"M4</w>":3775,"PESZ</w>":3776,"SAN</w>":3777,"UH</w>":3778,"USZ":3779,"ZU":3780,"a4</w>":3781,"aga2</w>":3782,"azag</w>":3783,"asilax</w>":3784,"adad</w>":3785,"c1</w>":3786,"c2</w>":3787,"egir2</w>":3788,"iu</w>":3789,"ke2</w>":3790,"li3</w>":3791,"m7</w>":3792,"qi</w>":3793,"qal</w>":3794,"reb</w>":3795,"teg3</w>":3796,"teme2</w>":3797,"uku3</w>":3798,"u11</w>":3799,"umah</w>":3800,"uax</w>":3801,"xPAP</w>":3802,"xSAL</w>":3803,"zi7</w>":3804,"szdax</w>":3805,"ba5</w>":3806,"bahar</w>":3807,"ba15</w>":3808,"gara</w>":3809,"gam2</w>":3810,"garax</w>":3811,"nisag</w>":3812,"ninim</w>":3813,"giz</w>":3814,"gi17</w>":3815,"lab</w>":3816,"dubur</w>":3817,"lu6</w>":3818,"sil</w>":3819,"siki":3820,"sirx</w>":3821,"ge9</w>":3822,"geszax</w>":3823,"sak</w>":3824,"sam2</w>":3825,"saha":3826,"ri5</w>":3827,"szusz2</w>":3828,"szusza":3829,"szuhu":3830,"szumun</w>":3831,"szum4</w>":3832,"szub6</w>":3833,"szukurx</w>":3834,"kua</w>":3835,"kuszx</w>":3836,"kuszum4</w>":3837,"szana":3838,"szag5</w>":3839,"kir3</w>":3840,"subur</w>":3841,"liq</w>":3842,"tumu</w>":3843,"hud</w>":3844,"huluh</w>":3845,"GANA2</w>":3846,"girim</w>":3847,"dab2</w>":3848,"munu6</w>":3849,"SZUM":3850,"tax</w>":3851,"tag2</w>":3852,"maszkim3</w>":3853,"lagarx</w>":3854,"hat</w>":3855,"zag3</w>":3856,"zara6</w>":3857,"pihu</w>":3858,"kas2</w>":3859,"kasx</w>":3860,"zig3</w>":3861,"ru9</w>":3862,"eszsze":3863,"tig4</w>":3864,"tir5</w>":3865,"tidimx</w>":3866,"guru6</w>":3867,"lim3</w>":3868,"kiri4</w>":3869,"ab4</w>":3870,"LAMA</w>":3871,"szed</w>":3872,"sze4</w>":3873,"sze10</w>":3874,"kurum7</w>":3875,"kuruszdax</w>":3876,"gibil2</w>":3877,"bu11</w>":3878,"bu13</w>":3879,"bu16</w>":3880,"TUM3</w>":3881,"LAK4</w>":3882,"LAK20</w>":3883,"KAD3</w>":3884,"murum5</w>":3885,"immen2</w>":3886,"murgu3</w>":3887,"NISAG</w>":3888,"NI5xU2</w>":3889,"szagiax</w>":3890,"BIL4</w>":3891,"asar2</w>":3892,"emedax</w>":3893,"iszin</w>":3894,"gilgamesz</w>":3895,"agarinx</w>":3896,"NINDA</w>":3897,"NINNI5xU2</w>":3898,"AM3</w>":3899,"GA2xDI</w>":3900,"GA2xMI</w>":3901,"GA2xDIM</w>":3902,"garasz":3903,"KAxGAN2</w>":3904,"dul7</w>":3905,"HIxX</w>":3906,"HIxTIL</w>":3907,"arax</w>":3908,"DIR</w>":3909,"LU3x":3910,"irigal2</w>":3911,"LAGABxTIL</w>":3912,"zimbirx</w>":3913,"sirara</w>":3914,"LAK283a</w>":3915,"UR2xX</w>":3916,"hirim</w>":3917,"URUxSIG4</w>":3918,"LAK368</w>":3919,"ganz":3920,"SUH</w>":3921,"SUMASZ</w>":3922,"KWU822</w>":3923,"KWU858</w>":3924,"NINDA2x3</w>":3925,"NINDA2xX</w>":3926,"ezina3</w>":3927,"uszba":3928,"185</w>":3929,"188</w>":3930,"karkara</w>":3931,"bat3</w>":3932,"SZUD3</w>":3933,"SZIMxUH3</w>":3934,"mussax</w>":3935,"edakua</w>":3936,"asilx</w>":3937,"szurmen</w>":3938,"ABxX</w>":3939,"ABxNUN</w>":3940,"ABxASZ2</w>":3941,"ALIM</w>":3942,"suhub</w>":3943,"lumgi3</w>":3944,"KWU733</w>":3945,"REC107</w>":3946,"as4</w>":3947,"aslag4</w>":3948,"uluszin</w>":3949,"ZI2</w>":3950,"SZA3xMUNUS</w>":3951,"garadin3</w>":3952,"EZEMxX</w>":3953,"UZ3</w>":3954,"gesztinx</w>":3955,"GU4xBAD</w>":3956,"GANxHI</w>":3957,"dehi3</w>":3958,"USZx</w>":3959,"szuszana</w>":3960,"szuhubx</w>":3961,"szanabi</w>":3962,"SZUM2</w>":3963,"eszszeb</w>":3964,"LU3xX</w>":3965,"183</w>":3966,"218</w>":3967,"213</w>":3968,"214</w>":3969,"236</w>":3970,"215</w>":3971,"283</w>":3972,"235</w>":3973,"279</w>":3974,"237</w>":3975,"238</w>":3976,"280</w>":3977,"268</w>":3978,"282</w>":3979,"281</w>":3980,"270</w>":3981,"267</w>":3982,"273</w>":3983,"48":3984,"6a</w>":3985,"ASAR</w>":3986,"EGI":3987,"GUD</w>":3988,"GESZ2</w>":3989,"HUR</w>":3990,"INANNA</w>":3991,"KKAL</w>":3992,"LIM</w>":3993,"NE":3994,"N4</w>":3995,"NAB</w>":3996,"NKAL</w>":3997,"NDA</w>":3998,"Qxxx</w>":3999,"R3</w>":4000,"SU8</w>":4001,"UG":4002,"UMU":4003,"UTU</w>":4004,"USZUM</w>":4005,"aw</w>":4006,"amu":4007,"alga":4008,"ah6</w>":4009,"be":4010,"dasz</w>":4011,"ehx</w>":4012,"g6</w>":4013,"hurx</w>":4014,"i8</w>":4015,"inda":4016,"iax</w>":4017,"ip2</w>":4018,"kx</w>":4019,"lo":4020,"on</w>":4021,"qur":4022,"qar3</w>":4023,"qam2</w>":4024,"teme</w>":4025,"tex</w>":4026,"ubur2</w>":4027,"zu4</w>":4028,"zak</w>":4029,"zub</w>":4030,"zehx</w>":4031,"ba3</w>":4032,"gana</w>":4033,"gabu2</w>":4034,"gaeszx</w>":4035,"nin2</w>":4036,"gid</w>":4037,"gira2</w>":4038,"gir7</w>":4039,"gun</w>":4040,"guda":4041,"lam":4042,"du24</w>":4043,"sir</w>":4044,"sipad</w>":4045,"gel</w>":4046,"gex</w>":4047,"salx</w>":4048,"sanga":4049,"szudun</w>":4050,"szurim</w>":4051,"szat</w>":4052,"szakan</w>":4053,"naqab</w>":4054,"dagan</w>":4055,"dam3</w>":4056,"kit</w>":4057,"kiri</w>":4058,"sumu":4059,"susz3</w>":4060,"li5</w>":4061,"tul</w>":4062,"tugul</w>":4063,"uru3</w>":4064,"muh2</w>":4065,"szip</w>":4066,"ninx</w>":4067,"huz</w>":4068,"hurinx</w>":4069,"huburx</w>":4070,"nigin4</w>":4071,"nu10</w>":4072,"usx</w>":4073,"nanga2</w>":4074,"enx</w>":4075,"kesz</w>":4076,"erimx</w>":4077,"anzu4</w>":4078,"SZUR</w>":4079,"par2</w>":4080,"isz7</w>":4081,"iszi</w>":4082,"taq</w>":4083,"lagas</w>":4084,"zah</w>":4085,"zamug</w>":4086,"pir</w>":4087,"zib</w>":4088,"zix</w>":4089,"puzur5</w>":4090,"ru10</w>":4091,"eszkiri":4092,"eszeme":4093,"eszkiri</w>":4094,"ti4</w>":4095,"til4</w>":4096,"gesznu</w>":4097,"gesznu3</w>":4098,"IGIx":4099,"nemur</w>":4100,"szed":4101,"szer11</w>":4102,"szed6</w>":4103,"ildu</w>":4104,"siskurx</w>":4105,"SIG5</w>":4106,"kurum6</w>":4107,"KWU0":4108,"KISZI":4109,"KINDA</w>":4110,"sed8</w>":4111,"GILIM</w>":4112,"MUN2</w>":4113,"TUSZ</w>":4114,"TUN3</w>":4115,"LAK114</w>":4116,"addax</w>":4117,"NUMUN2</w>":4118,"KAM4</w>":4119,"KANKAL</w>":4120,"PAB</w>":4121,"imh":4122,"im5</w>":4123,"mur8</w>":4124,"NIM":4125,"szagina2</w>":4126,"SZIR3</w>":4127,"SALx":4128,"EREN2</w>":4129,"szimx</w>":4130,"emerah</w>":4131,"de4</w>":4132,"agar2</w>":4133,"agarin4</w>":4134,"nindagarax</w>":4135,"min6</w>":4136,"GA2xUD</w>":4137,"GA2xME</w>":4138,"HUB</w>":4139,"garasz</w>":4140,"garad</w>":4141,"gaszamx</w>":4142,"KAxDISZ</w>":4143,"KAxSAR</w>":4144,"KAxKAR2</w>":4145,"SIK</w>":4146,"arhusz2</w>":4147,"174":4148,"URU5</w>":4149,"arar":4150,"GU7</w>":4151,"LAK025</w>":4152,"LAK051</w>":4153,"LAK093</w>":4154,"LAK004</w>":4155,"ret</w>":4156,"kadra2</w>":4157,"marad</w>":4158,"pesz6</w>":4159,"LAK212</w>":4160,"LAK240</w>":4161,"LAK247</w>":4162,"UR2xKAR2</w>":4163,"ENxME</w>":4164,"URUxSZE</w>":4165,"URUxTU</w>":4166,"URUxKAR2</w>":4167,"LAK566</w>":4168,"LAK383</w>":4169,"LAK369</w>":4170,"152":4171,"SUD2</w>":4172,"SUxU</w>":4173,"SUKKAL</w>":4174,"ama6</w>":4175,"ZA3</w>":4176,"IRIx":4177,"men4</w>":4178,"LAK614</w>":4179,"LAK648":4180,"DUGxSZE</w>":4181,"DUGxASZ</w>":4182,"DUGxIGI</w>":4183,"DUGxKASKAL</w>":4184,"gizzu</w>":4185,"LAK734</w>":4186,"NINDA2xAN</w>":4187,"NINDA2xASZ</w>":4188,"ildagx</w>":4189,"SAGxX</w>":4190,"gesztug3</w>":4191,"nitalam2</w>":4192,"EZENxX</w>":4193,"148d</w>":4194,"148b</w>":4195,"148a</w>":4196,"148e</w>":4197,"148c</w>":4198,"SZUKU</w>":4199,"SZIMxX</w>":4200,"207</w>":4201,"204</w>":4202,"206</w>":4203,"208</w>":4204,"BULUG</w>":4205,"E2xDISZ</w>":4206,"E2xPAP</w>":4207,"szurmenx</w>":4208,"suluhux</w>":4209,"suhuszx</w>":4210,"KISIM5xU2</w>":4211,"KWU752</w>":4212,"USZxTAK4</w>":4213,"REC3":4214,"REC193</w>":4215,"DUMUxZI</w>":4216,"igigi</w>":4217,"zirru</w>":4218,"TAxKUR</w>":4219,"DIMxMASZ</w>":4220,"GISZGALxIM</w>":4221,"musztu</w>":4222,"TUMx3</w>":4223,"AB2xBI</w>":4224,"ir10</w>":4225,"GESZTIN</w>":4226,"UKKEN</w>":4227,"gxTIL</w>":4228,"61a</w>":4229,"iti7</w>":4230,"KIRI":4231,"NIGIN4</w>":4232,"HUB2xUD</w>":4233,"UMUN2xHA</w>":4234,"silig5</w>":4235,"pisan3</w>":4236,"SZE3xU</w>":4237,"SANGA</w>":4238,"URUDUxU</w>":4239,"ANSZEx":4240,"ZUMx":4241,"sahar2</w>":4242,"EGI2</w>":4243,"amuszx</w>":4244,"algamesz</w>":4245,"be7</w>":4246,"qur8</w>":4247,"guda4</w>":4248,"sanga4</w>":4249,"eszkiri2</w>":4250,"eszemen2</w>":4251,"LAK648x":4252,"03</w>":4253,"09</w>":4254,"011</w>":4255,"010</w>":4256,"1b</w>":4257,"184</w>":4258,"211</w>":4259,"210</w>":4260,"217</w>":4261,"212</w>":4262,"216</w>":4263,"290</w>":4264,"220</w>":4265,"221</w>":4266,"245</w>":4267,"234</w>":4268,"219</w>":4269,"277</w>":4270,"284</w>":4271,"292</w>":4272,"250</w>":4273,"246</w>":4274,"251</w>":4275,"252</w>":4276,"247</w>":4277,"269</w>":4278,"264</w>":4279,"293</w>":4280,"274</w>":4281,"266</w>":4282,"261</w>":4283,"265</w>":4284,"241</w>":4285,"288</w>":4286,"291</w>":4287,"271</w>":4288,"276</w>":4289,"421</w>":4290,"9a</w>":4291,"BU3</w>":4292,"BUR3</w>":4293,"DARA":4294,"DIG":4295,"G4</w>":4296,"GIG":4297,"H2</w>":4298,"IDIG":4299,"KU2</w>":4300,"MAx":4301,"N2x":4302,"PU</w>":4303,"PAN</w>":4304,"QA</w>":4305,"R4</w>":4306,"SUR3</w>":4307,"SUR2</w>":4308,"TI":4309,"UZ</w>":4310,"UBAR":4311,"USAN</w>":4312,"ZAR</w>":4313,"ZAL</w>":4314,"ari":4315,"by</w>":4316,"co":4317,"egar</w>":4318,"el4</w>":4319,"eh3</w>":4320,"egarx</w>":4321,"ggan</w>":4322,"glun":4323,"h7</w>":4324,"hu4</w>":4325,"iz":4326,"i9</w>":4327,"ig3</w>":4328,"igisz":4329,"l8</w>":4330,"l12</w>":4331,"mkan</w>":4332,"pab</w>":4333,"qe</w>":4334,"qab2</w>":4335,"qisz</w>":4336,"qaq</w>":4337,"ru4</w>":4338,"rsir</w>":4339,"sc</w>":4340,"ter":4341,"te4</w>":4342,"udi":4343,"utug2</w>":4344,"ukusz</w>":4345,"uszub</w>":4346,"uszar3</w>":4347,"un5</w>":4348,"xAN</w>":4349,"xGU</w>":4350,"xTAK4</w>":4351,"z3</w>":4352,"zu3</w>":4353,"zug":4354,"zerx</w>":4355,"×X</w>":4356,"szerim</w>":4357,"dir</w>":4358,"ditanx</w>":4359,"disc</w>":4360,"ba8</w>":4361,"barax</w>":4362,"ga5</w>":4363,"garig</w>":4364,"gana":4365,"gabar</w>":4366,"gamun</w>":4367,"gara3</w>":4368,"gabur":4369,"garadin</w>":4370,"nis":4371,"ni9</w>":4372,"nida":4373,"nira":4374,"gul2</w>":4375,"gum3</w>":4376,"gugx</w>":4377,"lap</w>":4378,"lam3</w>":4379,"dusz</w>":4380,"dulu</w>":4381,"lut</w>":4382,"luda</w>":4383,"lum2</w>":4384,"lulu</w>":4385,"lulimx</w>":4386,"sibir</w>":4387,"sirsir</w>":4388,"ge16</w>":4389,"gemex</w>":4390,"sah</w>":4391,"sara2</w>":4392,"sabar</w>":4393,"sagax</w>":4394,"sah7</w>":4395,"kasz3</w>":4396,"kalx</w>":4397,"ka15</w>":4398,"karadin</w>":4399,"szuk</w>":4400,"szul3</w>":4401,"szum3</w>":4402,"szumx</w>":4403,"mad":4404,"ma6</w>":4405,"kunin":4406,"kur4</w>":4407,"kulla</w>":4408,"szam</w>":4409,"szamasz</w>":4410,"szamkan</w>":4411,"dam2</w>":4412,"dar4</w>":4413,"daggan</w>":4414,"sugin</w>":4415,"sumurx</w>":4416,"sudx</w>":4417,"sug6</w>":4418,"lih</w>":4419,"liru4</w>":4420,"tuh</w>":4421,"tul8</w>":4422,"munu</w>":4423,"muzu":4424,"szib</w>":4425,"szin</w>":4426,"szir5</w>":4427,"szibir2</w>":4428,"hub</w>":4429,"hudusz</w>":4430,"nun3</w>":4431,"enegir</w>":4432,"enmen</w>":4433,"englun":4434,"enter":4435,"GAN2x":4436,"bid3</w>":4437,"bibad</w>":4438,"biluda</w>":4439,"girinx</w>":4440,"kex</w>":4441,"dinx</w>":4442,"erina8</w>":4443,"anzu":4444,"SZAM2</w>":4445,"paq</w>":4446,"pah2</w>":4447,"sig6</w>":4448,"sigx</w>":4449,"tas</w>":4450,"talx</w>":4451,"lagar3</w>":4452,"haz</w>":4453,"zax</w>":4454,"pir2</w>":4455,"pihu4</w>":4456,"ziz3</w>":4457,"zilulu</w>":4458,"zipah2</w>":4459,"puzur2</w>":4460,"tisz2</w>":4461,"tilla</w>":4462,"guruszda</w>":4463,"gesznu2</w>":4464,"gesznux</w>":4465,"LAB</w>":4466,"aszlug</w>":4467,"munzerx</w>":4468,"rah2</w>":4469,"uszu3</w>":4470,"KISALx":4471,"UR5</w>":4472,"URx</w>":4473,"URUD</w>":4474,"se9</w>":4475,"ASZxasz</w>":4476,"ASZxASZ</w>":4477,"GIxTAK4</w>":4478,"azlagx</w>":4479,"tak3</w>":4480,"takx</w>":4481,"alal2</w>":4482,"KA×X</w>":4483,"PA4</w>":4484,"imx</w>":4485,"NIG</w>":4486,"NIMIN</w>":4487,"SZITA":4488,"SZINIG</w>":4489,"rig5</w>":4490,"rig12</w>":4491,"imgagax</w>":4492,"tibir2</w>":4493,"tibirax</w>":4494,"nuska2</w>":4495,"DAGx":4496,"min4</w>":4497,"AMASZ</w>":4498,"gidlamx</w>":4499,"LAK459</w>":4500,"LAK461a</w>":4501,"GA2xGI</w>":4502,"GA2xASZ2</w>":4503,"gar6</w>":4504,"MUSZxMUSZ</w>":4505,"KAxUD</w>":4506,"KAxKID</w>":4507,"KAxBAR</w>":4508,"SI22</w>":4509,"arhuszx</w>":4510,"NxKASKAL</w>":4511,"HIxU</w>":4512,"ara5</w>":4513,"GUN3</w>":4514,"GUB3</w>":4515,"GUxGU</w>":4516,"uduax</w>":4517,"DIM3</w>":4518,"LAK060</w>":4519,"arattax</w>":4520,"irix</w>":4521,"KUSZ":4522,"KUSZ2</w>":4523,"pesz13</w>":4524,"mudra6</w>":4525,"LAGABxBAD</w>":4526,"LAGABxNUN</w>":4527,"LAGABxKUL</w>":4528,"LAK296</w>":4529,"LAK239</w>":4530,"szembulug3</w>":4531,"URUxUD</w>":4532,"URUxGU</w>":4533,"LAK50</w>":4534,"LAK545</w>":4535,"LAK542</w>":4536,"LAK355</w>":4537,"LAK308</w>":4538,"utul4</w>":4539,"utul12</w>":4540,"agargarax</w>":4541,"KWU893</w>":4542,"isinx</w>":4543,"LAK61</w>":4544,"LAK654</w>":4545,"LAK647</w>":4546,"LAK668</w>":4547,"szakirx</w>":4548,"DUGxHI</w>":4549,"DUGxHA</w>":4550,"DUGxGISZ</w>":4551,"DUGxKUR</w>":4552,"DUGxLAM</w>":4553,"DUGxLAK20</w>":4554,"unu4</w>":4555,"134":4556,"LAK780</w>":4557,"LAK171</w>":4558,"NINDA2xDIM</w>":4559,"suhx</w>":4560,"ezinu3</w>":4561,"SAGxEN</w>":4562,"LU2xGAN2</w>":4563,"LU2xKAR2</w>":4564,"karkex</w>":4565,"gakkulx</w>":4566,"3xKASKAL</w>":4567,"EZENxU</w>":4568,"EZENxIGI</w>":4569,"uludim2</w>":4570,"ERINxKASKAL</w>":4571,"148l</w>":4572,"148i</w>":4573,"148m</w>":4574,"148g</w>":4575,"148n</w>":4576,"148h</w>":4577,"148f</w>":4578,"148k</w>":4579,"148o</w>":4580,"148j</w>":4581,"SZU4</w>":4582,"007</w>":4583,"009</w>":4584,"008</w>":4585,"GUR7</w>":4586,"LAK503</w>":4587,"LAK500</w>":4588,"205</w>":4589,"E2xU</w>":4590,"E2xSZE</w>":4591,"E2xASZ</w>":4592,"uttuku</w>":4593,"ENGAR</w>":4594,"ABxSZU2</w>":4595,"suhub3</w>":4596,"giggi2</w>":4597,"KWU729</w>":4598,"buranuna</w>":4599,"UDxDISZ</w>":4600,"HUBURx</w>":4601,"USZxKUR</w>":4602,"REC5":4603,"te9</w>":4604,"UET2153</w>":4605,"innin</w>":4606,"GISZGALxIGI</w>":4607,"GISZGALxURUDU</w>":4608,"RSP468bis</w>":4609,"UH3xKASKAL</w>":4610,"luhsza</w>":4611,"TUMxPAP</w>":4612,"HUBURxSI</w>":4613,"KWU474</w>":4614,"ELLES160</w>":4615,"ASZGAB</w>":4616,"sumur2</w>":4617,"SZA3xSAL</w>":4618,"sur12</w>":4619,"hursagx</w>":4620,"pisz10</w>":4621,"garadinx</w>":4622,"zulumhi3</w>":4623,"EZEMxAN</w>":4624,"UKKENx":4625,"itid</w>":4626,"NIGIN2</w>":4627,"for</w>":4628,"hirin</w>":4629,"susx</w>":4630,"akkil2</w>":4631,"akkilx</w>":4632,"sikix</w>":4633,"garasz4</w>":4634,"ganzer3</w>":4635,"uszbar3</w>":4636,"UG7</w>":4637,"indagara</w>":4638,"KWU079</w>":4639,"KISZI4</w>":4640,"ararma</w>":4641,"KIRI6</w>":4642,"ANSZExMUNUS</w>":4643,"IDIGNA</w>":4644,"UBARA</w>":4645,"izim</w>":4646,"igisztu</w>":4647,"udinim</w>":4648,"zug4</w>":4649,"gaburra</w>":4650,"nidaba</w>":4651,"nirahx</w>":4652,"kunin3</w>":4653,"englund</w>":4654,"entered</w>":4655,"anzud2</w>":4656,"02</w>":4657,"1U</w>":4658,"226</w>":4659,"222</w>":4660,"249</w>":4661,"244</w>":4662,"227</w>":4663,"224</w>":4664,"223</w>":4665,"229</w>":4666,"228</w>":4667,"230</w>":4668,"243</w>":4669,"233</w>":4670,"263</w>":4671,"240</w>":4672,"232</w>":4673,"248</w>":4674,"262</w>":4675,"231</w>":4676,"242</w>":4677,"272</w>":4678,"287</w>":4679,"275</w>":4680,"295</w>":4681,"294</w>":4682,"310</w>":4683,"317</w>":4684,"313</w>":4685,"316</w>":4686,"314</w>":4687,"315</w>":4688,"383</w>":4689,"319</w>":4690,"384</w>":4691,"328</w>":4692,"379</w>":4693,"380</w>":4694,"385</w>":4695,"387</w>":4696,"382</w>":4697,"381</w>":4698,"386</w>":4699,"35a</w>":4700,"34a</w>":4701,"36a</w>":4702,"418</w>":4703,"412</w>":4704,"413</w>":4705,"416</w>":4706,"414</w>":4707,"490</w>":4708,"415</w>":4709,"420</w>":4710,"422</w>":4711,"419</w>":4712,"489</w>":4713,"488</w>":4714,"45a</w>":4715,"590</w>":4716,"592</w>":4717,"589</w>":4718,"593</w>":4719,"595</w>":4720,"594</w>":4721,"591</w>":4722,"69a</w>":4723,"7disz</w>":4724,"9A</w>":4725,"AZ</w>":4726,"AGA":4727,"A2x":4728,"ADx":4729,"ASZ4</w>":4730,"BURU":4731,"BBAR</w>":4732,"D4</w>":4733,"DURx":4734,"ESI":4735,"HAD2</w>":4736,"HASZ4</w>":4737,"IZ</w>":4738,"ISAN</w>":4739,"KAR":4740,"MI":4741,"MURU":4742,"May":4743,"MA2x":4744,"N6</w>":4745,"PU":4746,"PN</w>":4747,"PISAN</w>":4748,"S2</w>":4749,"SE3</w>":4750,"SKAR":4751,"UD":4752,"U18</w>":4753,"UGU</w>":4754,"US2</w>":4755,"X4</w>":4756,"ZU5</w>":4757,"asza":4758,"ara</w>":4759,"ab3</w>":4760,"bu5</w>":4761,"d1</w>":4762,"dsuen</w>":4763,"eh":4764,"eg</w>":4765,"ege":4766,"eli</w>":4767,"esag2</w>":4768,"egx</w>":4769,"he3</w>":4770,"hon</w>":4771,"ili2</w>":4772,"ili</w>":4773,"ia5</w>":4774,"ia4</w>":4775,"kkala</w>":4776,"lem</w>":4777,"lha":4778,"let</w>":4779,"lege":4780,"mmu</w>":4781,"mil":4782,"mit</w>":4783,"nd</w>":4784,"no</w>":4785,"ndan</w>":4786,"og</w>":4787,"pi3</w>":4788,"phon</w>":4789,"qe3</w>":4790,"qam</w>":4791,"qut</w>":4792,"qerx</w>":4793,"rub</w>":4794,"ram</w>":4795,"rsix</w>":4796,"sx</w>":4797,"t2</w>":4798,"t3</w>":4799,"ti3</w>":4800,"tesz</w>":4801,"tenx</w>":4802,"usza":4803,"uszu</w>":4804,"uku</w>":4805,"udul</w>":4806,"udul10</w>":4807,"uburx</w>":4808,"vc":4809,"vog</w>":4810,"wa2</w>":4811,"wa3</w>":4812,"xSZ":4813,"xHI</w>":4814,"xIGI</w>":4815,"xKUR</w>":4816,"xvog</w>":4817,"zur5</w>":4818,"zum":4819,"zer":4820,"zugx</w>":4821,"szda2</w>":4822,"didax</w>":4823,"bad2</w>":4824,"barx</w>":4825,"barig":4826,"bad5</w>":4827,"gat</w>":4828,"gal3</w>":4829,"gamx</w>":4830,"gambi</w>":4831,"gazix</w>":4832,"nit</w>":4833,"gis</w>":4834,"gil2</w>":4835,"gisz3</w>":4836,"gim6</w>":4837,"gisalx</w>":4838,"git2</w>":4839,"guk":4840,"gulx</w>":4841,"guszurx</w>":4842,"gud5</w>":4843,"dug":4844,"dup</w>":4845,"dugin2</w>":4846,"du17</w>":4847,"luga</w>":4848,"luhu2</w>":4849,"si5</w>":4850,"sisi</w>":4851,"sirasz</w>":4852,"ge3</w>":4853,"sar2</w>":4854,"kana":4855,"kalla</w>":4856,"kakkala</w>":4857,"szub3</w>":4858,"szuszum</w>":4859,"szudul3</w>":4860,"szubx</w>":4861,"szudx</w>":4862,"szudul2</w>":4863,"ma8</w>":4864,"kuszum</w>":4865,"szaq</w>":4866,"szada</w>":4867,"szama":4868,"szara":4869,"szandan</w>":4870,"nammu</w>":4871,"dasz2</w>":4872,"dalx</w>":4873,"dami":4874,"dalha":4875,"ki9</w>":4876,"kis</w>":4877,"kisz2</w>":4878,"kila</w>":4879,"kir4</w>":4880,"kimx</w>":4881,"kibir2</w>":4882,"suk</w>":4883,"sugal</w>":4884,"sul2</w>":4885,"suku5</w>":4886,"su18</w>":4887,"subir</w>":4888,"sub5</w>":4889,"sum6</w>":4890,"sumunx</w>":4891,"lid</w>":4892,"liru</w>":4893,"lil3</w>":4894,"lilla":4895,"likx</w>":4896,"tug</w>":4897,"tubax</w>":4898,"tumu3</w>":4899,"urbi":4900,"mux</w>":4901,"muk</w>":4902,"muszen":4903,"szih</w>":4904,"szig5</w>":4905,"gur16</w>":4906,"hu3</w>":4907,"hubur</w>":4908,"hup2</w>":4909,"nigirsix</w>":4910,"nu6</w>":4911,"numx</w>":4912,"nubx</w>":4913,"numun3</w>":4914,"ene":4915,"enne":4916,"enszada</w>":4917,"GAx":4918,"bisz</w>":4919,"bibra</w>":4920,"giriz</w>":4921,"giri11</w>":4922,"giriszx</w>":4923,"girimax</w>":4924,"keszda2</w>":4925,"ugun</w>":4926,"am4</w>":4927,"AR3</w>":4928,"urim2</w>":4929,"erim4</w>":4930,"munu8</w>":4931,"SZAB</w>":4932,"pa12</w>":4933,"pazur5</w>":4934,"urux</w>":4935,"uru8</w>":4936,"uru12</w>":4937,"iszkila</w>":4938,"sagga</w>":4939,"mesz2</w>":4940,"mes2</w>":4941,"maszkimx</w>":4942,"hax</w>":4943,"harub</w>":4944,"zarx</w>":4945,"zapah</w>":4946,"pisag</w>":4947,"pisag2</w>":4948,"zir3</w>":4949,"ug6</w>":4950,"esz15</w>":4951,"eszda2</w>":4952,"tib</w>":4953,"til2</w>":4954,"titabx</w>":4955,"tion</w>":4956,"halba2</w>":4957,"geszx</w>":4958,"geszmin</w>":4959,"tuku2</w>":4960,"abgalx</w>":4961,"nesag3</w>":4962,"LA2x":4963,"aszz</w>":4964,"aszszur</w>":4965,"asz45</w>":4966,"aszgarx</w>":4967,"aszlag4</w>":4968,"szer":4969,"szet</w>":4970,"szer2</w>":4971,"sze14</w>":4972,"sze25</w>":4973,"munsubx</w>":4974,"SIG17</w>":4975,"kuru5</w>":4976,"kuru7</w>":4977,"ras</w>":4978,"raba</w>":4979,"KWU127</w>":4980,"KWU173</w>":4981,"uszusz</w>":4982,"KINx":4983,"URI":4984,"se25</w>":4985,"sedx</w>":4986,"sed5</w>":4987,"GIMx":4988,"bu12</w>":4989,"bungu</w>":4990,"kunx</w>":4991,"azx</w>":4992,"MUR</w>":4993,"TU2</w>":4994,"TU6</w>":4995,"TUN</w>":4996,"LAK193</w>":4997,"LAK155</w>":4998,"LAK198</w>":4999,"bappirx</w>":5000,"szeg7</w>":5001,"szegbar</w>":5002,"szegbarx</w>":5003,"BAN":5004,"BABBAR</w>":5005,"ad5</w>":5006,"adda2</w>":5007,"NUxSZ":5008,"alad2</w>":5009,"KAS</w>":5010,"PA3</w>":5011,"murub6</w>":5012,"2xKASKAL</w>":5013,"muru4</w>":5014,"murgux</w>":5015,"NITA</w>":5016,"ummu4</w>":5017,"GIR4</w>":5018,"GIR3x":5019,"BIxDISZ</w>":5020,"SZITAx":5021,"SA4</w>":5022,"zabalam3</w>":5023,"DU7</w>":5024,"DU10</w>":5025,"DUL4</w>":5026,"henzer</w>":5027,"ag3</w>":5028,"burudx</w>":5029,"asznan2</w>":5030,"eme7</w>":5031,"emex</w>":5032,"emedu</w>":5033,"emedu2</w>":5034,"zuluhu2</w>":5035,"gilgames</w>":5036,"DAx":5037,"DA3</w>":5038,"DAN6</w>":5039,"gissux</w>":5040,"lahszu</w>":5041,"lahtan4</w>":5042,"lahtanx</w>":5043,"TAxNIG2</w>":5044,"TAGx":5045,"TAxU</w>":5046,"TAG4</w>":5047,"TASKAR":5048,"LAK4b</w>":5049,"LAK470</w>":5050,"bur10</w>":5051,"GA2xIGI</w>":5052,"GA2xBU</w>":5053,"GA2xKID</w>":5054,"GA2xGIR3</w>":5055,"mud6</w>":5056,"nunuzx</w>":5057,"KAxNE</w>":5058,"KAxHA</w>":5059,"KAxGIR2</w>":5060,"KAxIGI</w>":5061,"KAxGAR</w>":5062,"KAxESZ</w>":5063,"KAxMASZ</w>":5064,"KAxERIN2</w>":5065,"NAB3</w>":5066,"SI2</w>":5067,"SI11</w>":5068,"SIPA</w>":5069,"SILA</w>":5070,"HIxGADA</w>":5071,"17xHI</w>":5072,"URUGAL</w>":5073,"res</w>":5074,"LU5</w>":5075,"103a</w>":5076,"lugula</w>":5077,"KUSZU":5078,"LAGABxPA</w>":5079,"LAGABxMUSZ</w>":5080,"LAGABxNIR</w>":5081,"LAGABxKU3</w>":5082,"LAGABxUSZ2</w>":5083,"LAK253</w>":5084,"ENxGAN2</w>":5085,"ENxGI</w>":5086,"ENxKUR</w>":5087,"URUxISZ</w>":5088,"URUxSIG7</w>":5089,"URUxKI</w>":5090,"URUxBAR</w>":5091,"LAK51</w>":5092,"LAK590</w>":5093,"LAK524</w>":5094,"LAK550</w>":5095,"LAK586</w>":5096,"LAK314</w>":5097,"LAK349</w>":5098,"LAK323</w>":5099,"LAK377</w>":5100,"LAK328</w>":5101,"LAK350</w>":5102,"LAK348</w>":5103,"LAK339</w>":5104,"LAK388</w>":5105,"152a</w>":5106,"utux</w>":5107,"utuwa2</w>":5108,"gansis</w>":5109,"SUZ</w>":5110,"zabalam2</w>":5111,"163":5112,"161b</w>":5113,"IR3</w>":5114,"KWU879</w>":5115,"isisz</w>":5116,"isim3</w>":5117,"LAK692</w>":5118,"LAK648</w>":5119,"LAK670</w>":5120,"LAK617xHI</w>":5121,"DUGxGIR2</w>":5122,"DUGxSI</w>":5123,"DUGxGA</w>":5124,"DUGxMI</w>":5125,"DUGxGI</w>":5126,"DUGxPI</w>":5127,"DUGxMES</w>":5128,"DUGxMASZ</w>":5129,"DUGxDIN</w>":5130,"DUGxANSZE</w>":5131,"DUGxKUSZU2</w>":5132,"DUGxERIN2</w>":5133,"DUGxDUN</w>":5134,"LAK72":5135,"LAK77</w>":5136,"LAK716</w>":5137,"LAK749</w>":5138,"LAK743</w>":5139,"LAK742</w>":5140,"LAK770</w>":5141,"SILA3x":5142,"LAK178</w>":5143,"NINDA2xNE</w>":5144,"NINDA2xSZIM</w>":5145,"NINDA2xME</w>":5146,"NINDA2xGAR3</w>":5147,"NINDA2xGUD</w>":5148,"kinkin</w>":5149,"usztil</w>":5150,"SAGxESZ</w>":5151,"SAGxKID2</w>":5152,"SAGxTAG4</w>":5153,"LU2xUSZ2</w>":5154,"181":5155,"KISIM5</w>":5156,"3xBALAG</w>":5157,"3xSZA</w>":5158,"nitah2</w>":5159,"EZENxASZ</w>":5160,"EZENxSU</w>":5161,"EZENxKUR</w>":5162,"EZENxKU3</w>":5163,"LAL2xX</w>":5164,"LAL2xKAK</w>":5165,"LAL2xDUR2</w>":5166,"UMBINxMASZ</w>":5167,"ulux</w>":5168,"148q</w>":5169,"148p</w>":5170,"GURUM</w>":5171,"GURUN</w>":5172,"203</w>":5173,"2017</w>":5174,"nanibgal2</w>":5175,"DILIM2</w>":5176,"E2xBAD</w>":5177,"karadin8</w>":5178,"suluhu3</w>":5179,"SZIMx</w>":5180,"SZIMMAR</w>":5181,"ENKUM</w>":5182,"ENSI2</w>":5183,"GAR5</w>":5184,"GARA2</w>":5185,"ABxLAK178</w>":5186,"megida2</w>":5187,"KISIM5xHA</w>":5188,"KISIM5xSI</w>":5189,"KISIM5xGUG2</w>":5190,"NITAH2</w>":5191,"UDxX</w>":5192,"REC169</w>":5193,"UET20":5194,"KWU509</w>":5195,"UET2161b</w>":5196,"AxMUSZ</w>":5197,"AxSUD</w>":5198,"RSP404</w>":5199,"inbir</w>":5200,"GISZxSZU</w>":5201,"GISZGALxGU</w>":5202,"uzud</w>":5203,"MUNSZUB</w>":5204,"aslumx</w>":5205,"AB2xX</w>":5206,"AB2xUD</w>":5207,"AB2xTAK4</w>":5208,"AB2xLA</w>":5209,"SARx":5210,"LAGARxDISZ</w>":5211,"LAGARxX</w>":5212,"DISZx1U</w>":5213,"HUBURxX</w>":5214,"GESZx":5215,"GESZIMMAR</w>":5216,"KWU422</w>":5217,"KWU475</w>":5218,"4xGABA</w>":5219,"tidnumx</w>":5220,"GESZTUG2</w>":5221,"GESZTU2</w>":5222,"309</w>":5223,"UZ3xBALAG</w>":5224,"gxHA</w>":5225,"LAGARxSZE</w>":5226,"LAGARxESZ</w>":5227,"LAGARxZA</w>":5228,"gesztin2</w>":5229,"KIR2</w>":5230,"RSP329</w>":5231,"RSP374</w>":5232,"HUB2xKASKAL</w>":5233,"UMUN2xAN</w>":5234,"BARA2</w>":5235,"BARA10</w>":5236,"foxvog</w>":5237,"hibis</w>":5238,"susbu2</w>":5239,"pisan2</w>":5240,"SANGA2</w>":5241,"URUDUx":5242,"garaszx</w>":5243,"uszbarx</w>":5244,"NExPAP</w>":5245,"UMUM</w>":5246,"UMUMx":5247,"lophon</w>":5248,"lamma3</w>":5249,"lammax</w>":5250,"sumukan</w>":5251,"IGIxA</w>":5252,"IGIxX</w>":5253,"imhur4</w>":5254,"NIMBAR</w>":5255,"152b</w>":5256,"REC333</w>":5257,"ZUMxLAGAB</w>":5258,"ZUMxKASKAL</w>":5259,"LAK648xNI</w>":5260,"DARA3</w>":5261,"GIGIR</w>":5262,"MAxGAN2</w>":5263,"arinax</w>":5264,"colophon</w>":5265,"ganam5</w>":5266,"niskum</w>":5267,"madrax</w>":5268,"muzug2</w>":5269,"GAN2xGAN2</w>":5270,"KISALxPAP</w>":5271,"SZITA2</w>":5272,"DAGxKUR</w>":5273,"KUSZU3</w>":5274,"REC558</w>":5275,"AGA3</w>":5276,"ADxESZ2</w>":5277,"DURxIGI</w>":5278,"ESIR4</w>":5279,"Mayr</w>":5280,"MA2xESZ2</w>":5281,"PU3xSZA</w>":5282,"aszag</w>":5283,"legend</w>":5284,"milla</w>":5285,"zumx</w>":5286,"zermusz":5287,"barigc</w>":5288,"kana6</w>":5289,"szaragx</w>":5290,"lillan</w>":5291,"urbigu</w>":5292,"muszenx</w>":5293,"ennegi</w>":5294,"LA2xDISZ</w>":5295,"KINxUD</w>":5296,"GIMxSU</w>":5297,"NUxSZUSZ</w>":5298,"TAGxNE</w>":5299,"TASKARIN</w>":5300,"KUSZU2xKASKAL</w>":5301,"SILA3x5</w>":5302}