{"<sos>":0,"<eos>":1,"<pad>":2,"!":3,"\"":4,"#":5,"$":6,"%":7,"&":8,"'":9,"(":10,")":11,"*":12,"+":13,",":14,"-":15,".":16,"/":17,"0":18,"1":19,"2":20,"3":21,"4":22,"5":23,"6":24,"7":25,"8":26,"9":27,":":28,";":29,"<":30,"=":31,">":32,"?":33,"@":34,"A":35,"B":36,"C":37,"D":38,"E":39,"F":40,"G":41,"H":42,"I":43,"J":44,"K":45,"L":46,"M":47,"N":48,"O":49,"P":50,"Q":51,"R":52,"S":53,"T":54,"U":55,"V":56,"W":57,"X":58,"Y":59,"Z":60,"[":61,"\\":62,"]":63,"^":64,"_":65,"`":66,"a":67,"b":68,"c":69,"d":70,"e":71,"f":72,"g":73,"h":74,"i":75,"j":76,"k":77,"l":78,"m":79,"n":80,"o":81,"p":82,"q":83,"r":84,"s":85,"t":86,"u":87,"v":88,"w":89,"x":90,"y":91,"z":92,"{":93,"|":94,"}":95,"~":96,"¡":97,"¢":98,"£":99,"¤":100,"¥":101,"¦":102,"§":103,"¨":104,"©":105,"ª":106,"«":107,"¬":108,"®":109,"¯":110,"°":111,"±":112,"²":113,"³":114,"´":115,"µ":116,"¶":117,"·":118,"¸":119,"¹":120,"º":121,"»":122,"¼":123,"½":124,"¾":125,"¿":126,"À":127,"Á":128,"Â":129,"Ã":130,"Ä":131,"Å":132,"Æ":133,"Ç":134,"È":135,"É":136,"Ê":137,"Ë":138,"Ì":139,"Í":140,"Î":141,"Ï":142,"Ð":143,"Ñ":144,"Ò":145,"Ó":146,"Ô":147,"Õ":148,"Ö":149,"×":150,"Ø":151,"Ù":152,"Ú":153,"Û":154,"Ü":155,"Ý":156,"Þ":157,"ß":158,"à":159,"á":160,"â":161,"ã":162,"ä":163,"å":164,"æ":165,"ç":166,"è":167,"é":168,"ê":169,"ë":170,"ì":171,"í":172,"î":173,"ï":174,"ð":175,"ñ":176,"ò":177,"ó":178,"ô":179,"õ":180,"ö":181,"÷":182,"ø":183,"ù":184,"ú":185,"û":186,"ü":187,"ý":188,"þ":189,"ÿ":190,"Ā":191,"ā":192,"Ă":193,"ă":194,"Ą":195,"ą":196,"Ć":197,"ć":198,"Ĉ":199,"ĉ":200,"Ċ":201,"ċ":202,"Č":203,"č":204,"Ď":205,"ď":206,"Đ":207,"đ":208,"Ē":209,"ē":210,"Ĕ":211,"ĕ":212,"Ė":213,"ė":214,"Ę":215,"ę":216,"Ě":217,"ě":218,"Ĝ":219,"ĝ":220,"Ğ":221,"ğ":222,"Ġ":223,"ġ":224,"Ģ":225,"ģ":226,"Ĥ":227,"ĥ":228,"Ħ":229,"ħ":230,"Ĩ":231,"ĩ":232,"Ī":233,"ī":234,"Ĭ":235,"ĭ":236,"Į":237,"į":238,"İ":239,"ı":240,"Ĳ":241,"ĳ":242,"Ĵ":243,"ĵ":244,"Ķ":245,"ķ":246,"ĸ":247,"Ĺ":248,"ĺ":249,"Ļ":250,"ļ":251,"Ľ":252,"ľ":253,"Ŀ":254,"ŀ":255,"Ł":256,"ł":257,"Ń":258,"ĠĊ":259,"he":260,"Ġt":261,"in":262,"Ġo":263,"Ġthe":264,"an":265,"Ġs":266,"er":267,"Ġof":268,"Ġb":269,"ar":270,"Ġw":271,"or":272,"ed":273,"at":274,"ou":275,"Ġf":276,"al":277,"it":278,"Ġm":279,"is":280,"ing":281,"es":282,"on":283,"en":284,"Ġh":285,"as":286,"il":287,"Ġc":288,"re":289,"Ġl":290,"Ġd":291,"and":292,"Ġa":293,"Ġp":294,"Ġg":295,"le":296,"ro":297,"ur":298,"Ġhe":299,"Ġin":300,"Ġy":301,"Ġto":302,"xx":303,"el":304,"Ġn":305,"ĠĠĊ":306,"the":307,"ad":308,"Ġyou":309,"ig":310,"ay":311,"ab":312,"Ġfor":313,"Ġit":314,"ot":315,"ir":316,"am":317,"ac":318,"th":319,"im":320,"king":321,"id":322,"Ġand":323,"Ġe":324,"The":325,"ho":326,"Ġbe":327,"se":328,"Ġ1":329,"ke":330,"Ġth":331,"ĠE":332,"ĠN":333,"ul":334,"Ġr":335,"ĠU":336,"ter":337,"un":338,"um":339,"of":340,"em":341,"ver":342,"Ġis":343,"est":344,"Ġshe":345,"ic":346,"ow":347,"Ġst":348,"all":349,"Ġon":350,"ĠA":351,"ĠI":352,"ag":353,"ion":354,"xxx":355,"ts":356,"ith":357,"od":358,"rom":359,"Ġwas":360,"ĠUr":361,"st":362,"ear":363,"av":364,"ut":365,"Ġnot":366,"ol":367,"Ġhis":368,"ri":369,"ple":370,"oun":371,"ĠL":372,"Ġbar":373,"Ġwho":374,"Ġar":375,"ug":376,"Ġli":377,"Ġking":378,"ent":379,"Ġre":380,"ain":381,"Ġyour":382,"Ġse":383,"Ġwith":384,"ers":385,"Ġsh":386,"ĠEn":387,"Ġsil":388,"for":389,"Ġ2":390,"ess":391,"Ġmy":392,"ep":393,"Ġits":394,"ann":395,"ant":396,"Ġpl":397,"iv":398,"om":399,"Ġthat":400,"Ġman":401,"up":402,"ht":403,"lil":404,"Ġhim":405,"ld":406,"to":407,"ace":408,"ouse":409,"reat":410,"Ġat":411,"ec":412,"ill":413,"Ġwor":414,"ity":415,"ea":416,"our":417,"Ġme":418,"Ġher":419,"able":420,"emple":421,"anna":422,"Ġgo":423,"der":424,"her":425,"ce":426,"Ġday":427,"Ġtemple":428,"Ġ3":429,"Ġhas":430,"ds":431,"et":432,"ong":433,"ip":434,"Ġsila":435,"Ġone":436,"ĠS":437,"ly":438,"uil":439,"kel":440,"Ġban":441,"ight":442,"ĠEnlil":443,"Ġgur":444,"ĠG":445,"ther":446,"onth":447,"if":448,"ley":449,"Ġshekel":450,"ation":451,"Ġgr":452,"Ġfrom":453,"ud":454,"ted":455,"Ġk":456,"Ġbr":457,"Ġan":458,"Ġsp":459,"from":460,"su":461,"ave":462,"Ġas":463,"roy":464,"ount":465,"year":466,"Ġby":467,"qu":468,"its":469,"Ġbarley":470,"Ġgreat":471,"uilt":472,"hen":473,"Ġshekels":474,"ine":475,"his":476,"Ġdo":477,"ale":478,"Ġsheep":479,"Ġup":480,"Ġdest":481,"Ġlike":482,"Ġcity":483,"us":484,"Ġhouse":485,"ap":486,"iel":487,"Ġch":488,"Ġland":489,"ket":490,"ablets":491,"ma":492,"ge":493,"ĠNin":494,"Ġbarig":495,"Ġen":496,"ate":497,"ub":498,"Ġare":499,"Ġgod":500,"ak":501,"In":502,"erv":503,"asket":504,"Ġwh":505,"For":506,"tablets":507,"ound":508,"otal":509,"uen":510,"abor":511,"ade":512,"ind":513,"Ġbuilt":514,"He":515,"ield":516,"Ġpr":517,"oftablets":518,"asketoftablets":519,"aga":520,"be":521,"ru":522,"Ġdestroy":523,"ugal":524,"Basketoftablets":525,"total":526,"ure":527,"Ġor":528,"ach":529,"Ġ5":530,"ov":531,"one":532,"irsu":533,"ated":534,"ist":535,"ood":536,"Ġout":537,"ere":538,"Ġson":539,"Ġlabor":540,"fe":541,"art":542,"ĠAn":543,"Ġab":544,"Ġal":545,"Ġlam":546,"Ġwork":547,"ard":548,"Ġshall":549,"Ġ4":550,"ould":551,"oug":552,"ĠNing":553,"Suen":554,"Ġthis":555,"Ġdestroyed":556,"ĠK":557,"orn":558,"Ġwill":559,"ame":560,"son":561,"ch":562,"Ġ12":563,"Ġun":564,"hed":565,"Ġhave":566,"are":567,"Ġam":568,"Ġeach":569,"ich":570,"Ġac":571,"ell":572,"cri":573,"Ġwere":574,"Ġplace":575,"ervant":576,"Ġcom":577,"Ġlife":578,"ord":579,"Ġex":580,"Ġgrain":581,"Ġthere":582,"Ġhad":583,"Ġmade":584,"ĠIn":585,"Ġox":586,"ok":587,"Ġtheir":588,"Ġpe":589,"ountain":590,"Ġoff":591,"Ġv":592,"Ġfl":593,"Ġyear":594,"Ġj":595,"ous":596,"row":597,"ais":598,"Ġbre":599,"Ġde":600,"aven":601,"month":602,"Ġi":603,"ĠD":604,"ĠB":605,"Ġcon":606,"Ġfield":607,"aba":608,"ĠM":609,"Ġsilver":610,"oved":611,"En":612,"ake":613,"Ġpro":614,"Ur":615,"Ġno":616,"Ġtim":617,"ĠH":618,"ople":619,"Ġmountain":620,"Ġservant":621,"ild":622,"ather":623,"own":624,"ions":625,"Ġset":626,"ish":627,"ki":628,"fter":629,"att":630,"uler":631,"Ġdays":632,"Ġinto":633,"Ġpeople":634,"tu":635,"Ġqu":636,"Ġheaven":637,"Ġdid":638,"urn":639,"ive":640,"ĠInanna":641,"When":642,"iz":643,"op":644,"Ġwhich":645,"az":646,"cribe":647,"Ġall":648,"ide":649,"My":650,"end":651,"ings":652,"Ġwat":653,"ĠNingirsu":654,"fed":655,"sh":656,"Ġstor":657,"os":658,"iver":659,"Ġseal":660,"wor":661,"Ġthey":662,"Ġmonth":663,"Ġbeer":664,"Ġsur":665,"Ġheart":666,"und":667,"fore":668,"uk":669,"ĠLugal":670,"ck":671,"ought":672,"ady":673,"ast":674,"ĠNanna":675,"Ġtime":676,"To":677,"ef":678,"Ġthem":679,"Ġmale":680,"Ġname":681,"gi":682,"gal":683,"per":684,"Ġoil":685,"Ġhand":686,"May":687,"Ġmight":688,"ass":689,"Ġbeen":690,"ick":691,"Ġgood":692,"ĠLaga":693,"eloved":694,"Ġacc":695,"Ġper":696,"riest":697,"ku":698,"old":699,"ct":700,"emale":701,"pon":702,"pl":703,"Ġfour":704,"ays":705,"ĠAk":706,"Ġwater":707,"Ġcan":708,"istr":709,"umer":710,"Ġne":711,"rong":712,"ina":713,"ance":714,"It":715,"ust":716,"ull":717,"Ġhead":718,"Ġmo":719,"Ġshould":720,"Ġkn":721,"Ġbread":722,"Ġcar":723,"oly":724,"ike":725,"ail":726,"Ġarea":727,"Ġfemale":728,"Ġlo":729,"aster":730,"ign":731,"ite":732,"ents":733,"Ġstand":734,"ards":735,"Ġdown":736,"ash":737,"ack":738,"Ġbrought":739,"bb":740,"who":741,"Ġover":742,"ice":743,"Ġstorm":744,"Ġlord":745,"Ġgods":746,"Ġaw":747,"ty":748,"ans":749,"Ġoxen":750,"Ġbur":751,"Ġ6":752,"Ġbo":753,"ect":754,"Ġorder":755,"ulgi":756,"vern":757,"face":758,"Ġmighty":759,"au":760,"ful":761,"under":762,"ool":763,"ĠSumer":764,"Ġgoat":765,"Ġyears":766,"Ġres":767,"ies":768,"ara":769,"Ġear":770,"aug":771,"Ġlamb":772,"pher":773,"ia":774,"sel":775,"Ġlady":776,"Ġro":777,"ree":778,"Ġad":779,"An":780,"Ġtow":781,"ĠT":782,"Ġmay":783,"Ġmaster":784,"Ġsup":785,"erson":786,"Ġbeloved":787,"kal":788,"me":789,"ra":790,"Ġbir":791,"Ġhere":792,"Ġsurface":793,"vernor":794,"ival":795,"ines":796,"They":797,"attle":798,"Ġem":799,"Ġlaborers":800,"amma":801,"Ġlands":802,"uz":803,"Ġiku":804,"scribe":805,"You":806,"Ġap":807,"Ġchild":808,"Ġperson":809,"augh":810,"ry":811,"eng":812,"Ġoffer":813,"aid":814,"ĠThe":815,"Ġpow":816,"ious":817,"ished":818,"Ġag":819,"Ġaway":820,"Your":821,"kur":822,"Ġle":823,"ĠAkk":824,"aughter":825,"Ġholy":826,"here":827,"ane":828,"Ġdec":829,"Ġshepher":830,"Ġearth":831,"we":832,"out":833,"ĠEnki":834,"Ġworkd":835,"If":836,"She":837,"did":838,"Its":839,"Ġdoes":840,"Ġpure":841,"hes":842,"bar":843,"ations":844,"igh":845,"ause":846,"ters":847,"Ġmana":848,"pen":849,"idu":850,"strong":851,"Ġworkdays":852,"Ġgrainfed":853,"ve":854,"Ġbro":855,"Nin":856,"Ġwea":857,"Ġthr":858,"istress":859,"rine":860,"zu":861,"Ġsm":862,"alf":863,"Ġdiv":864,"ars":865,"ome":866,"Ġee":867,"may":868,"pro":869,"ue":870,"Ġwom":871,"Ġcanal":872,"estival":873,"mar":874,"Ġsc":875,"Ġreed":876,"Ġtowards":877,"On":878,"Ġfather":879,"Ġlament":880,"Ġest":881,"Ġrais":882,"udea":883,"edic":884,"Ġlines":885,"Ġmother":886,"Ġruler":887,"ife":888,"arm":889,"ala":890,"ĠUtu":891,"Ġer":892,"Ġwe":893,"Ġfound":894,"At":895,"ĠF":896,"Ġpriest":897,"ĠLu":898,"ipp":899,"Ġcorn":900,"by":901,"Enlil":902,"ĠAkkad":903,"ib":904,"turn":905,"Ġwhose":906,"ting":907,"ire":908,"Ġbl":909,"abl":910,"she":911,"Ġwool":912,"ied":913,"ĠP":914,"olum":915,"wn":916,"Ġinst":917,"atum":918,"Sn":919,"Ġwall":920,"Ġlong":921,"Ġshrine":922,"Like":923,"ven":924,"Ġshepherd":925,"eman":926,"ship":927,"ĠĠĠĊ":928,"Ġcl":929,"Ġcorners":930,"Ġsl":931,"Ġsu":932,"Ġpal":933,"alla":934,"hat":935,"Ġmistress":936,"self":937,"Ġso":938,"ase":939,"ried":940,"oked":941,"Ġdr":942,"Ġafter":943,"ipl":944,"man":945,"Ġstat":946,"Ġupon":947,"outh":948,"ence":949,"les":950,"ruler":951,"via":952,"Ġu":953,"Ġbit":954,"Ġmake":955,"mma":956,"ĠEr":957,"Ġwhere":958,"ief":959,"Ġbull":960,"Ġestabl":961,"Ġtru":962,"ana":963,"Ġ13":964,"ura":965,"when":966,"Ġnind":967,"Ġunder":968,"Ġwhat":969,"ates":970,"Ġfish":971,"Ġtr":972,"Ġalkal":973,"eliver":974,"ough":975,"Ġown":976,"Ġho":977,"ida":978,"ĠW":979,"ang":980,"Ġpre":981,"aving":982,"akes":983,"Ġspea":984,"well":985,"Ġie":986,"Ġbut":987,"that":988,"ĠUrN":989,"pe":990,"Ġ8":991,"ange":992,"oss":993,"red":994,"reme":995,"ows":996,"ness":997,"Ġreturn":998,"rown":999,"thing":1000,"Ġ7":1001,"Ġgiv":1002,"du":1003,"ng":1004,"arv":1005,"Ġrul":1006,"illed":1007,"world":1008,"ĠUruk":1009,"ected":1010,"Ġdivine":1011,"house":1012,"Ġonions":1013,"After":1014,"Ġless":1015,"urs":1016,"ĠUmma":1017,"Ġcomm":1018,"iplant":1019,"aw":1020,"Ġins":1021,"Ġalkaliplant":1022,"de":1023,"roop":1024,"Ġplow":1025,"Ġabund":1026,"Ġdwell":1027,"Ġyoung":1028,"ore":1029,"hose":1030,"Ġweapon":1031,"field":1032,"tered":1033,"edicated":1034,"Ġsar":1035,"Ġbund":1036,"Ġfe":1037,"Ġbec":1038,"Ġbeh":1039,"Ġquar":1040,"ippur":1041,"ossess":1042,"Ġworld":1043,"min":1044,"oy":1045,"Ġswe":1046,"Ġfate":1047,"Ġrest":1048,"Ġaccount":1049,"ĠNippur":1050,"Ġwoman":1051,"inn":1052,"esh":1053,"una":1054,"ĠEridu":1055,"Ġhigh":1056,"Ġwords":1057,"Ġbitter":1058,"ani":1059,"Ġboat":1060,"ainst":1061,"gether":1062,"work":1063,"Ġhero":1064,"owing":1065,"Ġpowers":1066,"over":1067,"with":1068,"ise":1069,"Ġword":1070,"Ġlet":1071,"From":1072,"Ġwhen":1073,"Ġfr":1074,"Ġsupreme":1075,"Ġlap":1076,"ely":1077,"Ġey":1078,"As":1079,"Ning":1080,"ary":1081,"Ġput":1082,"Ġabundance":1083,"Ġfore":1084,"Ġkingship":1085,"Ġreg":1086,"Ġgovernor":1087,"Ġold":1088,"royal":1089,"air":1090,"ult":1091,"ength":1092,"Ġninda":1093,"12":1094,"ager":1095,"ashion":1096,"Ġmid":1097,"ks":1098,"ling":1099,"Ġter":1100,"Ġ23":1101,"Ġerected":1102,"Ġsay":1103,"Ġplac":1104,"ren":1105,"ta":1106,"Ġtable":1107,"Ġwant":1108,"Ġbefore":1109,"bbi":1110,"Ġwood":1111,"ĠAb":1112,"Ġgoats":1113,"Ġsweet":1114,"His":1115,"Ġcont":1116,"Ġnether":1117,"Ġdes":1118,"Ġmouth":1119,"Ġim":1120,"ont":1121,"Ġcreat":1122,"hold":1123,"Ġtre":1124,"Ġsee":1125,"And":1126,"Ġpalace":1127,"go":1128,"aled":1129,"Ġatt":1130,"ecause":1131,"Ġstr":1132,"oll":1133,"Ġprais":1134,"arvest":1135,"Ġruled":1136,"Ġcommand":1137,"roops":1138,"Ġulgi":1139,"Ġopen":1140,"ared":1141,"esent":1142,"lam":1143,"Ġwind":1144,"age":1145,"ĠNinlil":1146,"jo":1147,"Ġscribe":1148,"ile":1149,"Ġquarters":1150,"Gudea":1151,"ble":1152,"arge":1153,"Ġbring":1154,"Ġfashion":1155,"Ġcattle":1156,"Ġever":1157,"ĠNane":1158,"Baba":1159,"Ġtree":1160,"Ġcut":1161,"Ġbrick":1162,"ened":1163,"Ġsheepf":1164,"ular":1165,"Ġchief":1166,"Ġroyal":1167,"ens":1168,"acc":1169,"ized":1170,"Ġchildren":1171,"Ġofferings":1172,"Ġbrother":1173,"olumn":1174,"led":1175,"alled":1176,"Ġmeas":1177,"Ġflour":1178,"Ġestablished":1179,"Ġif":1180,"Ġcolumn":1181,"ĠEkur":1182,"ruct":1183,"Ġraised":1184,"Ġstatue":1185,"tal":1186,"Ġgate":1187,"umuz":1188,"Ġarm":1189,"Ġmanager":1190,"One":1191,"anc":1192,"Ġside":1193,"they":1194,"Ġev":1195,"Ġprin":1196,"62":1197,"ier":1198,"ating":1199,"Ġpossess":1200,"ici":1201,"Ġ9":1202,"Ġmakes":1203,"Ġenem":1204,"ĠFestival":1205,"ior":1206,"leas":1207,"Ġpresent":1208,"marSuen":1209,"Ġlapis":1210,"bbiSuen":1211,"Ġsheepfold":1212,"Ġwife":1213,"Ġbarge":1214,"Ġrem":1215,"Ġlaborer":1216,"UrN":1217,"andon":1218,"Ġpray":1219,"Ġgiven":1220,"sen":1221,"ĠR":1222,"isaba":1223,"Ġright":1224,"form":1225,"ceiv":1226,"Ġtrue":1227,"ĠC":1228,"Ġagainst":1229,"Ġbundles":1230,"innu":1231,"Ġfashioned":1232,"ored":1233,"Ġfine":1234,"Ġdis":1235,"Ġ14":1236,"key":1237,"Ġabout":1238,"ĠZ":1239,"Ġsac":1240,"Ġfoll":1241,"Ġstone":1242,"Ġamong":1243,"Ġext":1244,"hosen":1245,"elivery":1246,"oke":1247,"Ġsaid":1248,"ites":1249,"Ġabandon":1250,"Ġcarried":1251,"bo":1252,"Ġfir":1253,"uild":1254,"cum":1255,"men":1256,"Ġsub":1257,"ort":1258,"ator":1259,"Ġmen":1260,"Ġgave":1261,"Ġthrone":1262,"ceived":1263,"had":1264,"sp":1265,"Ġturn":1266,"their":1267,"There":1268,"Ġrejo":1269,"fully":1270,"arsa":1271,"een":1272,"Ġsing":1273,"Ġbow":1274,"Ġbattle":1275,"Ġdaughter":1276,"Ġpass":1277,"ams":1278,"agan":1279,"ears":1280,"governor":1281,"Ġdist":1282,"Ġground":1283,"Ġhands":1284,"Ġback":1285,"onkey":1286,"Ġche":1287,"Ġgarm":1288,"Ġsmall":1289,"Lugal":1290,"ae":1291,"so":1292,"ĠLand":1293,"Ġhoe":1294,"rum":1295,"wh":1296,"Ġseed":1297,"Ġbehalf":1298,"Ġtablet":1299,"Ġenemy":1300,"ath":1301,"ister":1302,"amed":1303,"ĠAbb":1304,"kin":1305,"priest":1306,"aded":1307,"Ġspeak":1308,"That":1309,"ex":1310,"tle":1311,"Ġgrow":1312,"Ġtook":1313,"Ġbeing":1314,"Ġplant":1315,"but":1316,"Ġmar":1317,"Ġcor":1318,"aves":1319,"essel":1320,"Ġdoor":1321,"vid":1322,"read":1323,"ama":1324,"iful":1325,"ĠHouse":1326,"Ġstandard":1327,"Ġbirth":1328,"umuzi":1329,"nig":1330,"ingir":1331,"Ġcount":1332,"ĠSuen":1333,"Ġany":1334,"Ġknow":1335,"Ġbird":1336,"mer":1337,"ves":1338,"wo":1339,"Ġsome":1340,"Ġfood":1341,"Ġgif":1342,"Ġkid":1343,"Ġgrains":1344,"Ġjoy":1345,"Nanna":1346,"Ġinc":1347,"Ġriver":1348,"ĠEninnu":1349,"ept":1350,"Ġhousehold":1351,"pass":1352,"Ġwell":1353,"igal":1354,"Ġrations":1355,"ĠGirsu":1356,"udu":1357,"Ġappro":1358,"Ġplaced":1359,"ew":1360,"fl":1361,"Ġwent":1362,"Ġ15":1363,"illy":1364,"IbbiSuen":1365,"bab":1366,"rit":1367,"tur":1368,"Ġsn":1369,"Ġcit":1370,"unn":1371,"Ġcle":1372,"reed":1373,"Ġint":1374,"Ġpraise":1375,"ched":1376,"Ġthose":1377,"Ġbound":1378,"Ġaura":1379,"uli":1380,"foreman":1381,"annot":1382,"Because":1383,"ced":1384,"Ġforeman":1385,"aps":1386,"Ġvessel":1387,"alted":1388,"Ġend":1389,"ĠNingal":1390,"aut":1391,"fer":1392,"Ġwar":1393,"Ġmin":1394,"ĠAm":1395,"ĠSim":1396,"Ġdocum":1397,"Ġflood":1398,"Ġabandoned":1399,"built":1400,"ones":1401,"Ġcannot":1402,"Ġproper":1403,"Ġcover":1404,"Ġlit":1405,"Ġara":1406,"eck":1407,"app":1408,"Ġpower":1409,"Ġforeign":1410,"ez":1411,"ix":1412,"Ġel":1413,"Ġgive":1414,"icit":1415,"Ġbarleyfed":1416,"Ġcome":1417,"Ġfoundation":1418,"Utu":1419,"aking":1420,"Ġbed":1421,"Ġbilly":1422,"Ġyouth":1423,"amu":1424,"Ġbeaut":1425,"ĠAd":1426,"Ġqueen":1427,"Ġlambs":1428,"babbar":1429,"servant":1430,"itting":1431,"oth":1432,"ides":1433,"Ġwhom":1434,"ĠGem":1435,"aken":1436,"Ningirsu":1437,"Al":1438,"Ġwould":1439,"ality":1440,"Ġcow":1441,"ired":1442,"ĠGreat":1443,"ministr":1444,"Ġsacred":1445,"Ġtake":1446,"iny":1447,"Ġdedicated":1448,"Ġhimself":1449,"Ġenter":1450,"shall":1451,"eft":1452,"deed":1453,"15":1454,"aith":1455,"ele":1456,"ose":1457,"other":1458,"ari":1459,"Ġleft":1460,"sealed":1461,"Ġstrong":1462,"used":1463,"ields":1464,"Ġdistant":1465,"ministrator":1466,"Ġsat":1467,"Ġfur":1468,"Ġones":1469,"Ġjust":1470,"ĠAbzu":1471,"Upon":1472,"dom":1473,"Ġfilled":1474,"Ġrange":1475,"Ġseized":1476,"Ġkind":1477,"Ġemp":1478,"Ġregular":1479,"Who":1480,"has":1481,"my":1482,"ment":1483,"Ġut":1484,"ining":1485,"Ġsk":1486,"Ġcast":1487,"ĠLarsa":1488,"So":1489,"ian":1490,"Ġtal":1491,"Ġwis":1492,"Ġdem":1493,"Ġindeed":1494,"owed":1495,"ĠAmarSuen":1496,"Ġfront":1497,"Ġnetherworld":1498,"ber":1499,"was":1500,"Ġhow":1501,"Ġcould":1502,"Ġ11":1503,"Ġmountains":1504,"Ġoffering":1505,"la":1506,"Ġcub":1507,"ung":1508,"uga":1509,"ruck":1510,"Ġreturned":1511,"Ġou":1512,"ena":1513,"Ġhaving":1514,"ĠAl":1515,"ries":1516,"ĠBaba":1517,"Ġbeautiful":1518,"als":1519,"asaga":1520,"Ġca":1521,"Ġstruck":1522,"Ġspouse":1523,"Ġgarment":1524,"bil":1525,"din":1526,"ima":1527,"ckling":1528,"Ġfollowing":1529,"Ġwisdom":1530,"ris":1531,"ved":1532,"Ġbala":1533,"Ġbuild":1534,"ased":1535,"Ġdep":1536,"Ġpour":1537,"uring":1538,"ĠGudea":1539,"ove":1540,"Ġdef":1541,"Ġpriestess":1542,"delivery":1543,"eg":1544,"ener":1545,"Ġcap":1546,"ures":1547,"Ġtogether":1548,"epted":1549,"Ġgrass":1550,"ĠDumuzi":1551,"Ġadministrator":1552,"Ġblack":1553,"ursag":1554,"which":1555,"vider":1556,"Ġsqu":1557,"alt":1558,"ond":1559,"Ġce":1560,"Ġnamed":1561,"Ġmeans":1562,"ailed":1563,"Ġresid":1564,"Ġempty":1565,"like":1566,"Ġbig":1567,"Ġfatt":1568,"Ġhar":1569,"Ġpleas":1570,"urta":1571,"Ġquality":1572,"azuli":1573,"ĠUrNamma":1574,"Ġrestored":1575,"Ġmidst":1576,"Ġstrength":1577,"Ġevery":1578,"cted":1579,"mb":1580,"sin":1581,"uck":1582,"ĠO":1583,"Ġfo":1584,"Ġcr":1585,"Ġdonkey":1586,"ada":1587,"Ġthus":1588,"Dagan":1589,"pt":1590,"rd":1591,"Ġver":1592,"Ġfields":1593,"Ġtotal":1594,"Ġseven":1595,"Ġtherefore":1596,"Ġeyes":1597,"br":1598,"ches":1599,"hip":1600,"Ġserv":1601,"Ġfull":1602,"Ġreign":1603,"ĠHarvest":1604,"barley":1605,"Ġevil":1606,"Sin":1607,"Ġmess":1608,"Ġeat":1609,"Ġrites":1610,"ounts":1611,"Ġsec":1612,"Ġfeet":1613,"Ġbecause":1614,"UrNamma":1615,"booked":1616,"bi":1617,"nd":1618,"ped":1619,"rin":1620,"Ġfaith":1621,"iled":1622,"ream":1623,"ached":1624,"agash":1625,"rior":1626,"Ġspl":1627,"Ġsuckling":1628,"ĠuSuen":1629,"13":1630,"Nisaba":1631,"Ġwild":1632,"Ġmat":1633,"Ġcop":1634,"Ġalong":1635,"bear":1636,"ient":1637,"light":1638,"mic":1639,"mSn":1640,"Ġsun":1641,"ark":1642,"Ġface":1643,"ons":1644,"Ġthings":1645,"Enki":1646,"osmic":1647,"Ġwarrior":1648,"gina":1649,"Ġcosmic":1650,"Ġlion":1651,"Ġforth":1652,"ationed":1653,"Ġass":1654,"Ġdog":1655,"being":1656,"Ġorch":1657,"whose":1658,"Ġdwelling":1659,"Ad":1660,"gr":1661,"labor":1662,"mu":1663,"wer":1664,"Ġtaken":1665,"Ġlarge":1666,"Ġgold":1667,"Ġperf":1668,"Ġdocuments":1669,"cer":1670,"tect":1671,"Ġir":1672,"Ġob":1673,"Ġborn":1674,"Ġfestival":1675,"Ġchosen":1676,"let":1677,"Ġneck":1678,"ĠEkin":1679,"Ġstre":1680,"Ġvolum":1681,"Ġconst":1682,"Ġslave":1683,"Ġprinc":1684,"hr":1685,"ie":1686,"ock":1687,"troops":1688,"Ġsong":1689,"ory":1690,"Ġfall":1691,"Ġcows":1692,"Ġdais":1693,"vers":1694,"Ġgoing":1695,"ĠAnuna":1696,"sheep":1697,"Ġbutter":1698,"ged":1699,"Ġtwo":1700,"Ġfire":1701,"Ġthing":1702,"Ġcomple":1703,"Ġinstalled":1704,"Ġprec":1705,"Er":1706,"Her":1707,"dess":1708,"ving":1709,"your":1710,"ese":1711,"Ġ18":1712,"annatum":1713,"azu":1714,"Ġperform":1715,"aughtered":1716,"Therefore":1717,"AD":1718,"anatum":1719,"Ġequ":1720,"ĠLagash":1721,"Ġpersonal":1722,"Ġcubits":1723,"14":1724,"Do":1725,"Lu":1726,"dedicated":1727,"met":1728,"Ġru":1729,"Ġstood":1730,"Ġdeb":1731,"Ġdeter":1732,"Ġmonths":1733,"Ġstanding":1734,"Ġapart":1735,"Ġgift":1736,"beloved":1737,"order":1738,"Ġcrown":1739,"Ġinter":1740,"Ġnight":1741,"Ġrams":1742,"ĠAg":1743,"Ġplain":1744,"ified":1745,"ubur":1746,"Ġdrin":1747,"ĠGeme":1748,"hy":1749,"rig":1750,"ants":1751,"Ġsister":1752,"Ġfin":1753,"Ġmina":1754,"ilg":1755,"elle":1756,"ots":1757,"ĠKima":1758,"Ġcomp":1759,"endent":1760,"Ġbroad":1761,"Ġprayer":1762,"Ġcopper":1763,"RAD":1764,"wood":1765,"Ġhum":1766,"ugu":1767,"Ġspread":1768,"Ġgoddess":1769,"Ġtroops":1770,"anum":1771,"Ġcour":1772,"apple":1773,"Ġworkers":1774,"ĠKi":1775,"Ġprotect":1776,"Ġnever":1777,"Ġknown":1778,"Ġsuit":1779,"Ġweapons":1780,"worker":1781,"Ġhorn":1782,"Ġpath":1783,"uri":1784,"aya":1785,"ĠEanna":1786,"Ġrejoic":1787,"By":1788,"pae":1789,"Ġcalf":1790,"Ġlazuli":1791,"ally":1792,"Ġsurpass":1793,"Ġweep":1794,"Ġunderworld":1795,"Ġfirst":1796,"ĠEkinugal":1797,"ress":1798,"isions":1799,"Ġcoun":1800,"Ġbear":1801,"Ġstones":1802,"ĠIsin":1803,"Ġart":1804,"Ġrep":1805,"Ġmany":1806,"ĠSn":1807,"Ġlamentation":1808,"Ġattent":1809,"Ġcountry":1810,"Ġsomething":1811,"Ġeverything":1812,"Ġmesseng":1813,"ss":1814,"Ġul":1815,"Ġsw":1816,"received":1817,"Ġtop":1818,"Ġstationed":1819,"Ġconf":1820,"Ġeye":1821,"Ġcities":1822,"ten":1823,"Ġte":1824,"Ġmil":1825,"Ġlength":1826,"Ġgre":1827,"seer":1828,"Inanna":1829,"crib":1830,"ended":1831,"Ġturned":1832,"Ġsquared":1833,"ead":1834,"Ġspoke":1835,"Ġadv":1836,"ĠAbbasaga":1837,"bilum":1838,"ax":1839,"ff":1840,"Ġplans":1841,"Ġchang":1842,"Ġjud":1843,"iverse":1844,"Ġdecreed":1845,"Ġreeds":1846,"Ġmeasure":1847,"Ġbowl":1848,"Ġpassed":1849,"Ġresidence":1850,"Did":1851,"With":1852,"ked":1853,"kalla":1854,"pect":1855,"sum":1856,"ua":1857,"wes":1858,"Ġcame":1859,"Ġgaz":1860,"ĠUrbilum":1861,"ceive":1862,"Ġenpriest":1863,"Ġemmer":1864,"Ġsnake":1865,"Ġsky":1866,"Ġorchard":1867,"16":1868,"gig":1869,"med":1870,"ost":1871,"ilim":1872,"Ġdug":1873,"anda":1874,"Ġ16":1875,"Ġlif":1876,"Ġkings":1877,"together":1878,"Ġflo":1879,"icial":1880,"Th":1881,"ual":1882,"Ġz":1883,"headed":1884,"Ġtears":1885,"ins":1886,"urse":1887,"ĠEbabbar":1888,"Ġuniverse":1889,"Ġjustice":1890,"Ġprecious":1891,"long":1892,"Ġother":1893,"ili":1894,"Ġcol":1895,"Ġpur":1896,"ime":1897,"Ġewes":1898,"ĠIt":1899,"Ġliving":1900,"Ġkir":1901,"Ġentered":1902,"Ġprodu":1903,"Ġnew":1904,"ingira":1905,"Ġtalents":1906,"Ġceased":1907,"Ġprotective":1908,"11":1909,"born":1910,"land":1911,"nam":1912,"til":1913,"ze":1914,"Ġty":1915,"edar":1916,"there":1917,"semb":1918,"ĠLug":1919,"Ġanc":1920,"Ġplowman":1921,"Ġremoved":1922,"might":1923,"Ġwid":1924,"Ġfav":1925,"ird":1926,"ĠEup":1927,"Ġbrings":1928,"Ġexalted":1929,"Ġjun":1930,"Ġjug":1931,"ples":1932,"Ġimp":1933,"hrates":1934,"ĠEuphrates":1935,"bs":1936,"ning":1937,"nir":1938,"ox":1939,"you":1940,"Ġour":1941,"Ġmust":1942,"isi":1943,"Ġcal":1944,"Ġeven":1945,"ages":1946,"Ġanother":1947,"cript":1948,"Ġrespon":1949,"ibru":1950,"Ġpalm":1951,"Ġterrit":1952,"Ġwooden":1953,"ĠZab":1954,"Ġsingle":1955,"Ġouts":1956,"Ġsuitable":1957,"ba":1958,"tum":1959,"vol":1960,"Ġsle":1961,"arad":1962,"Ġlim":1963,"Ġaround":1964,"anned":1965,"dship":1966,"ĠSh":1967,"Ġang":1968,"Ġalso":1969,"ĠTig":1970,"Ġprince":1971,"Ġpoured":1972,"ha":1973,"ments":1974,"ined":1975,"Ġsaw":1976,"Ġbuck":1977,"ison":1978,"Ġpun":1979,"Ġheaps":1980,"thy":1981,"ower":1982,"ĠUrim":1983,"Ġreb":1984,"ĠGu":1985,"Ġassemb":1986,"ording":1987,"Ġleather":1988,"Ġvolumes":1989,"Ġkirugu":1990,"Ġtype":1991,"ĠTigris":1992,"having":1993,"lo":1994,"ti":1995,"Ġtablets":1996,"Ġhapp":1997,"Ġhired":1998,"Ġax":1999,"Ġpay":2000,"Ġgu":2001,"Ġbeg":2002,"ĠElam":2003,"Ġris":2004,"Ġonly":2005,"ĠLud":2006,"Ġtimes":2007,"Ġsealed":2008,"Ġlook":2009,"Ġcovered":2010,"18":2011,"57":2012,"What":2013,"bed":2014,"eous":2015,"mag":2016,"tile":2017,"Ġhair":2018,"Ġcro":2019,"ĠNig":2020,"Ġstele":2021,"ribut":2022,"asting":2023,"Ġtrees":2024,"Ġcheese":2025,"Ġfaithfully":2026,"Ġmessenger":2027,"Lamma":2028,"Year":2029,"Ġscrib":2030,"Ġharvest":2031,"Ġcase":2032,"Ġdate":2033,"ĠNibru":2034,"ula":2035,"uti":2036,"Ġreceived":2037,"Ġwithin":2038,"uda":2039,"Ġspir":2040,"Ġbirds":2041,"Ġraise":2042,"Ġestablish":2043,"ĠSimur":2044,"ezida":2045,"Erra":2046,"Ġsurpassing":2047,"Ġsleep":2048,"Ġassembly":2049,"This":2050,"ga":2051,"ats":2052,"ition":2053,"Ġcedar":2054,"Ġnet":2055,"adi":2056,"Ġyourself":2057,"Ġshining":2058,"oken":2059,"ction":2060,"Ġlooked":2061,"Ġcreated":2062,"Ġterritory":2063,"Total":2064,"rup":2065,"Ġed":2066,"iness":2067,"into":2068,"Ġborder":2069,"Ġfear":2070,"Ġmaking":2071,"Ġdit":2072,"ads":2073,"imu":2074,"agon":2075,"agina":2076,"ipit":2077,"Ġchair":2078,"Ġ56":2079,"aily":2080,"Ġfounded":2081,"Ġdeficit":2082,"ilgam":2083,"25":2084,"Father":2085,"da":2086,"uh":2087,"uth":2088,"Ġke":2089,"Ġus":2090,"Ġtreat":2091,"arious":2092,"Ġway":2093,"ater":2094,"Ġmer":2095,"Ġmus":2096,"Ġmult":2097,"asa":2098,"Ġgro":2099,"ody":2100,"odder":2101,"anny":2102,"Ġspoken":2103,"Ġupper":2104,"aked":2105,"Ġtrans":2106,"Ġbitterly":2107,"accounts":2108,"ruction":2109,"Ġrejoice":2110,"Ġattention":2111,"cription":2112,"ilgamesh":2113,"Eannatum":2114,"PA":2115,"Ġsays":2116,"reg":2117,"Ġlor":2118,"Ġdust":2119,"Ġtoo":2120,"elf":2121,"act":2122,"iddin":2123,"iven":2124,"ĠNinurta":2125,"Ġaccepted":2126,"Ġoverseer":2127,"Ġlonger":2128,"Ġarms":2129,"nigar":2130,"Ġutter":2131,"metena":2132,"Ġchanged":2133,"Thus":2134,"But":2135,"House":2136,"kug":2137,"ying":2138,"Ġtou":2139,"int":2140,"Ġwr":2141,"orite":2142,"ali":2143,"esc":2144,"Ġhold":2145,"Ġgl":2146,"ira":2147,"Ġrunn":2148,"uni":2149,"Ġstra":2150,"Ġbank":2151,"ushes":2152,"Ġworker":2153,"Ġofficial":2154,"ouses":2155,"edicate":2156,"Ġclay":2157,"Ġspeaking":2158,"Ġcreature":2159,"Ġrighteous":2160,"Ġmilk":2161,"Sum":2162,"ps":2163,"por":2164,"Ġent":2165,"insp":2166,"Ġbel":2167,"Ġfell":2168,"Ġha":2169,"Ġlay":2170,"thr":2171,"ĠNun":2172,"tern":2173,"Ġdestiny":2174,"before":2175,"ĠKe":2176,"ĠHow":2177,"Ġstore":2178,"Ġcontain":2179,"Ġtreas":2180,"Ġgrassfed":2181,"Ġblackheaded":2182,"Ġfoot":2183,"bearer":2184,"Ġperfect":2185,"Ġcounsel":2186,"Ġancient":2187,"uthor":2188,"iddinam":2189,"Ab":2190,"after":2191,"Ġtanned":2192,"Ġdone":2193,"Ġdeliver":2194,"Ġpar":2195,"urm":2196,"ĠNam":2197,"Ġsea":2198,"ush":2199,"Itar":2200,"Ġmost":2201,"Ġapp":2202,"vey":2203,"Ġdrum":2204,"Ġminas":2205,"Ġlittle":2206,"Be":2207,"Temple":2208,"kigal":2209,"inim":2210,"Ġfitting":2211,"Ġco":2212,"Ġlaid":2213,"Ġdates":2214,"Ġradi":2215,"arding":2216,"Ġacted":2217,"ĠMountain":2218,"provider":2219,"ĠPuz":2220,"Ġbecome":2221,"Ġterr":2222,"Ġsaying":2223,"ances":2224,"Ġpresented":2225,"ĠRmSn":2226,"Ġsplit":2227,"Ġdetermin":2228,"No":2229,"dedicate":2230,"sl":2231,"te":2232,"were":2233,"ative":2234,"Ġfly":2235,"Ġhor":2236,"ukalla":2237,"armer":2238,"flour":2239,"Ġstreet":2240,"Lord":2241,"Sh":2242,"ders":2243,"rim":2244,"sag":2245,"head":2246,"Ġtem":2247,"Ġsail":2248,"Ġpiled":2249,"irig":2250,"chief":2251,"Ġdeity":2252,"tyard":2253,"rying":2254,"Ġfirm":2255,"ces":2256,"dle":2257,"gur":2258,"iod":2259,"val":2260,"zi":2261,"Ġud":2262,"Ġsit":2263,"Ġsalt":2264,"Ġwhe":2265,"oud":2266,"iti":2267,"iss":2268,"ised":2269,"onze":2270,"ends":2271,"Ġhide":2272,"Ġhides":2273,"Ġauthor":2274,"Ġnow":2275,"Ġnanny":2276,"Ġ34":2277,"Ġkilled":2278,"ounded":2279,"Ġable":2280,"Ġexc":2281,"Ġvarious":2282,"eficit":2283,"Ġsubm":2284,"Ġirrig":2285,"Ġcourtyard":2286,"ah":2287,"bor":2288,"ring":2289,"ĠHe":2290,"Ġtail":2291,"Ġbat":2292,"alu":2293,"Ġmu":2294,"Ġcho":2295,"Ġlov":2296,"Ġnation":2297,"aced":2298,"Ġstri":2299,"ĠAp":2300,"ĠARAD":2301,"Ġitself":2302,"Ġmetal":2303,"ipar":2304,"Ġbronze":2305,"mah":2306,"Ġpeg":2307,"rows":2308,"Ġperiod":2309,"ĠTemple":2310,"Ġprep":2311,"Ġbehind":2312,"eshing":2313,"Ġpossessions":2314,"Ġclean":2315,"ĠAmorite":2316,"Ġfurious":2317,"Ġrejoicing":2318,"daughter":2319,"nel":2320,"si":2321,"Ġsho":2322,"Ġbasket":2323,"atched":2324,"Ġfun":2325,"Ġcare":2326,"Ġcool":2327,"Ġpot":2328,"ured":2329,"hool":2330,"ĠNisaba":2331,"Ġred":2332,"Ġrain":2333,"Ġseiz":2334,"Ġplay":2335,"uba":2336,"Ġalas":2337,"plendent":2338,"Ġheads":2339,"Ġbox":2340,"Ġbulls":2341,"Ġcattlepen":2342,"Ġvery":2343,"oxen":2344,"Ġhaun":2345,"Ġdetermined":2346,"Month":2347,"ne":2348,"oc":2349,"yl":2350,"Ġboth":2351,"Ġfle":2352,"Ġfill":2353,"Ġpig":2354,"igi":2355,"imin":2356,"offer":2357,"ement":2358,"ĠIkur":2359,"etin":2360,"Ġwhite":2361,"Ġalone":2362,"ĠBab":2363,"Ġaccording":2364,"Ġboundary":2365,"Ġoutside":2366,"Se":2367,"because":2368,"othe":2369,"Ġsin":2370,"Ġsite":2371,"Ġbaked":2372,"Ġcult":2373,"Ġlight":2374,"Ġpor":2375,"abba":2376,"Ġeating":2377,"stand":2378,"olds":2379,"aped":2380,"ĠHoly":2381,"ildo":2382,"Ġknows":2383,"meDagan":2384,"Ġleve":2385,"Ġschool":2386,"Ġdesc":2387,"ĠCity":2388,"Ġincant":2389,"Ġproperly":2390,"Ġassign":2391,"gigir":2392,"inspect":2393,"inimgina":2394,"slaughtered":2395,"do":2396,"way":2397,"Ġtas":2398,"Ġthen":2399,"Ġwailed":2400,"Ġfer":2401,"Ġdi":2402,"Ġdig":2403,"Ġgig":2404,"Ġgather":2405,"amnir":2406,"this":2407,"Their":2408,"set":2409,"ĠUrBaba":2410,"thern":2411,"ĠNinazu":2412,"ĠAnan":2413,"Ġabove":2414,"Ġallure":2415,"Ġresplendent":2416,"Ġthrough":2417,"Ġinspect":2418,"Ġprincely":2419,"Ġscribal":2420,"Ġspirit":2421,"Ġstorehouse":2422,"KA":2423,"ban":2424,"cc":2425,"Ġur":2426,"anal":2427,"Ġbal":2428,"Ġlist":2429,"Ġpo":2430,"ĠNine":2431,"Ġration":2432,"emost":2433,"Ġrever":2434,"Ġmeat":2435,"Ġworkman":2436,"izon":2437,"Ġsuper":2438,"Ġbricks":2439,"Ġapproached":2440,"Ġcitiz":2441,"Ġcaul":2442,"Ġfinished":2443,"mighty":2444,"Ġfavor":2445,"Ġtemples":2446,"22":2447,"Of":2448,"ges":2449,"pped":2450,"wife":2451,"Ġsick":2452,"Ġfri":2453,"Ġfears":2454,"Ġmace":2455,"Ġmind":2456,"Ġdro":2457,"Ġdet":2458,"Ġpen":2459,"Ġstep":2460,"uge":2461,"Ġseen":2462,"epter":2463,"sub":2464,"Ġchange":2465,"ĠNinmar":2466,"ching":2467,"Ġdev":2468,"Ġprovider":2469,"azi":2470,"icks":2471,"Ġkne":2472,"Ġbooked":2473,"Ġthreshing":2474,"ible":2475,"Ġtrust":2476,"taea":2477,"Ġplanted":2478,"Ġkids":2479,"Ġdebit":2480,"DU":2481,"Ġid":2482,"Ġused":2483,"Ġwept":2484,"receive":2485,"Ġdaily":2486,"urub":2487,"Ġhel":2488,"upbearer":2489,"iper":2490,"kels":2491,"ifest":2492,"Ġgreatness":2493,"Ġprison":2494,"Ġlabortroops":2495,"Ġlamma":2496,"Ġact":2497,"Ġdefe":2498,"Ġconsum":2499,"ĠMound":2500,"Ġdesign":2501,"Ġmeasuring":2502,"UrNane":2503,"Ġprayers":2504,"Ġdemon":2505,"ĠAlas":2506,"AN":2507,"AmarSuen":2508,"King":2509,"Let":2510,"St":2511,"chosen":2512,"don":2513,"less":2514,"made":2515,"par":2516,"pic":2517,"ues":2518,"Ġsis":2519,"isal":2520,"Ġhouses":2521,"ander":2522,"ĠEz":2523,"ulpae":2524,"ĠIl":2525,"Ġreleas":2526,"Ġgreatly":2527,"Ġcharge":2528,"ructed":2529,"Ġornam":2530,"Enmetena":2531,"Ġprov":2532,"Ġheavens":2533,"Ġloaves":2534,"Ġadd":2535,"Ġemer":2536,"Ġblood":2537,"Ġbrickwork":2538,"ician":2539,"iorite":2540,"Ġbuilding":2541,"Ġsecond":2542,"Ġpunted":2543,"Ġvolumesar":2544,"ĠNunamnir":2545,"riment":2546,"19":2547,"Great":2548,"Possess":2549,"Uru":2550,"cl":2551,"mun":2552,"mud":2553,"ĠĠ":2554,"Ġthese":2555,"Ġsust":2556,"Ġsix":2557,"Ġbody":2558,"ision":2559,"Ġcalled":2560,"rem":2561,"Ġdark":2562,"Ġgard":2563,"Ġheif":2564,"Ġinse":2565,"amm":2566,"amber":2567,"ungal":2568,"Ġissu":2569,"ĠUrLamma":2570,"ĠUrgigir":2571,"rif":2572,"ounds":2573,"omen":2574,"Ġgrand":2575,"Ġbright":2576,"Ġsons":2577,"ĠBar":2578,"ĠMe":2579,"opy":2580,"Ġscepter":2581,"Ġinside":2582,"Ġplaces":2583,"Ġsomeone":2584,"ĠAdab":2585,"Ġfattailed":2586,"Ġlifted":2587,"Ġtreated":2588,"24":2589,"Il":2590,"found":2591,"great":2592,"kn":2593,"saga":2594,"Ġfig":2595,"Ġmill":2596,"Ġmore":2597,"Ġhur":2598,"Ġhung":2599,"Ġdimin":2600,"uru":2601,"add":2602,"uly":2603,"Ġrushes":2604,"ĠUrnigar":2605,"Ġrepl":2606,"Ġshout":2607,"Ġshort":2608,"ĠEnun":2609,"Ġ24":2610,"ips":2611,"ĠGatum":2612,"Ġkak":2613,"Ġexer":2614,"ending":2615,"Ġordered":2616,"ights":2617,"Ġscat":2618,"Ġmiddle":2619,"accepted":2620,"ierce":2621,"Ġchest":2622,"Ġanyone":2623,"Ġcompleted":2624,"Ġhuman":2625,"Ġguard":2626,"Ġradiance":2627,"Ġdetriment":2628,"donated":2629,"How":2630,"Holy":2631,"mes":2632,"ni":2633,"arg":2634,"Ġfodder":2635,"itut":2636,"ening":2637,"Ġdelivery":2638,"Ġdiorite":2639,"Ġinn":2640,"then":2641,"agara":2642,"Ġref":2643,"Ġrepe":2644,"Ġ21":2645,"Ġplants":2646,"omin":2647,"ĠNinubur":2648,"ubi":2649,"ellig":2650,"Ġbreez":2651,"ĠMes":2652,"Ninurta":2653,"Ġscr":2654,"ursaga":2655,"Ġevildo":2656,"Ġcapt":2657,"ĠLudingira":2658,"Ġtask":2659,"UR":2660,"given":2661,"ial":2662,"kun":2663,"vel":2664,"yak":2665,"Ġtw":2666,"inds":2667,"Ġbol":2668,"Ġwine":2669,"ors":2670,"ouble":2671,"Ġfar":2672,"rew":2673,"Ġloved":2674,"Ġgrown":2675,"Ġheld":2676,"Ġinqu":2677,"Ġtool":2678,"ote":2679,"Ġewe":2680,"Ġthick":2681,"ict":2682,"earing":2683,"forcer":2684,"Ġmanifest":2685,"Ġenforcer":2686,"oney":2687,"artu":2688,"ĠInim":2689,"Ġjar":2690,"Ġwaters":2691,"Ġloc":2692,"raf":2693,"Ġsoil":2694,"Ġfeast":2695,"Ġanything":2696,"Ġproperty":2697,"Ġharrow":2698,"Ġsongs":2699,"therefrom":2700,"Ġcross":2701,"utium":2702,"Ġornament":2703,"ĠEnunugal":2704,"Wh":2705,"deficit":2706,"oice":2707,"Ġsou":2708,"Ġbas":2709,"atform":2710,"Ġfarmer":2711,"Ġnest":2712,"abuk":2713,"aged":2714,"Ġrec":2715,"ĠEnanatum":2716,"omach":2717,"ece":2718,"ĠGilgamesh":2719,"ruit":2720,"ĠNingezida":2721,"Ġunuri":2722,"Ġcoming":2723,"Ġvi":2724,"ĠBl":2725,"Ġstands":2726,"Ġreserv":2727,"iously":2728,"Ġweavers":2729,"Ġinstrum":2730,"tured":2731,"ĠSimanum":2732,"Ġpowerful":2733,"Ġconstant":2734,"ĠAgade":2735,"Ġdrink":2736,"Ġhorns":2737,"Ġstraight":2738,"Come":2739,"MU":2740,"Pro":2741,"RmSn":2742,"Ġesc":2743,"Ġsy":2744,"Ġbind":2745,"eds":2746,"Ġfis":2747,"Ġhalf":2748,"Ġheav":2749,"Ġyet":2750,"Ġnumer":2751,"umen":2752,"ication":2753,"ĠAr":2754,"Ġarum":2755,"Ġlie":2756,"Ġlive":2757,"Ġ25":2758,"Ġwort":2759,"Ġgoes":2760,"Ġgrade":2761,"udurm":2762,"Ġchari":2763,"azelle":2764,"Ġknife":2765,"Ġagain":2766,"Ġdecree":2767,"Ġdecisions":2768,"Ġslaughtered":2769,"Ġgiving":2770,"Ġinsul":2771,"Ġhighpriest":2772,"anches":2773,"Ġdisp":2774,"extile":2775,"unna":2776,"Ġcaused":2777,"Adad":2778,"Ġcolle":2779,"Ġmuch":2780,"inspections":2781,"Ġinsect":2782,"omeness":2783,"Ġnumerous":2784,"udurmabuk":2785,"17":2786,"gar":2787,"kidu":2788,"oir":2789,"ually":2790,"Ġop":2791,"Ġsan":2792,"Ġwise":2793,"iter":2794,"asing":2795,"Ġcurse":2796,"Ġgalla":2797,"rol":2798,"Ġheir":2799,"Ġnor":2800,"irst":2801,"Ġ17":2802,"umm":2803,"ĠId":2804,"Ġliver":2805,"Ġplent":2806,"eak":2807,"Ġ36":2808,"Ġbranches":2809,"Ġans":2810,"Ġanim":2811,"Ġabzu":2812,"ĠKar":2813,"orned":2814,"Ġdeep":2815,"perty":2816,"Ġaccept":2817,"Ġlead":2818,"Ġweight":2819,"shepher":2820,"Ġhost":2821,"Ġforever":2822,"Ġextra":2823,"Ġsubj":2824,"Ġcleans":2825,"ixed":2826,"Ġdemons":2827,"Ġfrontier":2828,"Ġouter":2829,"Ġverd":2830,"Ġruin":2831,"Ġweeping":2832,"Ġjudg":2833,"Ġenpriestess":2834,"Ġpurif":2835,"Ġhappy":2836,"Ġhorizon":2837,"Ġloves":2838,"Ġfunction":2839,"ylon":2840,"KAgina":2841,"subtotal":2842,"Ġsiskur":2843,"Ġbreezes":2844,"Ġreservoir":2845,"UKAgina":2846,"banda":2847,"ken":2848,"arl":2849,"aram":2850,"Ġwal":2851,"Ġwide":2852,"ony":2853,"ily":2854,"ility":2855,"Ġdab":2856,"Ġdam":2857,"Ġdream":2858,"Ġgone":2859,"Ġekalla":2860,"ĠEre":2861,"Ġram":2862,"ofty":2863,"Ġshade":2864,"Ġmyself":2865,"Ġplot":2866,"Ġplatform":2867,"Ġenc":2868,"Ġbrewer":2869,"Ġmonthly":2870,"ĠLugalurub":2871,"Ġmoon":2872,"Ġcarp":2873,"selves":2874,"Ġoffered":2875,"Ġestate":2876,"Ġfoundations":2877,"Ġinstruct":2878,"Ġbecame":2879,"Ġopened":2880,"Ġintellig":2881,"Alas":2882,"Ġcaptured":2883,"Hero":2884,"Ġgrew":2885,"Ġcalves":2886,"Ġrespons":2887,"Ġrebel":2888,"Ġsubmit":2889,"ĠApisal":2890,"ĠBabylon":2891,"Ġcaulked":2892,"Ġfriend":2893,"Ġdefeated":2894,"ominated":2895,"21":2896,"Lady":2897,"Those":2898,"day":2899,"hing":2900,"pr":2901,"pri":2902,"where":2903,"Ġbase":2904,"Ġhoney":2905,"Ġcraf":2906,"Ġdied":2907,"Ġdouble":2908,"Ġpop":2909,"ami":2910,"amp":2911,"Ġrival":2912,"unk":2913,"ently":2914,"Ġrear":2915,"Ġwithout":2916,"Ġexp":2917,"Ġexha":2918,"Ġsettle":2919,"izi":2920,"endon":2921,"osed":2922,"Ġthemselves":2923,"icked":2924,"Ġcarc":2925,"Ġwomb":2926,"Ġowner":2927,"ĠUrNane":2928,"Ġinscription":2929,"Ġbundle":2930,"Ġharbor":2931,"Ġobl":2932,"Ġjuniper":2933,"Ġkeep":2934,"Ġcontainer":2935,"Ġhaunt":2936,"Ġchariot":2937,"23":2938,"bers":2939,"tar":2940,"zida":2941,"ĠWhen":2942,"Ġsent":2943,"outs":2944,"Ġfut":2945,"ities":2946,"Ġhall":2947,"Ġcry":2948,"Ġlear":2949,"Ġdistress":2950,"Ġyoke":2951,"aying":2952,"Ġforemost":2953,"iri":2954,"ided":2955,"kets":2956,"Ġrit":2957,"Ġsheaves":2958,"owards":2959,"Ġgras":2960,"Ġkill":2961,"api":2962,"ĠKu":2963,"ĠKish":2964,"Ġcomb":2965,"Ġoffice":2966,"Ġquay":2967,"Ġembr":2968,"Ġwalls":2969,"Ġtruth":2970,"Ġboats":2971,"Ġpraised":2972,"Ġminister":2973,"Ġsecure":2974,"biErra":2975,"rinc":2976,"Ġfallen":2977,"longtablets":2978,"Ġlimbs":2979,"Ġterrace":2980,"Ġprepared":2981,"Ġreleased":2982,"ĠBarley":2983,"Ġscattered":2984,"Ġfuture":2985,"Why":2986,"lar":2987,"no":2988,"ph":2989,"whe":2990,"xPA":2991,"Ġtall":2992,"Ġoven":2993,"atic":2994,"Ġfates":2995,"Ġmarv":2996,"isf":2997,"ispic":2998,"ender":2999,"asi":3000,"Ġlofty":3001,"Ġdire":3002,"lease":3003,"Ġhear":3004,"Ġinvol":3005,"Ġforce":3006,"immud":3007,"umgal":3008,"Ġlives":3009,"anner":3010,"ĠEnlils":3011,"ĠGuni":3012,"ĠGazelle":3013,"udimmud":3014,"usa":3015,"Ġacworker":3016,"Enanatum":3017,"izier":3018,"worthy":3019,"asses":3020,"ĠAkalla":3021,"Ġroad":3022,"Ġinstead":3023,"Ġrulers":3024,"deb":3025,"Ningal":3026,"Ġgarments":3027,"eward":3028,"Ġpleasant":3029,"Ġstret":3030,"Ġdrinking":3031,"Ġadvice":3032,"Ġfloor":3033,"Ġwidth":3034,"Ġlordship":3035,"Ġwheat":3036,"ĠGatumdu":3037,"Ġinner":3038,"MUxPA":3039,"Ġheavy":3040,"ispicy":3041,"ĠGuniDU":3042,"36":3043,"87":3044,"Am":3045,"aff":3046,"bani":3047,"eve":3048,"lord":3049,"Ġtri":3050,"Ġsol":3051,"ergal":3052,"ati":3053,"ases":3054,"Ġline":3055,"Ġdel":3056,"Ġpirig":3057,"Ġiniti":3058,"Ġform":3059,"oted":3060,"Ġthan":3061,"ĠEd":3062,"Ġrise":3063,"uma":3064,"umu":3065,"ĠLord":3066,"Ġreve":3067,"Ġsilo":3068,"Ġ26":3069,"Ġplough":3070,"Ġherds":3071,"ape":3072,"ĠNins":3073,"ĠNintur":3074,"ubl":3075,"Ins":3076,"Ġorders":3077,"Ġuntil":3078,"Ġacqu":3079,"Ġoverturn":3080,"Ġawe":3081,"Ġsuppl":3082,"Ninubur":3083,"Ġpriests":3084,"ructive":3085,"Ġarmy":3086,"Ġpossessing":3087,"Ġextispicy":3088,"Ġuttered":3089,"Ġdonkeys":3090,"Ġinterest":3091,"Ġproduce":3092,"ĠShulgi":3093,"ĠSimurum":3094,"Ġditches":3095,"Ġwrite":3096,"through":3097,"Ġdelivered":3098,"Ġudug":3099,"Ġheifer":3100,"Ġexerc":3101,"Ġbolt":3102,"Ġintelligence":3103,"Ġmarvel":3104,"35":3105,"ARAD":3106,"con":3107,"female":3108,"gle":3109,"grown":3110,"ration":3111,"zem":3112,"Ġsanc":3113,"Ġbest":3114,"Ġburn":3115,"Ġfierce":3116,"Ġmine":3117,"Ġmanner":3118,"isor":3119,"otten":3120,"aches":3121,"Ġthree":3122,"ĠNann":3123,"ulu":3124,"Ġrich":3125,"off":3126,"emen":3127,"ĠAmar":3128,"ĠLukalla":3129,"ech":3130,"chant":3131,"change":3132,"Ġvoice":3133,"Ġvizier":3134,"Ġflesh":3135,"Ġdeer":3136,"Ġdead":3137,"Ġnose":3138,"ashing":3139,"Ġdecision":3140,"Ġnindaba":3141,"ĠWarad":3142,"workers":3143,"account":3144,"Ġsinger":3145,"Ġcowher":3146,"Ġfaithful":3147,"Ġsunlight":3148,"Ġutterance":3149,"Ġtreasure":3150,"offering":3151,"Ġgathered":3152,"ĠEzina":3153,"Uruk":3154,"Ġsustain":3155,"URUKAgina":3156,"Ġsouthern":3157,"Ġsanctu":3158,"Where":3159,"bird":3160,"dest":3161,"gu":3162,"law":3163,"lasting":3164,"pre":3165,"sil":3166,"tr":3167,"ways":3168,"ya":3169,"Ġtigi":3170,"Ġwail":3171,"orated":3172,"atur":3173,"atch":3174,"Ġfac":3175,"Ġhang":3176,"ilmun":3177,"Ġdri":3178,"Ġaf":3179,"Ġpil":3180,"Ġphy":3181,"Ġnam":3182,"abzu":3183,"Ġforest":3184,"Ġsteward":3185,"Ġonto":3186,"agg":3187,"rived":3188,"Ġwhole":3189,"Ġaru":3190,"ĠNind":3191,"akam":3192,"Ġwhy":3193,"ĠDada":3194,"ĠBig":3195,"Ġconvey":3196,"kuzu":3197,"Ġprev":3198,"Ġrestore":3199,"Ġapproach":3200,"All":3201,"Ġsatisf":3202,"eneral":3203,"Ġmatter":3204,"Ġdeterm":3205,"ĠSimurrum":3206,"ĠPuzri":3207,"Ġfavorable":3208,"Ġfearsomeness":3209,"Ġprisoners":3210,"ammur":3211,"argon":3212,"Property":3213,"Ġsyrup":3214,"ummal":3215,"Ġanswer":3216,"Id":3217,"ron":3218,"time":3219,"Ġtakes":3220,"Ġtore":3221,"Ġsag":3222,"aring":3223,"Ġfind":3224,"Ġfruit":3225,"also":3226,"itative":3227,"esame":3228,"rees":3229,"Ġdir":3230,"Ġdining":3231,"idn":3232,"iding":3233,"idug":3234,"Then":3235,"Ġbeat":3236,"ĠNergal":3237,"ĠUn":3238,"ĠImeDagan":3239,"Ġreceive":3240,"Ġsets":3241,"Ġ22":3242,"upp":3243,"ĠSt":3244,"Ġbanks":3245,"Ġspe":3246,"Ġdestructive":3247,"ĠNinursaga":3248,"Ġvia":3249,"Ġbreast":3250,"Ġroof":3251,"uzga":3252,"ipped":3253,"Ġbitumen":3254,"ĠWh":3255,"redits":3256,"Ġfeat":3257,"Ġquarre":3258,"Ġcommands":3259,"ĠFestivalof":3260,"ĠCanal":3261,"Ġmarsh":3262,"Ġcorp":3263,"Ġdocument":3264,"Ġfurrows":3265,"Ġperformed":3266,"Ġweeps":3267,"Ġbearing":3268,"Ġjunior":3269,"Ġevening":3270,"magal":3271,"Ġmultipl":3272,"regular":3273,"Ġdrums":3274,"Ġhumanity":3275,"Ġviol":3276,"Ġsanct":3277,"Ġresponsible":3278,"Ġexhaust":3279,"ammurapi":3280,"27":3281,"Dumuzi":3282,"Ikur":3283,"bl":3284,"ding":3285,"ever":3286,"gir":3287,"ka":3288,"kes":3289,"kig":3290,"rain":3291,"hekels":3292,"Ġtribut":3293,"Ġsesame":3294,"Ġwagon":3295,"Ġfat":3296,"Ġfit":3297,"Ġful":3298,"itud":3299,"inger":3300,"Ġpart":3301,"Ġnear":3302,"Ġforg":3303,"ids":3304,"ĠEt":3305,"ĠEgal":3306,"ĠNr":3307,"ĠNamma":3308,"ĠAs":3309,"ĠAtu":3310,"ĠUrmes":3311,"Ġnothing":3312,"ĠEnmagal":3313,"Ġplunder":3314,"Ġmans":3315,"Ġherself":3316,"ceasing":3317,"ĠGetin":3318,"Ġspace":3319,"Ġdestruction":3320,"ushed":3321,"ĠNinh":3322,"ervisor":3323,"ĠKing":3324,"Ġcons":3325,"ĠMy":3326,"ĠMard":3327,"ĠLugalinimgina":3328,"aught":3329,"Ġshepherds":3330,"Ġfathers":3331,"Ġslaughter":3332,"Ġcontrol":3333,"Ġelaps":3334,"ĠOval":3335,"Ġconstructed":3336,"ĠKiur":3337,"ĠGuabba":3338,"Ġditch":3339,"Ġboxwood":3340,"othed":3341,"ĠNinegal":3342,"Ġcitizens":3343,"Ġinstrument":3344,"ĠKarzida":3345,"Ġinstructions":3346,"Ġlearn":3347,"Ġritual":3348,"Ġphys":3349,"City":3350,"We":3351,"Warad":3352,"called":3353,"father":3354,"hand":3355,"oin":3356,"oking":3357,"inen":3358,"inter":3359,"Ġsum":3360,"Ġwrit":3361,"Ġwicked":3362,"orm":3363,"ited":3364,"itum":3365,"ither":3366,"Ġcupbearer":3367,"Ġlying":3368,"Ġinv":3369,"Ġnig":3370,"irmed":3371,"irimu":3372,"Ġstomach":3373,"allu":3374,"ĠIbbiSuen":3375,"ĠUrE":3376,"ĠUrulpae":3377,"Ġrequ":3378,"Ġshine":3379,"Ġplots":3380,"ively":3381,"ects":3382,"lying":3383,"ĠGAN":3384,"Ġdestroys":3385,"feast":3386,"ĠKudurmabuk":3387,"ĠDug":3388,"ĠDilmun":3389,"ĠMagan":3390,"Ġnegle":3391,"Ġadorned":3392,"ĠUrNing":3393,"Ġregarding":3394,"Ġgifts":3395,"passion":3396,"ĠItar":3397,"Ġjugs":3398,"Ġresponse":3399,"Ġanger":3400,"ĠGued":3401,"Ġgroan":3402,"Before":3403,"Ġpegs":3404,"Ġdescended":3405,"Ġhostile":3406,"Ġcleansing":3407,"Ġfunctionary":3408,"rincely":3409,"ublaga":3410,"Ġcorpse":3411,"Abb":3412,"Copy":3413,"Towards":3414,"bart":3415,"bala":3416,"build":3417,"chen":3418,"cover":3419,"li":3420,"press":3421,"ses":3422,"sho":3423,"south":3424,"Ġsold":3425,"Ġben":3426,"Ġbore":3427,"Ġfam":3428,"itchen":3429,"Ġmound":3430,"Ġmalt":3431,"Ġcurs":3432,"Ġheaped":3433,"Ġnec":3434,"iga":3435,"irc":3436,"ident":3437,"Ġetern":3438,"host":3439,"Ġ19":3440,"Ġraven":3441,"umma":3442,"Ġstaff":3443,"ĠUrara":3444,"Ġreached":3445,"Ġshare":3446,"essed":3447,"anted":3448,"Ġgreatest":3449,"Ġlaments":3450,"Ġunceasing":3451,"elles":3452,"Ġcompassion":3453,"Ġbreak":3454,"izal":3455,"Ġaccounts":3456,"Ġcarry":3457,"Ġcarpen":3458,"reeable":3459,"ĠTummal":3460,"Ġlev":3461,"Ġshepherdship":3462,"Ġwomen":3463,"Ġerase":3464,"ĠLuara":3465,"ĠLuNingirsu":3466,"Ġsuch":3467,"ĠWho":3468,"Ġspeaks":3469,"Ġremove":3470,"Ġmarried":3471,"Ġcountries":3472,"Ġappropri":3473,"Ġdefiled":3474,"Ġpleasing":3475,"Ġinterior":3476,"Ġjudge":3477,"ĠLugale":3478,"Ġrising":3479,"Ġmerchant":3480,"Ġlords":3481,"intendent":3482,"Ġgladd":3483,"Ġbelow":3484,"Ġfleece":3485,"standing":3486,"Ġlevees":3487,"Ġdevast":3488,"Ġdiminished":3489,"Ġhighpriestess":3490,"Ġhearts":3491,"Ġinvolved":3492,"42":3493,"Dont":3494,"Now":3495,"avern":3496,"eb":3497,"iq":3498,"ien":3499,"mble":3500,"nake":3501,"sm":3502,"serv":3503,"tain":3504,"uSuen":3505,"will":3506,"wards":3507,"water":3508,"Ġill":3509,"ĠFor":3510,"Ġuzga":3511,"Ġtur":3512,"Ġtavern":3513,"inually":3514,"Ġocc":3515,"Ġball":3516,"orc":3517,"iting":3518,"Ġmour":3519,"isa":3520,"ism":3521,"Ġcries":3522,"rect":3523,"Ġlust":3524,"Ġduring":3525,"Ġpast":3526,"Ġgipar":3527,"iglet":3528,"Ġfort":3529,"irs":3530,"Ġthough":3531,"ĠUree":3532,"agn":3533,"against":3534,"str":3535,"ĠLub":3536,"ĠLisi":3537,"ented":3538,"Ġrelease":3539,"Ġshiny":3540,"Ġplan":3541,"Ġmeal":3542,"ubu":3543,"Ġala":3544,"Ġworktroops":3545,"child":3546,"Ġflow":3547,"ĠBagara":3548,"ĠMartu":3549,"Ġprovid":3550,"acks":3551,"Ġrope":3552,"Ġweak":3553,"Ġdivin":3554,"Ġblock":3555,"Ġuea":3556,"ĠUrNungal":3557,"blem":3558,"Ġincipit":3559,"Ġtalent":3560,"Ġfullgrown":3561,"woods":3562,"Ġrepaid":3563,"ĠulMUxPA":3564,"Ġgazelles":3565,"ĠZabali":3566,"Ġappear":3567,"Ġfertile":3568,"Ġhelper":3569,"Ġevildoer":3570,"yakalla":3571,"Ġplenty":3572,"Ġcarcasses":3573,"Ġspeech":3574,"28":3575,"33":3576,"Nane":3577,"Zab":3578,"band":3579,"bly":3580,"cr":3581,"car":3582,"dried":3583,"ek":3584,"fit":3585,"god":3586,"rest":3587,"sur":3588,"tled":3589,"two":3590,"textile":3591,"uw":3592,"vil":3593,"ward":3594,"Ġx":3595,"Ġtab":3596,"Ġtong":3597,"Ġtiny":3598,"Ġwit":3599,"Ġfree":3600,"itu":3601,"itida":3602,"Ġmal":3603,"Ġmold":3604,"Ġmaid":3605,"Ġmounds":3606,"esag":3607,"Ġhire":3608,"asura":3609,"Ġgarl":3610,"adu":3611,"ĠNag":3612,"umuda":3613,"icted":3614,"ĠIri":3615,"agers":3616,"ecut":3617,"Ġmead":3618,"ceed":3619,"ĠNink":3620,"Ġalter":3621,"Ġaltered":3622,"ĠKul":3623,"Ġexist":3624,"ĠBr":3625,"ĠHill":3626,"azida":3627,"Ġallowed":3628,"Ġsurvey":3629,"ukur":3630,"Ġmalevol":3631,"Ġshoulder":3632,"Ġknew":3633,"Ġadm":3634,"Ġsupervisor":3635,"uzu":3636,"Ġagreeable":3637,"Ġdecorated":3638,"Ġbroken":3639,"Ninlil":3640,"ibil":3641,"ĠPiglet":3642,"Ġslaves":3643,"Ġstatues":3644,"Ġgives":3645,"Ġheroism":3646,"Ġfright":3647,"Ġfresh":3648,"ext":3649,"Ġdepth":3650,"egigal":3651,"Ġfattened":3652,"Ġfattener":3653,"bearing":3654,"Ġvolume":3655,"Ġfirstborn":3656,"Ġconfirmed":3657,"Ġteem":3658,"Ġgazelle":3659,"Ġlimit":3660,"Ġaxe":3661,"Ġrunning":3662,"Ġflying":3663,"Ġauthority":3664,"Ġirrigation":3665,"Ġincantation":3666,"Ġincantations":3667,"Ġtrustworthy":3668,"Ġbaskets":3669,"Ġfisher":3670,"Ġfeatures":3671,"Ġtribute":3672,"Ġgarlic":3673,"32":3674,"Is":3675,"Lug":3676,"Lud":3677,"Lukalla":3678,"Saying":3679,"aim":3680,"hides":3681,"iot":3682,"nun":3683,"oe":3684,"arr":3685,"Ġfrown":3686,"alam":3687,"isina":3688,"Ġhus":3689,"Ġholds":3690,"Ġcream":3691,"Ġlinen":3692,"Ġgegigal":3693,"eland":3694,"Ġnir":3695,"Ġeg":3696,"Ġbet":3697,"ĠEx":3698,"ĠEannatum":3699,"ĠNab":3700,"unir":3701,"umin":3702,"ical":3703,"Ġstall":3704,"ĠIf":3705,"Ġarrow":3706,"Ġseated":3707,"Ġsepar":3708,"Ġ28":3709,"epada":3710,"Ġhimher":3711,"Ġherder":3712,"ĠSargon":3713,"Ġkitchen":3714,"Ġspark":3715,"quet":3716,"Ġupro":3717,"Ġchamber":3718,"rue":3719,"Ġprofound":3720,"azallu":3721,"Ġrod":3722,"Ġweaving":3723,"Enlila":3724,"Ġinstruction":3725,"Ġclaim":3726,"Ġdragon":3727,"aws":3728,"Ġseeks":3729,"Ġfollow":3730,"amsuil":3731,"Ġsmallshe":3732,"Ġcorrect":3733,"Ġvessels":3734,"lax":3735,"laim":3736,"eget":3737,"Ġserve":3738,"Ġmature":3739,"Ġequal":3740,"ĠSniddinam":3741,"agesi":3742,"Ġrisen":3743,"ipitItar":3744,"Ġrunners":3745,"Ġentire":3746,"Ġcook":3747,"ission":3748,"Ġauthoritative":3749,"Ġporters":3750,"Ġgarden":3751,"Ġfigure":3752,"itute":3753,"Ġrepeat":3754,"Ġharrowing":3755,"Ġanimals":3756,"Ġdamaged":3757,"ĠErekigal":3758,"whel":3759,"Ġsanctuary":3760,"ĠEnmagalana":3761,"Ġelapsed":3762,"Ġphysician":3763,"irsir":3764,"Ġhusband":3765,"29":3766,"45":3767,"Ag":3768,"IbiErra":3769,"com":3770,"dingir":3771,"good":3772,"oo":3773,"salted":3774,"tendon":3775,"wind":3776,"inlaw":3777,"Ġobe":3778,"ank":3779,"Ġsought":3780,"Ġsign":3781,"Ġfed":3782,"Ġhon":3783,"room":3784,"urgal":3785,"irizal":3786,"ider":3787,"ĠEm":3788,"ĠNudimmud":3789,"ĠUrsaga":3790,"Ġari":3791,"Ġlib":3792,"Ġrelax":3793,"Ġ27":3794,"ives":3795,"ĠSin":3796,"ĠGud":3797,"therworld":3798,"Ġkiss":3799,"Ġbran":3800,"Ġeng":3801,"aker":3802,"ĠAnzu":3803,"ĠMan":3804,"Ġnoble":3805,"Ġaccom":3806,"pled":3807,"whom":3808,"Ġoverwhel":3809,"ulgiirimu":3810,"Ġreedbed":3811,"Ġstatus":3812,"Ġtrav":3813,"anger":3814,"Ġcontinually":3815,"Ġimak":3816,"Ġmeasures":3817,"Ġhoeing":3818,"Ġmarket":3819,"Ġjoyful":3820,"Ġentering":3821,"Ġcease":3822,"Ġfox":3823,"Ġobj":3824,"Ġangry":3825,"Ġvolumeshekels":3826,"Ġhappiness":3827,"Ġbegot":3828,"Ġtransfer":3829,"Ġexcav":3830,"Ġseize":3831,"Ġlevee":3832,"Ġlistens":3833,"Ġdropped":3834,"AmarSuena":3835,"Ġemerged":3836,"Ġescape":3837,"shepherd":3838,"Ġobliter":3839,"Ġquarrel":3840,"Ġcursed":3841,"Ġmourning":3842,"Ġtaboo":3843,"Ġtongue":3844,"amsuiluna":3845,"Gilgamesh":3846,"Haya":3847,"Lisi":3848,"Sup":3849,"cy":3850,"cour":3851,"dab":3852,"deliver":3853,"eks":3854,"lady":3855,"nuna":3856,"ping":3857,"snake":3858,"uts":3859,"Ġtorn":3860,"Ġsouth":3861,"Ġsitting":3862,"Ġwages":3863,"orp":3864,"oring":3865,"outed":3866,"Ġfif":3867,"Ġfence":3868,"Ġlu":3869,"Ġlower":3870,"Ġinanna":3871,"Ġnail":3872,"adaga":3873,"iring":3874,"keep":3875,"Ġthigh":3876,"ĠNew":3877,"Ġrun":3878,"Ġstill":3879,"allim":3880,"ĠIgal":3881,"rible":3882,"Ġbarges":3883,"Ġyours":3884,"Ġseat":3885,"ablet":3886,"uilder":3887,"Ġbanquet":3888,"ĠGate":3889,"iff":3890,"Ġaside":3891,"Ġchurn":3892,"atever":3893,"orning":3894,"Ġunident":3895,"Ġveget":3896,"Ġdeath":3897,"UrBaba":3898,"osition":3899,"Ġcarrying":3900,"Ġloaded":3901,"underbird":3902,"ĠTh":3903,"Ġsuppor":3904,"raw":3905,"arsirsir":3906,"Ġraising":3907,"Ġtruly":3908,"ĠWith":3909,"Ġaccountant":3910,"bbiSn":3911,"Ġseeking":3912,"Ġsacrif":3913,"flicted":3914,"eckled":3915,"Ġelder":3916,"Ġregularly":3917,"Ġadministrators":3918,"Ġservice":3919,"rince":3920,"Ġsplend":3921,"Ġtwoyear":3922,"Ġbucks":3923,"ĠLuduga":3924,"Ġedge":3925,"uhi":3926,"Ġchoose":3927,"nelian":3928,"does":3929,"Ġsuperior":3930,"Ġknees":3931,"Ġprovisions":3932,"Possessor":3933,"Ġissue":3934,"Ġcolleag":3935,"Ġverdant":3936,"Ġdetermine":3937,"ointed":3938,"Ġbenef":3939,"Ġlevy":3940,"Ġlustration":3941,"ĠKulaba":3942,"ĠHillock":3943,"Ġuprooted":3944,"Ġunidentified":3945,"48":3946,"AR":3947,"Bring":3948,"Damu":3949,"Go":3950,"Mother":3951,"Un":3952,"Will":3953,"den":3954,"dug":3955,"fall":3956,"filled":3957,"kis":3958,"kid":3959,"lings":3960,"not":3961,"nominated":3962,"part":3963,"res":3964,"side":3965,"uumgal":3966,"uallim":3967,"voy":3968,"Ġub":3969,"Ġoath":3970,"Ġsend":3971,"Ġbu":3972,"Ġfare":3973,"Ġmars":3974,"ila":3975,"ilu":3976,"Ġcaught":3977,"Ġlow":3978,"Ġpea":3979,"Ġpick":3980,"Ġghost":3981,"Ġinof":3982,"els":3983,"ayed":3984,"imbabbar":3985,"hood":3986,"Ġbeard":3987,"Ġbeads":3988,"tering":3989,"estic":3990,"icket":3991,"ĠAimbabbar":3992,"uty":3993,"rier":3994,"ĠLul":3995,"Ġrel":3996,"forated":3997,"upon":3998,"Ġworking":3999,"Ġdaylight":4000,"ĠGutium":4001,"ifies":4002,"Ġcharm":4003,"ĠNinursag":4004,"ubum":4005,"rust":4006,"Ġunlo":4007,"Ġexorc":4008,"Ġpeop":4009,"ĠDa":4010,"ĠDam":4011,"Ġproc":4012,"Ġallot":4013,"plus":4014,"ĠAkitu":4015,"ĠAkurgal":4016,"Ġloan":4017,"Ġlost":4018,"ĠThis":4019,"Ġpersons":4020,"Ġpersonnel":4021,"Ġleave":4022,"Ġdecided":4023,"ĠLuUtu":4024,"ĠUrukagina":4025,"Ġterm":4026,"Ġpossessed":4027,"Ġpossesses":4028,"Ġgrowing":4029,"Ġdepot":4030,"Ġeats":4031,"grand":4032,"Ġperforming":4033,"Ġgaze":4034,"Ġimposed":4035,"Ġrebell":4036,"ĠNigin":4037,"Ġtails":4038,"Ġstrike":4039,"Sealed":4040,"Ġcultic":4041,"Ġporter":4042,"Ġgigigal":4043,"Ġdesignations":4044,"ĠMeslam":4045,"Ġscratched":4046,"kununa":4047,"ĠBluallim":4048,"Ġsettlements":4049,"Ġdirected":4050,"Inscription":4051,"uppak":4052,"ĠWhite":4053,"Ġplundered":4054,"ĠNinhursag":4055,"Ġnecks":4056,"Ġdevastated":4057,"Ġwitness":4058,"ĠHillockof":4059,"Ġmarshes":4060,"Ġpickax":4061,"Ġpeoples":4062,"26":4063,"Ar":4064,"Dumuz":4065,"Me":4066,"Mes":4067,"Puz":4068,"eople":4069,"fast":4070,"festival":4071,"general":4072,"ler":4073,"lag":4074,"rines":4075,"tasura":4076,"usu":4077,"ĠĠĠĠĊ":4078,"hee":4079,"Ġtum":4080,"Ġtra":4081,"Ġsand":4082,"Ġbreat":4083,"Ġmes":4084,"Ġmud":4085,"ises":4086,"enn":4087,"Ġhom":4088,"Ġchose":4089,"Ġlad":4090,"Ġpin":4091,"Ġprom":4092,"Ġpain":4093,"Ġprow":4094,"Ġpaid":4095,"Ġghee":4096,"rog":4097,"Ġformer":4098,"Ġformed":4099,"oty":4100,"irin":4101,"acia":4102,"Ġthorn":4103,"Ġthrew":4104,"ĠEs":4105,"ĠEma":4106,"unum":4107,"umber":4108,"Ġstool":4109,"Ġonce":4110,"stitute":4111,"ution":4112,"ĠLeve":4113,"ugid":4114,"Ġliar":4115,"Ġliqu":4116,"Ġshrines":4117,"Ġsilence":4118,"anni":4119,"omatic":4120,"ĠSm":4121,"iffer":4122,"Ġspending":4123,"Ġenters":4124,"ĠKazallu":4125,"chamber":4126,"Ġexper":4127,"Ġexecut":4128,"Ġbreed":4129,"Urbart":4130,"attened":4131,"Ġstorage":4132,"ukkal":4133,"ĠLugaln":4134,"ĠLugalem":4135,"Ġcared":4136,"Ġcarnelian":4137,"Ġroots":4138,"ivalent":4139,"Ġleeks":4140,"Ninazu":4141,"Ġscream":4142,"ĠPl":4143,"Ġdrag":4144,"Ġcommon":4145,"Ġplowmen":4146,"oyed":4147,"Ġhighland":4148,"Ġterrif":4149,"Ġcreatures":4150,"Ġtremble":4151,"Ġcommanded":4152,"Ġmeasured":4153,"ortant":4154,"Ġcovers":4155,"Ġbedchamber":4156,"othing":4157,"Ġdeprived":4158,"Ġcrushed":4159,"rink":4160,"Ġdogs":4161,"grain":4162,"ellect":4163,"ilimbabbar":4164,"isiki":4165,"Ġleatherworkers":4166,"Ġaxes":4167,"magure":4168,"Ġtouched":4169,"pses":4170,"Ġbelong":4171,"ushing":4172,"Shrine":4173,"Ġplayed":4174,"Ġinspection":4175,"Ġpole":4176,"Ġsuperintendent":4177,"Ġsteppe":4178,"ĠMekigal":4179,"Ġinsulted":4180,"Ġpoplar":4181,"Ġsolid":4182,"ĠNinsun":4183,"Ġexercise":4184,"ĠPuzriDagan":4185,"Iddin":4186,"ĠUnug":4187,"ĠMarduk":4188,"Ġdivinity":4189,"uwaw":4190,"Ġsurveyor":4191,"Ġunloaded":4192,"ĠLevee":4193,"Ġliquor":4194,"ifferent":4195,"Urbartab":4196,"GI":4197,"ImeDagan":4198,"NE":4199,"Nig":4200,"True":4201,"bread":4202,"eed":4203,"fle":4204,"gs":4205,"gan":4206,"gate":4207,"ls":4208,"large":4209,"mil":4210,"Ġes":4211,"Ġbent":4212,"Ġbell":4213,"aries":4214,"Ġwish":4215,"Ġwinds":4216,"edu":4217,"itary":4218,"isted":4219,"ishes":4220,"oned":4221,"onder":4222,"Ġhips":4223,"ason":4224,"asted":4225,"Ġlugal":4226,"Ġlukur":4227,"anded":4228,"Ġgri":4229,"eliness":4230,"igir":4231,"ayamu":4232,"though":4233,"ĠEPA":4234,"alluhi":4235,"ĠAma":4236,"agar":4237,"ĠUrSuen":4238,"stead":4239,"oung":4240,"ĠLull":4241,"Ġarakam":4242,"Ġlies":4243,"iving":4244,"took":4245,"ĠSamsuiluna":4246,"ĠGan":4247,"Ġkur":4248,"Ġkisiki":4249,"Ġspend":4250,"queen":4251,"ĠNinki":4252,"ĠNinins":4253,"Ġworkmen":4254,"ĠKin":4255,"Ġunf":4256,"Ġunits":4257,"Ġexpl":4258,"Ġconcer":4259,"Eninnu":4260,"Ġprolong":4261,"UrNingirsu":4262,"ĠHari":4263,"Ġsetting":4264,"izu":4265,"endant":4266,"Ġgoodness":4267,"Ġwaterway":4268,"Ġheadgur":4269,"acked":4270,"Ġbooty":4271,"Ġroaring":4272,"Ġtown":4273,"Ġtoward":4274,"Ġemblem":4275,"Nink":4276,"Ġsmite":4277,"Ġscent":4278,"Ġhoed":4279,"duces":4280,"Ġabundant":4281,"within":4282,"Ġforehead":4283,"Ġcontents":4284,"Ġseek":4285,"Ġeverlasting":4286,"Ġextended":4287,"boat":4288,"speak":4289,"while":4290,"Ġcorpses":4291,"Ġwells":4292,"Ġwellbeing":4293,"Ġintellect":4294,"Ġqueenship":4295,"Ġcasting":4296,"Ġorchards":4297,"Ġgolden":4298,"Ġequivalent":4299,"metal":4300,"Ġruins":4301,"ilgame":4302,"sumun":4303,"Ġgroats":4304,"Ġredu":4305,"netherworld":4306,"Ġcultiv":4307,"Ġreveres":4308,"Ġcitizen":4309,"Ġshouting":4310,"Ġguardian":4311,"Ġleader":4312,"Ġdabin":4313,"Ġcombat":4314,"Ġacquire":4315,"Ġwailing":4316,"Ġpreviously":4317,"Ġmultiplied":4318,"Ġlearned":4319,"Ġappropriate":4320,"Ġteeming":4321,"Ġtravel":4322,"Supreme":4323,"Ġsupporter":4324,"Ġbenefit":4325,"Ġpeaflour":4326,"ĠNininsina":4327,"Nar":4328,"Princely":4329,"Reg":4330,"Sp":4331,"Umma":4332,"Watch":4333,"cant":4334,"fodder":4335,"har":4336,"lazuli":4337,"net":4338,"new":4339,"troop":4340,"tablet":4341,"yard":4342,"zer":4343,"Ġtear":4344,"Ġtied":4345,"aning":4346,"anepada":4347,"ares":4348,"Ġwear":4349,"Ġfast":4350,"altogether":4351,"Ġmould":4352,"Ġmort":4353,"ashed":4354,"ils":4355,"Ġcer":4356,"Ġcause":4357,"Ġlot":4358,"Ġlard":4359,"Ġdike":4360,"Ġdagg":4361,"Ġduty":4362,"Ġaff":4363,"ury":4364,"Ġinher":4365,"eless":4366,"Ġnesag":4367,"abtum":4368,"ambers":4369,"acking":4370,"Ġele":4371,"ĠNus":4372,"ĠNalu":4373,"ulation":4374,"Ġren":4375,"estock":4376,"ices":4377,"Ġstick":4378,"ĠIts":4379,"ĠUrG":4380,"aved":4381,"olution":4382,"ugig":4383,"Ġrebuilt":4384,"Ġshouted":4385,"Ġpluck":4386,"illage":4387,"eting":4388,"ipe":4389,"ĠSub":4390,"ĠSowing":4391,"Ġspeckled":4392,"Ġchar":4393,"ĠNinsumun":4394,"ubanda":4395,"Intaea":4396,"ruits":4397,"ĠAnunna":4398,"ĠAntasura":4399,"elled":4400,"Ġpeace":4401,"ously":4402,"kiag":4403,"Together":4404,"perforated":4405,"Ġhandle":4406,"Ġbreads":4407,"aue":4408,"Ġrode":4409,"Ġroads":4410,"engura":4411,"Ġthres":4412,"Ġcanals":4413,"ĠFlight":4414,"ippar":4415,"Ġslander":4416,"Ġalkali":4417,"Ġinsp":4418,"Ningublaga":4419,"airs":4420,"Ġattribut":4421,"Ġbringing":4422,"Ġenemies":4423,"Ġlapislazuli":4424,"Ġremote":4425,"Ġintro":4426,"ĠAlla":4427,"Ġeaten":4428,"Ġcomplex":4429,"Ġcomplete":4430,"Ġsworn":4431,"Ġconfused":4432,"Ġzab":4433,"iliu":4434,"iliar":4435,"Ġpurified":4436,"losu":4437,"Ġsleeping":4438,"Ġeduba":4439,"Ġstraw":4440,"ported":4441,"Ġdeliveries":4442,"Ġterror":4443,"Ġpotash":4444,"Ġassigned":4445,"Ġdiworker":4446,"Ġidle":4447,"Ġidiot":4448,"Ġhelp":4449,"Possessing":4450,"Ġrepeated":4451,"Ġinquir":4452,"ĠInimara":4453,"Ġjudgments":4454,"Ġwalked":4455,"Ġenclosu":4456,"Ġembrace":4457,"Ġstretched":4458,"Among":4459,"ĠWaradSn":4460,"Ġcowherd":4461,"Ġsatisfied":4462,"Ġdirt":4463,"ĠBricks":4464,"Ġmalevolent":4465,"Ġseparated":4466,"Ġobeis":4467,"Ġtransferred":4468,"ĠThunderbird":4469,"Ġinherit":4470,"Ġedubaa":4471,"43":4472,"Even":4473,"Elam":4474,"Mama":4475,"bend":4476,"body":4477,"cupbearer":4478,"dub":4479,"eth":4480,"egal":4481,"ging":4482,"kind":4483,"mens":4484,"oh":4485,"oil":4486,"oose":4487,"rent":4488,"sc":4489,"taken":4490,"uur":4491,"vestock":4492,"wom":4493,"ĠYou":4494,"inct":4495,"Ġsad":4496,"Ġskin":4497,"arak":4498,"Ġwave":4499,"Ġmain":4500,"Ġmorning":4501,"esi":4502,"ense":4503,"enance":4504,"Ġhit":4505,"Ġcall":4506,"ready":4507,"Ġlaw":4508,"Ġlah":4509,"Ġda":4510,"Ġden":4511,"Ġdur":4512,"Ġdie":4513,"Ġdifferent":4514,"Ġpit":4515,"Ġpul":4516,"Ġgir":4517,"urum":4518,"elt":4519,"Ġnugig":4520,"irara":4521,"aces":4522,"acity":4523,"acher":4524,"Ġea":4525,"Ġstate":4526,"Ġstop":4527,"ĠUru":4528,"ĠUrub":4529,"sticks":4530,"utation":4531,"ĠLady":4532,"Ġlips":4533,"Ġlivestock":4534,"Ġreach":4535,"aint":4536,"Ġsilent":4537,"Ġ29":4538,"uper":4539,"illi":4540,"Ġgoose":4541,"ĠGurs":4542,"ify":4543,"ific":4544,"usts":4545,"ĠNinura":4546,"ĠNinisina":4547,"Ġpres":4548,"isting":4549,"Ġalready":4550,"ardu":4551,"Ġwillow":4552,"Ġexud":4553,"ĠInab":4554,"Ġvat":4555,"Ġflower":4556,"ĠDingir":4557,"ĠBazi":4558,"Urnigar":4559,"Ġsettled":4560,"oses":4561,"ĠLugalm":4562,"ĠLugalnig":4563,"Ġgoods":4564,"plow":4565,"Ġloos":4566,"ĠSumerian":4567,"Ġtower":4568,"Ġdecrees":4569,"Ġworkday":4570,"Ġsmith":4571,"Ġsmote":4572,"Ġraises":4573,"ĠLuNanna":4574,"Ġclo":4575,"Ġclad":4576,"household":4577,"Ġsweep":4578,"Ġheroes":4579,"Ġterrible":4580,"Ġmouths":4581,"Ġstrange":4582,"Ġbrothers":4583,"Ġpossessor":4584,"Ġgrows":4585,"Ġgifted":4586,"Ġminus":4587,"Ġfurrow":4588,"Ġcapacity":4589,"Ġsquare":4590,"brought":4591,"Ġserved":4592,"Ġfestivals":4593,"Ġequid":4594,"Ġhumble":4595,"Ġhorned":4596,"Ġrejoiced":4597,"Ġreplying":4598,"Ġgreen":4599,"Ġimportant":4600,"Ġmercy":4601,"iveness":4602,"Abzu":4603,"Ġparap":4604,"ĠNamani":4605,"ĠPuzur":4606,"Ġseizes":4607,"Ġdescend":4608,"Ġurti":4609,"Ġknee":4610,"Ġconsumed":4611,"Ġhunger":4612,"Ġlocust":4613,"Ġrulership":4614,"debits":4615,"Ġdelight":4616,"Ġinitiate":4617,"Ġfacility":4618,"ĠGuedena":4619,"smith":4620,"Ġoccup":4621,"Zababa":4622,"Ġmeadows":4623,"ĠNinkilim":4624,"Lugale":4625,"Ġsmallshekels":4626,"Ġcorrectly":4627,"Ġfifty":4628,"Ġlux":4629,"Ġbuy":4630,"Dumuzida":4631,"Puzur":4632,"lagare":4633,"Ġbelongs":4634,"cantation":4635,"Ġmortar":4636,"Ġattributes":4637,"Ġinheritance":4638,"ĠGursar":4639,"Ayakalla":4640,"Ex":4641,"Etar":4642,"Larsa":4643,"Naram":4644,"Sumer":4645,"Was":4646,"aq":4647,"bu":4648,"che":4649,"credits":4650,"ffer":4651,"first":4652,"gn":4653,"half":4654,"ker":4655,"kkal":4656,"laid":4657,"lared":4658,"mill":4659,"ran":4660,"ric":4661,"rang":4662,"vot":4663,"voc":4664,"ws":4665,"what":4666,"zagesi":4667,"Ġtor":4668,"Ġtaking":4669,"Ġsound":4670,"Ġsake":4671,"Ġsukkal":4672,"Ġwol":4673,"Ġfal":4674,"Ġfre":4675,"Ġfreed":4676,"Ġfinger":4677,"Ġmas":4678,"Ġmix":4679,"Ġmixed":4680,"Ġmagn":4681,"ising":4682,"onoun":4683,"enter":4684,"Ġhaz":4685,"ilum":4686,"Ġdum":4687,"Ġdish":4688,"Ġdistr":4689,"Ġach":4690,"Ġpens":4691,"Ġget":4692,"Ġyell":4693,"elam":4694,"Ġnominated":4695,"Ġnumber":4696,"abit":4697,"abdu":4698,"ament":4699,"Ġthicket":4700,"ĠNur":4701,"ĠUt":4702,"unu":4703,"Ġstel":4704,"ĠIm":4705,"ĠIris":4706,"agi":4707,"agrig":4708,"odged":4709,"ĠUrd":4710,"ĠUrNin":4711,"olished":4712,"rip":4713,"Ġarazu":4714,"ugi":4715,"Ġshines":4716,"ivist":4717,"Ġmanagers":4718,"eced":4719,"oured":4720,"ĠSag":4721,"ĠSea":4722,"Ġbrid":4723,"usaga":4724,"akk":4725,"Ġproud":4726,"ĠKA":4727,"chivist":4728,"ella":4729,"Ġcomes":4730,"Ġcompl":4731,"Ġexchange":4732,"okes":4733,"Ġjenn":4734,"rowing":4735,"ĠDur":4736,"ĠBad":4737,"Ġconvers":4738,"Url":4739,"ishing":4740,"atta":4741,"should":4742,"Ġsurr":4743,"ĠLugalkuzu":4744,"ĠLugalitida":4745,"ĠLugaluur":4746,"ackish":4747,"Ġstormwind":4748,"Ġresin":4749,"Ġrespect":4750,"Ġladyship":4751,"Ġlegal":4752,"Ġweaver":4753,"Ġscorp":4754,"Ġinstall":4755,"Ġuse":4756,"Ġtrade":4757,"Ġdwells":4758,"Ġimple":4759,"Ġtremb":4760,"Ġdistribut":4761,"Ġseeds":4762,"ritual":4763,"apped":4764,"appear":4765,"Ġserves":4766,"Since":4767,"Ġmessage":4768,"Adda":4769,"ieved":4770,"Ġruined":4771,"Ġdebits":4772,"Ġattentive":4773,"Ġteam":4774,"Ġteeth":4775,"Ġfloated":4776,"ĠLugirizal":4777,"ĠZabalam":4778,"Ġrises":4779,"Ġscribes":4780,"Ġtouch":4781,"Ġirrigated":4782,"ĠHeaven":4783,"Ġassignment":4784,"Ġresplendently":4785,"Ġinspector":4786,"Ġgardener":4787,"Ġsubject":4788,"Ġmoonlight":4789,"Ġtrium":4790,"Ġrevealed":4791,"Ġsupplic":4792,"Ġbestowed":4793,"Ġafflicted":4794,"idnim":4795,"Ġbeaten":4796,"Ġforgotten":4797,"Ġneglect":4798,"Ġcarpenter":4799,"Ġgladdens":4800,"Ġfrightened":4801,"Ġfishermen":4802,"Ġfrowned":4803,"ĠNabasa":4804,"Ġprofoundly":4805,"ĠEmut":4806,"Ġaccompl":4807,"Ġobject":4808,"Ġexorcised":4809,"Ġrebellious":4810,"fleeced":4811,"Narua":4812,"Regarding":4813,"Ġcerem":4814,"Ġenclosure":4815,"Ġparapet":4816,"61":4817,"Mami":4818,"Sub":4819,"bara":4820,"bni":4821,"dish":4822,"ewe":4823,"fect":4824,"gin":4825,"give":4826,"gue":4827,"hil":4828,"hum":4829,"horn":4830,"more":4831,"oom":4832,"port":4833,"qt":4834,"sz":4835,"ser":4836,"zam":4837,"Ġum":4838,"Ġten":4839,"Ġtak":4840,"Ġtroop":4841,"Ġser":4842,"Ġsus":4843,"Ġswor":4844,"Ġsort":4845,"ert":4846,"Ġbrow":4847,"Ġbought":4848,"Ġwet":4849,"Ġwings":4850,"Ġwearing":4851,"Ġfet":4852,"Ġfame":4853,"Ġfixed":4854,"itten":4855,"Ġma":4856,"esp":4857,"esage":4858,"Ġhy":4859,"asts":4860,"ashes":4861,"Ġcur":4862,"Ġcried":4863,"Ġcrying":4864,"rejo":4865,"Ġdise":4866,"anding":4867,"Ġgen":4868,"rother":4869,"ross":4870,"Ġheed":4871,"Ġnights":4872,"abi":4873,"amar":4874,"amiliar":4875,"acts":4876,"Ġbeam":4877,"ĠNim":4878,"ĠNumuda":4879,"Ġrender":4880,"until":4881,"ume":4882,"ements":4883,"ĠAgi":4884,"ĠIp":4885,"agal":4886,"agas":4887,"ĠUrl":4888,"ĠUrnig":4889,"stones":4890,"ĠLipitItar":4891,"ugani":4892,"Ġshar":4893,"Ġships":4894,"ĠEnmetena":4895,"ĠEnkidu":4896,"fort":4897,"essing":4898,"ivity":4899,"Ġate":4900,"Ġworthy":4901,"ongoose":4902,"ĠSand":4903,"ĠSusa":4904,"ĠSippar":4905,"ĠGilgame":4906,"Ġgran":4907,"Ġfromby":4908,"Ġbrackish":4909,"Ġspent":4910,"quer":4911,"Ġdoe":4912,"Ġsheephides":4913,"appro":4914,"make":4915,"Ġenj":4916,"Inim":4917,"indeed":4918,"Heaven":4919,"Ġpronoun":4920,"Ġdestroying":4921,"Ġordin":4922,"Ġalways":4923,"ardab":4924,"Ġ45":4925,"Ġ48":4926,"chang":4927,"Ġflax":4928,"months":4929,"ĠDudu":4930,"ĠMel":4931,"UrLisi":4932,"ĠHammurapi":4933,"Ġquiver":4934,"Ġheavenly":4935,"ope":4936,"Ġwatch":4937,"osite":4938,"ĠLugalazida":4939,"cks":4940,"cked":4941,"Ġboard":4942,"Ġrobb":4943,"Ġroamed":4944,"kala":4945,"Ġlets":4946,"Ġdeclared":4947,"Ġsmitten":4948,"ĠFather":4949,"Ġsuc":4950,"Ġdrunk":4951,"ĠEridug":4952,"Ġunderstanding":4953,"peg":4954,"Ġdwellings":4955,"Ġbundled":4956,"Ġfeed":4957,"overseer":4958,"Ġolder":4959,"Ġmidwife":4960,"Ġsweetly":4961,"Ġdesire":4962,"ledge":4963,"icians":4964,"Ġprayed":4965,"Ġsingers":4966,"Ġincre":4967,"Ġclear":4968,"Ġintent":4969,"Ġendowed":4970,"Ġelse":4971,"Ġeldest":4972,"Ġcubit":4973,"ungunum":4974,"Ġobserv":4975,"Ġprecinct":4976,"Ġrule":4977,"Ġnighttime":4978,"Ġmessengers":4979,"Ġfavour":4980,"Ġspirits":4981,"Ġmusician":4982,"Ġtransported":4983,"regn":4984,"Ġtouching":4985,"Ġholding":4986,"Ġtreasury":4987,"Itaran":4988,"Shulgi":4989,"Ġfirmly":4990,"Ġprepare":4991,"Ġhaunted":4992,"ney":4993,"Ġflee":4994,"offerings":4995,"Seal":4996,"Ġferry":4997,"Ġpoor":4998,"Ġreverse":4999,"Ġsixty":5000,"known":5001,"Ġdiminish":5002,"Ġreplace":5003,"Ġrefuge":5004,"Ġconstantly":5005,"ĠAratta":5006,"Ġsubjug":5007,"present":5008,"Ġgrasp":5009,"Ġgrasped":5010,"Ġreveal":5011,"Ġoverturned":5012,"Ġinterestbearing":5013,"ARADmu":5014,"Ġpiles":5015,"Ġviolence":5016,"itude":5017,"ĠEtarsirsir":5018,"ĠNammah":5019,"Ġrequis":5020,"Ġeternal":5021,"ĠLugalezem":5022,"Ġprovided":5023,"Ġhirelings":5024,"ĠPigletfeast":5025,"Ludingira":5026,"dingirmu":5027,"ĠGududu":5028,"Ġimakian":5029,"keeper":5030,"Ġcolleagues":5031,"Ġhomeland":5032,"ĠEsar":5033,"uwawa":5034,"Ġunfamiliar":5035,"Ġcastingnet":5036,"Ġreduced":5037,"Ġmoulds":5038,"Ġrenov":5039,"Ġintroduces":5040,"Ġobeisances":5041,"Ġmagnific":5042,"ĠIrisagrig":5043,"qtidnim":5044,"Ġswore":5045,"38":5046,"56":5047,"67":5048,"Acc":5049,"Deficit":5050,"Gutium":5051,"Hammurapi":5052,"Long":5053,"Sim":5054,"Two":5055,"cle":5056,"cow":5057,"cub":5058,"chose":5059,"cult":5060,"dec":5061,"donkey":5062,"eter":5063,"fashion":5064,"fitting":5065,"ik":5066,"iander":5067,"just":5068,"nanum":5069,"oor":5070,"rate":5071,"wers":5072,"would":5073,"wild":5074,"xen":5075,"Ġtextile":5076,"Ġomens":5077,"Ġsor":5078,"Ġbag":5079,"Ġwa":5080,"oral":5081,"atu":5082,"Ġfurn":5083,"Ġfive":5084,"itted":5085,"Ġmur":5086,"Ġmitum":5087,"Ġhal":5088,"Ġcredits":5089,"Ġcrip":5090,"rec":5091,"Ġlasting":5092,"Ġdom":5093,"Ġpat":5094,"Ġgal":5095,"Ġgudu":5096,"Ġyield":5097,"Ġyokes":5098,"Ġnone":5099,"theless":5100,"ige":5101,"igar":5102,"aman":5103,"those":5104,"idden":5105,"Ġeff":5106,"Ġran":5107,"Ġrate":5108,"Ġrang":5109,"Ġstar":5110,"Ġonet":5111,"agana":5112,"agula":5113,"ĠUrg":5114,"ĠUrUtu":5115,"stone":5116,"stick":5117,"ĠLamma":5118,"ĠLama":5119,"Ġarose":5120,"Ġarrows":5121,"Ġaromatic":5122,"Ġsees":5123,"Ġship":5124,"Ġshake":5125,"ivot":5126,"upriest":5127,"illama":5128,"ĠGr":5129,"Ġgranted":5130,"Ġkor":5131,"Ġbrilli":5132,"Ġchick":5133,"akala":5134,"Into":5135,"Ġprice":5136,"Ġorac":5137,"Ġaloud":5138,"Ġalien":5139,"ĠKas":5140,"ĠKuda":5141,"Ġunknown":5142,"Ġamyou":5143,"Ġflowing":5144,"Ġdeities":5145,"Ġiib":5146,"ĠDilimbabbar":5147,"ĠMari":5148,"Enkidu":5149,"Ġnoise":5150,"Ġtimber":5151,"endar":5152,"osing":5153,"galnuna":5154,"Ġload":5155,"Ġlooking":5156,"Ġears":5157,"Ġrose":5158,"Ġroom":5159,"Ġapple":5160,"barge":5161,"Ninursag":5162,"Ġthrones":5163,"Ġdivisions":5164,"Ġweights":5165,"ĠLuNinubur":5166,"ibira":5167,"Ġclothe":5168,"Ġtrap":5169,"ĠWom":5170,"Ġfeel":5171,"Ningezida":5172,"Ġregion":5173,"Ġstrings":5174,"Ġopens":5175,"lament":5176,"Ġcutter":5177,"Ġcutting":5178,"Ġremain":5179,"Ġbowed":5180,"Ġcorve":5181,"Ġcoriander":5182,"Ġsnare":5183,"Ġsnakes":5184,"ĠAmnanum":5185,"Ġpouring":5186,"Ġresident":5187,"Ġpleasure":5188,"Ġsecured":5189,"labortroops":5190,"Ġperfects":5191,"Ġprinceliness":5192,"Ġdaises":5193,"Eridu":5194,"ĠAga":5195,"Ġcompan":5196,"wooden":5197,"Ġchanges":5198,"Ġcolor":5199,"borns":5200,"ĠLugina":5201,"Ġmusicians":5202,"kugani":5203,"Ġexcess":5204,"Ġsubmission":5205,"Ġgiguna":5206,"Ġbales":5207,"Ġbalag":5208,"Ġdrove":5209,"Ġprovide":5210,"remain":5211,"Ġrefined":5212,"Ġcaptain":5213,"yakala":5214,"While":5215,"Ġhalflabor":5216,"Ġdecreeing":5217,"Ġnorthern":5218,"Ġjudgment":5219,"Ġdistressed":5220,"Ġherdsman":5221,"ĠNannam":5222,"official":5223,"Ġcowherds":5224,"Ġnamely":5225,"ĠGetinana":5226,"Ġsumac":5227,"Ġwritten":5228,"ĠGANma":5229,"Ġblocked":5230,"Ġsparkling":5231,"Ġtumuli":5232,"GIR":5233,"Ninkasi":5234,"Ġdagger":5235,"Ġrepeatedly":5236,"Ġlahar":5237,"Ġluxuri":5238,"Ġtriumph":5239,"ĠEmutbala":5240,"Ġsharpen":5241,"66":5242,"96":5243,"Br":5244,"Bel":5245,"Gibil":5246,"Having":5247,"Ki":5248,"Kin":5249,"Lam":5250,"More":5251,"Nam":5252,"Son":5253,"Wise":5254,"af":5255,"bre":5256,"bled":5257,"dem":5258,"food":5259,"hor":5260,"have":5261,"iers":5262,"num":5263,"pit":5264,"right":5265,"ract":5266,"sing":5267,"temple":5268,"uana":5269,"ĠQ":5270,"ĠV":5271,"ĠYour":5272,"Ġipar":5273,"Ġtell":5274,"Ġtendon":5275,"Ġore":5276,"anas":5277,"Ġsab":5278,"Ġsour":5279,"eroom":5280,"Ġofin":5281,"Ġbes":5282,"Ġband":5283,"Ġbend":5284,"Ġbond":5285,"arum":5286,"arrow":5287,"Ġwinn":5288,"Ġwaves":5289,"atal":5290,"atching":5291,"alent":5292,"Ġmem":5293,"Ġmoved":5294,"asilim":5295,"asagas":5296,"Ġcant":5297,"Ġcord":5298,"Ġcenter":5299,"Ġcella":5300,"ret":5301,"Ġlions":5302,"Ġloss":5303,"Ġdub":5304,"Ġport":5305,"Ġgud":5306,"Ġgizi":5307,"urious":5308,"Ġtoday":5309,"iggal":5310,"Ġita":5311,"imil":5312,"Ġbears":5313,"Ġbeats":5314,"ĠNE":5315,"ĠNaram":5316,"ulg":5317,"ulated":5318,"Ġrite":5319,"Ġrider":5320,"ĠUkun":5321,"very":5322,"Ġstay":5323,"Ġstars":5324,"allow":5325,"ĠAt":5326,"ĠIgi":5327,"ĠIbbiSn":5328,"stele":5329,"storm":5330,"eart":5331,"Ġhisher":5332,"Ġrev":5333,"Ġreared":5334,"Ġsex":5335,"Ġshield":5336,"Ġsilen":5337,"force":5338,"Ġmankind":5339,"eaut":5340,"ouring":5341,"ĠSirara":5342,"ĠGo":5343,"ĠGungunum":5344,"Ġspr":5345,"Ġspends":5346,"Ġspring":5347,"sukkal":5348,"Ġasc":5349,"hisher":5350,"ĠNinm":5351,"Ġenship":5352,"Ġwhile":5353,"beer":5354,"Ġalike":5355,"Ġworkforce":5356,"ĠKugani":5357,"chambers":5358,"Ġacts":5359,"Ġexvot":5360,"Ġjars":5361,"aised":5362,"ĠDais":5363,"ĠDuga":5364,"ĠDadaga":5365,"ĠBel":5366,"Ġconquer":5367,"ĠMay":5368,"ĠMun":5369,"Urulpae":5370,"Ġnoser":5371,"ĠHeart":5372,"Ġmountainnetherworld":5373,"izida":5374,"enders":5375,"ponent":5376,"place":5377,"placed":5378,"ĠAkak":5379,"Ġwatered":5380,"Ġwatercour":5381,"Ġcanopy":5382,"Ġneed":5383,"Ġoverfl":5384,"type":5385,"ĠThat":5386,"ĠTower":5387,"meas":5388,"weet":5389,"Nintur":5390,"Ġsmashed":5391,"Ġtowardson":5392,"ĠPrince":5393,"Ġcloth":5394,"Ġcloud":5395,"Ġclaws":5396,"manager":5397,"Ġtrough":5398,"Ġpreced":5399,"dead":5400,"Ġyounger":5401,"Ġbecom":5402,"eship":5403,"Ġbitterness":5404,"Ġregions":5405,"Ġcontem":5406,"Ġdesp":5407,"enedudu":5408,"Ġflourish":5409,"Ġdisappear":5410,"ĠZan":5411,"Therefrom":5412,"ĠAbbasagas":5413,"exchange":5414,"nigdab":5415,"Ġknowledge":5416,"Ġjoyfully":5417,"Ġapproaches":5418,"Ġcovering":5419,"Ġbedroom":5420,"Ġyouthful":5421,"Ġskill":5422,"Ġdepos":5423,"Ġpriestesses":5424,"Ġharp":5425,"Ġtotals":5426,"Ġserving":5427,"Siniddinam":5428,"Ġobed":5429,"Ġconstruct":5430,"Ġfallow":5431,"Luara":5432,"Ġdebt":5433,"Ġdrinks":5434,"Ġcomposite":5435,"Ġrejoices":5436,"Ġcounted":5437,"Ġreputation":5438,"Ġswear":5439,"axes":5440,"Ġlift":5441,"Ġfloating":5442,"Ġzam":5443,"lands":5444,"Ġancest":5445,"Ġcalendar":5446,"Ġlooks":5447,"Ġutterances":5448,"Ġparas":5449,"Ġappointed":5450,"Ġstripped":5451,"Ġfuner":5452,"Ġpige":5453,"Ġsince":5454,"Ġdarkness":5455,"Ġevildoers":5456,"ĠBlack":5457,"Ġoppress":5458,"Ġopponent":5459,"Ġanimal":5460,"shepherds":5461,"Ġpurifies":5462,"Ġbrewery":5463,"Ġoblig":5464,"Ġherdsmen":5465,"Ġsupplication":5466,"Ġburning":5467,"Ġhanging":5468,"Ġanswered":5469,"Ġexhausted":5470,"kigala":5471,"kigenedudu":5472,"Ġfully":5473,"itudes":5474,"ĠNrAdad":5475,"Ġsoldiers":5476,"Ġfamous":5477,"ircled":5478,"ĠIrikug":5479,"Ġhonor":5480,"ĠLulubu":5481,"ĠMeslamtaea":5482,"ĠLugalnesage":5483,"IddinDagan":5484,"ĠGanzer":5485,"Ġzabardab":5486,"Ġgirl":5487,"ĠLugalniglagare":5488,"Ġhazin":5489,"Ġdistrict":5490,"Ġscorpion":5491,"Ġinstallation":5492,"Ġdisease":5493,"Ġgranary":5494,"ĠNammahni":5495,"fashioned":5496,"Ġonetalent":5497,"Ġcolorful":5498,"Ġnoserope":5499,"nigdaboffering":5500,"31":5501,"34":5502,"37":5503,"Akalla":5504,"Bab":5505,"Desp":5506,"Lo":5507,"Laga":5508,"Lipit":5509,"Per":5510,"Water":5511,"Woe":5512,"Young":5513,"bel":5514,"co":5515,"cont":5516,"curse":5517,"dis":5518,"diri":5519,"ev":5520,"ey":5521,"evil":5522,"farmer":5523,"iece":5524,"ll":5525,"lif":5526,"mo":5527,"mat":5528,"mother":5529,"mounded":5530,"obed":5531,"person":5532,"sis":5533,"sper":5534,"ypress":5535,"Ġing":5536,"Ġug":5537,"Ġuk":5538,"ĠThey":5539,"Ġtex":5540,"inate":5541,"inies":5542,"anizi":5543,"Ġsack":5544,"Ġsung":5545,"Ġstern":5546,"Ġbad":5547,"Ġbone":5548,"aran":5549,"Ġwinter":5550,"Ġwonder":5551,"ores":5552,"ata":5553,"Ġfold":5554,"althy":5555,"ita":5556,"itions":5557,"ittle":5558,"Ġms":5559,"isin":5560,"ists":5561,"enith":5562,"Ġhill":5563,"Ġcypress":5564,"Ġdue":5565,"andso":5566,"Ġak":5567,"Ġama":5568,"Ġpa":5569,"Ġpol":5570,"Ġguilt":5571,"rote":5572,"urt":5573,"urz":5574,"Ġinh":5575,"Ġnurse":5576,"Ġnative":5577,"ades":5578,"abad":5579,"ably":5580,"abani":5581,"aming":5582,"amari":5583,"acing":5584,"imp":5585,"imua":5586,"Ġef":5587,"Ġeast":5588,"Ġbeams":5589,"Ġthin":5590,"ĠNasa":5591,"emin":5592,"ested":5593,"Ġshed":5594,"Ġstup":5595,"Ġstruct":5596,"ĠAw":5597,"ĠAss":5598,"ĠIkalla":5599,"agle":5600,"agement":5601,"stream":5602,"ute":5603,"ĠLatur":5604,"Ġarabdu":5605,"ugust":5606,"Ġreason":5607,"ersed":5608,"Ġshad":5609,"antly":5610,"ivine":5611,"Ġatam":5612,"Ġherd":5613,"Ġ38":5614,"iply":5615,"ĠGuz":5616,"ĠGipar":5617,"ĠGibil":5618,"Ġka":5619,"Ġdestinies":5620,"Ġcitys":5621,"ĠNinn":5622,"ĠNint":5623,"bex":5624,"Ġorgan":5625,"ereal":5626,"ĠAnz":5627,"Ġworked":5628,"orders":5629,"ordinate":5630,"Ġvast":5631,"Ġflat":5632,"ĠBaz":5633,"Ġconce":5634,"ĠMar":5635,"Urara":5636,"uku":5637,"ĠLugalmagure":5638,"plant":5639,"Ġneigh":5640,"Ġcarries":5641,"Ġaware":5642,"arai":5643,"reets":5644,"ĠTira":5645,"kalam":5646,"meat":5647,"produ":5648,"ĠFirst":5649,"Ġblessing":5650,"ĠPeople":5651,"Sniddinam":5652,"Ġclothed":5653,"Ġsoandso":5654,"Ġstatu":5655,"Ġstatement":5656,"Ġuumgal":5657,"Ġtracts":5658,"inning":5659,"Ġgovernors":5660,"Ġcreation":5661,"Ġattached":5662,"Ġopening":5663,"Ġopenhand":5664,"Ġsheepfolds":5665,"according":5666,"iciant":5667,"Ġfollowed":5668,"exalted":5669,"Ġgrowth":5670,"Ġmarry":5671,"ĠAdd":5672,"Ġskilled":5673,"Ġreigned":5674,"bih":5675,"1343":5676,"Ġassist":5677,"gress":5678,"Ġfirstf":5679,"ressed":5680,"Ġbearers":5681,"Ġulpae":5682,"Ġswept":5683,"cribed":5684,"Within":5685,"Ġproduced":5686,"Ġwidow":5687,"Ġpalms":5688,"Ġbeginning":5689,"Ġfelled":5690,"Ġcontainers":5691,"Ġtreasures":5692,"Ġperfectly":5693,"Ġwhether":5694,"ĠHeaded":5695,"Ġchoice":5696,"Ġloving":5697,"Ġshovel":5698,"Ġreddish":5699,"bank":5700,"Ġsickness":5701,"Stele":5702,"Ġaddition":5703,"Ġsustenance":5704,"Ġfodderreed":5705,"veled":5706,"Which":5707,"Ġinsults":5708,"Ġdispersed":5709,"Ġcraft":5710,"ĠKuara":5711,"ĠEdam":5712,"Ġsustains":5713,"Ġdriven":5714,"Ġconveyed":5715,"Ġprevious":5716,"Ġforget":5717,"Ġwickedness":5718,"Ġneglected":5719,"ĠUrNingirsu":5720,"surplus":5721,"Ġrodent":5722,"Against":5723,"Ġkissed":5724,"Ġoverwhelm":5725,"ĠIgalim":5726,"Ġcharms":5727,"Ġtravers":5728,"Ġbreath":5729,"irini":5730,"ĠLugalemae":5731,"ĠKinunir":5732,"newborns":5733,"ĠNuska":5734,"Ġcharged":5735,"Ġpresence":5736,"NaramSin":5737,"Ġsukkalma":5738,"Ġsteles":5739,"Ġsurrounded":5740,"Ġenjoy":5741,"Ġhalub":5742,"Ġeffect":5743,"Ġranges":5744,"ĠWomans":5745,"Ġcompanion":5746,"ĠZanr":5747,"Ġzamzam":5748,"Despite":5749,"obedient":5750,"47":5751,"72":5752,"Ap":5753,"Au":5754,"Atu":5755,"Bird":5756,"Kudurmabuk":5757,"Man":5758,"Mard":5759,"Make":5760,"Nur":5761,"Nudimmud":5762,"aar":5763,"builder":5764,"cing":5765,"cts":5766,"cess":5767,"cop":5768,"dron":5769,"eal":5770,"equ":5771,"fish":5772,"faith":5773,"faced":5774,"ger":5775,"gave":5776,"gather":5777,"gida":5778,"gudu":5779,"giving":5780,"houses":5781,"ius":5782,"jun":5783,"kar":5784,"lum":5785,"lud":5786,"mountain":5787,"po":5788,"pet":5789,"psum":5790,"ram":5791,"run":5792,"rated":5793,"rise":5794,"ront":5795,"sa":5796,"sim":5797,"singer":5798,"tely":5799,"tibira":5800,"xt":5801,"ypsum":5802,"Ġxxx":5803,"hema":5804,"heaven":5805,"hegal":5806,"Ġsem":5807,"Ġsits":5808,"Ġofbecause":5809,"Ġbatt":5810,"Ġbail":5811,"Ġbuilder":5812,"Ġborders":5813,"arth":5814,"Ġware":5815,"Ġwrote":5816,"ories":5817,"athema":5818,"Ġfated":5819,"alal":5820,"alum":5821,"alace":5822,"ital":5823,"Ġmis":5824,"Ġmated":5825,"Ġmove":5826,"estern":5827,"onds":5828,"Ġhome":5829,"Ġcab":5830,"Ġcases":5831,"Ġlun":5832,"Ġlove":5833,"Ġdign":5834,"Ġdried":5835,"ands":5836,"Ġaugust":5837,"Ġpull":5838,"Ġpries":5839,"Ġposition":5840,"Ġgut":5841,"Ġgener":5842,"Ġgeneral":5843,"Ġgypsum":5844,"urg":5845,"urti":5846,"uruppak":5847,"Ġinlaid":5848,"them":5849,"administrator":5850,"abaster":5851,"Ġforemen":5852,"irim":5853,"irnun":5854,"amb":5855,"amt":5856,"thood":5857,"iduga":5858,"Ġec":5859,"Ġeani":5860,"Ġeagle":5861,"how":5862,"Ġthrow":5863,"Ġthrown":5864,"Ġthird":5865,"ĠEb":5866,"ĠEengura":5867,"ulum":5868,"umah":5869,"iced":5870,"icts":5871,"Ġstation":5872,"Ġstead":5873,"Ġstreets":5874,"ĠAu":5875,"ĠAsag":5876,"ĠIr":5877,"aging":5878,"ĠUra":5879,"ĠUrEninnu":5880,"ĠUrZababa":5881,"stood":5882,"riv":5883,"ĠLike":5884,"ĠLusaga":5885,"Ġarrived":5886,"Ġarrog":5887,"Ġret":5888,"Ġreck":5889,"Ġready":5890,"Ġreaches":5891,"Ġsilt":5892,"ourney":5893,"Ġ32":5894,"Ġ33":5895,"ette":5896,"ĠGula":5897,"Ġbride":5898,"Ġanathema":5899,"Ġspear":5900,"Ġspice":5901,"Ġsprink":5902,"quality":5903,"quids":5904,"Ġgreater":5905,"Ġdestined":5906,"aping":5907,"Ġensi":5908,"Ġenvoy":5909,"uber":5910,"Ġprime":5911,"Ġpract":5912,"Ġ55":5913,"oving":5914,"Ġabs":5915,"Ġ43":5916,"ĠNingizida":5917,"Ġacacia":5918,"elling":5919,"Ġexuber":5920,"ĠIntaea":5921,"Ġoffsho":5922,"Ġval":5923,"Ġvagina":5924,"Ġvict":5925,"Ġjourney":5926,"ĠDu":5927,"ĠDub":5928,"ĠBau":5929,"ĠMag":5930,"ĠMarai":5931,"Ġproced":5932,"Ġprostitute":5933,"UrLamma":5934,"kia":5935,"ize":5936,"Ġalloc":5937,"ukuga":5938,"ĠLugalkugani":5939,"Ġnext":5940,"Ġknowing":5941,"Ġcares":5942,"ails":5943,"Ġloose":5944,"Ġloads":5945,"bbing":5946,"Ġawes":5947,"Ġboast":5948,"Ġroasted":5949,"rawn":5950,"Ġapples":5951,"Ġagents":5952,"kura":5953,"Ġdecides":5954,"Ġsmoke":5955,"profit":5956,"Ġwomens":5957,"ĠLuBaba":5958,"Enlilbani":5959,"ablished":5960,"ĠPab":5961,"Ġafterwards":5962,"Ġtrunk":5963,"ĠWall":5964,"ĠWhat":5965,"Ġreturns":5966,"deal":5967,"Ġplowoxen":5968,"orehouse":5969,"Ġrestrain":5970,"Asalluhi":5971,"Ġsweetened":5972,"Ġcontent":5973,"Ġdesired":5974,"Ġdesert":5975,"goat":5976,"Ġattended":5977,"Ġstranger":5978,"lama":5979,"lamb":5980,"Ġbrickbuilt":5981,"ĠChosen":5982,"Ġextends":5983,"Ġsubordinate":5984,"spring":5985,"Lugalbanda":5986,"ĠAbbakala":5987,"Ġstandardized":5988,"Ġcounting":5989,"Ġjoyous":5990,"passing":5991,"Ġendursag":5992,"ĠAdda":5993,"ĠAdumu":5994,"Along":5995,"Ġdemolished":5996,"Ġcaus":5997,"Ġpleased":5998,"ĠOh":5999,"Ġthusly":6000,"Ġsplitting":6001,"Ġassimil":6002,"Ġirre":6003,"ĠEkinual":6004,"Ġprincess":6005,"ieve":6006,"Ġcompletely":6007,"ĠAgu":6008,"Ġfinish":6009,"Ġcompelled":6010,"Ġspreads":6011,"Ġcourse":6012,"Ġnevertheless":6013,"Ġsuited":6014,"Ġpaths":6015,"Ġulagana":6016,"Ġmilitary":6017,"Ġzenith":6018,"nirgal":6019,"Ġcalm":6020,"ĠZababa":6021,"ĠShuruppak":6022,"uhu":6023,"Ġkequids":6024,"Ġmultiply":6025,"regarding":6026,"Ġrunner":6027,"ĠNamtar":6028,"Ġcooling":6029,"Ġlightning":6030,"Ġpenet":6031,"Ġheifers":6032,"Ġreplied":6033,"Ġinquire":6034,"Ġtools":6035,"Ġinstruments":6036,"Ġescaped":6037,"Ġdispatched":6038,"Ġweighty":6039,"Ġsubmitted":6040,"preter":6041,"silver":6042,"ĠNindara":6043,"Ġsatisfy":6044,"ĠEtemen":6045,"ĠEgalesi":6046,"Ġslaughtering":6047,"Ġwriting":6048,"ĠUrEe":6049,"Ġeternity":6050,"Ġcarpenters":6051,"Ġfortress":6052,"Ġthoughts":6053,"carrying":6054,"Ġmaiden":6055,"Ġlimitprofit":6056,"Ġeggs":6057,"ĠExalted":6058,"Ġoverwhelmed":6059,"Ġexcavated":6060,"Ġobliterated":6061,"Ġvegetable":6062,"Ġsplendor":6063,"uumgalana":6064,"Ġproclaim":6065,"Ġwitnesses":6066,"Ġsandals":6067,"annihil":6068,"Ġexperien":6069,"Ġexecutes":6070,"ĠLullubum":6071,"Ġplucked":6072,"ohl":6073,"Ġdawn":6074,"Ġpulses":6075,"firstborn":6076,"milling":6077,"Ġwolf":6078,"Ġsupplications":6079,"Ġsubjugator":6080,"Ġrenovated":6081,"Ġmagnificent":6082,"Ġluxuriant":6083,"ĠUkunuti":6084,"Ġexvoto":6085,"Ġobedient":6086,"Ġfunerary":6087,"LipitEtar":6088,"Ġingred":6089,"Ġefface":6090,"ĠNinnudu":6091,"Ġconcealed":6092,"Ġstatuette":6093,"Ġbailiff":6094,"Ġcabin":6095,"Ġpriesthood":6096,"Ġassimilate":6097,"95":6098,"98":6099,"Ama":6100,"Aga":6101,"Bo":6102,"Dam":6103,"During":6104,"Ed":6105,"Give":6106,"Has":6107,"Huwawa":6108,"Ir":6109,"Nor":6110,"Nann":6111,"Nalu":6112,"Nothing":6113,"Over":6114,"Say":6115,"UN":6116,"aign":6117,"bas":6118,"brother":6119,"cut":6120,"cher":6121,"could":6122,"came":6123,"canal":6124,"desc":6125,"fatt":6126,"fields":6127,"fearing":6128,"hur":6129,"him":6130,"harvest":6131,"ium":6132,"live":6133,"lier":6134,"mouse":6135,"ror":6136,"san":6137,"super":6138,"tom":6139,"tty":6140,"tree":6141,"ued":6142,"use":6143,"war":6144,"wise":6145,"yal":6146,"zsz":6147,"Ġant":6148,"Ġuba":6149,"Ġannihil":6150,"Ġtin":6151,"inanna":6152,"Ġoh":6153,"Ġomen":6154,"anki":6155,"erated":6156,"Ġble":6157,"arn":6158,"arted":6159,"Ġwander":6160,"Ġwestern":6161,"orch":6162,"ately":6163,"ouds":6164,"ouch":6165,"Ġfow":6166,"Ġfist":6167,"Ġfact":6168,"ald":6169,"alth":6170,"alasaga":6171,"Ġmad":6172,"Ġmood":6173,"Ġmongoose":6174,"ences":6175,"asu":6176,"asiga":6177,"ilver":6178,"Ġcu":6179,"Ġcold":6180,"Ġcamp":6181,"Ġcumin":6182,"reement":6183,"Ġdont":6184,"Ġdrew":6185,"Ġdraw":6186,"Ġair":6187,"Ġage":6188,"Ġaworker":6189,"Ġpine":6190,"Ġpect":6191,"Ġpots":6192,"Ġpaue":6193,"Ġge":6194,"Ġgem":6195,"Ġgates":6196,"roat":6197,"Ġtold":6198,"ighed":6199,"about":6200,"ottom":6201,"irm":6202,"ires":6203,"idence":6204,"Ġekala":6205,"Ġthief":6206,"ĠEana":6207,"ĠEmah":6208,"ĠNana":6209,"ĠNasilim":6210,"Ġring":6211,"Ġripped":6212,"unto":6213,"eme":6214,"verse":6215,"ĠAyakalla":6216,"ĠIpae":6217,"ĠUrS":6218,"ĠUrMami":6219,"stationed":6220,"utt":6221,"utum":6222,"olen":6223,"riage":6224,"ĠLet":6225,"ĠLumma":6226,"Ġarable":6227,"ained":6228,"Ġsele":6229,"Ġshore":6230,"Ġshaking":6231,"ĠEnam":6232,"epar":6233,"eces":6234,"herds":6235,"Ġ35":6236,"eturn":6237,"ĠSumu":6238,"ĠGirini":6239,"ifying":6240,"ification":6241,"Ġkil":6242,"Ġbraid":6243,"suit":6244,"que":6245,"usz":6246,"Ġwhip":6247,"Ġwhatever":6248,"Ġabgal":6249,"arded":6250,"Ġ44":6251,"ĠNingublaga":6252,"ĠKamari":6253,"Ġacting":6254,"Ġlifegiving":6255,"Ġvir":6256,"Ġvalu":6257,"Ġjack":6258,"aise":6259,"ĠDr":6260,"ĠDay":6261,"ĠBy":6262,"ĠBida":6263,"Ġprosper":6264,"Urmes":6265,"Ġnoises":6266,"ĠHurti":6267,"ishment":6268,"ĠheavenAn":6269,"Ġallow":6270,"ĠNingirsus":6271,"Ġstores":6272,"Ġhanded":6273,"ctor":6274,"planted":6275,"Ġloyal":6276,"Ġ61":6277,"Ġearly":6278,"Ġearlier":6279,"Ġadds":6280,"Ġsuprem":6281,"Ġemb":6282,"Ġagent":6283,"Ġagreement":6284,"Ġleg":6285,"Ġsmash":6286,"Ġdivide":6287,"Ġered":6288,"Ġweed":6289,"ĠField":6290,"Ġcorner":6291,"ibgal":6292,"Ġinstructed":6293,"Ġlongfleeced":6294,"Ġsobbing":6295,"Ġnindan":6296,"Ġtram":6297,"ĠWhy":6298,"Ġpreemin":6299,"Ġreturning":6300,"Ġinscribed":6301,"Ġweaponry":6302,"Ġresting":6303,"Ġrestitut":6304,"Ġfrond":6305,"Ġmidday":6306,"ĠAbgal":6307,"Ġcontest":6308,"Ġimpro":6309,"lamu":6310,"Ġwindow":6311,"anced":6312,"Ġdisc":6313,"Ġdisorder":6314,"Ġsacr":6315,"Ġsubs":6316,"spouse":6317,"Ġturns":6318,"Ġsingular":6319,"Ġchecked":6320,"Ġseedcub":6321,"ĠAbbagina":6322,"Ġcorrup":6323,"Ġdoors":6324,"niguru":6325,"eptre":6326,"unning":6327,"Ġclever":6328,"Ġintake":6329,"Ġbeauty":6330,"Ġempt":6331,"ĠAll":6332,"since":6333,"ĠOxen":6334,"Ġcrushing":6335,"Ġcraved":6336,"Ġalongside":6337,"Ġsunrise":6338,"Ġwarriors":6339,"Ġperfected":6340,"Ġperfume":6341,"Ġiron":6342,"Ġprinces":6343,"ĠGemeNarua":6344,"Ġcompare":6345,"Ġhumbly":6346,"uriqtidnim":6347,"Ġartfully":6348,"Ġswallow":6349,"Ġconfron":6350,"Ġgreeting":6351,"namely":6352,"Ġrebuild":6353,"Ġleatherworker":6354,"Ġbegat":6355,"ĠElamite":6356,"Ġbordering":6357,"Ġkept":6358,"Ġusing":6359,"Abu":6360,"sik":6361,"Ġcooled":6362,"Ġboxes":6363,"Ġpigs":6364,"sett":6365,"Ġuruppak":6366,"Ġlisten":6367,"Ġcauldron":6368,"Ġsteps":6369,"Ġactively":6370,"Ġconsume":6371,"Ġdarkened":6372,"Ġmillstone":6373,"Ġcaptive":6374,"Ġinquired":6375,"Ġwaterskin":6376,"Whatever":6377,"ĠArali":6378,"Ġopp":6379,"Ġplentiful":6380,"Ġpurification":6381,"Ġkeeps":6382,"Ġembraced":6383,"ĠGazellefeast":6384,"Ġinitiated":6385,"Ġploughman":6386,"const":6387,"ĠWaradSin":6388,"destroy":6389,"truly":6390,"Ġsanctum":6391,"Ġfulfilled":6392,"ĠEgalmah":6393,"ĠDugamu":6394,"ĠUrNingezida":6395,"ĠItaran":6396,"ĠGuedina":6397,"shop":6398,"Ġuzgahouse":6399,"Ġturtle":6400,"Ġturban":6401,"Ġappearance":6402,"Ġmallet":6403,"Isina":6404,"Ġstallion":6405,"Ġlibation":6406,"ĠIgalima":6407,"Ġsacrifice":6408,"respon":6409,"ĠDaaga":6410,"ĠHillockofUrbartab":6411,"Ġthornb":6412,"Ġterrified":6413,"NEgar":6414,"Ġconcerning":6415,"Ġprolonged":6416,"Ġcultivated":6417,"Ġfastened":6418,"Ġpeaceful":6419,"Ġthreshold":6420,"Ġduration":6421,"Lugalezem":6422,"ricult":6423,"Ġbridal":6424,"Ġcomplaint":6425,"Ġjenny":6426,"ĠDuranki":6427,"ĠBadtibira":6428,"Ġmaj":6429,"rejoice":6430,"Ġordinary":6431,"regnant":6432,"presented":6433,"ĠGrand":6434,"Ġclothes":6435,"ĠNannamaba":6436,"Lamatu":6437,"Ġsabar":6438,"Ġsource":6439,"eautiful":6440,"Ġwatercourse":6441,"Ġstupor":6442,"Ġshadow":6443,"Ġkausa":6444,"Ġorganized":6445,"Ġneighbor":6446,"Ġwarehouse":6447,"Ġsteadfast":6448,"ĠEtemenniguru":6449,"Ġingredient":6450,"harvested":6451,"Ġcampaign":6452,"Ġpectoral":6453,"Ġpreeminent":6454,"Ġcorrupting":6455,"55":6456,"74":6457,"Ayakala":6458,"Bl":6459,"Both":6460,"Con":6461,"Dudu":6462,"Hum":6463,"IG":6464,"Igal":6465,"IbbiSn":6466,"Kusu":6467,"LipitItar":6468,"Men":6469,"Or":6470,"Solution":6471,"Thr":6472,"Ut":6473,"aa":6474,"ault":6475,"bir":6476,"bow":6477,"bare":6478,"case":6479,"daily":6480,"fri":6481,"fill":6482,"gif":6483,"hind":6484,"hani":6485,"iy":6486,"iag":6487,"kum":6488,"lion":6489,"mn":6490,"master":6491,"oit":6492,"put":6493,"pregnant":6494,"qan":6495,"rations":6496,"tow":6497,"teland":6498,"wing":6499,"went":6500,"Ġann":6501,"heries":6502,"Ġtends":6503,"inuga":6504,"Ġoak":6505,"any":6506,"aned":6507,"Ġsure":6508,"Ġsame":6509,"Ġsides":6510,"Ġbows":6511,"Ġbison":6512,"Ġbinds":6513,"Ġbottom":6514,"aru":6515,"archivist":6516,"Ġwest":6517,"outer":6518,"oubled":6519,"Ġfil":6520,"Ġfug":6521,"Ġfight":6522,"alama":6523,"itumen":6524,"Ġmonkey":6525,"Ġmolds":6526,"Ġmuriqtidnim":6527,"isen":6528,"issu":6529,"onial":6530,"Ġhot":6531,"Ġhail":6532,"Ġhuge":6533,"Ġcat":6534,"Ġcrum":6535,"Ġly":6536,"Ġlast":6537,"Ġlaugh":6538,"Ġlarsa":6539,"Ġloud":6540,"Ġlodged":6541,"Ġdrawn":6542,"Ġav":6543,"Ġped":6544,"Ġpest":6545,"Ġpaws":6546,"Ġgn":6547,"Ġgle":6548,"Ġgeb":6549,"learn":6550,"ural":6551,"Ġtoil":6552,"Ġnubanda":6553,"otter":6554,"irror":6555,"acy":6556,"Ġez":6557,"Ġeither":6558,"Ġbefitting":6559,"sec":6560,"seed":6561,"ĠEbih":6562,"ĠNan":6563,"Ġride":6564,"Ġrib":6565,"Ġrough":6566,"Ġrage":6567,"unes":6568,"icated":6569,"icating":6570,"Ġstin":6571,"Ġstro":6572,"Ġstolen":6573,"ĠAkia":6574,"ĠIbiErra":6575,"agala":6576,"ods":6577,"Ġwasteland":6578,"ĠUrDumuzida":6579,"stomach":6580,"storehouse":6581,"utu":6582,"riad":6583,"ounced":6584,"ĠLuma":6585,"Ġarrum":6586,"Ġarrang":6587,"ĠEnul":6588,"ĠEnak":6589,"ĠEnunna":6590,"ĠEnkis":6591,"ĠEniggal":6592,"esseng":6593,"epl":6594,"epting":6595,"Ġplaster":6596,"Ġmanu":6597,"Ġmanhood":6598,"Ġworth":6599,"eaf":6600,"ouragement":6601,"Ġherald":6602,"uilds":6603,"ighty":6604,"ĠGold":6605,"ĠGae":6606,"quent":6607,"Ġdoves":6608,"apse":6609,"Ġchase":6610,"ĠNina":6611,"aka":6612,"ounding":6613,"ugalama":6614,"istance":6615,"Ġoutlying":6616,"artial":6617,"Ġalabaster":6618,"Ġ42":6619,"Ġ46":6620,"Ġ47":6621,"Ġunre":6622,"Ġacross":6623,"Ġexceed":6624,"Ġexisted":6625,"Ġexchang":6626,"Ġtherein":6627,"Ġtherefrom":6628,"Ġfled":6629,"Ġflown":6630,"Ġflashing":6631,"Ġdeeds":6632,"ĠDunn":6633,"ĠDivine":6634,"ĠBa":6635,"ĠBara":6636,"ĠBasa":6637,"ĠMen":6638,"UrSuen":6639,"Ġquick":6640,"opard":6641,"unders":6642,"ĠLugalane":6643,"ĠLugalsaga":6644,"ĠLugalbanda":6645,"ĠLugalzagesi":6646,"Ġaccepting":6647,"Ġcaressed":6648,"Ġcarrier":6649,"Ġloom":6650,"Ġstandards":6651,"ansa":6652,"Ġburied":6653,"Ġ66":6654,"Ġresc":6655,"Ġreside":6656,"Ġroar":6657,"ĠTidn":6658,"raid":6659,"Ġappe":6660,"engthen":6661,"Ġdeciding":6662,"barasiga":6663,"Ġthrashing":6664,"Ġscre":6665,"Ġsceptre":6666,"Ġweighed":6667,"Ġblade":6668,"ables":6669,"Snkid":6670,"Ġclouds":6671,"Ġclods":6672,"Ġsling":6673,"Ġdressed":6674,"mani":6675,"Ġhole":6676,"Ġprebend":6677,"Ġbehave":6678,"Ġputting":6679,"Ġsweetens":6680,"Ġattacking":6681,"Ġattract":6682,"Ġulgiayamu":6683,"Ġopensticks":6684,"Ġarmies":6685,"Ġevilly":6686,"Ġpossession":6687,"Ġ96":6688,"ĠRim":6689,"ĠRiver":6690,"Ġrightful":6691,"Ġdiscover":6692,"white":6693,"Ġseeding":6694,"Ġmarker":6695,"Ġdoorman":6696,"Ġapproval":6697,"Ġsnatched":6698,"ĠSimti":6699,"Utuegal":6700,"ungs":6701,"ĠDumuziabzu":6702,"cerning":6703,"Ġprinceship":6704,"Ġequids":6705,"ĠGemebarasiga":6706,"Ġcompares":6707,"Ġspreading":6708,"ression":6709,"Ġrepay":6710,"Ġswamp":6711,"Ġjudges":6712,"Ġbowls":6713,"gigi":6714,"gigire":6715,"Ġzig":6716,"Ġproduction":6717,"Ġwidows":6718,"Ġimpure":6719,"ĠZabala":6720,"Ġbegotten":6721,"Ġestablishing":6722,"Ġedges":6723,"uhha":6724,"Ġmustered":6725,"kuge":6726,"Ġtouches":6727,"Ġwrought":6728,"Ġglor":6729,"porate":6730,"Ġparents":6731,"Ġbathed":6732,"Ġshook":6733,"Ġseizing":6734,"Ġfilling":6735,"inspection":6736,"Ġdikes":6737,"Ġfriends":6738,"Ġfearsome":6739,"Ġstepped":6740,"Ġtrusted":6741,"Ġissued":6742,"Ġgrandly":6743,"foundation":6744,"Ġhurting":6745,"Ġreplaced":6746,"ĠGatumdug":6747,"Ġcaptivity":6748,"Ġrecite":6749,"Ġbindings":6750,"Ġnorth":6751,"Ġpurify":6752,"Ġencouragement":6753,"Ġcrafty":6754,"Ġsettlement":6755,"Ġhangs":6756,"Ġafraid":6757,"Ġnames":6758,"Ġdetermines":6759,"Ġanswering":6760,"Ġsanctified":6761,"ĠMardu":6762,"WaradSn":6763,"Ġinvoked":6764,"Ġgladdened":6765,"Ġillness":6766,"ĠNagabtum":6767,"Ġadmir":6768,"Luduga":6769,"Ġsparkle":6770,"Ġengender":6771,"deliveries":6772,"Ġchurning":6773,"Bringing":6774,"Ġlowland":6775,"ĠDamgalnuna":6776,"Ġpickaxe":6777,"Ġpromise":6778,"Ġgriev":6779,"steadfast":6780,"Ġexploit":6781,"Ġemblems":6782,"Ġdabinflour":6783,"ĠSubartu":6784,"Ġhelpers":6785,"womb":6786,"Ġexuding":6787,"Ġflowering":6788,"plowmen":6789,"ranking":6790,"vocable":6791,"Urlumma":6792,"Ġdistributed":6793,"Subtotal":6794,"ĠUrlugal":6795,"Ġshipyard":6796,"Ġoracular":6797,"Kinir":6798,"horizon":6799,"Ġbeside":6800,"Ġwinnowed":6801,"ĠNENEgar":6802,"Ġsilenced":6803,"ĠMunus":6804,"Ġskillfully":6805,"Ġconstructing":6806,"Ġancestors":6807,"Ġpigeon":6808,"personnel":6809,"Ġnursema":6810,"ĠAnzud":6811,"Ġopenhands":6812,"Ġtraversed":6813,"faithful":6814,"pole":6815,"Ġdignity":6816,"amtara":6817,"Ġvalue":6818,"Ġprocedure":6819,"Ġirrevocable":6820,"Ġexperienced":6821,"baskets":6822,"descendant":6823,"Ġcucum":6824,"Ġbraiding":6825,"Ġvalued":6826,"Ġrestitutions":6827,"Ġseedcubits":6828,"ricultural":6829,"toward":6830,"Ġfugit":6831,"Ġhailstones":6832,"Ġgebur":6833,"ĠDunnum":6834,"Ġattractiveness":6835,"ĠSimtiil":6836,"58":6837,"AG":6838,"Akur":6839,"Beloved":6840,"Dead":6841,"Eating":6842,"Evil":6843,"Gate":6844,"GAN":6845,"Hoe":6846,"Just":6847,"Lul":6848,"Large":6849,"Lagash":6850,"Nr":6851,"Pure":6852,"People":6853,"Ro":6854,"Su":6855,"Tira":6856,"Ure":6857,"Whose":6858,"bing":6859,"bum":6860,"bod":6861,"cket":6862,"cated":6863,"cry":6864,"cles":6865,"cons":6866,"cereal":6867,"di":6868,"dri":6869,"fo":6870,"fav":6871,"five":6872,"fattened":6873,"growing":6874,"hu":6875,"hant":6876,"happ":6877,"iu":6878,"kir":6879,"liness":6880,"na":6881,"nina":6882,"obs":6883,"pa":6884,"pan":6885,"pig":6886,"prince":6887,"pipe":6888,"pivot":6889,"qi":6890,"rites":6891,"say":6892,"song":6893,"shed":6894,"tra":6895,"uin":6896,"uous":6897,"wea":6898,"word":6899,"wool":6900,"Ġugal":6901,"Ġign":6902,"Ġubi":6903,"hem":6904,"Ġtilim":6905,"Ġtaxes":6906,"incantation":6907,"Ġoval":6908,"anu":6909,"anity":6910,"ankug":6911,"anedu":6912,"Ġsa":6913,"Ġsal":6914,"Ġsig":6915,"Ġsow":6916,"Ġsang":6917,"Ġsacks":6918,"Ġba":6919,"Ġbasketoftablets":6920,"Ġbake":6921,"Ġbuilds":6922,"arakam":6923,"orted":6924,"ouches":6925,"ouching":6926,"Ġfool":6927,"alk":6928,"alim":6929,"alter":6930,"alkal":6931,"alankug":6932,"Ġmor":6933,"Ġmere":6934,"eshed":6935,"esidence":6936,"onto":6937,"Ġhate":6938,"asil":6939,"aseless":6940,"iles":6941,"Ġcup":6942,"Ġcoll":6943,"Ġlac":6944,"Ġlid":6945,"Ġdough":6946,"Ġdrown":6947,"andul":6948,"Ġakuge":6949,"Ġpac":6950,"Ġpack":6951,"Ġpala":6952,"Ġpile":6953,"Ġpond":6954,"Ġputs":6955,"Ġphant":6956,"Ġgot":6957,"Ġgug":6958,"Ġgus":6959,"lets":6960,"roch":6961,"roffer":6962,"urra":6963,"urSin":6964,"Ġheight":6965,"Ġheard":6966,"Ġtooth":6967,"adala":6968,"igara":6969,"ayasi":6970,"abe":6971,"abala":6972,"abouts":6973,"Ġforces":6974,"irgal":6975,"irrig":6976,"acacia":6977,"imony":6978,"Ġegi":6979,"Ġbeating":6980,"seized":6981,"Ġthir":6982,"Ġthroat":6983,"ĠEg":6984,"ĠEal":6985,"ĠEmu":6986,"ĠEAb":6987,"ulations":6988,"ulMUxPA":6989,"Ġrush":6990,"Ġrented":6991,"Ġraging":6992,"ĠUp":6993,"ĠUre":6994,"ump":6995,"umed":6996,"icing":6997,"icol":6998,"icits":6999,"icious":7000,"owers":7001,"Ġstud":7002,"Ġstyl":7003,"Ġsticks":7004,"Ġonagers":7005,"ĠAud":7006,"ĠIum":7007,"ĠUrsag":7008,"ĠUrsil":7009,"ĠUrIkur":7010,"ĠUrkununa":7011,"ĠUrItaran":7012,"stor":7013,"static":7014,"earth":7015,"olin":7016,"olina":7017,"ĠLam":7018,"ĠLife":7019,"Ġarg":7020,"Ġrej":7021,"Ġreal":7022,"Ġshri":7023,"Ġshiver":7024,"ĠEnn":7025,"ĠEnhed":7026,"ĠEnme":7027,"Ġmyyour":7028,"Ġpla":7029,"oms":7030,"Ġhimthem":7031,"Ġ37":7032,"eti":7033,"ĠSum":7034,"ĠSet":7035,"ĠGood":7036,"ĠGuti":7037,"Ġgrind":7038,"Ġkohl":7039,"Ġspot":7040,"suckling":7041,"uss":7042,"apis":7043,"Ġlandmountain":7044,"ĠNinul":7045,"ĠNinma":7046,"ĠNinaz":7047,"ĠNinmu":7048,"ĠNininimgina":7049,"ubbed":7050,"indu":7051,"Ġpressed":7052,"istent":7053,"Ġsoninlaw":7054,"ĠAns":7055,"Ġabod":7056,"Ġalad":7057,"Ġ49":7058,"ĠKU":7059,"ĠKis":7060,"ĠKigal":7061,"Ġunit":7062,"Ġunto":7063,"Ġunsh":7064,"ellu":7065,"Ġoffspring":7066,"Ġflatt":7067,"Ġflock":7068,"Ġflattened":7069,"Ġbreach":7070,"Ġbreasts":7071,"monthly":7072,"ĠDuk":7073,"ĠDoor":7074,"Ġcond":7075,"ĠMama":7076,"Enter":7077,"Urim":7078,"UrNin":7079,"ĠHand":7080,"ĠHab":7081,"ĠHalankug":7082,"tuku":7083,"endursag":7084,"share":7085,"wort":7086,"forever":7087,"ĠLugalgigire":7088,"galana":7089,"Ġaccus":7090,"Ġperished":7091,"kua":7092,"kuroffer":7093,"Ġneither":7094,"ullab":7095,"Ġheaded":7096,"Ġcaret":7097,"ailable":7098,"Ġdownstream":7099,"Ġ64":7100,"ulgiayamu":7101,"Ġresound":7102,"pherd":7103,"Ġroared":7104,"kalama":7105,"Youth":7106,"Ġagrun":7107,"Ġagasil":7108,"Ġleaves":7109,"ween":7110,"Shepherd":7111,"baragesi":7112,"Ġbroke":7113,"ifeast":7114,"Ġerad":7115,"Ġerect":7116,"Ġerda":7117,"Ġweeds":7118,"Ġblown":7119,"Ġblue":7120,"ĠPrincely":7121,"Ġlonglasting":7122,"Ġsuffer":7123,"Ġusu":7124,"ĠuSin":7125,"Ġwhereabouts":7126,"Ġhook":7127,"ĠWhere":7128,"ĠWater":7129,"Ġpretty":7130,"Ġ84":7131,"mining":7132,"Ġfranc":7133,"ĠAbu":7134,"Ġimmun":7135,"Ġcreate":7136,"Ġtreacher":7137,"Ġattendant":7138,"ilege":7139,"accept":7140,"Ġgatekeeper":7141,"ĠResidence":7142,"ĠCome":7143,"ĠZulum":7144,"Ġextend":7145,"Ġextens":7146,"Ġsinging":7147,"Ġbattleax":7148,"Ġpassing":7149,"governorgeneral":7150,"Lugalitida":7151,"Ġmarked":7152,"Ġmarriage":7153,"Ġcorporate":7154,"Ġdoorgate":7155,"ĠHouseof":7156,"Ġriverbank":7157,"Ġarah":7158,"ĠAdalal":7159,"ĠGemed":7160,"ĠGemeg":7161,"Alla":7162,"Although":7163,"Ġcowpen":7164,"Ġfury":7165,"Ġtalk":7166,"Ġhowever":7167,"Ġbuildings":7168,"Ġpleases":7169,"Ġcracks":7170,"bring":7171,"bookedouts":7172,"rinking":7173,"arkidu":7174,"Add":7175,"ground":7176,"Ġirgida":7177,"Ġslavegir":7178,"Ġequipped":7179,"LuSuen":7180,"LuNingirsu":7181,"Ġbroadly":7182,"Ġbearer":7183,"Ġulaga":7184,"Ġteams":7185,"Ġteacher":7186,"Ġadvance":7187,"Ġadvise":7188,"Ġadvised":7189,"Ġlifet":7190,"Ġnews":7191,"tiles":7192,"Ġoutskir":7193,"Ġlimits":7194,"ĠShara":7195,"Ġangu":7196,"Ġpunishment":7197,"Ġbegan":7198,"ĠElamites":7199,"magir":7200,"Ġentries":7201,"throne":7202,"threshed":7203,"urmuring":7204,"ĠNamhani":7205,"Ġsailing":7206,"ziana":7207,"Ġsitu":7208,"Ġablebod":7209,"Ġbattering":7210,"ĠARADmu":7211,"Ġcleaned":7212,"Ġshow":7213,"Ġfills":7214,"Ġgigur":7215,"Ġpenis":7216,"Ġkneel":7217,"Ġdefeat":7218,"Ġadded":7219,"clad":7220,"greatly":7221,"Ġfigs":7222,"Ġmilling":7223,"ĠInimanizi":7224,"Ġlocation":7225,"therefroms":7226,"Ġcrossed":7227,"Ġbinding":7228,"Ġcollected":7229,"Ġsank":7230,"ĠIddin":7231,"Ġcleansed":7232,"Ġverdicts":7233,"Ġwalking":7234,"ĠErekigala":7235,"Ġcrafts":7236,"Ġpopulation":7237,"Ġexpand":7238,"Ġstretches":7239,"ARADNanna":7240,"Ġburned":7241,"officiant":7242,"Urukagina":7243,"Ġsanctuaries":7244,"Ġsagkal":7245,"ĠWhich":7246,"ĠFestivalofulgi":7247,"ĠAsalluhi":7248,"ĠGetinanna":7249,"WaradSin":7250,"Ġsoldier":7251,"ebare":7252,"iqam":7253,"tained":7254,"Ġillumin":7255,"Ġoccur":7256,"Ġpasture":7257,"ĠLubanda":7258,"ĠLubalasaga":7259,"Ġflowers":7260,"Ġprovides":7261,"Ġmeadow":7262,"Ġfisherman":7263,"Ġbetween":7264,"ĠExtra":7265,"Ġequalranking":7266,"Ġrelaxing":7267,"Ġrelaxation":7268,"Ġimaki":7269,"Ġexcavating":7270,"Ġobliterate":7271,"Ġsplendid":7272,"fallen":7273,"Ġworkingfort":7274,"Ġpainful":7275,"Ġsolidify":7276,"ĠAmauumgalana":7277,"Ġconcern":7278,"Speak":7279,"Ġthreshed":7280,"woman":7281,"Ġloosen":7282,"Ġloosened":7283,"Ġdescendants":7284,"cheese":7285,"Ġdumugi":7286,"Ġachieved":7287,"Ġyellow":7288,"Ġyellowed":7289,"ĠNurSuen":7290,"Ġimplement":7291,"Ġimplements":7292,"Ġtrembling":7293,"Ġaccomplish":7294,"Ġceremony":7295,"Ġtakers":7296,"Ġsuspic":7297,"appropri":7298,"Ġpronounc":7299,"ĠMeluhha":7300,"Ġrobber":7301,"Ġincreased":7302,"Ġfleeing":7303,"Ġferryboat":7304,"Ġrequisition":7305,"Longtablet":7306,"cultiv":7307,"etermining":7308,"Ġbags":7309,"Ġmurder":7310,"Ġdomestic":7311,"ĠUrgepar":7312,"remainder":7313,"GIRgal":7314,"Ġsharpened":7315,"ĠQu":7316,"ĠVillage":7317,"Ġcantor":7318,"ĠGoing":7319,"Ġconquered":7320,"Ġprecedence":7321,"Ġobligations":7322,"Ġgirlfri":7323,"Perfect":7324,"Ġtextiles":7325,"Ġinhabit":7326,"Ġstructure":7327,"ĠNintinuga":7328,"produce":7329,"Marduk":7330,"NurAdad":7331,"copies":7332,"Ġsemolina":7333,"Ġbattles":7334,"Ġecstatic":7335,"Ġblew":7336,"Ġfowler":7337,"Ġkiln":7338,"suitable":7339,"Ġprosperity":7340,"Ġeredigir":7341,"Ġsacrilege":7342,"destroyed":7343,"Igalim":7344,"learned":7345,"Ġquickly":7346,"ĠTidnum":7347,"Ġgrievous":7348,"Akurgal":7349,"shedonkey":7350,"Ġtilimda":7351,"rochs":7352,"Ġegial":7353,"ĠEAbitumen":7354,"Ġstylus":7355,"ĠNinazimua":7356,"Ġagasilig":7357,"Ġfrancolin":7358,"Ġimmune":7359,"Ġoutskirts":7360,"Ġablebodied":7361,"Ġworkingfortifying":7362,"Ġgirlfriend":7363,"44":7364,"54":7365,"65":7366,"85":7367,"AL":7368,"Amar":7369,"Bar":7370,"Born":7371,"Ch":7372,"Dest":7373,"Daily":7374,"El":7375,"Ema":7376,"Eengura":7377,"Fl":7378,"Festival":7379,"Gr":7380,"God":7381,"Girsu":7382,"IL":7383,"IM":7384,"Imma":7385,"Isin":7386,"Ku":7387,"Lisin":7388,"Mag":7389,"Mound":7390,"Mighty":7391,"Nind":7392,"Pr":7393,"Partial":7394,"Set":7395,"Sargon":7396,"SAR":7397,"Would":7398,"ai":7399,"bat":7400,"bale":7401,"back":7402,"bony":7403,"beautiful":7404,"cast":7405,"come":7406,"cows":7407,"east":7408,"ekalla":7409,"fine":7410,"foll":7411,"fined":7412,"gark":7413,"groom":7414,"iap":7415,"iated":7416,"ibb":7417,"ience":7418,"jac":7419,"kam":7420,"kure":7421,"killed":7422,"lash":7423,"lodged":7424,"lungs":7425,"mid":7426,"mus":7427,"mold":7428,"mult":7429,"moke":7430,"murmuring":7431,"nin":7432,"nor":7433,"nanny":7434,"oint":7435,"pur":7436,"pirig":7437,"pouring":7438,"sip":7439,"tw":7440,"tak":7441,"ties":7442,"trust":7443,"urochs":7444,"vated":7445,"various":7446,"voice":7447,"wave":7448,"wages":7449,"young":7450,"za":7451,"Ġil":7452,"Ġugid":7453,"hea":7454,"inal":7455,"inkua":7456,"anes":7457,"Ġbab":7458,"Ġbits":7459,"Ġbones":7460,"arin":7461,"arant":7462,"aria":7463,"arana":7464,"arrum":7465,"Ġwig":7466,"edars":7467,"atar":7468,"atep":7469,"attered":7470,"Ġfared":7471,"Ġfasting":7472,"Ġfruits":7473,"alm":7474,"ales":7475,"itter":7476,"Ġmouse":7477,"Ġmass":7478,"Ġmash":7479,"isans":7480,"ester":7481,"enters":7482,"Ġhing":7483,"Ġhol":7484,"Ġhated":7485,"Ġharm":7486,"assu":7487,"Ġcher":7488,"Ġcirc":7489,"Ġcedars":7490,"Ġlullab":7491,"Ġdry":7492,"Ġdung":7493,"Ġdunes":7494,"Ġdeaf":7495,"Ġaver":7496,"Ġaurochs":7497,"Ġpill":7498,"Ġpity":7499,"Ġpaw":7500,"Ġpushed":7501,"Ġpounding":7502,"Ġgoring":7503,"urity":7504,"Ġheap":7505,"Ġhews":7506,"Ġhealthy":7507,"Ġinfer":7508,"Ġnann":7509,"these":7510,"adv":7511,"adrup":7512,"adorned":7513,"abum":7514,"Ġfors":7515,"among":7516,"acious":7517,"thus":7518,"immed":7519,"imti":7520,"Ġebony":7521,"hoe":7522,"Ġthread":7523,"ĠEl":7524,"ĠEarth":7525,"ĠNo":7526,"ĠNow":7527,"ulma":7528,"Ġrent":7529,"Ġridden":7530,"ĠUR":7531,"ĠUb":7532,"ĠUbi":7533,"umea":7534,"emae":7535,"estal":7536,"established":7537,"Ġshel":7538,"Ġsteal":7539,"aller":7540,"ĠAz":7541,"ĠAdu":7542,"ĠAgr":7543,"ĠItur":7544,"ĠIwould":7545,"ĠIsim":7546,"agr":7547,"agetin":7548,"tst":7549,"ĠUrEn":7550,"ĠUrtur":7551,"ĠUrEnlila":7552,"ĠUrDamu":7553,"ĠUrugalama":7554,"Ġnotindeed":7555,"riers":7556,"ĠLum":7557,"ĠLue":7558,"Ġbarbed":7559,"Ġarr":7560,"Ġrecum":7561,"Ġreally":7562,"Ġreiter":7563,"Ġseason":7564,"Ġshouts":7565,"ĠEnmen":7566,"ĠEndingirmu":7567,"foremost":7568,"ession":7569,"Ġmyriad":7570,"Ġplows":7571,"Ġplunders":7572,"Ġwore":7573,"Ġherders":7574,"herder":7575,"Ġ39":7576,"etuous":7577,"ĠShe":7578,"ĠGiap":7579,"Ġanx":7580,"Ġanus":7581,"Ġanointed":7582,"Ġascer":7583,"Ġdoing":7584,"Ġdove":7585,"Ġuplands":7586,"usiga":7587,"apid":7588,"Ġchases":7589,"makes":7590,"ĠNinmah":7591,"ĠNinkuzu":7592,"ĠNinagala":7593,"Ġenv":7594,"Ġenough":7595,"Ġendu":7596,"Ġgodfearing":7597,"akal":7598,"uena":7599,"indazi":7600,"Ġorph":7601,"Ġ53":7602,"Ġ54":7603,"Ġ58":7604,"oves":7605,"Ġoutlet":7606,"Ġworktroop":7607,"Ġworkshop":7608,"ĠKa":7609,"ornament":7610,"Ġund":7611,"Ġuncle":7612,"Ġunalter":7613,"Ġamounts":7614,"ellent":7615,"Ġexam":7616,"Ġexting":7617,"ĠInd":7618,"Ġoffic":7619,"Ġvig":7620,"Ġflute":7621,"Ġjew":7622,"oused":7623,"Ġdeed":7624,"ĠDad":7625,"ĠDumuz":7626,"ĠDagan":7627,"ĠDingira":7628,"Ġconc":7629,"Ġconvoy":7630,"Ġconverse":7631,"ĠMalt":7632,"Ġprostr":7633,"Urd":7634,"Urkununa":7635,"UrDumuzida":7636,"Ġnobly":7637,"Ġnobody":7638,"ĠHim":7639,"ĠHiy":7640,"Ġquadrup":7641,"Ġdida":7642,"azing":7643,"Ġstoreroom":7644,"iverted":7645,"ĠLugalkigenedudu":7646,"ĠLugalnirgal":7647,"ickwork":7648,"ctum":7649,"plored":7650,"Ġwatery":7651,"Ġmooring":7652,"Ġknot":7653,"ailing":7654,"Ġlock":7655,"Ġloaf":7656,"ashions":7657,"Ġ68":7658,"ulgiil":7659,"Ġresounded":7660,"Ġlambhides":7661,"sely":7662,"Ġrob":7663,"Ġrosett":7664,"Ġadab":7665,"Ġadult":7666,"Ġadjac":7667,"Anam":7668,"Ġsupport":7669,"Ġapiece":7670,"engur":7671,"Ġagricultural":7672,"Ġleveled":7673,"Ninmar":7674,"proper":7675,"property":7676,"Ġwomans":7677,"Ġfatherinlaw":7678,"Ġlamenting":7679,"Ġraisins":7680,"Ġmothers":7681,"armers":7682,"Ġweigh":7683,"ĠFlash":7684,"ĠLuInanna":7685,"ĠAkkadian":7686,"Ġblind":7687,"ĠPu":7688,"ĠPaue":7689,"ĠPowers":7690,"Ġsoothe":7691,"Ġdrank":7692,"Ġafterno":7693,"Ġstature":7694,"Ġundertaken":7695,"Ġtrimmed":7696,"ĠWe":7697,"ĠWinter":7698,"angu":7699,"Ġbutcher":7700,"ĠUrNigar":7701,"Ġinsurg":7702,"Ġplowing":7703,"Ġheroic":7704,"Ġplacing":7705,"tae":7706,"ĠAba":7707,"Ġsweetwort":7708,"Ġimagi":7709,"Ġimplored":7710,"Ġtread":7711,"goats":7712,"Ġattach":7713,"Ġstring":7714,"Ġpraising":7715,"Ġroyalty":7716,"icials":7717,"formed":7718,"Ġdisobedient":7719,"Ġdislodged":7720,"Ġfollows":7721,"Ġextent":7722,"Ġextrem":7723,"boot":7724,"Ġsubst":7725,"Ġsubmer":7726,"atory":7727,"spect":7728,"Ġdaughters":7729,"Lugalzagesi":7730,"ĠLands":7731,"Ġenemyevil":7732,"Ġcords":7733,"amah":7734,"ĠHousemonth":7735,"Ġjoyously":7736,"NannaSuen":7737,"Ġincite":7738,"Ġincense":7739,"turtle":7740,"Ġintest":7741,"cedar":7742,"Ġended":7743,"Ġendless":7744,"Ġminis":7745,"ĠAmur":7746,"Ġfloodstorm":7747,"Ġforeigners":7748,"Ġelo":7749,"ĠAdad":7750,"arik":7751,"Ġfurther":7752,"Ġutters":7753,"Ġdemanded":7754,"ĠAmarSuena":7755,"alsi":7756,"Ġdeparted":7757,"enery":7758,"Ġcapital":7759,"Ġblacksmith":7760,"Ġresidences":7761,"Ġeverywhere":7762,"ĠOr":7763,"Ġcress":7764,"Ġeyesmoke":7765,"brid":7766,"Ġmatters":7767,"beard":7768,"Ġfaceey":7769,"Ġborne":7770,"Ġconstruction":7771,"Ġ186":7772,"LuNanna":7773,"LuUtu":7774,"LuNinubur":7775,"Ġdebts":7776,"Ġplains":7777,"Ġcourt":7778,"Ġartisans":7779,"Ġuluh":7780,"Ġgreenery":7781,"Ġcolony":7782,"Ġimpetuous":7783,"Ġangel":7784,"hai":7785,"Ġpunting":7786,"Ġpayment":7787,"Ġcrook":7788,"ĠNigarkidu":7789,"Ġharvested":7790,"Ġtreating":7791,"Ġmulticol":7792,"Ġutterly":7793,"escent":7794,"Ġrighteousness":7795,"ĠNungal":7796,"Ġcontaining":7797,"Ġcoated":7798,"Ġhorses":7799,"Ġstriking":7800,"Ġstrikes":7801,"Ġshows":7802,"Ġcarefully":7803,"Ġrainbow":7804,"Ġplaying":7805,"ocking":7806,"Ġpiglet":7807,"ĠBabati":7808,"stands":7809,"door":7810,"Ġdiarr":7811,"Ġbalbale":7812,"Ġconsuming":7813,"Ġconsumes":7814,"Ġdesigns":7815,"Ġdesignation":7816,"Stand":7817,"ĠIlum":7818,"Ġemerging":7819,"195":7820,"clay":7821,"Ġsixties":7822,"Ġissues":7823,"knife":7824,"Ġhurts":7825,"Ġscratching":7826,"Ġtwin":7827,"Ġtwice":7828,"Ġtwisted":7829,"Ġlocated":7830,"Ġsoup":7831,"Ġfisheries":7832,"Ġanswers":7833,"Ġverdict":7834,"Ġwalks":7835,"Ġfriendly":7836,"Ġhallsan":7837,"ĠKuNanna":7838,"phant":7839,"Ġdirect":7840,"Ġinvolving":7841,"ĠNinsadu":7842,"Inside":7843,"Ġacquaint":7844,"Ġexercises":7845,"ĠNannas":7846,"ĠAmarayasi":7847,"Ġfaces":7848,"Ġdirty":7849,"ĠStele":7850,"Ġroofbe":7851,"Ġviolent":7852,"ĠAszsz":7853,"ĠGetinanas":7854,"ĠNinhursaga":7855,"Ġconsign":7856,"ĠUrEma":7857,"Abbasaga":7858,"covers":7859,"covered":7860,"lik":7861,"liable":7862,"small":7863,"Ġmalevolently":7864,"Ġknewlearned":7865,"Ġadmired":7866,"extra":7867,"Ġincantationsmurmuring":7868,"Ġsmallshekel":7869,"comm":7870,"Ġaccompan":7871,"Ġobjects":7872,"Ġnails":7873,"Until":7874,"kisalsi":7875,"Ġallotted":7876,"Ġladies":7877,"Ġpromised":7878,"Ġbreeder":7879,"Ġscreaming":7880,"Ġdragged":7881,"Ġhighlands":7882,"Ġsolidifies":7883,"Nigin":7884,"Ġbellowing":7885,"ĠLullubu":7886,"Ġaffairs":7887,"ĠSubir":7888,"Ġinquiries":7889,"Ġeaflour":7890,"Ġreaching":7891,"ĠLugalmum":7892,"Ġcloister":7893,"Ġoccupies":7894,"Ġfreely":7895,"Ġmasons":7896,"ĠImsag":7897,"ĠUrdun":7898,"ĠSagub":7899,"akkan":7900,"Ġtrembled":7901,"Ġtakarin":7902,"Ġfetch":7903,"Ġgenius":7904,"ĠIpqu":7905,"Inimara":7906,"Ġpronounced":7907,"Ġobserve":7908,"Ġfavourable":7909,"Ġrequisitions":7910,"Account":7911,"Ġsorrow":7912,"Ġwaiting":7913,"Ġcrippled":7914,"Brickwork":7915,"ĠNaramSuen":7916,"Ġoverflowing":7917,"Ġbecoming":7918,"Ġdespair":7919,"ĠMarhai":7920,"Ġfirstfruit":7921,"gathered":7922,"Ġfatedetermining":7923,"Ġpulled":7924,"Ġpractice":7925,"Ġabsence":7926,"Ġoffshoot":7927,"Ġawesome":7928,"Ġcausing":7929,"Ġpenetrate":7930,"Ġfortresses":7931,"superintendent":7932,"ĠNanaia":7933,"Ġvirgin":7934,"Ġjackasses":7935,"Ġdiscuss":7936,"Ġconfronted":7937,"responding":7938,"Humanity":7939,"Through":7940,"birth":7941,"gift":7942,"Ġcrumbs":7943,"Ġpedestal":7944,"Ġgnaw":7945,"essenger":7946,"ĠGoldMound":7947,"Ġunrefined":7948,"Ġscreamed":7949,"Ġziggur":7950,"Ġengendered":7951,"Lulal":7952,"uinak":7953,"Ġsigflour":7954,"Ġmortal":7955,"Ġlidga":7956,"Ġthirty":7957,"ĠEalubi":7958,"ĠSummer":7959,"Ġabode":7960,"Ġcondition":7961,"kuroffering":7962,"ĠGemedardu":7963,"Ġlifetime":7964,"Ġsuspiciously":7965,"ĠQuay":7966,"garkidug":7967,"ĠIwouldlive":7968,"ĠIsimud":7969,"Ġrecumb":7970,"ĠGiapinkua":7971,"Ġunalterable":7972,"Ġextingu":7973,"ĠHiyare":7974,"Ġafternoon":7975,"Ġinsurgent":7976,"Ġdiarrhea":7977,"Ġhallsanctum":7978,"49":7979,"51":7980,"52":7981,"53":7982,"92":7983,"AK":7984,"Agi":7985,"Bazi":7986,"Bbread":7987,"Canal":7988,"Da":7989,"Dad":7990,"Day":7991,"Dada":7992,"Dagn":7993,"Draw":7994,"Dilimbabbar":7995,"Ea":7996,"Eb":7997,"Ev":7998,"Ean":7999,"Eanna":8000,"Food":8001,"Faith":8002,"Feast":8003,"Good":8004,"Gatum":8005,"HI":8006,"Hab":8007,"Kish":8008,"Mountain":8009,"Not":8010,"Numuda":8011,"Res":8012,"SZ":8013,"Sl":8014,"Sweet":8015,"Tr":8016,"Take":8017,"aum":8018,"bound":8019,"bore":8020,"bals":8021,"bansa":8022,"cel":8023,"crown":8024,"ded":8025,"def":8026,"eani":8027,"fig":8028,"fly":8029,"furious":8030,"gl":8031,"gre":8032,"giz":8033,"hired":8034,"iet":8035,"iara":8036,"iya":8037,"jug":8038,"kan":8039,"kaid":8040,"kisal":8041,"lu":8042,"lad":8043,"lku":8044,"life":8045,"length":8046,"mit":8047,"mouth":8048,"nu":8049,"ner":8050,"nth":8051,"night":8052,"nurse":8053,"oon":8054,"ogn":8055,"pes":8056,"pum":8057,"pure":8058,"pended":8059,"rat":8060,"ral":8061,"rage":8062,"raised":8063,"saw":8064,"sible":8065,"tre":8066,"wall":8067,"wrest":8068,"xcess":8069,"yond":8070,"zag":8071,"ĠY":8072,"Ġket":8073,"ĠOne":8074,"Ġkey":8075,"Ġubur":8076,"Ġtit":8077,"Ġtest":8078,"Ġtut":8079,"Ġtent":8080,"Ġtiara":8081,"inc":8082,"inu":8083,"iner":8084,"infor":8085,"instead":8086,"Ġoper":8087,"anim":8088,"anun":8089,"anirgal":8090,"Ġsine":8091,"Ġsounded":8092,"ery":8093,"erate":8094,"Ġbun":8095,"Ġbov":8096,"arp":8097,"area":8098,"aromatic":8099,"arcated":8100,"Ġwin":8101,"Ġways":8102,"Ġwax":8103,"edge":8104,"edged":8105,"Ġfol":8106,"Ġfang":8107,"Ġfair":8108,"Ġfix":8109,"Ġfrog":8110,"Ġfault":8111,"Ġfashions":8112,"alle":8113,"alag":8114,"alus":8115,"alabor":8116,"alone":8117,"itch":8118,"itors":8119,"Ġmot":8120,"Ġmaker":8121,"isk":8122,"isag":8123,"ingers":8124,"oning":8125,"ene":8126,"Ġhard":8127,"Ġhund":8128,"iling":8129,"ilsag":8130,"ilapid":8131,"Ġcake":8132,"return":8133,"rehem":8134,"Ġla":8135,"Ġled":8136,"Ġlain":8137,"Ġlance":8138,"Ġlots":8139,"Ġlumah":8140,"Ġdu":8141,"Ġder":8142,"Ġdap":8143,"Ġduck":8144,"Ġdilapid":8145,"Ġpel":8146,"Ġpos":8147,"Ġpays":8148,"Ġpair":8149,"Ġpost":8150,"Ġplease":8151,"Ġponder":8152,"Ġpivot":8153,"Ġgin":8154,"Ġgakk":8155,"roth":8156,"urani":8157,"urtur":8158,"Ġheights":8159,"Ġinf":8160,"Ġinund":8161,"Ġinwith":8162,"elary":8163,"Ġnue":8164,"Ġyoupl":8165,"igate":8166,"igigal":8167,"abz":8168,"irit":8169,"amana":8170,"ameless":8171,"acement":8172,"imma":8173,"imized":8174,"idab":8175,"Ġeaster":8176,"Ġegar":8177,"seen":8178,"semin":8179,"semble":8180,"Ġthinn":8181,"Ġthirst":8182,"ĠEa":8183,"ĠEanatum":8184,"ĠEusiga":8185,"ĠNation":8186,"ĠNalus":8187,"ults":8188,"Ġriding":8189,"Ġrenders":8190,"Ġrubbed":8191,"ĠUl":8192,"ĠUmani":8193,"terr":8194,"terior":8195,"unted":8196,"unire":8197,"unkug":8198,"ument":8199,"ically":8200,"Ġstair":8201,"Ġstock":8202,"Ġonr":8203,"Ġonager":8204,"ĠAR":8205,"ĠAh":8206,"ĠAian":8207,"ĠAua":8208,"ĠAcc":8209,"ĠAanepada":8210,"ĠAlamu":8211,"ĠABbread":8212,"ĠIbex":8213,"ĠUramma":8214,"stool":8215,"stock":8216,"utak":8217,"olved":8218,"rib":8219,"rive":8220,"rieve":8221,"ĠLars":8222,"Ġbarber":8223,"Ġargue":8224,"ugan":8225,"Ġlived":8226,"Ġlipit":8227,"entum":8228,"Ġreceiv":8229,"Ġrevol":8230,"Ġreliable":8231,"ains":8232,"Ġshame":8233,"Ġshaved":8234,"ĠEnmah":8235,"Ġsilently":8236,"annum":8237,"antum":8238,"Ġplanned":8239,"ivory":8240,"toothed":8241,"reated":8242,"eaking":8243,"ceeds":8244,"Ġ31":8245,"etina":8246,"Ġonehalf":8247,"ĠSe":8248,"ĠSud":8249,"ĠSutium":8250,"ĠSoh":8251,"uiliu":8252,"ĠGrain":8253,"Ġgracious":8254,"udge":8255,"ududu":8256,"Ġkung":8257,"Ġkinds":8258,"Ġspad":8259,"suiq":8260,"Ġasking":8261,"apes":8262,"apel":8263,"apriest":8264,"Ġchased":8265,"Ġchamp":8266,"making":8267,"ĠNintu":8268,"Ġenlar":8269,"atexcess":8270,"ĠareI":8271,"aku":8272,"akug":8273,"Incantation":8274,"Forthat":8275,"Foremost":8276,"oundation":8277,"aborate":8278,"behind":8279,"istant":8280,"artum":8281,"ĠAnu":8282,"Ġalg":8283,"Ġalum":8284,"Ġalgar":8285,"Ġlamenters":8286,"arden":8287,"ĠKindazi":8288,"chain":8289,"Ġunsuitable":8290,"Ġunseen":8291,"Ġamid":8292,"ellow":8293,"crip":8294,"Ġexists":8295,"Ġexterior":8296,"Ġoxdri":8297,"Ġven":8298,"Ġvase":8299,"Ġflowed":8300,"rowel":8301,"Ġbreaking":8302,"ĠDN":8303,"ĠDrehem":8304,"ĠBiduga":8305,"ĠMa":8306,"ĠMad":8307,"ĠMani":8308,"Ġsilversmith":8309,"Ġprost":8310,"Ġproceed":8311,"Urku":8312,"Uramma":8313,"Urgigir":8314,"Ġnoon":8315,"ĠHer":8316,"Ġmountainland":8317,"athers":8318,"azed":8319,"Ġalloyed":8320,"endit":8321,"oster":8322,"Ġsurplus":8323,"undul":8324,"undance":8325,"ĠLugalanda":8326,"eface":8327,"gala":8328,"galama":8329,"Ġperpet":8330,"Ġmoored":8331,"Ġshoulders":8332,"asters":8333,"Ġstorms":8334,"Ġawake":8335,"Ġ67":8336,"Ġboasting":8337,"Ġresolution":8338,"Ġrol":8339,"Ġrole":8340,"Ġroot":8341,"Ġrogue":8342,"Ġadze":8343,"Anum":8344,"ĠTrees":8345,"Ġempl":8346,"uzi":8347,"Ġago":8348,"Ġaggress":8349,"Ġleopard":8350,"Ġdece":8351,"Ġdecide":8352,"Ninh":8353,"Nininimgina":8354,"Ninisina":8355,"NinIsina":8356,"Ġsmo":8357,"Ġsmiting":8358,"profound":8359,"Ġlamentations":8360,"ĠLuSuen":8361,"ĠLuUru":8362,"ibtum":8363,"Ġblowing":8364,"sheaves":8365,"ĠPro":8366,"Ġsuhur":8367,"Ġsoothed":8368,"Ġsoothing":8369,"ĠuErra":8370,"Ġestablishes":8371,"Ġcommitted":8372,"away":8373,"Ġdwelled":8374,"Ġrested":8375,"Ġhighways":8376,"Ġboatmen":8377,"Ġfragr":8378,"Ġeyeface":8379,"ultitudes":8380,"Ġmidnight":8381,"tax":8382,"Ġcontented":8383,"Ġimped":8384,"Ġimbu":8385,"going":8386,"Ġcommander":8387,"ancy":8388,"Ġremission":8389,"ĠRe":8390,"ĠRange":8391,"ĠRaised":8392,"Ġdisgr":8393,"mena":8394,"spread":8395,"Ġpasses":8396,"Ġchew":8397,"Ġcheek":8398,"Lugalkuzu":8399,"Lugalkigenedudu":8400,"Lugalemae":8401,"ĠAbba":8402,"Ġcorresponding":8403,"Ġcleared":8404,"ceding":8405,"ĠAmare":8406,"ĠAmbar":8407,"Ġflooded":8408,"Ġflooding":8409,"Ġfloodwater":8410,"Ġliter":8411,"Ġelders":8412,"Ġelapse":8413,"ĠGemem":8414,"ĠGreatbarge":8415,"elebr":8416,"Ġskipp":8417,"ĠAmarSuenarak":8418,"Ġofferingritual":8419,"laIl":8420,"ĠAlulu":8421,"rison":8422,"Ġbuilders":8423,"Ġdepart":8424,"Ġharness":8425,"Ġcrab":8426,"Ġcrime":8427,"bright":8428,"Ġfuller":8429,"Ġmaturity":8430,"Ġasses":8431,"Adab":8432,"Does":8433,"Ġinterpreter":8434,"Ġfinal":8435,"Ġfinds":8436,"Ġcompet":8437,"Ġcomposition":8438,"ĠSniqam":8439,"Ġconfront":8440,"165":8441,"Ġfloatexcess":8442,"Ġzage":8443,"Ġotherwise":8444,"Ġwidened":8445,"Ġterritories":8446,"Ġoutst":8447,"looked":8448,"Ġhappily":8449,"itional":8450,"Ġmuscles":8451,"Ġmultitude":8452,"Ġmultitudes":8453,"Ġgrove":8454,"Ġtransport":8455,"Ġtransgress":8456,"Sumu":8457,"Ġentr":8458,"Ġentrust":8459,"inspiring":8460,"Ġstorehouses":8461,"Ġfootstool":8462,"Ġcounselor":8463,"About":8464,"Ġhorse":8465,"Shall":8466,"Ġwheel":8467,"Ġexcellent":8468,"Ġirrigate":8469,"ahi":8470,"Ġchopped":8471,"Ġchoosing":8472,"aceddeb":8473,"Ġfuriously":8474,"ildoers":8475,"Ġassignments":8476,"Ġferment":8477,"Ġdias":8478,"Ġpoison":8479,"Ġfavorably":8480,"Ġsickles":8481,"Ġdrop":8482,"Ġdevoted":8483,"paras":8484,"Ġreleasing":8485,"Ġaddressed":8486,"Ġemerge":8487,"cloth":8488,"Ġissuing":8489,"additional":8490,"Ġreplacement":8491,"Ġcaptives":8492,"Ġmanifested":8493,"ĠEnunugalana":8494,"Ġbasin":8495,"Ġrecorder":8496,"Ġview":8497,"ĠKarar":8498,"Ġhostility":8499,"Ġpurifier":8500,"kene":8501,"pray":8502,"Ġcrafted":8503,"amiq":8504,"Ġexhausts":8505,"Ġcarcass":8506,"Ġlearning":8507,"ĠKuBaba":8508,"Ġembracing":8509,"Ġtruthfully":8510,"whether":8511,"Enanatuma":8512,"Ġstretch":8513,"Ġtrip":8514,"Ġdelib":8515,"Ġinitiates":8516,"Ġploughmen":8517,"Ġaweinspiring":8518,"Ġmarveled":8519,"ĠAmarSu":8520,"ĠEzinaKusu":8521,"prebend":8522,"Ġfacing":8523,"ĠNindanirgal":8524,"ĠBigStele":8525,"Ġconveyances":8526,"Ġapproaching":8527,"Idiot":8528,"Ġquarreling":8529,"Ġmultiplies":8530,"Ġviolently":8531,"Ġsanctifies":8532,"ĠEgalma":8533,"ĠNril":8534,"Ġplundering":8535,"Ġconsisting":8536,"Ġslaughters":8537,"Waradama":8538,"Ġinvest":8539,"Ġinvoke":8540,"Ġinvoking":8541,"Ġrequested":8542,"ĠDugru":8543,"ĠItarn":8544,"Abbagina":8545,"Ġfamine":8546,"Ġnecess":8547,"stranger":8548,"Ġplanking":8549,"children":8550,"Ġblocks":8551,"Ġappeared":8552,"Zabala":8553,"restored":8554,"surpassing":8555,"ĠNagsu":8556,"Ġbetroth":8557,"Ġdragonface":8558,"Ġentirety":8559,"Ġsigns":8560,"ĠEmuk":8561,"Ġengenders":8562,"delivered":8563,"Ġthighs":8564,"Ġruns":8565,"Ġstillborn":8566,"Ġvegetables":8567,"ĠDamqi":8568,"Ġtraitors":8569,"Ġbreathed":8570,"Ġprowls":8571,"ĠSmaller":8572,"ĠSmlaIl":8573,"ĠPlace":8574,"Ġgrieve":8575,"Ġkurgar":8576,"ĠKinira":8577,"Ġtraveled":8578,"harbor":8579,"ilsa":8580,"Ġaffixed":8581,"Ġelevated":8582,"ĠNusku":8583,"Ġinspected":8584,"rentice":8585,"Ġsadug":8586,"Ġsaddle":8587,"Ġdenig":8588,"Ġstopped":8589,"ĠLugalmelam":8590,"Ġclois":8591,"Exalted":8592,"Ġtorch":8593,"Ġfalcon":8594,"ĠUtami":8595,"ĠUrNinmar":8596,"Ġproudly":8597,"Ġjennies":8598,"Ġconversation":8599,"humbly":8600,"Ġsuspended":8601,"Ġhyena":8602,"Ġhybrid":8603,"Ġcurrent":8604,"Ġsucceed":8605,"Ġintentions":8606,"Ġobserved":8607,"Simat":8608,"Simnum":8609,"decorated":8610,"Ġfurnish":8611,"Ġdomain":8612,"Ġpatrim":8613,"Ġranks":8614,"Ġbrilliance":8615,"remaining":8616,"Namani":8617,"brewer":8618,"Ġdubdub":8619,"Ġgudupriest":8620,"ulgira":8621,"sukkalma":8622,"Ġascend":8623,"Ġascended":8624,"measures":8625,"Ġbecomes":8626,"Ġcontempt":8627,"Ġdeposited":8628,"Ġparasite":8629,"Ġparasites":8630,"coal":8631,"lifted":8632,"siskure":8633,"Ġwonderful":8634,"Ġhills":8635,"ĠAssur":8636,"Ġflatter":8637,"ĠFirstf":8638,"Auwer":8639,"Ġgenerals":8640,"ĠIrnina":8641,"rivaled":8642,"Ġarrogance":8643,"Ġretrieve":8644,"Ġreckoned":8645,"Ġexuberance":8646,"ĠDublama":8647,"Ġproclaimed":8648,"Nannam":8649,"fattener":8650,"uedina":8651,"Ġselected":8652,"ĠSumuqan":8653,"Ġsupremacy":8654,"Ġembell":8655,"Ġemptied":8656,"ĠOxenboot":8657,"sikil":8658,"constant":8659,"Ġthornbushes":8660,"Ġmajestic":8661,"Ġsurely":8662,"Ġlyre":8663,"Ġlaughing":8664,"Ġloudly":8665,"Ġavailable":8666,"Ġpestle":8667,"Ġezibtum":8668,"ĠMunusg":8669,"Ġnursemaid":8670,"Ġfugitive":8671,"Justice":8672,"foot":8673,"favored":8674,"Ġignor":8675,"Ġlacerated":8676,"irrigation":8677,"Ġrejected":8678,"Ġeradicated":8679,"Ġtreachery":8680,"Ġextensive":8681,"Ġbattleaxe":8682,"Ġarahi":8683,"Ġilluminate":8684,"Destroy":8685,"Ġcherished":8686,"Ġinferior":8687,"Ġnannies":8688,"ĠAgrunkug":8689,"ĠIturungal":8690,"Ġreiterated":8691,"Ġanxious":8692,"Ġorphan":8693,"Ġunclean":8694,"ĠDumuzid":8695,"Ġadjacent":8696,"Ġintestines":8697,"Ġminishekels":8698,"Ġfurthermore":8699,"ĠOrdeal":8700,"Ġrecumbent":8701,"Gatumdu":8702,"balssuiq":8703,"wrestler":8704,"Ġtutelary":8705,"Ġoperate":8706,"Ġfaultless":8707,"Ġhundred":8708,"Ġdappled":8709,"Ġdilapidated":8710,"Ġgakkul":8711,"Ġeastern":8712,"Ġthinned":8713,"ĠAcclaim":8714,"ĠlipitItar":8715,"ĠSohn":8716,"Ġkungar":8717,"Urkusu":8718,"Ġimpede":8719,"Ġimbued":8720,"Ġdisgraceddeb":8721,"ĠAmarSuenarakiag":8722,"ĠAmarSuentum":8723,"Ġbetrothal":8724,"ĠDamqiiliu":8725,"balssuiqbi":8726,"Ġdisgraceddebased":8727,"216":8728,"64":8729,"68":8730,"71":8731,"78":8732,"79":8733,"94":8734,"Bir":8735,"Cities":8736,"Duga":8737,"Dadaga":8738,"Eanatum":8739,"Every":8740,"Eabani":8741,"Fire":8742,"Gave":8743,"Gold":8744,"Guedina":8745,"Have":8746,"Im":8747,"Iri":8748,"IAN":8749,"Iran":8750,"Kalkal":8751,"Lun":8752,"Most":8753,"Martu":8754,"NI":8755,"Nine":8756,"Nibru":8757,"Nasa":8758,"Noses":8759,"Oh":8760,"Open":8761,"PN":8762,"Re":8763,"Rais":8764,"Sur":8765,"Silver":8766,"bur":8767,"bad":8768,"big":8769,"bund":8770,"bgal":8771,"boy":8772,"bush":8773,"cat":8774,"cking":8775,"cattle":8776,"cities":8777,"cross":8778,"dr":8779,"dent":8780,"div":8781,"dudu":8782,"drinking":8783,"each":8784,"eez":8785,"ekug":8786,"fr":8787,"fin":8788,"fis":8789,"full":8790,"fles":8791,"fled":8792,"fierce":8793,"gen":8794,"get":8795,"grow":8796,"gara":8797,"gry":8798,"gazelle":8799,"hour":8800,"high":8801,"hair":8802,"iam":8803,"iak":8804,"ieces":8805,"ky":8806,"kit":8807,"kuga":8808,"lable":8809,"mal":8810,"mem":8811,"most":8812,"mongoose":8813,"moving":8814,"mirror":8815,"messenger":8816,"nind":8817,"nund":8818,"nail":8819,"nment":8820,"nubanda":8821,"nupriest":8822,"ob":8823,"og":8824,"oid":8825,"ook":8826,"pent":8827,"ply":8828,"paid":8829,"power":8830,"poured":8831,"palace":8832,"piles":8833,"qum":8834,"rid":8835,"rite":8836,"rented":8837,"running":8838,"sup":8839,"skin":8840,"tub":8841,"tles":8842,"towards":8843,"taker":8844,"ule":8845,"uals":8846,"vessel":8847,"village":8848,"wage":8849,"xicating":8850,"xHI":8851,"yellow":8852,"zard":8853,"Ġess":8854,"Ġild":8855,"ĠTo":8856,"Ġursag":8857,"ĠYear":8858,"Ġivory":8859,"heav":8860,"Ġtill":8861,"Ġtub":8862,"Ġtaught":8863,"Ġtext":8864,"Ġtamar":8865,"inas":8866,"Ġoars":8867,"anks":8868,"another":8869,"Ġsen":8870,"Ġsear":8871,"Ġsap":8872,"Ġsaga":8873,"Ġswell":8874,"Ġsending":8875,"Ġsemen":8876,"Ġsize":8877,"erst":8878,"arzi":8879,"Ġwip":8880,"Ġwake":8881,"Ġwears":8882,"Ġwives":8883,"organ":8884,"atter":8885,"atill":8886,"atue":8887,"atura":8888,"atified":8889,"ouched":8890,"Ġfelt":8891,"Ġfarmers":8892,"Ġfingers":8893,"aly":8894,"alaya":8895,"aluge":8896,"itiz":8897,"Ġmag":8898,"Ġmri":8899,"Ġmoun":8900,"Ġmak":8901,"Ġmast":8902,"Ġmarsa":8903,"isu":8904,"iser":8905,"isare":8906,"onies":8907,"enable":8908,"enous":8909,"entered":8910,"enched":8911,"Ġhig":8912,"Ġhav":8913,"Ġhip":8914,"Ġhirin":8915,"Ġhabit":8916,"asped":8917,"ilk":8918,"Ġcrow":8919,"Ġcost":8920,"Ġcatch":8921,"Ġcuts":8922,"Ġcircled":8923,"Ġcunning":8924,"reaches":8925,"reinfor":8926,"Ġlav":8927,"Ġlent":8928,"Ġluma":8929,"Ġluhu":8930,"Ġlangu":8931,"Ġdines":8932,"Ġdying":8933,"Ġduly":8934,"Ġdiverted":8935,"Ġaud":8936,"Ġpus":8937,"Ġpounded":8938,"Ġpicked":8939,"Ġpipe":8940,"Ġpiece":8941,"Ġponds":8942,"Ġpriv":8943,"Ġpouches":8944,"Ġgar":8945,"Ġgall":8946,"Ġgetin":8947,"Ġgiri":8948,"lev":8949,"leather":8950,"lemn":8951,"rose":8952,"urine":8953,"Ġinlaw":8954,"elder":8955,"Ġnth":8956,"Ġnag":8957,"thed":8958,"igidu":8959,"igenous":8960,"abu":8961,"abandon":8962,"Ġforb":8963,"oting":8964,"irp":8965,"iru":8966,"irum":8967,"irib":8968,"amade":8969,"amazi":8970,"acle":8971,"acles":8972,"thrit":8973,"imit":8974,"iment":8975,"imdu":8976,"immu":8977,"idingir":8978,"Ġbeyond":8979,"see":8980,"Ġthreat":8981,"ĠEmud":8982,"ĠEengur":8983,"ĠEsikil":8984,"ĠNI":8985,"Ġround":8986,"Ġrays":8987,"Ġrout":8988,"Ġrates":8989,"Ġrides":8990,"ĠUg":8991,"ĠUarum":8992,"unukuga":8993,"ofthe":8994,"ofHeaven":8995,"vering":8996,"Ġshegoat":8997,"Ġstable":8998,"Ġstart":8999,"Ġstayed":9000,"Ġstacked":9001,"Ġstairs":9002,"Ġstalk":9003,"allum":9004,"ĠAbe":9005,"ĠAuni":9006,"ĠAyakala":9007,"ĠIrin":9008,"ĠIgigi":9009,"agena":9010,"Ġwash":9011,"Ġwashed":9012,"Ġwashing":9013,"ĠUraya":9014,"ĠUrNinurta":9015,"ĠUrDumuzi":9016,"struct":9017,"structed":9018,"eared":9019,"utar":9020,"uten":9021,"utalla":9022,"ria":9023,"ĠLuk":9024,"ĠLala":9025,"Ġbark":9026,"Ġarsi":9027,"Ġargu":9028,"Ġarchivist":9029,"Ġarisen":9030,"Ġarthrit":9031,"ugina":9032,"Ġlip":9033,"ential":9034,"entarzi":9035,"Ġread":9036,"Ġwithd":9037,"Ġwithstood":9038,"Ġshut":9039,"Ġshores":9040,"Ġsilos":9041,"Ġitstheir":9042,"Ġplated":9043,"Ġatec":9044,"ecrated":9045,"Ġmet":9046,"Ġmeaning":9047,"ceaseless":9048,"ipak":9049,"ĠSz":9050,"ĠSon":9051,"ĠSaman":9052,"ĠSilver":9053,"ĠEnlila":9054,"ĠGa":9055,"ĠGab":9056,"ĠGive":9057,"ĠGirnun":9058,"ifer":9059,"Ġgrab":9060,"Ġgrant":9061,"Ġgrave":9062,"Ġgrapes":9063,"Ġgratified":9064,"udar":9065,"uded":9066,"udra":9067,"Ġki":9068,"Ġkad":9069,"Ġanew":9070,"Ġspan":9071,"Ġspelt":9072,"ountry":9073,"quence":9074,"usc":9075,"usi":9076,"usag":9077,"usion":9078,"Ġhouseborn":9079,"Ġchann":9080,"Ġchambers":9081,"Ġencl":9082,"Ġennupriest":9083,"ubaga":9084,"ubani":9085,"aki":9086,"akara":9087,"akalla":9088,"Ġpress":9089,"Ġpride":9090,"Ġdestroyer":9091,"Ġorig":9092,"Ġ51":9093,"oods":9094,"Ġoutfl":9095,"Ġoutcry":9096,"Ġlabortroop":9097,"feed":9098,"ĠAnheaven":9099,"Ġabra":9100,"Ġability":9101,"Ġ432":9102,"ougho":9103,"ĠNingek":9104,"ĠNingirim":9105,"ĠKutalla":9106,"chit":9107,"churn":9108,"Ġunable":9109,"Ġundo":9110,"Ġunblem":9111,"Ġunrivaled":9112,"Ġambush":9113,"Ġamenable":9114,"Ġactu":9115,"Ġexit":9116,"Ġexult":9117,"Ġgrainhe":9118,"Ġthereby":9119,"ĠInann":9120,"Ġpeer":9121,"Ġofficials":9122,"Ġvan":9123,"Ġvari":9124,"Ġvillage":9125,"Ġflap":9126,"Ġflame":9127,"Ġflash":9128,"Ġjamb":9129,"Ġibart":9130,"Ġibex":9131,"ĠDel":9132,"ĠDim":9133,"ĠDonkey":9134,"ĠDrum":9135,"ĠDamu":9136,"ĠBe":9137,"ĠBurSin":9138,"ĠMother":9139,"ĠManum":9140,"ĠMubi":9141,"ĠMultitudes":9142,"Enak":9143,"Enanedu":9144,"Ġproved":9145,"Ġpropit":9146,"Urg":9147,"Uram":9148,"ĠHave":9149,"ĠHani":9150,"ĠHuwaw":9151,"ĠHuwawa":9152,"Ġsetadv":9153,"ishly":9154,"Ġquit":9155,"izes":9156,"ization":9157,"oped":9158,"aza":9159,"aze":9160,"azame":9161,"Ġalluring":9162,"shrine":9163,"shaped":9164,"Ġstored":9165,"osal":9166,"osts":9167,"ĠLugala":9168,"ĠLugaligi":9169,"ĠLugalgudu":9170,"ĠLugalsiskure":9171,"Ġnameyear":9172,"perform":9173,"Ġhandw":9174,"icken":9175,"Ġaccum":9176,"Ġaccused":9177,"ctions":9178,"ctive":9179,"pluck":9180,"places":9181,"ĠAkiti":9182,"Ġnets":9183,"Ġheadplowmen":9184,"Ġknobs":9185,"Ġcargo":9186,"Ġovercome":9187,"Ġlordly":9188,"Ġoxenmanager":9189,"Ġboar":9190,"Ġboasted":9191,"verness":9192,"auz":9193,"Ġresides":9194,"Ġadorn":9195,"Ana":9196,"Angry":9197,"ĠTop":9198,"ĠThr":9199,"ĠTarsirsir":9200,"kali":9201,"Ġapex":9202,"kuraga":9203,"Ġdecor":9204,"Ġearthcarrying":9205,"Ġearthmoving":9206,"Ġpurebright":9207,"Ninura":9208,"Ġsmites":9209,"Ġsmashes":9210,"Ġdivor":9211,"Ġdivided":9212,"prov":9213,"prostitute":9214,"marsh":9215,"Ġwealth":9216,"ĠFitting":9217,"ĠFoundation":9218,"ĠLuG":9219,"ĠLuEnlila":9220,"ĠLuNarua":9221,"Ġcornel":9222,"Enlils":9223,"Enlilgin":9224,"ibi":9225,"Ġblocking":9226,"Ġblunted":9227,"ĠPA":9228,"ĠPers":9229,"Sni":9230,"venge":9231,"Ġclim":9232,"Ġclut":9233,"Ġclose":9234,"Ġslain":9235,"Ġslapped":9236,"Ġsuck":9237,"Ġsolemn":9238,"Ġdrain":9239,"Ġdress":9240,"Ġafterward":9241,"Ġua":9242,"Ġuum":9243,"ĠErr":9244,"ĠErra":9245,"Ġunderstand":9246,"Ġundertaker":9247,"Ġtract":9248,"Ġtroubled":9249,"oughmen":9250,"Ġhoisting":9251,"ĠWat":9252,"ĠWay":9253,"anga":9254,"angled":9255,"ĠUrNanna":9256,"Ġ72":9257,"Ġ75":9258,"Ġ77":9259,"arvation":9260,"Ġplowed":9261,"innum":9262,"Ġhighway":9263,"Ġwordcase":9264,"Ġregarded":9265,"Ġregulations":9266,"Ġwoods":9267,"Ġsweetinto":9268,"Ġcontr":9269,"Ġdesecrated":9270,"Ġpraises":9271,"Ġulgiirimu":9272,"joining":9273,"joicing":9274,"Ġarmed":9275,"Ġremit":9276,"UrNungal":9277,"Ġdiscer":9278,"Ġdissemin":9279,"Ġ144":9280,"ĠZuzu":9281,"speaking":9282,"Ġturning":9283,"Ġturnips":9284,"Ġdistur":9285,"ĠAbbamu":9286,"priestess":9287,"exp":9288,"butter":9289,"ĠHousehold":9290,"Ġcountenance":9291,"Ġincites":9292,"Ġinclud":9293,"Ġrivers":9294,"Ġrivercanal":9295,"bably":9296,"Ġsniff":9297,"Ġcleverness":9298,"reeds":9299,"Ġenduring":9300,"ĠAmor":9301,"ĠAmagetin":9302,"Ġliters":9303,"Ġelaborate":9304,"ĠAdgarkidug":9305,"Alulu":9306,"ĠGreatstele":9307,"Ġkindly":9308,"Ġwishes":9309,"Ġpours":9310,"Ġsqueez":9311,"Ġbigcheese":9312,"mbol":9313,"ĠOut":9314,"Ġfog":9315,"Ġcrack":9316,"ption":9317,"Ġverified":9318,"Ġseventh":9319,"Ġservants":9320,"Ġfulltime":9321,"Ġmater":9322,"Ġmatron":9323,"Ġsunset":9324,"onsumed":9325,"Ġthingsfood":9326,"Ġdogstranger":9327,"tective":9328,"Ġneckstock":9329,"Ġperforms":9330,"Ġperformer":9331,"144":9332,"147":9333,"Ġstandingplace":9334,"ordered":9335,"Ġinterrup":9336,"ĠAgugu":9337,"Ġfinely":9338,"Ġprayeroffering":9339,"Ġcourrier":9340,"Ġpathas":9341,"Ġartful":9342,"ĠSnm":9343,"ĠSnbalssuiqbi":9344,"Ġmilking":9345,"Ġgreet":9346,"longfleeced":9347,"Ġcolored":9348,"Ġpurp":9349,"Ġpurity":9350,"Ġproduces":9351,"Ġproducing":9352,"Ġnewborn":9353,"therein":9354,"ĠLugula":9355,"Ġcalc":9356,"criptions":9357,"ĠZabu":9358,"Ġpunched":9359,"Ġguarant":9360,"184":9361,"ĠNigurum":9362,"Ġfearing":9363,"Ġkeel":9364,"Ġmuster":9365,"Ġmusical":9366,"action":9367,"alik":9368,"Ġglowing":9369,"Ġglory":9370,"Ġrighteously":9371,"Ġlaying":9372,"threshing":9373,"ternal":9374,"ĠKeekug":9375,"Ġperfecting":9376,"Ġcoach":9377,"Ġcoals":9378,"Ġradiant":9379,"irigan":9380,"siana":9381,"Ġpotter":9382,"Ġcattlepens":9383,"never":9384,"Ġflew":9385,"Sever":9386,"Seven":9387,"Ġtasks":9388,"Ġinspections":9389,"Ġinspectors":9390,"KAL":9391,"banidu":9392,"Ġtrusty":9393,"Standing":9394,"lessly":9395,"ĠEzida":9396,"Ġprovin":9397,"clan":9398,"Ġbrightly":9399,"ĠMeEnlil":9400,"know":9401,"knowing":9402,"Ġfigurine":9403,"Ġhurled":9404,"Ġhungry":9405,"Ġexert":9406,"Ġscatter":9407,"arging":9408,"Ġthickened":9409,"ĠInimInanna":9410,"Ġlocusts":9411,"Ġbasalt":9412,"Ġrecited":9413,"Ġrecogn":9414,"Ġstraightened":9415,"Ġstraightaway":9416,"Ġsymbol":9417,"Ġheavily":9418,"Ġlieuten":9419,"Ġdisposal":9420,"Ġheirs":9421,"Ġencirc":9422,"Ġencircled":9423,"Ġdoublehour":9424,"Ġrivals":9425,"Ġexpendit":9426,"Ġjunipercedar":9427,"Ġrituals":9428,"Ġgrasping":9429,"Ġcombined":9430,"Ġtallow":9431,"usaizu":9432,"debit":9433,"Ġdeluge":9434,"Ġudugita":9435,"Ġmarvelsee":9436,"Ġrichly":9437,"ĠAmarki":9438,"trans":9439,"Ġpiling":9440,"ĠNindar":9441,"ĠBigfestival":9442,"ĠStand":9443,"ĠFestivalofMe":9444,"ĠFestivalofNinazu":9445,"Ġmarshland":9446,"Ġmultiplication":9447,"black":9448,"Ġfulfill":9449,"Ġconsort":9450,"handed":9451,"handle":9452,"interpreter":9453,"ĠGANxHI":9454,"building":9455,"ĠLugalegal":9456,"waterway":9457,"Ġtavernbrewer":9458,"Ġfortification":9459,"Ġplanks":9460,"NaneGIRgal":9461,"cratched":9462,"Ġmales":9463,"Ġmalicious":9464,"ĠIribare":9465,"Ġfrightening":9466,"Ġbetters":9467,"Ġclaims":9468,"Agade":9469,"Ġobey":9470,"Ġlibations":9471,"Ġreedbeds":9472,"keepers":9473,"Ġvegetation":9474,"Ġsacrifices":9475,"Ġsacrificed":9476,"Going":9477,"Ġrelative":9478,"Ġcharming":9479,"Ġexorcist":9480,"Ġprocession":9481,"Ġallotments":9482,"ĠHillockofplant":9483,"ĠHillockofacacia":9484,"Aruru":9485,"Ġtumult":9486,"Ġpainfully":9487,"Ġexpert":9488,"Ġexecuted":9489,"Ġbreeding":9490,"ĠLugalemu":9491,"Ġterrifying":9492,"rinkling":9493,"Ġesaga":9494,"Ġlugalane":9495,"Ġlugalbanda":9496,"Ġabundantly":9497,"Ġcultivation":9498,"Ġweary":9499,"Ġelephant":9500,"Ġslanderer":9501,"Ġdaistent":9502,"plowoxen":9503,"Ġsweeper":9504,"Ġsweeping":9505,"ĠPuzurMama":9506,"ĠPuzurShulgi":9507,"Ġoccupied":9508,"Lugalegal":9509,"aqar":9510,"buuk":9511,"Ġwolves":9512,"Ġfalse":9513,"Ġfalsely":9514,"Ġfrequent":9515,"Ġmasab":9516,"Ġdumud":9517,"Ġachieve":9518,"Ġbridge":9519,"Ġconversing":9520,"Ġdistribution":9521,"Ġaccomplished":9522,"Ġseries":9523,"Ġserpent":9524,"Ġwetnurse":9525,"ĠNimgir":9526,"approached":9527,"Ġordinances":9528,"Ġrobbers":9529,"676":9530,"According":9531,"justice":9532,"Ġsorcer":9533,"Ġgalatura":9534,"Ġguduofficiant":9535,"Ġyielded":9536,"Ġnonex":9537,"Ġbrilliant":9538,"Ġfeeling":9539,"Ġexcessive":9540,"Ġsharpening":9541,"Moreover":9542,"break":9543,"demon":9544,"Ġmembers":9545,"Ġrevoked":9546,"Ġsexual":9547,"Ġsexually":9548,"Ġsprout":9549,"Ġneedle":9550,"Ġdisappearance":9551,"Ġobligation":9552,"contain":9553,"control":9554,"Ġakkan":9555,"Ġpoles":9556,"ĠAwan":9557,"Ġassistants":9558,"Ġfirstfruits":9559,"Ġadditional":9560,"equipped":9561,"junior":9562,"Ġlunches":9563,"Ġthrowsticks":9564,"ĠEbla":9565,"Ġexuberant":9566,"Ġvictories":9567,"Ġallocated":9568,"ĠPabilu":9569,"Boats":9570,"Damgalnuna":9571,"orchards":9572,"Ġgeese":9573,"Ġgems":9574,"ĠGiriniisa":9575,"Ġtrampled":9576,"Ġsubsistance":9577,"Ġorganizedgathered":9578,"anyone":9579,"Ġfilthy":9580,"Ġribs":9581,"ĠEnakale":9582,"eplace":9583,"Ġexchanged":9584,"Ġtherefroms":9585,"Ġrescind":9586,"Ġslingstones":9587,"Ġadmiration":9588,"Ġcucumbers":9589,"ĠSimtiilak":9590,"happiness":9591,"Ġugalam":9592,"Ġsafe":9593,"Ġcollaps":9594,"Ġgusur":9595,"ĠUpper":9596,"Ġstudent":9597,"Ġrealised":9598,"Ġplaque":9599,"ĠGutians":9600,"Ġunshorn":9601,"elluDagan":9602,"Ġflatten":9603,"Ġcaretaker":9604,"ĠGemeganun":9605,"bringing":9606,"Ġslavegirl":9607,"Ġcraftsman":9608,"appropriate":9609,"Ġpronouncements":9610,"Ġrequisitioners":9611,"Child":9612,"Nindara":9613,"atepalm":9614,"Ġmassive":9615,"Ġlullaby":9616,"ĠURUKAgina":9617,"ĠUbifeast":9618,"Ġshelter":9619,"Ġjewels":9620,"Ġquadrupeds":9621,"ĠPuauz":9622,"Ġextremely":9623,"Ġsubstance":9624,"Ġfaceeye":9625,"Ġmulticolored":9626,"Ġacquaintances":9627,"ĠLugalmumag":9628,"Ġfreelyhumbly":9629,"Evildoers":9630,"Eania":9631,"Faithfully":9632,"deficits":9633,"Ġtestimony":9634,"Ġsinew":9635,"Ġposit":9636,"Ġinundated":9637,"ĠIbexof":9638,"ĠLarsas":9639,"Ġreceiving":9640,"Ġspadix":9641,"Ġchampion":9642,"Ġenlarged":9643,"ĠGememunukuga":9644,"Ġfinalized":9645,"ahiatal":9646,"parasite":9647,"amiqiliu":9648,"Ġcloisters":9649,"Ġfurnishings":9650,"Ġpatrimonial":9651,"ĠFirstfruits":9652,"ĠMunusgilsa":9653,"Destroyer":9654,"flesh":9655,"Ġildag":9656,"heavy":9657,"Ġtamarisk":9658,"Ġsenior":9659,"Ġmriqtidnim":9660,"Ġmounted":9661,"Ġlavishly":9662,"Ġlanguage":9663,"Ġprivate":9664,"Ġnagabtum":9665,"abandoned":9666,"iribam":9667,"ĠEmudkura":9668,"Ġroute":9669,"Ġarthritic":9670,"Ġateconsumed":9671,"Ġunblemished":9672,"Ġibartum":9673,"Ġpropitious":9674,"ĠHuwawamade":9675,"Ġsetadvanced":9676,"ĠLugalgudua":9677,"ĠThrone":9678,"Ġsweetintoxicating":9679,"Ġdiscernment":9680,"Ġprayerofferingritual":9681,"ĠFestivalofMekigal":9682,"Ġtavernbrewery":9683,"ĠHillockofplantoil":9684,"112":9685,"115":9686,"39":9687,"46":9688,"59":9689,"75":9690,"AB":9691,"AM":9692,"Aw":9693,"Az":9694,"Abi":9695,"Auni":9696,"Author":9697,"Apart":9698,"BI":9699,"Built":9700,"Battle":9701,"BAD":9702,"Bagara":9703,"Baran":9704,"Car":9705,"Com":9706,"Dingira":9707,"Distant":9708,"Damiqiliu":9709,"Ez":9710,"Ere":9711,"Eld":9712,"Egal":9713,"Emah":9714,"Fearing":9715,"Growing":9716,"Geme":9717,"Gududu":9718,"Hani":9719,"Ig":9720,"Ibi":9721,"Ipae":9722,"Jun":9723,"Kazallu":9724,"LU":9725,"Lub":9726,"Lamm":9727,"Ma":9728,"Making":9729,"Matur":9730,"Ne":9731,"Nu":9732,"Nab":9733,"Nim":9734,"Nun":9735,"Named":9736,"Nungal":9737,"Neti":9738,"Outs":9739,"Pl":9740,"Pu":9741,"RI":9742,"Run":9743,"River":9744,"Rushes":9745,"Return":9746,"Replace":9747,"Sc":9748,"Sm":9749,"Sil":9750,"Some":9751,"Samsuiluna":9752,"Sirara":9753,"Turn":9754,"Taken":9755,"Tummal":9756,"Tablet":9757,"Unig":9758,"Wind":9759,"Wild":9760,"Zam":9761,"aus":9762,"awn":9763,"bam":9764,"breat":9765,"basket":9766,"bone":9767,"bull":9768,"bra":9769,"brown":9770,"breed":9771,"bond":9772,"cool":9773,"calf":9774,"ciful":9775,"craf":9776,"corp":9777,"dir":9778,"dant":9779,"date":9780,"dire":9781,"drum":9782,"during":9783,"dark":9784,"dress":9785,"dili":9786,"double":9787,"eat":9788,"eur":9789,"eking":9790,"eign":9791,"ebr":9792,"evel":9793,"eila":9794,"fur":9795,"fear":9796,"fight":9797,"fate":9798,"furn":9799,"front":9800,"gab":9801,"gam":9802,"gear":9803,"gud":9804,"gold":9805,"garm":9806,"gird":9807,"gazi":9808,"hak":9809,"hide":9810,"haps":9811,"hali":9812,"ikur":9813,"iwork":9814,"iage":9815,"ioc":9816,"ja":9817,"kallum":9818,"lor":9819,"lay":9820,"lib":9821,"lative":9822,"lapis":9823,"mas":9824,"mour":9825,"male":9826,"mite":9827,"mans":9828,"mats":9829,"meme":9830,"nal":9831,"nunk":9832,"oing":9833,"oices":9834,"phe":9835,"path":9836,"pread":9837,"prison":9838,"prinkling":9839,"qa":9840,"rak":9841,"rade":9842,"rings":9843,"rates":9844,"range":9845,"rani":9846,"rating":9847,"raged":9848,"rider":9849,"sw":9850,"sple":9851,"send":9852,"sold":9853,"some":9854,"sasa":9855,"sweet":9856,"tig":9857,"tam":9858,"tri":9859,"till":9860,"tears":9861,"tie":9862,"tten":9863,"touching":9864,"uven":9865,"uanas":9866,"ueship":9867,"vine":9868,"wearing":9869,"yrup":9870,"yria":9871,"zed":9872,"zit":9873,"zad":9874,"zab":9875,"zana":9876,"Ġull":9877,"ĠelluDagan":9878,"hero":9879,"hest":9880,"heart":9881,"heese":9882,"Ġtug":9883,"Ġtight":9884,"Ġtried":9885,"Ġtie":9886,"Ġtax":9887,"Ġov":9888,"Ġoar":9889,"Ġori":9890,"Ġsight":9891,"Ġsown":9892,"Ġsings":9893,"Ġsowed":9894,"Ġself":9895,"Ġsense":9896,"eric":9897,"ermin":9898,"Ġofwhere":9899,"Ġbod":9900,"Ġbount":9901,"Ġbite":9902,"Ġbrown":9903,"Ġbends":9904,"arag":9905,"arAn":9906,"arkali":9907,"arinnum":9908,"Ġwides":9909,"edam":9910,"aten":9911,"atim":9912,"atings":9913,"atred":9914,"Ġfro":9915,"Ġfec":9916,"Ġfought":9917,"Ġfib":9918,"Ġfoster":9919,"alg":9920,"alp":9921,"aling":9922,"alamu":9923,"aluh":9924,"itana":9925,"itches":9926,"Ġmou":9927,"Ġmir":9928,"Ġmun":9929,"Ġmug":9930,"Ġmates":9931,"Ġmons":9932,"Ġmss":9933,"Ġmax":9934,"Ġmoney":9935,"Ġmutt":9936,"Ġmirror":9937,"esaga":9938,"only":9939,"onind":9940,"onious":9941,"eners":9942,"enuru":9943,"Ġhay":9944,"Ġhinds":9945,"Ġhiding":9946,"Ġhirim":9947,"Ġhatred":9948,"asira":9949,"asured":9950,"ilen":9951,"ilpa":9952,"Ġcum":9953,"Ġcada":9954,"Ġcasts":9955,"Ġcereal":9956,"Ġcelebr":9957,"rev":9958,"rever":9959,"reach":9960,"rears":9961,"releas":9962,"Ġlon":9963,"Ġlaga":9964,"Ġlice":9965,"Ġlint":9966,"Ġdaba":9967,"Ġdies":9968,"Ġdair":9969,"Ġdedicate":9970,"Ġdiff":9971,"Ġdedu":9972,"Ġdatepalm":9973,"Ġaz":9974,"Ġaid":9975,"Ġaagar":9976,"Ġagala":9977,"Ġpan":9978,"Ġple":9979,"Ġpum":9980,"Ġpant":9981,"Ġpup":9982,"Ġpier":9983,"Ġpounds":9984,"Ġpupp":9985,"Ġpouch":9986,"Ġpounced":9987,"Ġgab":9988,"Ġgid":9989,"Ġgala":9990,"Ġgore":9991,"Ġgadala":9992,"Ġgermin":9993,"leg":9994,"leveled":9995,"road":9996,"roof":9997,"rotten":9998,"uram":9999,"urest":10000,"Ġhew":10001,"Ġheat":10002,"Ġhegoats":10003,"Ġind":10004,"Ġinon":10005,"Ġinex":10006,"Ġinflicted":10007,"Ġinduces":10008,"Ġtog":10009,"Ġtofor":10010,"Ġnun":10011,"Ġnom":10012,"Ġnaga":10013,"Ġnov":10014,"Ġnonind":10015,"aduga":10016,"igimu":10017,"aban":10018,"aben":10019,"abid":10020,"abta":10021,"Ġforef":10022,"Ġforced":10023,"Ġforserv":10024,"Ġforward":10025,"oteric":10026,"irds":10027,"irina":10028,"iraran":10029,"amin":10030,"ames":10031,"amel":10032,"ammer":10033,"amati":10034,"amnunk":10035,"acred":10036,"throw":10037,"imuda":10038,"imiting":10039,"idary":10040,"Ġeight":10041,"Ġeme":10042,"holy":10043,"Ġbef":10044,"Ġbeings":10045,"seal":10046,"separ":10047,"Ġthor":10048,"ĠEe":10049,"ĠEur":10050,"ĠEam":10051,"ĠEst":10052,"ĠEunir":10053,"ĠEumea":10054,"ĠNar":10055,"ĠNUN":10056,"ulace":10057,"Ġrav":10058,"Ġrather":10059,"Ġrainst":10060,"Ġrazed":10061,"Ġrabid":10062,"ĠUd":10063,"ĠUbar":10064,"ĠUmu":10065,"ĠUtum":10066,"ĠUgur":10067,"ĠUgn":10068,"ĠUbuuk":10069,"unsealed":10070,"umun":10071,"oft":10072,"verted":10073,"verdant":10074,"Ġisare":10075,"esty":10076,"estar":10077,"Ġshearl":10078,"icate":10079,"Ġston":10080,"Ġstakes":10081,"Ġstunn":10082,"Ġstarvation":10083,"alli":10084,"ĠAS":10085,"ĠAfter":10086,"ĠAEnlil":10087,"ĠAabba":10088,"ĠIM":10089,"ĠIs":10090,"ĠIbni":10091,"ĠIgiz":10092,"agugal":10093,"oday":10094,"ĠUren":10095,"ĠUrru":10096,"ĠUrEnlil":10097,"ĠUrgu":10098,"ĠUrendursag":10099,"ĠUrIgalim":10100,"ĠUrImma":10101,"ĠUrakkan":10102,"ĠUriru":10103,"statue":10104,"avings":10105,"utes":10106,"utur":10107,"utions":10108,"ribs":10109,"ĠLuz":10110,"ĠLuba":10111,"ĠLamm":10112,"ĠLapis":10113,"Ġbarbar":10114,"Ġwhoever":10115,"Ġarazame":10116,"Ġarzana":10117,"Ġlizard":10118,"Ġkingal":10119,"Ġkingmaster":10120,"Ġremar":10121,"Ġreward":10122,"aints":10123,"Ġseas":10124,"Ġshameless":10125,"Ġshavings":10126,"ĠEninn":10127,"foremen":10128,"Ġ215":10129,"eps":10130,"eppe":10131,"anning":10132,"ived":10133,"Ġmanworker":10134,"Ġmananyone":10135,"upae":10136,"tood":10137,"tool":10138,"tocks":10139,"Ġworn":10140,"Ġworried":10141,"Ġherbs":10142,"Ġgoad":10143,"ceip":10144,"ipro":10145,"ipper":10146,"ipment":10147,"ĠSI":10148,"ĠSo":10149,"ĠSil":10150,"ĠSec":10151,"ĠSIG":10152,"ĠSiraran":10153,"ĠEnlilship":10154,"Ġgurma":10155,"ĠGod":10156,"ĠGUR":10157,"ĠGiri":10158,"ĠGarana":10159,"Ġfromat":10160,"ude":10161,"udg":10162,"uding":10163,"Ġkib":10164,"Ġbrough":10165,"Ġbramb":10166,"Ġangr":10167,"Ġanvil":10168,"Ġspind":10169,"Ġspell":10170,"Ġspared":10171,"Ġspittle":10172,"Ġspades":10173,"Ġasks":10174,"Ġasked":10175,"Ġaslum":10176,"Ġdocks":10177,"Ġupstream":10178,"Ġdestoyed":10179,"Ġcitycities":10180,"usisa":10181,"Ġchapel":10182,"ĠNinild":10183,"ĠNinti":10184,"ĠNinurt":10185,"ĠNinsik":10186,"ĠNinSAR":10187,"ĠNinsiana":10188,"Ġenact":10189,"Ġenkum":10190,"Ġenraged":10191,"ubin":10192,"ubar":10193,"ubba":10194,"ubalag":10195,"akan":10196,"akum":10197,"Ind":10198,"Indeed":10199,"Inuinak":10200,"erve":10201,"erving":10202,"Ġwhir":10203,"Head":10204,"Ġprim":10205,"rua":10206,"oval":10207,"istence":10208,"arta":10209,"ĠAnthe":10210,"ĠAnail":10211,"Ġabuse":10212,"Ġalub":10213,"Ġalthough":10214,"Ġ41":10215,"ĠKur":10216,"ĠKim":10217,"ĠKings":10218,"ĠKara":10219,"ĠKian":10220,"ĠKurz":10221,"ĠKirit":10222,"ĠKakug":10223,"ĠKIAN":10224,"chick":10225,"chair":10226,"chants":10227,"Ġ126":10228,"Ġunt":10229,"Ġunw":10230,"Ġunleas":10231,"Ġunchang":10232,"Ġamarm":10233,"eller":10234,"ellation":10235,"Ġcomrade":10236,"Ġexiled":10237,"ĠIntae":10238,"Ġofficiant":10239,"Ġoffabandoned":10240,"Ġvis":10241,"Ġvon":10242,"Ġvoices":10243,"Ġflows":10244,"Ġflashes":10245,"Ġflanks":10246,"Ġjum":10247,"Ġjail":10248,"Ġjuven":10249,"aisa":10250,"ĠDer":10251,"ĠDud":10252,"ĠDabala":10253,"ĠBo":10254,"ĠBan":10255,"ĠBil":10256,"ĠBeloved":10257,"ĠBani":10258,"Ġconven":10259,"Ġconifer":10260,"ĠMu":10261,"ĠMonth":10262,"ĠMarad":10263,"ĠMuru":10264,"Ġsilvery":10265,"Enmen":10266,"Endingirmu":10267,"Ġprolif":10268,"UrEnlila":10269,"UrDamu":10270,"UrZababa":10271,"UrMami":10272,"Ġnoses":10273,"ĠHis":10274,"ĠHamazi":10275,"Ġpeopleland":10276,"Ġheavenwards":10277,"izing":10278,"open":10279,"opened":10280,"azum":10281,"azige":10282,"Ġally":10283,"Ġallknowing":10284,"endri":10285,"Ġwatched":10286,"shgi":10287,"short":10288,"Ġsealbearer":10289,"worm":10290,"working":10291,"Ġbeerbread":10292,"ĠLugalge":10293,"ĠLugalpae":10294,"ĠLugalgir":10295,"ĠLugalpirig":10296,"ĠLugalkisalsi":10297,"ĠNannaSuen":10298,"gibil":10299,"galabzu":10300,"Ġhandiwork":10301,"assign":10302,"Ġaccord":10303,"Ġperman":10304,"cting":10305,"ponsible":10306,"play":10307,"plants":10308,"Ġfourth":10309,"ĠAktu":10310,"ĠAkala":10311,"Ġwatermarsh":10312,"Ġcanebr":10313,"Itr":10314,"ulled":10315,"Ġheadgear":10316,"Ġcaress":10317,"Ġcarriers":10318,"Ġloin":10319,"answers":10320,"Ġbursag":10321,"Ġ63":10322,"Ġ648":10323,"Ġbother":10324,"Ġmightyreinfor":10325,"Ġresidu":10326,"Ġroam":10327,"Ġroars":10328,"Ġroll":10329,"Ġropes":10330,"Ġadjoining":10331,"Ġadamin":10332,"Ann":10333,"Any":10334,"Anan":10335,"Ġtowed":10336,"Ġtowpath":10337,"ĠTult":10338,"ĠTram":10339,"ĠTutt":10340,"ĠTipak":10341,"kalimmu":10342,"Ġbirch":10343,"Ġapkallum":10344,"Ġagrig":10345,"Ġagadala":10346,"Ġleaving":10347,"Ġlegs":10348,"Ġleaning":10349,"anean":10350,"aneously":10351,"weight":10352,"weaving":10353,"barad":10354,"barber":10355,"ighth":10356,"auseways":10357,"Nins":10358,"Ġthrash":10359,"Ġsmell":10360,"Ġsmashing":10361,"Ġsmeared":10362,"Ġdividing":10363,"ueigimu":10364,"Ġtowardsalone":10365,"edicating":10366,"armed":10367,"armUram":10368,"Ġerases":10369,"Ġeridingir":10370,"Ġweir":10371,"ĠFierce":10372,"ĠFurious":10373,"ĠLuGudea":10374,"ĠLuaya":10375,"ĠLuazida":10376,"ĠLuZabala":10377,"ibility":10378,"Ġwoolsheep":10379,"ĠPada":10380,"ĠPirig":10381,"ĠPasira":10382,"Ġinstitut":10383,"shipyard":10384,"Ġclar":10385,"Ġclosed":10386,"Ġclenched":10387,"Ġslack":10388,"Ġsuh":10389,"Ġsocket":10390,"Ġuw":10391,"Ġtrad":10392,"Ġtrack":10393,"Ġhoof":10394,"anging":10395,"Ġpregn":10396,"ĠUrNisaba":10397,"ĠUrNamnunk":10398,"peas":10399,"people":10400,"Ġ81":10401,"Ġ83":10402,"Ġruling":10403,"urszad":10404,"Ġcommits":10405,"Ġcommission":10406,"Ġsarcast":10407,"Ġswee":10408,"Ġrests":10409,"Ġrestoring":10410,"Ġrestores":10411,"Ġwomanhood":10412,"Ġhighquality":10413,"worktroops":10414,"overty":10415,"without":10416,"withstand":10417,"Ġlapidary":10418,"Ġregard":10419,"123":10420,"taulu":10421,"ĠAbsim":10422,"Ġsweeten":10423,"Ġdesol":10424,"Ġmouthword":10425,"Ġimmo":10426,"Ġattend":10427,"Ġattack":10428,"Ġattacked":10429,"Ġstrengthen":10430,"Ġbrickmold":10431,"ensils":10432,"accheese":10433,"Ġbrotherhood":10434,"ancing":10435,"Ġ99":10436,"Ġpresentation":10437,"ĠCon":10438,"ĠCom":10439,"ĠCattle":10440,"ĠCedar":10441,"ĠCountry":10442,"ĠCauseways":10443,"Ġfinequality":10444,"Ġ147":10445,"ĠZam":10446,"Ġextr":10447,"Ġextol":10448,"Ġextract":10449,"board":10450,"boats":10451,"Ġsubdu":10452,"spoke":10453,"speckled":10454,"Ġbackcon":10455,"Lugalnig":10456,"Lugalinimgina":10457,"Lugalmagure":10458,"istern":10459,"ĠAbbau":10460,"ĠAbbagena":10461,"kins":10462,"tlement":10463,"Ġmarhali":10464,"Ġdoorkeeper":10465,"Ġbirthmother":10466,"Ġanymore":10467,"Ġincised":10468,"Ġincising":10469,"Ġriverine":10470,"passes":10471,"flood":10472,"flame":10473,"flower":10474,"riting":10475,"Ġsnacking":10476,"unner":10477,"Ġintone":10478,"Ġintoned":10479,"Ġboundaries":10480,"apsm":10481,"Ġmined":10482,"ĠAmm":10483,"ecked":10484,"appy":10485,"apprentice":10486,"Ġpowerwing":10487,"Ġforeigner":10488,"Ġelite":10489,"Ġbedding":10490,"ĠGemen":10491,"ĠGreatStele":10492,"ĠGreatFestival":10493,"Ġdistantprofound":10494,"Ġjustly":10495,"Ġutensils":10496,"Ġskull":10497,"Ġhowling":10498,"unga":10499,"ĠAlul":10500,"Ġbeautifulverdant":10501,"bilical":10502,"Ġdepression":10503,"egir":10504,"egated":10505,"Ġgrasses":10506,"altum":10507,"Ġbigger":10508,"Ġfattening":10509,"Ġfatteners":10510,"Ġpleasures":10511,"mbled":10512,"Ġfoe":10513,"Ġcrimin":10514,"Ġcranes":10515,"Ġcrescent":10516,"Ġtotality":10517,"Ġsevenheaded":10518,"Ġfullbody":10519,"biya":10520,"Ġsplits":10521,"135":10522,"138":10523,"lightning":10524,"Ġlioness":10525,"Adudu":10526,"laborers":10527,"Ġirsag":10528,"Ġconstable":10529,"ieves":10530,"versing":10531,"Ġ181":10532,"LuBaba":10533,"Ġdebris":10534,"ĠAgades":10535,"ĠGemeulgi":10536,"ĠGemeLamma":10537,"ĠGemeNinubur":10538,"ĠGemeek":10539,"ĠGemeEanna":10540,"ĠGemeeila":10541,"Ġfinest":10542,"Ġbroadened":10543,"Ġprayerritual":10544,"Ġhumility":10545,"anumea":10546,"Ġcourage":10547,"Ġprotecting":10548,"Ġprotection":10549,"Ġcalfgazelle":10550,"ressing":10551,"Ġrepays":10552,"Ġcountryside":10553,"Ġsword":10554,"Ġtops":10555,"Ġconfine":10556,"Ġconfusion":10557,"Ġadvoc":10558,"Without":10559,"pectoral":10560,"Ġorchardman":10561,"Ġlifts":10562,"Ġlifting":10563,"Ġproducts":10564,"zeilen":10565,"Ġwidely":10566,"Ġfavored":10567,"Ġfavorite":10568,"Ġimpose":10569,"Ġcalender":10570,"Ġsuitablecarrying":10571,"volent":10572,"ĠShining":10573,"haver":10574,"haust":10575,"ĠGuugu":10576,"loc":10577,"look":10578,"tiea":10579,"Ġcoveredcovers":10580,"Ġcroaker":10581,"ĠNigBaba":10582,"ĠNigtuku":10583,"Ġharvesttime":10584,"Ġassemblythrone":10585,"Ġedada":10586,"Ġborderland":10587,"Ġborderext":10588,"Ġtreats":10589,"Ġmerely":10590,"Ġmerchants":10591,"Ġmusic":10592,"Ġgroom":10593,"intaba":10594,"Ġwrest":10595,"Ġwrath":10596,"Ġwrapped":10597,"Ġholders":10598,"Ġglance":10599,"Ġentreat":10600,"Ġentry":10601,"throned":10602,"Ġdelivers":10603,"Ġparts":10604,"Ġparaly":10605,"ĠNamnund":10606,"Ġcooked":10607,"ĠPuzris":10608,"Ġdetermining":10609,"Should":10610,"Shouter":10611,"Ġfirmament":10612,"Ġauthorit":10613,"Ġirrigates":10614,"ĠApiak":10615,"ĠARADNanna":10616,"ĠARADula":10617,"Ġshoots":10618,"Ġpotion":10619,"Ġpotters":10620,"Ġredfurious":10621,"Ġraining":10622,"Ġplayer":10623,"dog":10624,"Ġdiworkers":10625,"Ġthroughout":10626,"Ġbalk":10627,"Ġlistening":10628,"Ġpoin":10629,"Ġreverent":10630,"Ġreverence":10631,"Ġsuperlative":10632,"subjug":10633,"Ġdevoured":10634,"Ġdevouring":10635,"Ġbookedouts":10636,"Ġidioc":10637,"Ġactivity":10638,"Ġconsumption":10639,"Ġdemonstr":10640,"Stone":10641,"paralle":10642,"Ġsisters":10643,"Ġornaments":10644,"Ġprovision":10645,"Ġemery":10646,"munu":10647,"Ġsixth":10648,"remote":10649,"Ġgardens":10650,"Ġgrandfather":10651,"Ġbrightened":10652,"Ġbrightfaced":10653,"242":10654,"Ġhurt":10655,"Ġ244":10656,"Ġinnards":10657,"Ġrefused":10658,"elligence":10659,"Ġbreeze":10660,"ĠMesilim":10661,"ĠMesanepada":10662,"Ġtaskarinnum":10663,"Ġbolts":10664,"Ġbolted":10665,"Ġstraighten":10666,"Ġfishes":10667,"ĠArad":10668,"Ġ255":10669,"Ġinsulter":10670,"Ġcollector":10671,"ĠIdilpa":10672,"Ġsubjects":10673,"Ġjudgements":10674,"Ġfunctionaries":10675,"Ġwalk":10676,"Ġinstructing":10677,"Ġintelligent":10678,"Ġresponsibility":10679,"praise":10680,"Ġhoneyplants":10681,"Ġdoublemil":10682,"Ġpopulace":10683,"Ġcarcases":10684,"Ġkeeper":10685,"Ġkills":10686,"Ġkilling":10687,"ĠKuNingal":10688,"Ġtruthful":10689,"rincess":10690,"ĠGazelleFeast":10691,"debt":10692,"Ġtribe":10693,"Ġtriang":10694,"Ġsolitary":10695,"Ġforming":10696,"Ġformation":10697,"Ġformula":10698,"Ġploughshare":10699,"Ġacquired":10700,"Ġexercised":10701,"Ġbestow":10702,"Ġburnt":10703,"ĠAmarSin":10704,"Ġdrip":10705,"Ġdriver":10706,"Ġdrive":10707,"Ġpilasters":10708,"Ġpiloting":10709,"agger":10710,"Ġconveyor":10711,"Ġsaggal":10712,"Ġsagida":10713,"ĠUnaben":10714,"ĠSteppe":10715,"Ġspeed":10716,"Ġfeature":10717,"ĠFestivalofAn":10718,"ĠFestivalofBaba":10719,"raint":10720,"Ġfatbread":10721,"Ġpartic":10722,"ĠNrAdda":10723,"Ġspacecrown":10724,"ĠNinegala":10725,"oints":10726,"Ġsumaccheese":10727,"Ġwickedly":10728,"ormous":10729,"Ġnigdab":10730,"ĠUrEbabbar":10731,"Ġrequest":10732,"ĠUrNingal":10733,"Ġcleansingrites":10734,"shovel":10735,"Ġfamily":10736,"Ġbreaks":10737,"ĠLugalebansa":10738,"iqiam":10739,"taining":10740,"Ġlustrations":10741,"Ġpaste":10742,"Ġpastures":10743,"Ġpastured":10744,"ĠLubimu":10745,"Ġweakness":10746,"Ġweakened":10747,"Ġgazellesnake":10748,"Ġplentyhappiness":10749,"carried":10750,"rests":10751,"restraint":10752,"Ġmaidservant":10753,"Ġhireling":10754,"ĠNagar":10755,"ĠNinkasi":10756,"Ġexistence":10757,"Lugirizal":10758,"arram":10759,"Ġegkuraga":10760,"Ġstallions":10761,"Ġarrowhead":10762,"Ġentirely":10763,"Again":10764,"comb":10765,"ankle":10766,"Ġhonour":10767,"ĠSiniddinam":10768,"ĠSinmagir":10769,"ĠSiniribam":10770,"Ġobliteration":10771,"orningtouching":10772,"Ġcolleagueship":10773,"Under":10774,"respect":10775,"ilaa":10776,"Ġbearded":10777,"Ġrelent":10778,"Ġrelied":10779,"ĠDaUmma":10780,"Ġrebellion":10781,"ĠMeslamtiea":10782,"Ġpickaxing":10783,"Ġpickaxes":10784,"Measured":10785,"Mesilim":10786,"Meskiag":10787,"Ġhomes":10788,"Ġladen":10789,"Ġladders":10790,"Ġthorny":10791,"Ġshrinesea":10792,"Ġshrinesplaces":10793,"anniya":10794,"Ġsolidified":10795,"Nigine":10796,"military":10797,"Ġesoteric":10798,"Ġbellows":10799,"eduana":10800,"Ġkurun":10801,"Ġkurmeasures":10802,"ĠkisikiNinazu":10803,"Ġleaderbond":10804,"Ġtraveling":10805,"harp":10806,"Ġdaggers":10807,"ĠUrGigir":10808,"ĠUrGebare":10809,"Ġcharcoal":10810,"Ġinspire":10811,"Ġinspires":10812,"Ġinquiry":10813,"Ġinquires":10814,"scales":10815,"Ġskins":10816,"Ġdenuded":10817,"Ġpulver":10818,"ĠUruBaba":10819,"Ġgooseflesh":10820,"Ġexude":10821,"Ġflowered":10822,"ĠDingirma":10823,"Ġtowering":10824,"Ġdelightful":10825,"Ġoccupy":10826,"Ġcorrectlyset":10827,"Exuding":10828,"aqartum":10829,"Ġtorches":10830,"Ġfreedom":10831,"Ġfingering":10832,"Ġgetting":10833,"Ġstela":10834,"ĠKAL":10835,"Ġsurround":10836,"Ġrespectful":10837,"Ġsupplicate":10838,"Ġceremonial":10839,"Ġfetters":10840,"Ġcurved":10841,"Ġheeded":10842,"ĠNimintaba":10843,"Ġrendering":10844,"ĠMelu":10845,"Ġsucking":10846,"Ġsucceeds":10847,"Ġincrease":10848,"Ġintention":10849,"Ġfurnished":10850,"Ġcripple":10851,"recieve":10852,"ĠGround":10853,"Ġchickpeas":10854,"Ġoracle":10855,"Ġalienated":10856,"Ġtraprestraint":10857,"lamenting":10858,"Ġremainder":10859,"righteous":10860,"Ġbandage":10861,"Ġmember":10862,"retched":10863,"Ġdubban":10864,"Ġsprouts":10865,"ĠNinmusisa":10866,"ĠNinmueigimu":10867,"Ġcontempl":10868,"Ġknowledgeable":10869,"Ġyouthfulness":10870,"Ġskillful":10871,"Ġpigeons":10872,"Ġoppression":10873,"Look":10874,"Looking":10875,"belong":10876,"siskuroffering":10877,"Ġwintertime":10878,"Ġwonderous":10879,"Ġamazi":10880,"Ġpauper":10881,"Ġpolice":10882,"Ġguilty":10883,"urtura":10884,"urzan":10885,"imposed":10886,"ĠAssyria":10887,"Ġreasoning":10888,"ĠBazizi":10889,"ĠBazige":10890,"ĠMarsh":10891,"Ġassistant":10892,"Ġoverwhelming":10893,"Manifest":10894,"iusudra":10895,"juniper":10896,"ludi":10897,"Ġlunch":10898,"ĠEbgal":10899,"ĠIrigal":10900,"Ġretreat":10901,"Ġsprinkle":10902,"Ġsprinkling":10903,"Ġenvoys":10904,"Ġprimeval":10905,"Ġoffshoots":10906,"Ġvictory":10907,"ĠMagure":10908,"ĠMaguena":10909,"Ġawesomeness":10910,"ĠPabilsag":10911,"Ġcauses":10912,"Ġdawned":10913,"Booked":10914,"Damutak":10915,"Edar":10916,"warf":10917,"Ġannihilating":10918,"Ġwandered":10919,"Ġmadaria":10920,"Ġpotsherds":10921,"ĠEnamzu":10922,"herdsman":10923,"ĠDragon":10924,"Ġsupremely":10925,"Ġimproves":10926,"Ġimproved":10927,"Ġthornbush":10928,"746":10929,"Concerning":10930,"Ġannoyed":10931,"Ġannounced":10932,"Ġgleam":10933,"Ġgleaming":10934,"second":10935,"ĠNanaya":10936,"ĠNanibgal":10937,"Ġstink":10938,"Ġstinking":10939,"Ġarrumil":10940,"Ġexceeding":10941,"ĠMenil":10942,"Ġappeals":10943,"Ġgloriously":10944,"Ġcucumber":10945,"ĠSimtiilhak":10946,"weapon":10947,"Ġdrowned":10948,"Ġphantom":10949,"Ġphantoms":10950,"Ġguggazi":10951,"ĠAudatur":10952,"ĠAudagula":10953,"ĠUrsilalu":10954,"ĠUrsilaluh":10955,"storage":10956,"storeroom":10957,"Ġargument":10958,"ĠEnheduana":10959,"ĠEnheduanas":10960,"ĠEnmebaragesi":10961,"ĠEnmeziana":10962,"ĠSettlement":10963,"Ġgrinding":10964,"ĠAnswer":10965,"ĠKisiga":10966,"Ġflocked":10967,"ĠDukra":10968,"Ġusually":10969,"Ġadvancewithstand":10970,"Ġsituation":10971,"Ġoccurred":10972,"followed":10973,"ibbu":10974,"miditana":10975,"musician":10976,"Ġbabies":10977,"Ġhinges":10978,"Ġdeafness":10979,"Ġaveraged":10980,"Ġpillar":10981,"tstationed":10982,"ĠUrEnunna":10983,"ĠLummag":10984,"Ġarrayed":10985,"Ġascertain":10986,"Ġofficers":10987,"Ġvigor":10988,"ĠDadumu":10989,"Urdukuga":10990,"Ġknotted":10991,"Ġrosettestar":10992,"Ġeloquence":10993,"ĠAszszur":10994,"Ġconsignments":10995,"Ġaccompanied":10996,"Ġziggurat":10997,"Ġextinguished":10998,"Ebla":10999,"Habra":11000,"Responsible":11001,"Slave":11002,"Truly":11003,"trembled":11004,"animal":11005,"Ġbovine":11006,"Ġfoliage":11007,"Ġmottled":11008,"returned":11009,"ĠUlma":11010,"terranean":11011,"Ġstaircase":11012,"Ġonrushing":11013,"ĠAhuni":11014,"ĠEnmahgalana":11015,"Ġalgars":11016,"crippled":11017,"Ġoxdrivers":11018,"ĠMadga":11019,"undulatings":11020,"Ġrolls":11021,"Ġaggressively":11022,"Ġsmoothed":11023,"Ġcontentedly":11024,"Ġskippers":11025,"Ġcompete":11026,"Ġentrusted":11027,"Ġfermenting":11028,"Ġcraftedfurn":11029,"Ġinvestigate":11030,"ĠEmukalama":11031,"Ġembellished":11032,"Ġuncleanliness":11033,"Raising":11034,"nindaba":11035,"Ġursaggalama":11036,"erste":11037,"atillati":11038,"Ġhighest":11039,"Ġhavoc":11040,"Ġhabitations":11041,"Ġaudience":11042,"Ġgetinanna":11043,"Ġforbidden":11044,"oftheL":11045,"Ġoriginal":11046,"Ġactually":11047,"Ġexultant":11048,"ĠInannas":11049,"Ġpeerless":11050,"ĠDelimiting":11051,"ĠMubiana":11052,"Ġhandwriting":11053,"Ġaccumulated":11054,"plucked":11055,"Ġadornment":11056,"AnaDamutak":11057,"Ġdecorations":11058,"ĠPersia":11059,"Ġdisturbed":11060,"expanding":11061,"Ġsniffing":11062,"ĠAmorites":11063,"ĠAmagetinana":11064,"ĠOutlet":11065,"Ġinterrupt":11066,"Ġcoachhouse":11067,"Several":11068,"Ġprovinces":11069,"Ġexpenditure":11070,"Ġfrequenting":11071,"Ġsorcery":11072,"Ġcollapsed":11073,"Baranamtara":11074,"Distantremote":11075,"Ezina":11076,"LUM":11077,"Maazum":11078,"Nunamnir":11079,"breath":11080,"dirie":11081,"evels":11082,"lordship":11083,"spleen":11084,"soldier":11085,"zitara":11086,"Ġwidespread":11087,"Ġfecund":11088,"Ġmunzer":11089,"Ġmonster":11090,"Ġmaximized":11091,"Ġmutton":11092,"Ġcadaver":11093,"reverent":11094,"released":11095,"Ġdairy":11096,"Ġdiffic":11097,"Ġpantry":11098,"Ġgerminating":11099,"Ġinexhaust":11100,"Ġnovice":11101,"Ġnonindigenous":11102,"ĠEstablished":11103,"Ġravages":11104,"Ġrainstorm":11105,"ĠUgnim":11106,"Ġshearlings":11107,"Ġstunned":11108,"ĠAEnlildirie":11109,"ĠUriruvillage":11110,"Ġbroughtstationed":11111,"Ġbrambles":11112,"Ġangrily":11113,"Ġspindle":11114,"ĠNinilduma":11115,"ĠNinsikila":11116,"ĠAnaili":11117,"ĠKurzzeilen":11118,"ĠKiritab":11119,"Ġunleashed":11120,"Ġunchanging":11121,"Ġamarmn":11122,"Ġconvened":11123,"ĠLugalgirizal":11124,"Ġmightyreinforced":11125,"Ġresidue":11126,"Ġtowpaths":11127,"ĠTulta":11128,"ĠTuttul":11129,"edicatingdedicate":11130,"Ġinstituted":11131,"Ġpregnant":11132,"ĠUrNamnunka":11133,"urszadue":11134,"Ġsarcastically":11135,"ĠAbsimt":11136,"Ġimmobil":11137,"Ġbackconfine":11138,"Ġadvocate":11139,"Ġborderextreme":11140,"ĠNamnundak":11141,"Ġidiocy":11142,"paralleled":11143,"ĠIdilpaunu":11144,"Ġdoublemiles":11145,"Ġfatbreads":11146,"undulatingsprinkling":11147,"Ġcraftedfurnished":11148,"AnaDamutaklku":11149,"Distantremoteundulatingsprinkling":11150,"63":11151,"69":11152,"73":11153,"97":11154,"Ac":11155,"Ak":11156,"Aur":11157,"Ame":11158,"Ara":11159,"Aba":11160,"Amag":11161,"Away":11162,"Arua":11163,"Ashgi":11164,"Bre":11165,"Burn":11166,"Build":11167,"Bearing":11168,"Brother":11169,"Beautiful":11170,"BurSin":11171,"Bitter":11172,"Bulma":11173,"Broad":11174,"Cover":11175,"Cont":11176,"Casting":11177,"Citiz":11178,"Dec":11179,"Donkey":11180,"Dingir":11181,"Dagger":11182,"Em":11183,"Es":11184,"Et":11185,"Ekin":11186,"Emb":11187,"Ebih":11188,"Eaar":11189,"Earth":11190,"Fur":11191,"Fear":11192,"Five":11193,"Foll":11194,"Founded":11195,"Gu":11196,"Gal":11197,"Given":11198,"Garana":11199,"Hes":11200,"Half":11201,"Hala":11202,"Ish":11203,"Igi":11204,"Ikalla":11205,"Ibni":11206,"Ja":11207,"Judge":11208,"Ke":11209,"Kas":11210,"Kul":11211,"KAn":11212,"Kae":11213,"Kbi":11214,"Kurub":11215,"Kuzu":11216,"Lq":11217,"Lay":11218,"Lum":11219,"Lion":11220,"Lumm":11221,"Lumma":11222,"LAK":11223,"ME":11224,"Mi":11225,"Mer":11226,"Mar":11227,"Mon":11228,"Mtu":11229,"Muk":11230,"Magan":11231,"Mardu":11232,"Milk":11233,"Namma":11234,"Naw":11235,"Nippur":11236,"Nergal":11237,"Nasilim":11238,"Oxen":11239,"Pab":11240,"Pap":11241,"Pries":11242,"Power":11243,"Pregn":11244,"Palace":11245,"Rit":11246,"Rep":11247,"Rapi":11248,"Risen":11249,"Sig":11250,"Sippar":11251,"SAme":11252,"Te":11253,"Ten":11254,"Time":11255,"TAR":11256,"Tirigan":11257,"Today":11258,"UD":11259,"Uu":11260,"Uree":11261,"Utaulu":11262,"Veter":11263,"Very":11264,"Whe":11265,"Wor":11266,"Wall":11267,"Were":11268,"Wool":11269,"Writ":11270,"Yet":11271,"Zuzu":11272,"Zubaga":11273,"ahe":11274,"aul":11275,"aana":11276,"avering":11277,"bin":11278,"bit":11279,"ball":11280,"bec":11281,"bet":11282,"basketoftablets":11283,"baba":11284,"battle":11285,"bidu":11286,"base":11287,"bred":11288,"bones":11289,"buck":11290,"btum":11291,"bagara":11292,"beak":11293,"can":11294,"cal":11295,"cil":11296,"cent":11297,"city":11298,"cap":11299,"corn":11300,"cious":11301,"cred":11302,"cept":11303,"cannot":11304,"cals":11305,"crim":11306,"copy":11307,"cceed":11308,"claim":11309,"circled":11310,"ciated":11311,"dur":11312,"dep":11313,"done":11314,"down":11315,"days":11316,"dry":11317,"dwell":11318,"dont":11319,"die":11320,"duru":11321,"dorm":11322,"distance":11323,"dupae":11324,"ee":11325,"eh":11326,"eas":11327,"ewell":11328,"eens":11329,"eternal":11330,"evolent":11331,"ft":11332,"fun":11333,"founded":11334,"fron":11335,"felt":11336,"fume":11337,"fBazi":11338,"gas":11339,"gent":11340,"gard":11341,"gull":11342,"gory":11343,"gins":11344,"gotten":11345,"ghost":11346,"gical":11347,"gulation":11348,"gunu":11349,"gshaped":11350,"hout":11351,"hlet":11352,"habit":11353,"iw":11354,"iest":11355,"ibar":11356,"iEnlil":11357,"jar":11358,"judge":11359,"kers":11360,"kara":11361,"kena":11362,"kiri":11363,"kohl":11364,"kkene":11365,"kimdu":11366,"len":11367,"lim":11368,"list":11369,"liver":11370,"loving":11371,"mou":11372,"mith":11373,"mug":11374,"mind":11375,"mend":11376,"must":11377,"mond":11378,"mada":11379,"mAnum":11380,"nt":11381,"now":11382,"ners":11383,"nip":11384,"nect":11385,"nia":11386,"nana":11387,"named":11388,"nunna":11389,"nothing":11390,"nails":11391,"nene":11392,"oiled":11393,"oined":11394,"pis":11395,"pill":11396,"pSn":11397,"qar":11398,"qir":11399,"ray":11400,"resent":11401,"ramp":11402,"rouch":11403,"rescent":11404,"sn":11405,"sed":11406,"sud":11407,"sap":11408,"sare":11409,"says":11410,"six":11411,"sisa":11412,"tch":11413,"town":11414,"tend":11415,"turs":11416,"trowel":11417,"telligence":11418,"ui":11419,"uq":11420,"uit":11421,"uds":11422,"uere":11423,"uff":11424,"uMama":11425,"va":11426,"vived":11427,"wre":11428,"wear":11429,"wol":11430,"wept":11431,"weak":11432,"wailing":11433,"ye":11434,"zid":11435,"zgi":11436,"zani":11437,"zage":11438,"zuzu":11439,"Ġirsu":11440,"Ġide":11441,"ĠOn":11442,"Ġukur":11443,"heads":11444,"Ġtun":11445,"Ġtere":11446,"Ġtire":11447,"Ġtearing":11448,"Ġtissu":11449,"Ġtables":11450,"Ġtrowel":11451,"Ġtangled":11452,"inof":11453,"ints":11454,"ince":11455,"inished":11456,"inens":11457,"inabad":11458,"inisu":11459,"anz":11460,"anag":11461,"anzu":11462,"animu":11463,"anka":11464,"anibgal":11465,"anamtara":11466,"Ġsz":11467,"Ġsed":11468,"Ġsim":11469,"Ġski":11470,"Ġsue":11471,"Ġsows":11472,"Ġsage":11473,"Ġsired":11474,"Ġsounds":11475,"Ġsadu":11476,"Ġsaman":11477,"Ġsoft":11478,"Ġseller":11479,"era":11480,"eras":11481,"erep":11482,"erted":11483,"erry":11484,"errum":11485,"ereturn":11486,"Ġofs":11487,"Ġofat":11488,"Ġofatt":11489,"Ġbul":11490,"Ġbath":11491,"Ġbats":11492,"Ġbush":11493,"arf":11494,"arke":11495,"arts":11496,"arri":11497,"arent":11498,"arily":11499,"arasi":11500,"arabi":11501,"Ġwed":11502,"Ġwur":11503,"Ġwrong":11504,"Ġwars":11505,"Ġwagg":11506,"Ġwaning":11507,"orth":11508,"orious":11509,"orial":11510,"oritative":11511,"edin":11512,"edanumea":11513,"atd":11514,"atig":11515,"ature":11516,"atia":11517,"attering":11518,"atibira":11519,"atofHeaven":11520,"oup":11521,"outhern":11522,"Ġfara":11523,"Ġfolds":11524,"Ġfails":11525,"Ġfeces":11526,"Ġfawn":11527,"alil":11528,"alist":11529,"aludu":11530,"item":11531,"itating":11532,"itfully":11533,"itae":11534,"itals":11535,"Ġmel":11536,"Ġmom":11537,"Ġmilled":11538,"Ġmesh":11539,"Ġmoll":11540,"Ġmuhu":11541,"isto":11542,"istered":11543,"isasa":11544,"isiga":11545,"isige":11546,"isimti":11547,"ingirsu":11548,"esters":11549,"onesh":11550,"enem":11551,"ench":11552,"ency":11553,"encour":11554,"Ġhut":11555,"Ġhug":11556,"Ġhud":11557,"Ġhana":11558,"Ġhamm":11559,"Ġhuts":11560,"Ġhosts":11561,"Ġhammer":11562,"Ġhulled":11563,"ask":11564,"aserv":11565,"asage":11566,"ilight":11567,"ilated":11568,"ilities":11569,"Ġcou":11570,"Ġcave":11571,"Ġchis":11572,"Ġcerv":11573,"Ġcakes":11574,"Ġcren":11575,"Ġcatching":11576,"Ġcamel":11577,"rear":11578,"rets":11579,"rehen":11580,"replaced":11581,"reversing":11582,"Ġlum":11583,"Ġlag":11584,"Ġlack":11585,"Ġlater":11586,"Ġlubi":11587,"Ġlagar":11588,"Ġlacking":11589,"Ġlarak":11590,"Ġlisin":11591,"Ġlute":11592,"Ġlengthen":11593,"Ġlinens":11594,"Ġdear":11595,"Ġdus":11596,"Ġdare":11597,"Ġdroop":11598,"Ġdiverse":11599,"Ġdashing":11600,"Ġdoubled":11601,"Ġah":11602,"Ġaur":11603,"Ġaus":11604,"Ġagi":11605,"Ġakal":11606,"Ġaua":11607,"Ġpiv":11608,"Ġpet":11609,"Ġpainst":11610,"Ġpae":11611,"Ġpush":11612,"Ġpubl":11613,"Ġpieces":11614,"Ġpoverty":11615,"Ġgear":11616,"Ġgated":11617,"Ġguz":11618,"Ġgubi":11619,"Ġgotten":11620,"lead":11621,"lected":11622,"leopard":11623,"rops":11624,"roken":11625,"rodent":11626,"rophe":11627,"urd":11628,"urre":11629,"urur":11630,"urker":11631,"urabi":11632,"Ġheeds":11633,"Ġheaping":11634,"Ġinim":11635,"Ġindu":11636,"Ġinfl":11637,"Ġinappropriate":11638,"Ġyoked":11639,"Ġyore":11640,"Ġtoe":11641,"Ġtoss":11642,"Ġtoll":11643,"elum":11644,"elior":11645,"eldest":11646,"Ġnations":11647,"Ġnarrow":11648,"theart":11649,"ading":11650,"igu":11651,"igrates":11652,"abur":11653,"abrum":11654,"Ġfork":11655,"Ġforobs":11656,"Ġitthem":11657,"irt":11658,"iries":11659,"irida":11660,"irtum":11661,"irrup":11662,"irgu":11663,"irping":11664,"irbam":11665,"irgam":11666,"amer":11667,"amus":11668,"amamu":11669,"ammu":11670,"amugi":11671,"aciously":11672,"thin":11673,"thief":11674,"third":11675,"thoritative":11676,"imate":11677,"imama":11678,"imtum":11679,"idam":11680,"idst":11681,"idable":11682,"idmunu":11683,"Ġeel":11684,"Ġease":11685,"Ġeellu":11686,"Ġetub":11687,"Ġeighth":11688,"hol":11689,"hosu":11690,"Ġbead":11691,"Ġbefall":11692,"Ġbeasts":11693,"seers":11694,"Ġ162":11695,"Ġthud":11696,"Ġthought":11697,"Ġthins":11698,"Ġthunderbird":11699,"ĠEh":11700,"ĠEki":11701,"ĠEpe":11702,"ĠEmet":11703,"ĠEsag":11704,"ĠEban":11705,"ĠEuzga":11706,"ĠEaar":11707,"ĠEulma":11708,"ĠNa":11709,"ĠNe":11710,"ĠNu":11711,"ĠNamu":11712,"ĠNeti":11713,"ĠNorth":11714,"ulate":11715,"ulgal":11716,"ulme":11717,"ulama":11718,"ulmat":11719,"ulva":11720,"Ġrim":11721,"Ġrum":11722,"Ġrip":11723,"Ġrung":11724,"Ġrounds":11725,"Ġrape":11726,"Ġrumin":11727,"Ġranger":11728,"Ġripe":11729,"ĠUB":11730,"ĠUkalimmu":11731,"ĠUludi":11732,"uner":11733,"unuri":11734,"unua":11735,"umar":11736,"umid":11737,"umul":11738,"ofNin":11739,"ofNinazu":11740,"emed":11741,"emples":11742,"esting":11743,"estow":11744,"estate":11745,"estone":11746,"Ġsheaf":11747,"Ġshell":11748,"icer":11749,"icor":11750,"icle":11751,"iciously":11752,"Ġstag":11753,"Ġstren":11754,"allot":11755,"allamu":11756,"allowed":11757,"Ġonin":11758,"ĠAN":11759,"ĠAa":11760,"ĠAy":11761,"ĠAab":11762,"ĠAgal":11763,"ĠAia":11764,"ĠAra":11765,"ĠAti":11766,"ĠAuda":11767,"ĠIar":11768,"ĠIkn":11769,"agu":11770,"agin":11771,"agia":11772,"agian":11773,"agirnun":11774,"odiment":11775,"ĠUrn":11776,"ĠUrur":11777,"ĠUrzu":11778,"ĠUrEnki":11779,"ĠUrua":11780,"ĠUrabba":11781,"ĠUrkun":11782,"ĠUrUrbartab":11783,"ĠUrMama":11784,"ĠUrsukkal":11785,"ĠUrnin":11786,"ĠUrkisal":11787,"ĠUramana":11788,"sty":11789,"star":11790,"steward":11791,"straw":11792,"stonesh":11793,"earrings":11794,"avessel":11795,"uta":11796,"utul":11797,"utable":11798,"utations":11799,"Ġhissing":11800,"ounsel":11801,"ĠLun":11802,"ĠLag":11803,"ĠLuga":11804,"ĠLazuli":11805,"ĠLower":11806,"ĠLah":11807,"ĠLittle":11808,"ĠLook":11809,"ĠLusaizu":11810,"ĠLarag":11811,"ĠLevels":11812,"ĠLirgam":11813,"Ġarri":11814,"Ġarising":11815,"Ġarrive":11816,"Ġarchit":11817,"Ġarrears":11818,"Ġargibil":11819,"Ġaristo":11820,"Ġliec":11821,"enty":11822,"Ġrept":11823,"Ġreins":11824,"Ġreceding":11825,"Ġrelev":11826,"Ġrevenge":11827,"aining":11828,"Ġsection":11829,"Ġsections":11830,"Ġshot":11831,"Ġshorn":11832,"Ġshack":11833,"Ġshakes":11834,"Ġshred":11835,"Ġshields":11836,"Ġshares":11837,"ĠEnanna":11838,"ĠEnanedu":11839,"ĠEnentarzi":11840,"ĠEnegir":11841,"essanga":11842,"eping":11843,"Ġplays":11844,"Ġplanning":11845,"omo":11846,"omiting":11847,"Ġmanacles":11848,"tooth":11849,"reate":11850,"Ġatop":11851,"Ġatby":11852,"Ġathlet":11853,"illat":11854,"illages":11855,"Ġworse":11856,"eaks":11857,"ourishing":11858,"Ġherb":11859,"Ġherit":11860,"herding":11861,"Ġdaybreak":11862,"Ġ396":11863,"ipes":11864,"ipated":11865,"ĠSi":11866,"ĠSit":11867,"ĠSng":11868,"ĠSabum":11869,"ĠSky":11870,"ĠEnlilm":11871,"ĠEnlilamah":11872,"Ġgurdub":11873,"ĠGur":11874,"ĠGig":11875,"ĠGaba":11876,"ĠGagi":11877,"ĠGarden":11878,"ĠGathers":11879,"ĠGubin":11880,"ĠGerste":11881,"ifted":11882,"ifier":11883,"Ġgrants":11884,"Ġgrinds":11885,"Ġgrape":11886,"Ġgrazing":11887,"udum":11888,"udder":11889,"Ġku":11890,"Ġkug":11891,"Ġants":11892,"Ġanzam":11893,"Ġspade":11894,"Ġspect":11895,"Ġspins":11896,"suited":11897,"succeed":11898,"Ġask":11899,"Ġasila":11900,"Ġassemble":11901,"years":11902,"yearold":11903,"quiries":11904,"ineyard":11905,"Ġdoctor":11906,"Ġsheeps":11907,"Ġupright":11908,"Ġuplifted":11909,"Ġdestitute":11910,"Ġhousetemple":11911,"apr":11912,"appe":11913,"apults":11914,"Ġchaff":11915,"Ġcharging":11916,"Ġlandpeople":11917,"gets":11918,"ĠNinur":11919,"ĠNinurs":11920,"ĠNinnig":11921,"ĠNinsag":11922,"ĠNinkununa":11923,"ĠNinmagure":11924,"ĠNinIsina":11925,"ĠNinimma":11926,"ĠNinmena":11927,"Ġenun":11928,"Ġengur":11929,"Ġenvel":11930,"Ġenlarge":11931,"Ġenkar":11932,"Ġenthroned":11933,"Ġenormous":11934,"ategory":11935,"ubara":11936,"ubia":11937,"ubird":11938,"ubbing":11939,"uballi":11940,"Ġareas":11941,"akuzu":11942,"akabtum":11943,"Instead":11944,"Ġwharf":11945,"Forever":11946,"inding":11947,"Headed":11948,"befitting":11949,"Ġdestroyers":11950,"Ġordeal":11951,"Ġ57":11952,"oven":11953,"Ġoutset":11954,"ĠAnn":11955,"ĠAnnun":11956,"Ġabsc":11957,"Ġalim":11958,"Ġalive":11959,"Ġaltogether":11960,"Ġalmond":11961,"Ġlamsare":11962,"Ġworks":11963,"arda":11964,"ardian":11965,"Ġshallow":11966,"ĠNinginabad":11967,"ĠKan":11968,"ĠKark":11969,"ĠKiri":11970,"ĠKitchen":11971,"ĠKasura":11972,"ameNingal":11973,"sons":11974,"char":11975,"chased":11976,"chcraf":11977,"Ġunison":11978,"Ġundoes":11979,"arezem":11980,"Ġamount":11981,"Ġamelior":11982,"Ġacworkers":11983,"elli":11984,"ellor":11985,"ordomo":11986,"Ġtherewith":11987,"ĠInana":11988,"ĠIncantation":11989,"ĠInuinak":11990,"ĠInstruct":11991,"Ġoxs":11992,"Ġoxendri":11993,"Ġoffers":11994,"Ġoffices":11995,"Ġvie":11996,"Ġviper":11997,"Ġvision":11998,"Ġveh":11999,"Ġvomiting":12000,"Ġvillages":12001,"Ġflight":12002,"Ġflies":12003,"Ġflacc":12004,"Ġflames":12005,"Ġflask":12006,"Ġjoint":12007,"Ġjester":12008,"Ġjoined":12009,"Ġbrewers":12010,"Ġdeal":12011,"Ġdebil":12012,"ĠDU":12013,"ĠDaga":12014,"ĠDara":12015,"ĠDread":12016,"ĠDuge":12017,"ĠDimp":12018,"ĠDitch":12019,"ĠDog":12020,"ĠDingirsu":12021,"ĠDabrum":12022,"ĠBur":12023,"ĠBul":12024,"ĠBattle":12025,"ĠBuz":12026,"ĠBaya":12027,"Ġconnect":12028,"ĠMade":12029,"ĠMada":12030,"ĠMami":12031,"ĠMadaga":12032,"ĠMakan":12033,"ĠMessanga":12034,"Enanned":12035,"Eneduana":12036,"Ġpropped":12037,"Ġprogen":12038,"UrS":12039,"UrEnlil":12040,"Ursaga":12041,"UrNinurta":12042,"UrUrbartab":12043,"UrLugalbanda":12044,"UrImma":12045,"Urmeme":12046,"Ġnobil":12047,"ĠHas":12048,"attu":12049,"attening":12050,"tual":12051,"Ġquart":12052,"Ġquiet":12053,"Ġqueens":12054,"Ġdidabe":12055,"izirtum":12056,"oplar":12057,"azaru":12058,"Ġallub":12059,"Ġalluh":12060,"Ġwatches":12061,"Ġwatching":12062,"shan":12063,"shining":12064,"Ġsurged":12065,"Ġsurvived":12066,"Ġheartwomb":12067,"ukkene":12068,"ĠLugald":12069,"ĠLugalan":12070,"ĠLugaleng":12071,"ĠLugalala":12072,"ĠLugaldub":12073,"ĠLugalgue":12074,"ĠLugalEma":12075,"ĠLugalunire":12076,"ĠLugalNigine":12077,"ĠLugalKuzu":12078,"aste":12079,"astrophe":12080,"ĠNannaisa":12081,"ĠNannakiag":12082,"ĠNannakam":12083,"perfume":12084,"Ġoils":12085,"Ġoilbutter":12086,"Ġhandmirror":12087,"Ġmightily":12088,"ickening":12089,"Ġperfor":12090,"Ġperforated":12091,"Ġperhaps":12092,"Ġpercept":12093,"riests":12094,"riestess":12095,"pond":12096,"played":12097,"placing":12098,"ploughmen":12099,"Ġfourleg":12100,"Ġwaterpouring":12101,"Ġnegl":12102,"ulla":12103,"Ġheadbund":12104,"Ġmoor":12105,"Ġmoist":12106,"Ġmobil":12107,"Ġmooing":12108,"Ġbreadone":12109,"Ġcarav":12110,"Ġloins":12111,"igned":12112,"ardship":12113,"Ġoverth":12114,"Ġovertaken":12115,"Ġlorden":12116,"ansum":12117,"Ġburgi":12118,"Ġ62":12119,"auul":12120,"authoritative":12121,"Ġresem":12122,"Ġresults":12123,"Ġresolved":12124,"araana":12125,"Ġroams":12126,"Ġroiled":12127,"Ġadmin":12128,"Anun":12129,"Anita":12130,"Ġtows":12131,"ĠTuk":12132,"ĠTrue":12133,"ĠTarmUram":12134,"ĠTirgu":12135,"ĠTameNingal":12136,"Ġsupply":12137,"Ġbirthing":12138,"uza":12139,"Ġagan":12140,"Ġlever":12141,"Ġleans":12142,"Ġleads":12143,"Ġleaned":12144,"Ġdecept":12145,"Ġearthbaskets":12146,"weaned":12147,"Itsthe":12148,"pening":12149,"Nintu":12150,"Ninalla":12151,"Ninmah":12152,"Ninkununa":12153,"NinKi":12154,"Ninmena":12155,"arsi":12156,"provid":12157,"probably":12158,"proclaim":12159,"married":12160,"Ġscor":12161,"Ġscalp":12162,"Ġreedmats":12163,"Ġlamented":12164,"edication":12165,"ĠUtuegal":12166,"Ġerrum":12167,"Ġerased":12168,"Ġweird":12169,"Ġfounding":12170,"ĠFears":12171,"ĠFerry":12172,"ĠFattening":12173,"ĠLuEnki":12174,"ĠLuNane":12175,"ĠLuDamu":12176,"ĠLuAbu":12177,"ĠLualim":12178,"ĠLuNinmar":12179,"ĠLuugina":12180,"ippals":12181,"Enlile":12182,"ibulmat":12183,"Ġblad":12184,"Ġbless":12185,"Ġblazing":12186,"Ġwoolen":12187,"ĠPa":12188,"ĠPer":12189,"ĠPur":12190,"ĠPalace":12191,"ĠPatibira":12192,"ĠPriests":12193,"Ġlongtablets":12194,"Ġshepherding":12195,"Ġclas":12196,"Ġclash":12197,"Ġclamp":12198,"Ġsla":12199,"Ġslay":12200,"Ġslab":12201,"Ġpalaces":12202,"Ġsoap":12203,"Ġsocle":12204,"riedly":12205,"Ġdrill":12206,"Ġdressing":12207,"Ġdredged":12208,"Ġafterbirth":12209,"Ġuedar":12210,"ĠuId":12211,"ĠuMama":12212,"ĠuEa":12213,"Ġbitch":12214,"Ġtraps":12215,"Ġtrusts":12216,"ĠWor":12217,"ĠWill":12218,"ĠWell":12219,"Ġbutted":12220,"Ġbuttocks":12221,"ĠUrNumuda":12222,"Ġ74":12223,"ĠUmmaharbor":12224,"awa":12225,"awoods":12226,"Ġinsult":12227,"Ġinscriptions":12228,"defe":12229,"Ġdweller":12230,"Ġsaruba":12231,"Ġbundel":12232,"Ġfeather":12233,"Ġquarts":12234,"minates":12235,"Ġboatman":12236,"Fromby":12237,"Ġfronds":12238,"Asarl":12239,"Ningar":12240,"Ġgovernorship":12241,"Ġolddead":12242,"124":12243,"125":12244,"Ġmidrib":12245,"Ġmidribs":12246,"Ġplacated":12247,"ĠAbz":12248,"ĠAban":12249,"ĠAbisare":12250,"Ġdescription":12251,"Ġmouthvoice":12252,"Ġmouthbeak":12253,"Ġimmem":12254,"Ġimagian":12255,"Ġcreating":12256,"Ġcreates":12257,"Ġcreations":12258,"Ġcreatress":12259,"holder":12260,"holding":12261,"holders":12262,"Ġseeing":12263,"Ġstraps":12264,"Ġstrapped":12265,"Ġopener":12266,"lamm":12267,"lamah":12268,"Ġwindbl":12269,"ageua":12270,"Ġcutsepar":12271,"ensi":12272,"ledg":12273,"Ġflourishes":12274,"Ġstatueform":12275,"ancial":12276,"Ġsideways":12277,"Ġevicted":12278,"ierc":12279,"Ġpresenting":12280,"Ġremitted":12281,"Ġremoves":12282,"Ġremoval":12283,"UrNanna":12284,"Ġpraying":12285,"ĠRuler":12286,"ĠRising":12287,"ĠRunner":12288,"ĠRmAnum":12289,"ĠClad":12290,"ĠChair":12291,"Ġdiss":12292,"Ġdisrup":12293,"Ġdisuse":12294,"Ġdissip":12295,"Ġ142":12296,"ĠZamu":12297,"ĠZubi":12298,"ĠZiusudra":12299,"Ġamongst":12300,"Ġabandons":12301,"box":12302,"boiled":12303,"Ġfires":12304,"Ġsubtr":12305,"Ġsubstitute":12306,"Ġsubterranean":12307,"Ġturners":12308,"Ġbowthrow":12309,"Ġdistorted":12310,"Ġbacks":12311,"Ġcheck":12312,"Ġsmaller":12313,"Lugald":12314,"Lugalm":12315,"Lugalsi":12316,"Lugalnirgal":12317,"Lugalkisalsi":12318,"Lugalunire":12319,"why":12320,"Ġseedlings":12321,"priests":12322,"Ġspeaker":12323,"exc":12324,"exorc":12325,"Ġplanting":12326,"Ġmarched":12327,"Ġmarries":12328,"Ġdoorkeepers":12329,"reading":12330,"ingirmu":12331,"ĠSuens":12332,"ĠSueniddinam":12333,"merchant":12334,"merkar":12335,"Ġkidomen":12336,"Ġincise":12337,"Ġwellbuilt":12338,"Ġwellfounded":12339,"Ġapproving":12340,"ewing":12341,"flon":12342,"unnel":12343,"Ġintact":12344,"Ġintoning":12345,"Ġpraiseworthy":12346,"Ġaurafear":12347,"ceded":12348,"fertil":12349,"Ġwarlike":12350,"ĠAmars":12351,"Ġpowerfully":12352,"ezoid":12353,"ĠAdudu":12354,"ĠAdingirmu":12355,"ĠGemet":12356,"Ningirsus":12357,"Albanidu":12358,"inyGatumdu":12359,"Ġsatout":12360,"domestic":12361,"Ġcastrate":12362,"Ġdemarcated":12363,"Ġ111":12364,"Ġcubs":12365,"ĠAlu":12366,"Ġbeautifulgood":12367,"bilak":12368,"Ġwisdomear":12369,"rising":12370,"Ġdeputy":12371,"Ġdefile":12372,"Ġdefamed":12373,"Ġdeficits":12374,"ursagkalama":12375,"onded":12376,"Ġceasing":12377,"Ġceaseless":12378,"Ġresided":12379,"Ġresiding":12380,"Ġbiggovernor":12381,"Ġharhar":12382,"Ġpleasur":12383,"ĠOld":12384,"ĠOpening":12385,"Ġfoes":12386,"Ġcracked":12387,"Ġcrouched":12388,"Ġfullers":12389,"Ġsecret":12390,"134":12391,"Ġwildly":12392,"Ġmats":12393,"Ġcopy":12394,"Ġcopulated":12395,"arked":12396,"Ġlionheaded":12397,"Adaga":12398,"gran":12399,"grass":12400,"Ġlargegoat":12401,"tection":12402,"esee":12403,"Ġ188":12404,"Ġequipment":12405,"141":12406,"Dog":12407,"Luaya":12408,"Ġcrowned":12409,"Ġinterceding":12410,"ĠGemeAmarSuen":12411,"ĠGemeLisi":12412,"ĠGemeNungal":12413,"ilga":12414,"Ġcomputation":12415,"Ġcomprehen":12416,"Ġhumans":12417,"Ġhumili":12418,"Ġsurpasses":12419,"resses":12420,"Ġreposing":12421,"ĠSnirbam":12422,"Ġattentiveness":12423,"Ġulal":12424,"Ġswallowed":12425,"Ġconfident":12426,"Ġconfirm":12427,"Ġadvisor":12428,"Ġadvising":12429,"Ġadvanced":12430,"Ġadviser":12431,"Ġorchardist":12432,"Ġorchardists":12433,"166":12434,"Thin":12435,"Though":12436,"Ġzidmunu":12437,"inside":12438,"Ġothers":12439,"Ġkirigu":12440,"Ġproduct":12441,"nament":12442,"tila":12443,"therefore":12444,"Ġwiden":12445,"irded":12446,"Ġexaltedness":12447,"Ġjunction":12448,"Ġresponded":12449,"ĠShuSuen":12450,"ĠGuaba":12451,"Ġguur":12452,"Ġguide":12453,"Ġguards":12454,"Ġbeget":12455,"Ġhairdress":12456,"Ġcrops":12457,"Ġcrotch":12458,"ĠNiggur":12459,"Ġharvesting":12460,"Ġassemblymour":12461,"gaer":12462,"atsuner":12463,"Ġcedarjuniper":12464,"Ġyourselfyour":12465,"Ġfearfully":12466,"utha":12467,"Ġwayat":12468,"aterpill":12469,"Ġmerry":12470,"Ġmerciful":12471,"Ġtranslu":12472,"Butter":12473,"Ġwrites":12474,"Ġglad":12475,"Ġglow":12476,"poraneously":12477,"Ġbelt":12478,"Ġfellow":12479,"ĠNunbare":12480,"ĠKeeps":12481,"Ġparcel":12482,"urmama":12483,"urmoil":12484,"urmalik":12485,"ĠNamnin":12486,"ĠNamrat":12487,"ĠNamzitara":12488,"Ġapprent":12489,"Ġapparent":12490,"Ġradiated":12491,"Noble":12492,"slave":12493,"Ġsailors":12494,"guru":12495,"zium":12496,"ziagal":12497,"itikal":12498,"Ġexclaim":12499,"ahili":12500,"Ġmuerrum":12501,"Ġchooses":12502,"Ġlovely":12503,"ĠApsu":12504,"ĠARADd":12505,"ĠARADnene":12506,"Ġmetalworker":12507,"Ġcleanse":12508,"daughterinlaw":12509,"sique":12510,"Ġshoes":12511,"Ġshocks":12512,"Ġrains":12513,"ubaBAD":12514,"Monthly":12515,"neol":12516,"yllable":12517,"Ġporrid":12518,"Ġeatingdrinking":12519,"standard":12520,"Ġschoolfather":12521,"Ġschoolboy":12522,"Ġdigging":12523,"Ġgathers":12524,"Ġgathering":12525,"Ġuru":12526,"Ġbalaserv":12527,"Ġlistened":12528,"Ġpoint":12529,"Ġrevere":12530,"urubata":12531,"Ġaction":12532,"picious":12533,"Ġsiskuroffering":12534,"ĠEzimu":12535,"ĠIli":12536,"ĠIlbani":12537,"193":12538,"198":12539,"removed":12540,"Ġinseminates":12541,"Ġgrandstele":12542,"Ġgrandeur":12543,"Ġbrightest":12544,"ĠBaranamtara":12545,"Ilum":12546,"Ilik":12547,"foundations":12548,"Ġhurl":12549,"Ġhurries":12550,"Ġhurrying":12551,"Ġkakcheese":12552,"Ġexerts":12553,"itutes":12554,"Ġscraps":12555,"Ġevildoing":12556,"Ġtwist":12557,"Ġtwisting":12558,"Ġtwilight":12559,"Ġfarreach":12560,"ĠEnunugalInanna":12561,"White":12562,"Ġbasis":12563,"Ġnests":12564,"Ġviable":12565,"Ġstandserve":12566,"Ġescort":12567,"Ġgoeswent":12568,"Ġinsulting":12569,"Ġdispatch":12570,"Ġdispelled":12571,"175":12572,"177":12573,"ĠIdd":12574,"ĠIdamar":12575,"Ġdeepen":12576,"Ġsubjected":12577,"arlag":12578,"aramutum":12579,"Ġdreaminterpreter":12580,"price":12581,"prayed":12582,"Ġhoneyed":12583,"Ġdoubleedged":12584,"ampGutium":12585,"Ġexpounded":12586,"Ġexpanded":12587,"Ġexpressed":12588,"Ġchariotry":12589,"Ġpreparedtaken":12590,"wheel":12591,"Ġforceencour":12592,"Amur":12593,"Ammiditana":12594,"Amarezem":12595,"Ġsolve":12596,"Ġsolutions":12597,"Ġformidable":12598,"ĠEdar":12599,"ĠEdge":12600,"ĠEdana":12601,"ĠNinsisa":12602,"Insul":12603,"concerning":12604,"ĠNanni":12605,"Ġfleshskin":12606,"Ġsustained":12607,"gufields":12608,"precious":12609,"silo":12610,"Ġafar":12611,"Ġaffl":12612,"agging":12613,"ĠBigstele":12614,"Ġfruitflower":12615,"Ġdirge":12616,"Ġsetsailed":12617,"upport":12618,"ĠStel":12619,"Ġroofs":12620,"Ġjuniorramp":12621,"Ġsanctify":12622,"Ġexhaustion":12623,"blind":12624,"ĠAszgi":12625,"Ġconsider":12626,"Ġslaughterer":12627,"Ġelapses":12628,"Ġphysical":12629,"Wealth":12630,"WaradErra":12631,"Ġsummer":12632,"Ġlyingcr":12633,"Ġniglam":12634,"ĠUrEanna":12635,"ĠGANgufields":12636,"ĠDuganizi":12637,"Abbau":12638,"Abbamu":12639,"Towardson":12640,"Ġbenevolent":12641,"Ġfamiliar":12642,"Ġunceasingly":12643,"Ġcompassionate":12644,"Ġappropriated":12645,"Ġdevastate":12646,"iqAdad":12647,"serve":12648,"Ġturtles":12649,"Ġproviding":12650,"Ġdiviner":12651,"288":12652,"crat":12653,"cricket":12654,"goddess":12655,"godfearing":12656,"uwaqar":12657,"wardly":12658,"Ġwitchcraf":12659,"Ġmaidens":12660,"aduqa":12661,"ĠBrick":12662,"Ġadmire":12663,"Ġadmiring":12664,"Ġfrowning":12665,"Ġlinenclad":12666,"Ġegiz":12667,"Ġeggshaped":12668,"Ġbetter":12669,"ĠNabu":12670,"Ġ288":12671,"ĠErekigalWhen":12672,"goods":12673,"Ġhonest":12674,"Ġ276":12675,"ĠGudeas":12676,"Ġengage":12677,"ĠAnzuchick":12678,"Ġexcavation":12679,"courrier":12680,"Ġfifth":12681,"Ġsplendour":12682,"Ġcolleague":12683,"Ġverdantbeautiful":12684,"Ġbenefic":12685,"Unu":12686,"denigrates":12687,"dugani":12688,"Ġubifeast":12689,"rustworthy":12690,"ĠDamimama":12691,"ĠNinhursagas":12692,"Arali":12693,"Dumuzid":12694,"Mesanepada":12695,"Puzurszadue":12696,"Ġmudd":12697,"Ġprowling":12698,"Ġprowled":12699,"Ġformerly":12700,"ĠSmEl":12701,"Ġexperience":12702,"Ġbreeders":12703,"ĠPlain":12704,"ĠPlougho":12705,"Ġterrifies":12706,"grainfed":12707,"Ġtouchedadorned":12708,"Ġbelonging":12709,"IddinErra":12710,"Ġesz":12711,"Ġbellow":12712,"Ġgrief":12713,"Ġkurgara":12714,"ĠkisikiofNinazu":12715,"Ġgoodnessgood":12716,"Ġreduce":12717,"Ġcultivate":12718,"Spreading":12719,"Ġtearfully":12720,"aninga":12721,"Ġfasten":12722,"Ġaffirmed":12723,"Ġeleli":12724,"Ġintrodu":12725,"Ġzabala":12726,"Ġinquirer":12727,"Ġobeisance":12728,"Ġsadgal":12729,"Ġlawful":12730,"Ġlahama":12731,"Ġpitfall":12732,"Ġgirls":12733,"Ġpresents":12734,"Ġexuded":12735,"ĠDingirsaga":12736,"Ġcloak":12737,"Ġsweeps":12738,"chew":12739,"vocab":12740,"Ġfrequ":12741,"Ġfingernails":12742,"Ġmixes":12743,"ĠdumubaBAD":12744,"Ġachie":12745,"ĠNurAdad":12746,"ĠUrdardu":12747,"ĠSagku":12748,"Ġcomplaints":12749,"Urlugal":12750,"Urlamma":12751,"Ġscorpions":12752,"Ġdwellsit":12753,"Ġceremonies":12754,"humble":12755,"Ġseriously":12756,"Ġcurled":12757,"rejoicing":12758,"Ġgenitals":12759,"amarku":12760,"ĠNimgird":12761,"Ġrendered":12762,"ĠIpiqAdad":12763,"Ġenjoyed":12764,"ĠMelua":12765,"Ġfeeding":12766,"Ġsweetlyb":12767,"Ġincreases":12768,"Ġferryman":12769,"Ġrenovate":12770,"decree":12771,"donkeys":12772,"ikil":12773,"Ġwait":12774,"Ġfurnishes":12775,"Ġcripples":12776,"Ġpatches":12777,"Ġaromatics":12778,"Ġbrilliantly":12779,"Ġremaining":12780,"Brought":12781,"Below":12782,"Belitikal":12783,"Kinunir":12784,"Namtar":12785,"singing":12786,"single":12787,"Ġsabitum":12788,"Ġbeset":12789,"Ġbandages":12790,"arrowhead":12791,"Ġwinnowing":12792,"Ġmemory":12793,"Ġcantors":12794,"Ġportion":12795,"Ġportending":12796,"ĠNaramil":12797,"ĠNaramSin":12798,"ulgis":12799,"ĠAttam":12800,"Ġrevoke":12801,"ĠGovernor":12802,"Ġsprouted":12803,"Ġwatercourses":12804,"Ġoverflow":12805,"measured":12806,"Ġtroughs":12807,"Ġcontemporaneously":12808,"Ġdespatched":12809,"Ġjoyfullylike":12810,"Ġdeposit":12811,"Ġdeposits":12812,"Ġoppresses":12813,"Baban":12814,"Babati":12815,"Looked":12816,"Perform":12817,"cohol":12818,"eyes":12819,"Ġukubum":12820,"Ġukuku":12821,"Ġtextst":12822,"Ġaktum":12823,"Ġinhab":12824,"abadbi":12825,"ĠAwal":12826,"Ġatamofficial":12827,"ĠGuzana":12828,"ĠGuzzani":12829,"kalamdug":12830,"Apil":12831,"copper":12832,"equid":12833,"guduofficiant":12834,"Ġbattlen":12835,"Ġmiser":12836,"Ġmiscar":12837,"Ġmisfort":12838,"andsized":12839,"Ġpositioned":12840,"irnunta":12841,"Ġecho":12842,"Ġthrowstick":12843,"Ġbridegroom":12844,"Ġabsent":12845,"ĠDublamah":12846,"Ġreturnsend":12847,"Ġrestrained":12848,"Amauumgalana":12849,"Overseer":12850,"fattailed":12851,"Ġannihilated":12852,"Ġannihilates":12853,"orchard":12854,"Ġfistfight":12855,"Ġmadarea":12856,"Ġgets":12857,"ĠUrSaga":12858,"Ġselect":12859,"ĠSumuel":12860,"Ġdisordered":12861,"Ġsingularly":12862,"Ġemptiness":12863,"Ġopposed":12864,"Ġmajesty":12865,"Ġneighborliness":12866,"Ornament":12867,"Utami":12868,"Ġfiltered":12869,"Ġmonkeys":12870,"Ġcatches":12871,"Ġcatapults":12872,"Ġcatastrophe":12873,"Ġlaughs":12874,"Ġaveng":12875,"Ġezimu":12876,"secret":12877,"seedbarley":12878,"Ġstrokes":12879,"Ġarrumbani":12880,"Ġarranged":12881,"Ġarrangements":12882,"Ġplastered":12883,"Ġexchanging":12884,"ĠBaamu":12885,"ĠBaraen":12886,"Ġrescue":12887,"Ġgladdenedbet":12888,"Ġadmiresee":12889,"Ġnursemaids":12890,"Nril":12891,"Roaming":12892,"Urema":12893,"happily":12894,"Ġsalutations":12895,"Ġsowcultiv":12896,"Ġsanga":12897,"Ġfoolish":12898,"Ġhateful":12899,"Ġcollapse":12900,"Ġpacify":12901,"Ġgusisa":12902,"ĠLamatu":12903,"Ġshriek":12904,"Ġshrieking":12905,"Ġplaited":12906,"Ġaladrum":12907,"ĠKUMtu":12908,"Ġunshrinking":12909,"Ġflattening":12910,"Ġaccusation":12911,"Ġaccusations":12912,"Ġcaretaking":12913,"Ġsuffered":12914,"Ġprettyface":12915,"ĠGemegigir":12916,"Ġslavegirls":12917,"Ġanguish":12918,"Ġkneeling":12919,"Speaker":12920,"Ġpronouncement":12921,"Ġrequisitioner":12922,"cultivated":12923,"Ġmurdering":12924,"Ġinhabitant":12925,"Ġinhabitants":12926,"Barley":12927,"Flood":12928,"Grant":12929,"KuNanna":12930,"Praise":12931,"multitude":12932,"purchased":12933,"trusted":12934,"Ġilam":12935,"Ġilulama":12936,"Ġhinge":12937,"Ġholder":12938,"Ġharmony":12939,"Ġcircuit":12940,"Ġaverage":12941,"Ġforsake":12942,"Ġforsaken":12943,"thusly":12944,"ĠAzar":12945,"ĠLuebgal":12946,"ĠEnmenSAR":12947,"Ġascertained":12948,"Ġenvy":12949,"Ġenvious":12950,"Ġworktroopers":12951,"ĠKaamu":12952,"ĠKaGAN":12953,"Ġundone":12954,"Ġexamined":12955,"ĠIndasu":12956,"Ġofficer":12957,"Ġvigour":12958,"Ġprostrate":12959,"Ġprostrated":12960,"Ġrosettes":12961,"Ġsoothes":12962,"ĠAbaEnlilgin":12963,"spector":12964,"spective":12965,"Ġeloquent":12966,"Standserve":12967,"Ġroofbeams":12968,"ĠAszszurmalik":12969,"Ġconsignment":12970,"commander":12971,"Ġaccompanying":12972,"Ġcrippledwarf":12973,"Throughout":12974,"Ġgnawed":12975,"Ġziggurrat":12976,"figure":12977,"grease":12978,"mouths":12979,"Ġkettle":12980,"Ġtithed":12981,"incre":12982,"Ġbunches":12983,"Ġfangs":12984,"alaborers":12985,"Ġduia":12986,"Ġpaired":12987,"uganelum":12988,"Ġrevolting":12989,"ĠSekel":12990,"Ġalumsheep":12991,"Ġvenom":12992,"Ġvenuere":12993,"Ġprostration":12994,"Ġprostitutes":12995,"Ġperpetu":12996,"Ġemploy":12997,"Ġdeceitfully":12998,"Ninhursag":12999,"ĠAmaregal":13000,"Ġharnessed":13001,"Ġoutstanding":13002,"Ġoutstretched":13003,"Ġmultitudeeras":13004,"Sumuqan":13005,"Ġentrance":13006,"Ġviews":13007,"prayers":13008,"Ġdeliber":13009,"Ġdeliberated":13010,"Ġnecessarily":13011,"Ġdenigrate":13012,"ĠUtamiarram":13013,"SimatAdad":13014,"Nannamaba":13015,"Nannamansum":13016,"Ġignorant":13017,"Ġignorance":13018,"Everything":13019,"Iriaz":13020,"Lunatic":13021,"Rejoicing":13022,"Surpassing":13023,"crossed":13024,"financial":13025,"fisher":13026,"malts":13027,"Ġessence":13028,"Ġsearching":13029,"Ġswelling":13030,"Ġwiping":13031,"Ġlentils":13032,"Ġgalloped":13033,"Ġgiriura":13034,"imitti":13035,"ĠLukala":13036,"Ġarguing":13037,"ĠGaame":13038,"ĠGabakara":13039,"Ġkadra":13040,"Ġchannel":13041,"Ġoutflattened":13042,"feeding":13043,"ĠNingekimti":13044,"Ġgrainheap":13045,"Ġvariegated":13046,"ĠDimgalabzu":13047,"ĠBefore":13048,"Enakuana":13049,"Ġdivorced":13050,"Ġcornelian":13051,"ĠPAP":13052,"Ġclimbing":13053,"Ġsuckled":13054,"Ġdrainpipe":13055,"ĠWatarum":13056,"Ġincluded":13057,"Ġsqueezed":13058,"ĠSnmgir":13059,"Ġpurposes":13060,"Ġcalculation":13061,"Ġguarantor":13062,"Ġrecognised":13063,"Ġlieutenant":13064,"Ġencircle":13065,"ĠAmarkii":13066,"ĠStandard":13067,"handedly":13068,"Ġdumudab":13069,"Ġnonexistent":13070,"containers":13071,"Childish":13072,"Abiati":13073,"Authoritative":13074,"Erekigal":13075,"Eldest":13076,"Egalgas":13077,"Nabasa":13078,"Nimgir":13079,"Outside":13080,"Someone":13081,"Zambiya":13082,"brae":13083,"breeding":13084,"libation":13085,"something":13086,"tiger":13087,"Ġoriented":13088,"Ġbodies":13089,"Ġbounty":13090,"arkaliarr":13091,"Ġfosterchild":13092,"algasu":13093,"Ġmouflon":13094,"Ġmuguba":13095,"Ġcumins":13096,"Ġloneliness":13097,"Ġpanic":13098,"Ġplea":13099,"Ġpierced":13100,"Ġpuppies":13101,"Ġtoggle":13102,"Ġnomads":13103,"Ġforefather":13104,"Ġforserved":13105,"Ġbefell":13106,"Ġthorough":13107,"ĠEurbidu":13108,"ĠUgurtur":13109,"ĠUbuukkena":13110,"ĠLuzina":13111,"Ġbarbarian":13112,"ĠEninnus":13113,"Ġgoadstick":13114,"iprocals":13115,"ĠSIA":13116,"ĠSilber":13117,"Ġprimary":13118,"ĠKaraar":13119,"Ġunwavering":13120,"ĠIntaeas":13121,"Ġvisible":13122,"Ġjuveniles":13123,"Ġproliferate":13124,"Ġpermanently":13125,"Ġcanebrake":13126,"Annual":13127,"Ġclarified":13128,"Ġcommissioner":13129,"Ġsweets":13130,"ĠConstructed":13131,"ĠComm":13132,"ĠCattleherder":13133,"Lugalniglagare":13134,"ĠAlulim":13135,"locust":13136,"Ġparalyzed":13137,"ĠPuzrisDagan":13138,"Ġauthoritat":13139,"Ġpointed":13140,"ĠAradgu":13141,"Ġtriangle":13142,"Ġdripping":13143,"Ġparticipated":13144,"respectful":13145,"Ġpulverized":13146,"ĠMeluha":13147,"ĠDragonoftheL":13148,"Ġexceedingly":13149,"Ġvigorous":13150,"Ġimmobilised":13151,"ĠNamnundakigara":13152,"Citizens":13153,"Further":13154,"Follow":13155,"Heshe":13156,"Jahr":13157,"Lumelam":13158,"Miime":13159,"Monat":13160,"Mukurubata":13161,"Pregnancy":13162,"Rapiqum":13163,"Veteran":13164,"Written":13165,"binth":13166,"dormouse":13167,"function":13168,"gardener":13169,"gullalabor":13170,"mouthed":13171,"wolf":13172,"Ġterebinth":13173,"Ġtissue":13174,"Ġskies":13175,"Ġofattached":13176,"Ġwurde":13177,"Ġwaggons":13178,"Ġfaraway":13179,"items":13180,"Ġmoment":13181,"Ġmollusc":13182,"Ġhuddle":13183,"Ġhammers":13184,"Ġhammerstonesh":13185,"Ġchisel":13186,"Ġcrenellation":13187,"Ġlumapriest":13188,"Ġlagoon":13189,"Ġluteharp":13190,"Ġdusk":13191,"Ġauspicious":13192,"Ġpivots":13193,"Ġpainstaking":13194,"Ġpublic":13195,"Ġgatedoor":13196,"Ġinimical":13197,"Ġtossed":13198,"irrupriestess":13199,"hosue":13200,"ĠEmete":13201,"Ġstrenth":13202,"ĠLirgamlum":13203,"Ġarchitr":13204,"Ġaristocrat":13205,"Ġliecrouch":13206,"Ġreptile":13207,"Ġrelevant":13208,"Ġshackle":13209,"ĠSngmil":13210,"Ġspectacle":13211,"ĠNinursaa":13212,"Ġenvelop":13213,"Ġabsconded":13214,"ĠNinginabadim":13215,"ĠKiriLUM":13216,"ĠInstructions":13217,"Ġoxendrivers":13218,"Ġvehicle":13219,"Ġflaccid":13220,"Ġdebilitating":13221,"ĠDaraabzu":13222,"ĠDingirsukkal":13223,"Enannedu":13224,"Ġprogeny":13225,"Ġnobility":13226,"Ġdidabeer":13227,"Ġalluhab":13228,"ĠLugaldubla":13229,"Ġperceptiveness":13230,"Ġfourlegged":13231,"Ġneglig":13232,"NinKiura":13233,"Ġweirdam":13234,"ĠFearsomeness":13235,"ĠFerryman":13236,"ippalsam":13237,"ĠuIdim":13238,"Ġimmemorial":13239,"Ġwindblown":13240,"Ġcutseparate":13241,"Ġdisrupted":13242,"Ġbowthrowstick":13243,"exorcist":13244,"Ġapprovingly":13245,"fertilized":13246,"Ġhairdresser":13247,"Ġassemblymourning":13248,"aterpillar":13249,"Ġtranslucent":13250,"ĠNunbaregunu":13251,"ĠNamninani":13252,"Ġmuerrumcommander":13253,"Ġporridge":13254,"Ġbalaservice":13255,"Ilikauul":13256,"ĠIdamaraz":13257,"Ġforceencouragement":13258,"Ġjuniorrampant":13259,"Ġlyingcrouching":13260,"Ġwitchcraft":13261,"ĠPloughofBazi":13262,"Ġtouchedadornedchose":13263,"ĠAttamannum":13264,"Ġtextstext":13265,"Ġbattlenet":13266,"Ġgladdenedbettered":13267,"Ġsowcultivate":13268,"Ġvenueregulation":13269,"Ġmultitudeeraser":13270,"Egalgasud":13271,"ĠDragonoftheLand":13272,"Ġhammerstoneshandsized":13273,"113":13274,"215":13275,"214":13276,"211":13277,"315":13278,"314":13279,"41":13280,"435":13281,"442":13282,"518":13283,"765":13284,"775":13285,"7746":13286,"88":13287,"89":13288,"93":13289,"Ah":13290,"Ax":13291,"Aall":13292,"Abe":13293,"Aki":13294,"Aanepada":13295,"Alamu":13296,"Aanzu":13297,"Aedin":13298,"BU":13299,"Bal":13300,"Bind":13301,"Bara":13302,"Barge":13303,"Biting":13304,"Barak":13305,"Bazige":13306,"Bestow":13307,"Cattle":13308,"Case":13309,"Casing":13310,"CampGutium":13311,"Dil":13312,"Dir":13313,"Dug":13314,"Date":13315,"Dais":13316,"Daz":13317,"Days":13318,"Dedicated":13319,"Daya":13320,"Diorite":13321,"Dadu":13322,"DAG":13323,"Danu":13324,"Ditches":13325,"Dedicatingdedicate":13326,"EN":13327,"Ee":13328,"Eer":13329,"Eig":13330,"Est":13331,"Emer":13332,"Esag":13333,"Either":13334,"Egigi":13335,"EGate":13336,"Eumea":13337,"Epum":13338,"Fill":13339,"Four":13340,"Fine":13341,"Field":13342,"Female":13343,"Flo":13344,"Fierce":13345,"First":13346,"Furious":13347,"Fallow":13348,"Finished":13349,"Ge":13350,"Gig":13351,"Gay":13352,"Get":13353,"Gula":13354,"Getin":13355,"Goring":13356,"Giving":13357,"Gilgame":13358,"Gungunum":13359,"Gimil":13360,"Girini":13361,"GAL":13362,"Gutar":13363,"Gurzan":13364,"Girded":13365,"Hor":13366,"Hand":13367,"Hur":13368,"Hom":13369,"High":13370,"Hire":13371,"Hendursag":13372,"IR":13373,"IS":13374,"Ibbi":13375,"Ilam":13376,"Ila":13377,"Irin":13378,"Iyou":13379,"IGI":13380,"IBI":13381,"Joy":13382,"Kis":13383,"Kur":13384,"Kub":13385,"Kak":13386,"Kings":13387,"Kuli":13388,"Kuda":13389,"Katar":13390,"KUnig":13391,"Kutha":13392,"La":13393,"Le":13394,"Lat":13395,"Lit":13396,"Laugh":13397,"Laid":13398,"Life":13399,"Lib":13400,"Linen":13401,"Living":13402,"Lubanda":13403,"Lament":13404,"Lusaga":13405,"Little":13406,"Lusaizu":13407,"Lanimu":13408,"Mam":13409,"Mid":13410,"Mull":13411,"Maid":13412,"Mouth":13413,"Makes":13414,"Manum":13415,"Marad":13416,"Melam":13417,"Messenger":13418,"MKbi":13419,"Muds":13420,"Nan":13421,"Non":13422,"Nag":13423,"Nau":13424,"Nurse":13425,"Nidn":13426,"Never":13427,"Nabi":13428,"NIG":13429,"Nera":13430,"Nuganelum":13431,"Ox":13432,"Out":13433,"Ped":13434,"Pur":13435,"Put":13436,"Prow":13437,"Pise":13438,"Prison":13439,"Prev":13440,"Rel":13441,"Rec":13442,"Right":13443,"Ruler":13444,"Reed":13445,"Sa":13446,"Sk":13447,"Sit":13448,"Sand":13449,"Song":13450,"Squ":13451,"Serv":13452,"Sister":13453,"Six":13454,"Sele":13455,"Silim":13456,"Susa":13457,"SIG":13458,"Scratched":13459,"Swearing":13460,"Stood":13461,"Southern":13462,"Support":13463,"Ta":13464,"Ter":13465,"Tar":13466,"Tru":13467,"Taking":13468,"Tahiatal":13469,"TAB":13470,"TUnig":13471,"Temples":13472,"Trustworthy":13473,"UL":13474,"US":13475,"Up":13476,"Ubar":13477,"User":13478,"Usa":13479,"Umani":13480,"Veget":13481,"War":13482,"Wine":13483,"Wadd":13484,"Wicked":13485,"Write":13486,"Waqartum":13487,"Yarlag":13488,"Zum":13489,"Zubi":13490,"Zibb":13491,"Zizirtum":13492,"aos":13493,"aamu":13494,"aused":13495,"bes":13496,"best":13497,"bol":13498,"bour":13499,"bite":13500,"bles":13501,"bling":13502,"bae":13503,"both":13504,"bese":13505,"buri":13506,"burse":13507,"bison":13508,"baked":13509,"bazi":13510,"brew":13511,"badu":13512,"beaut":13513,"balum":13514,"bitch":13515,"ci":13516,"cor":13517,"cam":13518,"cup":13519,"creat":13520,"cara":13521,"cage":13522,"column":13523,"cream":13524,"cient":13525,"cili":13526,"cels":13527,"cella":13528,"citiz":13529,"cistern":13530,"cuff":13531,"crops":13532,"counsel":13533,"caused":13534,"dar":13535,"dor":13536,"dit":13537,"des":13538,"del":13539,"dim":13540,"dul":13541,"dain":13542,"dedic":13543,"dana":13544,"dough":13545,"duga":13546,"danum":13547,"dimin":13548,"drew":13549,"dlar":13550,"disting":13551,"divine":13552,"eing":13553,"eum":13554,"eug":13555,"eers":13556,"eala":13557,"even":13558,"eating":13559,"eved":13560,"eater":13561,"fac":13562,"fox":13563,"flying":13564,"fession":13565,"farmers":13566,"fule":13567,"fusc":13568,"gil":13569,"gem":13570,"gug":13571,"gugal":13572,"gates":13573,"gena":13574,"gener":13575,"gada":13576,"gula":13577,"gives":13578,"gmil":13579,"garden":13580,"gaze":13581,"gimuda":13582,"hn":13583,"hs":13584,"hun":13585,"hall":13586,"hade":13587,"hous":13588,"hrine":13589,"hinn":13590,"harsa":13591,"hung":13592,"halt":13593,"huge":13594,"horned":13595,"husu":13596,"hhum":13597,"haping":13598,"hamati":13599,"hulla":13600,"iar":13601,"iil":13602,"iab":13603,"iir":13604,"iant":13605,"iom":13606,"ians":13607,"ials":13608,"ieg":13609,"ially":13610,"iked":13611,"ikura":13612,"iately":13613,"ject":13614,"jenn":13615,"jeal":13616,"judg":13617,"jordomo":13618,"kle":13619,"kill":13620,"kina":13621,"kne":13622,"kaisa":13623,"kunga":13624,"lt":13625,"lal":13626,"lun":13627,"lace":13628,"lap":13629,"liz":13630,"lance":13631,"lail":13632,"lars":13633,"loss":13634,"lness":13635,"lights":13636,"lukur":13637,"living":13638,"little":13639,"larging":13640,"mur":13641,"main":13642,"mace":13643,"mood":13644,"mash":13645,"mistress":13646,"mied":13647,"matum":13648,"mman":13649,"muna":13650,"moth":13651,"muga":13652,"mater":13653,"midn":13654,"mitted":13655,"melling":13656,"mutable":13657,"maduqa":13658,"nx":13659,"nim":13660,"nic":13661,"nare":13662,"nants":13663,"nuri":13664,"nesag":13665,"next":13666,"noses":13667,"nesage":13668,"neme":13669,"nification":13670,"necked":13671,"oed":13672,"oches":13673,"obl":13674,"pin":13675,"pat":13676,"pil":13677,"pay":13678,"pab":13679,"pot":13680,"pun":13681,"pest":13682,"pain":13683,"pea":13684,"pare":13685,"past":13686,"prong":13687,"possess":13688,"phy":13689,"patched":13690,"phing":13691,"paying":13692,"princely":13693,"polished":13694,"pouches":13695,"pEl":13696,"pattered":13697,"pinu":13698,"posts":13699,"princess":13700,"palil":13701,"qur":13702,"qatar":13703,"qudum":13704,"rm":13705,"rul":13706,"rds":13707,"rais":13708,"rish":13709,"rima":13710,"rons":13711,"rushes":13712,"rush":13713,"ruly":13714,"rending":13715,"rabi":13716,"sad":13717,"sig":13718,"sow":13719,"sts":13720,"sent":13721,"sign":13722,"sover":13723,"ssp":13724,"sister":13725,"suru":13726,"sulu":13727,"sorted":13728,"scratched":13729,"sacred":13730,"stheart":13731,"svocab":13732,"tof":13733,"tear":13734,"ture":13735,"torn":13736,"tare":13737,"take":13738,"tau":13739,"tied":13740,"tore":13741,"tified":13742,"tended":13743,"tribut":13744,"tirig":13745,"tomach":13746,"true":13747,"testic":13748,"torch":13749,"tarsi":13750,"uice":13751,"uished":13752,"uErra":13753,"uHani":13754,"uRI":13755,"uEdar":13756,"uibbu":13757,"vian":13758,"vement":13759,"ww":13760,"win":13761,"wed":13762,"wal":13763,"wet":13764,"wings":13765,"wail":13766,"watching":13767,"walk":13768,"waqar":13769,"xim":13770,"xalted":13771,"xuri":13772,"xli":13773,"xical":13774,"xerted":13775,"yield":13776,"youth":13777,"ymy":13778,"yriad":13779,"zing":13780,"zug":13781,"zip":13782,"zrum":13783,"znig":13784,"Ġig":13785,"Ġip":13786,"Ġuil":13787,"Ġale":13788,"Ġanted":13789,"Ġilu":13790,"ĠYoung":13791,"ĠJustice":13792,"ĠJudge":13793,"heed":13794,"held":13795,"heds":13796,"hether":13797,"hearted":13798,"hearts":13799,"Ġtro":13800,"Ġtam":13801,"Ġtip":13802,"Ġtend":13803,"Ġties":13804,"Ġtwe":13805,"Ġtib":13806,"Ġtired":13807,"Ġtons":13808,"Ġtally":13809,"Ġtended":13810,"Ġtender":13811,"Ġtech":13812,"Ġtiring":13813,"Ġtires":13814,"Ġturmoil":13815,"ini":13816,"ination":13817,"inana":13818,"inuna":13819,"inating":13820,"inie":13821,"initi":13822,"inently":13823,"inlaid":13824,"inabdu":13825,"inancy":13826,"inkers":13827,"inquiries":13828,"Ġopt":13829,"Ġodor":13830,"anch":13831,"anake":13832,"anaru":13833,"Ġsq":13834,"Ġske":13835,"Ġsave":13836,"Ġsale":13837,"Ġsugal":13838,"Ġsund":13839,"Ġswo":13840,"Ġsiny":13841,"Ġsugu":13842,"Ġsends":13843,"Ġsights":13844,"Ġsagara":13845,"Ġsoured":13846,"Ġsapped":13847,"Ġselling":13848,"Ġsieve":13849,"Ġsappy":13850,"Ġsifted":13851,"erin":13852,"ergi":13853,"eroll":13854,"erries":13855,"erhalt":13856,"Ġofas":13857,"Ġofbe":13858,"Ġofset":13859,"Ġbis":13860,"Ġbil":13861,"Ġbale":13862,"Ġbaba":13863,"Ġbowing":13864,"Ġbile":13865,"Ġbushes":13866,"Ġbonds":13867,"Ġberries":13868,"arc":13869,"arce":13870,"arali":13871,"arrows":13872,"archit":13873,"arhusu":13874,"Ġwad":13875,"Ġwif":13876,"Ġwents":13877,"Ġwoken":13878,"Ġwaged":13879,"Ġwoe":13880,"Ġwedge":13881,"oric":13882,"orate":13883,"orting":13884,"oreroom":13885,"edina":13886,"edudu":13887,"atab":13888,"atits":13889,"athed":13890,"atface":13891,"atters":13892,"atEnlil":13893,"atSn":13894,"atches":13895,"atisf":13896,"atives":13897,"atasage":13898,"Ġfab":13899,"Ġfum":13900,"Ġfoun":13901,"Ġfund":13902,"Ġfail":13903,"Ġfigh":13904,"Ġfruct":13905,"Ġfunnel":13906,"alh":13907,"alo":13908,"aler":13909,"alat":13910,"alas":13911,"alts":13912,"alet":13913,"along":13914,"alaga":13915,"alnuna":13916,"alization":13917,"itor":13918,"itness":13919,"ittered":13920,"itality":13921,"ittum":13922,"itappe":13923,"Ġmul":13924,"Ġmod":13925,"Ġmut":13926,"Ġment":13927,"Ġmap":13928,"Ġmare":13929,"Ġmatt":13930,"Ġmainst":13931,"Ġmens":13932,"Ġmada":13933,"Ġmiq":13934,"Ġmgrain":13935,"Ġmoves":13936,"isan":13937,"isht":13938,"isher":13939,"isku":13940,"isdom":13941,"iszsz":13942,"ingar":13943,"esu":13944,"esz":13945,"eser":13946,"esig":13947,"esir":13948,"esep":13949,"esstands":13950,"onep":13951,"oncili":13952,"enas":13953,"engi":13954,"enpriest":13955,"ennam":13956,"endship":13957,"encom":13958,"enusi":13959,"enlarging":13960,"Ġhits":13961,"Ġhiz":13962,"Ġhue":13963,"Ġhating":13964,"Ġhidden":13965,"Ġhardship":13966,"asc":13967,"asig":13968,"asto":13969,"aself":13970,"asagn":13971,"asirp":13972,"iler":13973,"ilis":13974,"ilage":13975,"ilula":13976,"ilizing":13977,"Ġcru":13978,"Ġcust":13979,"Ġcred":13980,"Ġcagan":13981,"Ġcrust":13982,"Ġcrev":13983,"Ġcudg":13984,"Ġcistern":13985,"Ġcategory":13986,"Ġcaterpillar":13987,"reb":13988,"reet":13989,"reams":13990,"release":13991,"repaid":13992,"receip":13993,"repaying":13994,"Ġles":13995,"Ġlab":13996,"Ġlep":13997,"Ġlouse":13998,"Ġlea":13999,"Ġlate":14000,"Ġlub":14001,"Ġlane":14002,"Ġlowing":14003,"Ġlush":14004,"Ġlights":14005,"Ġlinger":14006,"Ġlacks":14007,"Ġlaws":14008,"Ġlumber":14009,"Ġlurker":14010,"Ġlilis":14011,"Ġdomin":14012,"Ġdict":14013,"Ġdazed":14014,"Ġdedication":14015,"Ġdreams":14016,"andu":14017,"andals":14018,"andanu":14019,"Ġaa":14020,"Ġaeg":14021,"Ġahead":14022,"Ġazi":14023,"Ġaank":14024,"Ġaurum":14025,"Ġavenge":14026,"Ġpits":14027,"Ġpard":14028,"Ġpome":14029,"Ġphr":14030,"Ġpeak":14031,"Ġpacks":14032,"Ġpacked":14033,"Ġpairs":14034,"Ġpelt":14035,"Ġpails":14036,"Ġparked":14037,"Ġgan":14038,"Ġgad":14039,"Ġgun":14040,"Ġgain":14041,"Ġgale":14042,"Ġgirsu":14043,"Ġgolds":14044,"Ġgirin":14045,"Ġgushing":14046,"Ġgatep":14047,"Ġgghost":14048,"Ġgisiga":14049,"lever":14050,"leag":14051,"legi":14052,"lect":14053,"level":14054,"legs":14055,"roke":14056,"rove":14057,"rope":14058,"roots":14059,"rolo":14060,"roaring":14061,"rosett":14062,"roiling":14063,"uril":14064,"urul":14065,"ursu":14066,"uruk":14067,"urulgi":14068,"urigal":14069,"urugu":14070,"urbs":14071,"urring":14072,"urgu":14073,"urutum":14074,"Ġheshe":14075,"Ġhealed":14076,"Ġhealth":14077,"Ġinfrom":14078,"Ġinby":14079,"Ġinform":14080,"Ġindis":14081,"Ġinlay":14082,"Ġinwardly":14083,"eli":14084,"eler":14085,"Ġnin":14086,"Ġnum":14087,"Ġnine":14088,
[...]
