#version: 0.2 - Trained by `huggingface/tokenizers`
Ġ Ċ
h e
Ġ t
i n
Ġ o
Ġt he
a n
Ġ s
e r
Ġo f
Ġ b
a r
Ġ w
o r
e d
a t
o u
Ġ f
a l
i t
Ġ m
i s
in g
e s
o n
e n
Ġ h
a s
i l
Ġ c
r e
Ġ l
Ġ d
an d
Ġ a
Ġ p
Ġ g
l e
r o
u r
Ġ he
Ġ in
Ġ y
Ġt o
x x
e l
Ġ n
Ġ ĠĊ
t he
a d
Ġy ou
i g
a y
a b
Ġf or
Ġ it
o t
i r
a m
a c
t h
i m
k ing
i d
Ġ and
Ġ e
T he
h o
Ġb e
s e
Ġ 1
k e
Ġt h
Ġ E
Ġ N
u l
Ġ r
Ġ U
t er
u n
u m
o f
e m
v er
Ġ is
es t
Ġs he
i c
o w
Ġs t
al l
Ġo n
Ġ A
Ġ I
a g
i on
xx x
t s
it h
o d
ro m
Ġw as
ĠU r
s t
e ar
a v
u t
Ġn ot
o l
Ġh is
r i
p le
ou n
Ġ L
Ġb ar
Ġw ho
Ġ ar
u g
Ġl i
Ġ king
en t
Ġ re
a in
Ġyou r
Ġs e
Ġw ith
er s
Ġs h
ĠE n
Ġs il
f or
Ġ 2
es s
Ġm y
e p
Ġit s
an n
an t
Ġp l
i v
o m
Ġth at
Ġm an
u p
h t
l il
Ġh im
l d
t o
ac e
ou se
re at
Ġ at
e c
il l
Ġw or
it y
e a
ou r
Ġm e
Ġhe r
ab le
em ple
ann a
Ġg o
d er
he r
c e
Ġd ay
Ġt emple
Ġ 3
Ġh as
d s
e t
on g
i p
Ġsil a
Ġon e
Ġ S
l y
u il
k el
Ġb an
ig ht
ĠEn lil
Ġg ur
Ġ G
the r
on th
i f
le y
Ġshe kel
at ion
Ġg r
Ġf rom
u d
t ed
Ġ k
Ġb r
Ġ an
Ġs p
f rom
s u
av e
Ġ as
ro y
oun t
y ear
Ġb y
q u
it s
Ġbar ley
Ġg reat
uil t
he n
Ġshekel s
in e
h is
Ġd o
al e
Ġshe ep
Ġ up
Ġd est
Ġli ke
Ġc ity
u s
Ġh ouse
a p
i el
Ġc h
Ġl and
ke t
able ts
m a
g e
ĠN in
Ġbar ig
Ġ en
at e
u b
Ġar e
Ġg od
a k
I n
er v
as ket
Ġw h
F or
t ablets
oun d
ot al
u en
ab or
ad e
in d
Ġb uilt
H e
iel d
Ġp r
of tablets
asket oftablets
ag a
b e
r u
Ġdest roy
ug al
B asketoftablets
t otal
u re
Ġo r
ac h
Ġ 5
o v
on e
ir su
at ed
is t
o od
Ġo ut
er e
Ġs on
Ġl abor
f e
ar t
ĠA n
Ġa b
Ġ al
Ġl am
Ġwor k
ar d
Ġsh all
Ġ 4
ou ld
ou g
ĠN ing
S uen
Ġth is
Ġdestroy ed
Ġ K
or n
Ġw ill
am e
s on
c h
Ġ1 2
Ġ un
he d
Ġh ave
ar e
Ġa m
Ġe ach
ic h
Ġa c
el l
c ri
Ġw ere
Ġpl ace
erv ant
Ġc om
Ġli fe
or d
Ġe x
Ġgr ain
Ġthe re
Ġh ad
Ġm ade
ĠI n
Ġo x
o k
Ġthe ir
Ġp e
ount ain
Ġof f
Ġ v
Ġf l
Ġy ear
Ġ j
ou s
ro w
a is
Ġb re
Ġd e
av en
m onth
Ġ i
Ġ D
Ġ B
Ġc on
Ġf ield
ab a
Ġ M
Ġsil ver
ov ed
E n
a ke
Ġp ro
U r
Ġn o
Ġt im
Ġ H
o ple
Ġm ountain
Ġs ervant
il d
at her
ow n
ion s
Ġse t
is h
k i
f ter
at t
ul er
Ġday s
Ġin to
Ġpe ople
t u
Ġ qu
Ġhe aven
Ġd id
ur n
iv e
ĠIn anna
W hen
i z
o p
Ġwh ich
a z
cri be
Ġ all
id e
M y
en d
ing s
Ġw at
ĠNing irsu
f ed
s h
Ġst or
o s
i ver
Ġse al
w or
Ġthe y
Ġm onth
Ġbe er
Ġs ur
Ġhe art
un d
for e
u k
ĠL ugal
c k
oug ht
ad y
as t
ĠN anna
Ġtim e
T o
e f
Ġthe m
Ġm ale
Ġn ame
g i
g al
p er
Ġo il
Ġh and
M ay
Ġm ight
as s
Ġbe en
ic k
Ġgo od
ĠL aga
el oved
Ġac c
Ġp er
ri est
k u
ol d
c t
em ale
p on
p l
Ġf our
ay s
ĠA k
Ġwat er
Ġc an
ist r
um er
Ġn e
r ong
in a
an ce
I t
u st
ul l
Ġhe ad
Ġm o
Ġsh ould
Ġk n
Ġbre ad
Ġc ar
ol y
i ke
a il
Ġar ea
Ġf emale
Ġl o
as ter
ig n
it e
en ts
Ġst and
ar ds
Ġd own
as h
ac k
Ġbr ought
b b
w ho
Ġo ver
ic e
Ġstor m
Ġl ord
Ġgod s
Ġa w
t y
an s
Ġox en
Ġb ur
Ġ 6
Ġb o
ec t
Ġor der
ul gi
ver n
f ace
Ġmight y
a u
f ul
un der
o ol
ĠS umer
Ġgo at
Ġyear s
Ġr es
i es
ar a
Ġe ar
a ug
Ġlam b
p her
i a
s el
Ġl ady
Ġ ro
re e
Ġa d
A n
Ġto w
Ġ T
Ġm ay
Ġm aster
Ġs up
ers on
Ġb eloved
k al
m e
r a
Ġb ir
Ġhe re
Ġsur face
vern or
iv al
in es
The y
att le
Ġe m
Ġlabor ers
am ma
Ġland s
u z
Ġi ku
s cribe
Y ou
Ġa p
Ġch ild
Ġp erson
aug h
r y
en g
Ġoff er
a id
Ġ The
Ġp ow
i ous
is hed
Ġa g
Ġaw ay
Y our
k ur
Ġl e
ĠAk k
augh ter
Ġh oly
he re
an e
Ġd ec
Ġshe pher
Ġear th
w e
ou t
ĠEn ki
Ġwork d
I f
S he
d id
I ts
Ġdo es
Ġp ure
he s
b ar
ation s
ig h
au se
ter s
Ġman a
p en
id u
st rong
Ġworkd ays
Ġgrain fed
v e
Ġb ro
N in
Ġw ea
Ġth r
istr ess
r ine
z u
Ġs m
al f
Ġd iv
ar s
om e
Ġe e
m ay
p ro
u e
Ġw om
Ġcan al
est ival
m ar
Ġs c
Ġre ed
Ġtow ards
O n
Ġf ather
Ġlam ent
Ġ est
Ġr ais
ud ea
ed ic
Ġl ines
Ġmo ther
Ġr uler
if e
ar m
al a
ĠU tu
Ġ er
Ġw e
Ġf ound
A t
Ġ F
Ġp riest
ĠL u
ip p
Ġc orn
b y
En lil
ĠAkk ad
i b
t urn
Ġwho se
t ing
i re
Ġb l
ab l
s he
Ġw ool
i ed
Ġ P
ol um
w n
Ġin st
at um
S n
Ġw all
Ġl ong
Ġsh rine
L ike
v en
Ġshepher d
em an
sh ip
Ġ ĠĠĊ
Ġc l
Ġcorn ers
Ġs l
Ġs u
Ġp al
all a
h at
Ġm istress
sel f
Ġs o
as e
ri ed
ok ed
Ġd r
Ġa fter
ip l
m an
Ġst at
Ġup on
ou th
en ce
l es
r uler
v ia
Ġ u
Ġb it
Ġm ake
m ma
ĠE r
Ġw here
i ef
Ġb ull
Ġest abl
Ġt ru
an a
Ġ1 3
ur a
w hen
Ġn ind
Ġun der
Ġwh at
at es
Ġf ish
Ġt r
Ġal kal
el iver
oug h
Ġo wn
Ġh o
id a
Ġ W
an g
Ġp re
av ing
ak es
Ġsp ea
w ell
Ġi e
Ġb ut
th at
ĠUr N
p e
Ġ 8
an ge
os s
r ed
re me
ow s
n ess
Ġre turn
row n
th ing
Ġ 7
Ġg iv
d u
n g
ar v
Ġr ul
ill ed
wor ld
ĠUr uk
ec ted
Ġdiv ine
h ouse
Ġon ions
A fter
Ġl ess
ur s
ĠU mma
Ġcom m
ipl ant
a w
Ġin s
Ġalkal iplant
d e
ro op
Ġpl ow
Ġab und
Ġd well
Ġyou ng
or e
ho se
Ġwea pon
f ield
ter ed
edic ated
Ġs ar
Ġb und
Ġf e
Ġbe c
Ġbe h
Ġqu ar
ipp ur
oss ess
Ġwor ld
m in
o y
Ġs we
Ġf ate
Ġr est
Ġacc ount
ĠN ippur
Ġwom an
in n
es h
un a
ĠEr idu
Ġh igh
Ġwor ds
Ġbit ter
an i
Ġbo at
ain st
ge ther
wor k
Ġhe ro
ow ing
Ġpow ers
o ver
w ith
is e
Ġwor d
Ġl et
F rom
Ġw hen
Ġf r
Ġsup reme
Ġl ap
el y
Ġe y
A s
N ing
ar y
Ġp ut
Ġabund ance
Ġfor e
Ġking ship
Ġre g
Ġgo vernor
Ġo ld
roy al
a ir
ul t
eng th
Ġnind a
1 2
ag er
ash ion
Ġm id
k s
l ing
Ġt er
Ġ2 3
Ġer ected
Ġs ay
Ġpl ac
r en
t a
Ġt able
Ġw ant
Ġbe fore
bb i
Ġw ood
ĠA b
Ġgoat s
Ġswe et
H is
Ġcon t
Ġne ther
Ġd es
Ġm outh
Ġ im
on t
Ġc reat
ho ld
Ġt re
Ġse e
An d
Ġpal ace
g o
al ed
Ġat t
ec ause
Ġst r
ol l
Ġpr ais
arv est
Ġrul ed
Ġcomm and
roop s
Ġ ulgi
Ġo pen
ar ed
es ent
l am
Ġw ind
ag e
ĠNin lil
j o
Ġs cribe
il e
Ġquar ters
G udea
b le
ar ge
Ġbr ing
Ġf ashion
Ġc attle
Ġe ver
ĠN ane
B aba
Ġt ree
Ġc ut
Ġbr ick
en ed
Ġsheep f
ul ar
Ġch ief
Ġ royal
en s
ac c
iz ed
Ġchild ren
Ġoffer ings
Ġbro ther
olum n
l ed
all ed
Ġme as
Ġfl our
Ġestabl ished
Ġ if
Ġc olumn
ĠE kur
ru ct
Ġrais ed
Ġstat ue
t al
Ġg ate
um uz
Ġar m
Ġman ager
On e
an c
Ġs ide
the y
Ġe v
Ġpr in
6 2
i er
at ing
Ġp ossess
ic i
Ġ 9
Ġm akes
Ġen em
ĠF estival
i or
le as
Ġpr esent
mar Suen
Ġlap is
bbi Suen
Ġsheepf old
Ġw ife
Ġbar ge
Ġre m
Ġlabor er
Ur N
and on
Ġpr ay
Ġgiv en
s en
Ġ R
is aba
Ġr ight
for m
ce iv
Ġtru e
Ġ C
Ġag ainst
Ġbund les
inn u
Ġfashion ed
or ed
Ġf ine
Ġd is
Ġ1 4
ke y
Ġab out
Ġ Z
Ġs ac
Ġf oll
Ġst one
Ġam ong
Ġex t
ho sen
eliver y
o ke
Ġs aid
it es
Ġab andon
Ġcar ried
b o
Ġf ir
uil d
c um
m en
Ġs ub
or t
at or
Ġm en
Ġg ave
Ġthr one
ceiv ed
h ad
s p
Ġt urn
the ir
The re
Ġre jo
ful ly
ars a
e en
Ġs ing
Ġb ow
Ġb attle
Ġd aughter
Ġp ass
am s
ag an
ear s
go vernor
Ġd ist
Ġgr ound
Ġhand s
Ġb ack
on key
Ġc he
Ġg arm
Ġsm all
L ugal
a e
s o
ĠL and
Ġho e
r um
w h
Ġse ed
Ġbeh alf
Ġtable t
Ġenem y
at h
is ter
am ed
ĠA bb
k in
p riest
ad ed
Ġspea k
T hat
e x
t le
Ġg row
Ġto ok
Ġbe ing
Ġpl ant
b ut
Ġm ar
Ġc or
av es
ess el
Ġdo or
v id
re ad
am a
if ul
ĠH ouse
Ġstand ard
Ġbir th
umuz i
n ig
ing ir
Ġc ount
ĠS uen
Ġan y
Ġkn ow
Ġbir d
m er
v es
w o
Ġs ome
Ġf ood
Ġg if
Ġk id
Ġgrain s
Ġj oy
N anna
Ġin c
Ġr iver
ĠEn innu
ep t
Ġhouse hold
p ass
Ġw ell
ig al
Ġr ations
ĠG irsu
ud u
Ġap pro
Ġplac ed
e w
f l
Ġw ent
Ġ1 5
ill y
I bbiSuen
b ab
r it
t ur
Ġs n
Ġc it
un n
Ġc le
re ed
Ġin t
Ġprais e
c hed
Ġt hose
Ġb ound
Ġa ura
ul i
for eman
ann ot
B ecause
c ed
Ġfor eman
ap s
Ġv essel
al ted
Ġen d
ĠNing al
a ut
f er
Ġw ar
Ġm in
ĠA m
ĠS im
Ġdo cum
Ġfl ood
Ġabandon ed
b uilt
on es
Ġc annot
Ġpro per
Ġc over
Ġl it
Ġar a
ec k
ap p
Ġpow er
Ġfore ign
e z
i x
Ġ el
Ġg ive
ic it
Ġbarley fed
Ġcom e
Ġfound ation
U tu
a king
Ġb ed
Ġb illy
Ġyou th
am u
Ġbe aut
ĠA d
Ġqu een
Ġlamb s
bab bar
s ervant
it ting
ot h
id es
Ġwho m
ĠG em
ak en
Ning irsu
A l
Ġw ould
al ity
Ġc ow
ir ed
ĠG reat
min istr
Ġsac red
Ġt ake
in y
Ġd edicated
Ġhim self
Ġen ter
sh all
ef t
de ed
1 5
a ith
e le
o se
o ther
ar i
Ġl eft
se aled
Ġst rong
us ed
iel ds
Ġdist ant
ministr ator
Ġs at
Ġf ur
Ġon es
Ġj ust
ĠAb zu
U pon
d om
Ġf illed
Ġr ange
Ġse ized
Ġk ind
Ġem p
Ġreg ular
W ho
h as
m y
m ent
Ġ ut
in ing
Ġs k
Ġc ast
ĠL arsa
S o
i an
Ġt al
Ġw is
Ġd em
Ġin deed
ow ed
ĠA marSuen
Ġfr ont
Ġnether world
b er
w as
Ġh ow
Ġc ould
Ġ1 1
Ġmountain s
Ġoffer ing
l a
Ġc ub
un g
ug a
ru ck
Ġreturn ed
Ġo u
en a
Ġh aving
ĠA l
ri es
ĠB aba
Ġbeaut iful
al s
as aga
Ġc a
Ġst ruck
Ġsp ouse
Ġgarm ent
b il
d in
im a
ck ling
Ġfoll owing
Ġwis dom
r is
v ed
Ġb ala
Ġb uild
as ed
Ġd ep
Ġp our
ur ing
ĠG udea
ov e
Ġde f
Ġpriest ess
d elivery
e g
en er
Ġc ap
ur es
Ġto gether
ep ted
Ġgr ass
ĠD umuzi
Ġad ministrator
Ġbl ack
urs ag
wh ich
vid er
Ġs qu
al t
on d
Ġc e
Ġn amed
Ġme ans
ail ed
Ġres id
Ġemp ty
l ike
Ġb ig
Ġf att
Ġh ar
Ġp leas
ur ta
Ġqu ality
az uli
ĠUrN amma
Ġrest ored
Ġmid st
Ġstr ength
Ġever y
c ted
m b
s in
u ck
Ġ O
Ġf o
Ġc r
Ġd onkey
ad a
Ġth us
D agan
p t
r d
Ġ ver
Ġf ields
Ġto tal
Ġse ven
Ġthere fore
Ġey es
b r
c hes
h ip
Ġs erv
Ġf ull
Ġre ign
ĠH arvest
bar ley
Ġev il
S in
Ġm ess
Ġe at
Ġr ites
oun ts
Ġse c
Ġfe et
Ġbec ause
UrN amma
bo oked
b i
n d
p ed
r in
Ġf aith
il ed
re am
ac hed
ag ash
ri or
Ġsp l
Ġsu ckling
Ġu Suen
1 3
N isaba
Ġw ild
Ġm at
Ġc op
Ġal ong
b ear
i ent
l ight
m ic
m Sn
Ġs un
ar k
Ġf ace
on s
Ġth ings
En ki
os mic
Ġwar rior
g ina
Ġc osmic
Ġl ion
Ġfor th
ation ed
Ġas s
Ġdo g
be ing
Ġor ch
who se
Ġdwell ing
A d
g r
l abor
m u
w er
Ġt aken
Ġl arge
Ġg old
Ġper f
Ġdocum ents
c er
t ect
Ġ ir
Ġo b
Ġb orn
Ġf estival
Ġc hosen
le t
Ġn eck
ĠE kin
Ġst re
Ġv olum
Ġcon st
Ġsl ave
Ġprin c
h r
i e
o ck
t roops
Ġs ong
or y
Ġf all
Ġc ows
Ġd ais
ver s
Ġgo ing
ĠAn una
she ep
Ġbut ter
g ed
Ġt wo
Ġf ire
Ġth ing
Ġcom ple
Ġinst alled
Ġpre c
E r
H er
d ess
v ing
y our
es e
Ġ1 8
ann atum
az u
Ġper form
aughter ed
There fore
A D
an atum
Ġe qu
ĠL agash
Ġperson al
Ġcub its
1 4
D o
L u
d edicated
m et
Ġr u
Ġst ood
Ġde b
Ġde ter
Ġmonth s
Ġstand ing
Ġap art
Ġgif t
b eloved
or der
Ġc rown
Ġin ter
Ġn ight
Ġr ams
ĠA g
Ġpl ain
if ied
ub ur
Ġdr in
ĠGem e
h y
r ig
an ts
Ġs ister
Ġf in
Ġm ina
il g
el le
ot s
ĠK ima
Ġcom p
end ent
Ġbro ad
Ġpray er
Ġcop per
R AD
w ood
Ġh um
ug u
Ġsp read
Ġgod dess
Ġt roops
an um
Ġc our
ap ple
Ġwork ers
ĠK i
Ġpro tect
Ġne ver
Ġkn own
Ġsu it
Ġweapon s
work er
Ġh orn
Ġp ath
ur i
ay a
ĠE anna
Ġrejo ic
B y
p ae
Ġc alf
Ġl azuli
all y
Ġsur pass
Ġwe ep
Ġunder world
Ġfir st
ĠEkin ugal
r ess
is ions
Ġc oun
Ġbe ar
Ġst ones
ĠI sin
Ġar t
Ġre p
Ġman y
ĠS n
Ġlament ation
Ġatt ent
Ġcount ry
Ġsome thing
Ġevery thing
Ġmess eng
s s
Ġ ul
Ġs w
re ceived
Ġto p
Ġst ationed
Ġcon f
Ġey e
Ġcit ies
t en
Ġt e
Ġm il
Ġl ength
Ġg re
se er
In anna
cri b
end ed
Ġturn ed
Ġsqu ared
e ad
Ġsp oke
Ġad v
ĠAbb asaga
bil um
a x
f f
Ġpl ans
Ġch ang
Ġj ud
iver se
Ġdec reed
Ġreed s
Ġmeas ure
Ġbow l
Ġpass ed
Ġresid ence
D id
W ith
k ed
k alla
p ect
s um
u a
w es
Ġc ame
Ġg az
ĠUr bilum
ce ive
Ġen priest
Ġem mer
Ġsn ake
Ġsk y
Ġorch ard
1 6
g ig
m ed
o st
il im
Ġd ug
and a
Ġ1 6
Ġli f
Ġking s
to gether
Ġfl o
ici al
T h
u al
Ġ z
he aded
Ġt ears
in s
ur se
ĠE babbar
Ġun iverse
Ġjust ice
Ġprec ious
l ong
Ġo ther
il i
Ġc ol
Ġp ur
im e
Ġe wes
ĠI t
Ġli ving
Ġk ir
Ġen tered
Ġpro du
Ġne w
ingir a
Ġtal ents
Ġce ased
Ġprotect ive
1 1
b orn
l and
n am
t il
z e
Ġt y
ed ar
the re
se mb
ĠL ug
Ġan c
Ġplow man
Ġrem oved
m ight
Ġw id
Ġf av
ir d
ĠE up
Ġbr ings
Ġex alted
Ġj un
Ġj ug
pl es
Ġim p
hr ates
ĠEup hrates
b s
n ing
n ir
o x
y ou
Ġo ur
Ġm ust
is i
Ġc al
Ġe ven
ag es
Ġan other
cri pt
Ġres pon
ib ru
Ġpal m
Ġter rit
Ġwood en
ĠZ ab
Ġsing le
Ġou ts
Ġsuit able
b a
t um
v ol
Ġs le
ar ad
Ġl im
Ġar ound
ann ed
ds hip
ĠS h
Ġan g
Ġal so
ĠT ig
Ġprin ce
Ġpour ed
h a
m ents
in ed
Ġs aw
Ġb uck
is on
Ġp un
Ġhe aps
th y
ow er
ĠUr im
Ġre b
ĠG u
Ġas semb
ord ing
Ġle ather
Ġvolum es
Ġkir ugu
Ġty pe
ĠTig ris
h aving
l o
t i
Ġt ablets
Ġh app
Ġh ired
Ġa x
Ġp ay
Ġg u
Ġbe g
ĠE lam
Ġr is
Ġon ly
ĠL ud
Ġtim es
Ġseal ed
Ġlo ok
Ġcover ed
1 8
5 7
W hat
b ed
e ous
m ag
t ile
Ġh air
Ġc ro
ĠN ig
Ġst ele
ri but
ast ing
Ġtre es
Ġche ese
Ġfaith fully
Ġmesseng er
L amma
Y ear
Ġs crib
Ġh arvest
Ġc ase
Ġd ate
ĠN ibru
ul a
ut i
Ġre ceived
Ġwith in
ud a
Ġsp ir
Ġbir ds
Ġrais e
Ġestabl ish
ĠSim ur
ez ida
Er ra
Ġsurpass ing
Ġsle ep
Ġassemb ly
T his
g a
at s
it ion
Ġc edar
Ġn et
ad i
Ġyour self
Ġsh ining
ok en
ct ion
Ġlo oked
Ġcreat ed
Ġterrit ory
T otal
r up
Ġ ed
in ess
in to
Ġb order
Ġf ear
Ġm aking
Ġd it
ad s
im u
ag on
ag ina
ip it
Ġch air
Ġ5 6
ail y
Ġfound ed
Ġdef icit
ilg am
2 5
F ather
d a
u h
u th
Ġ ke
Ġ us
Ġt reat
ar ious
Ġw ay
at er
Ġm er
Ġm us
Ġm ult
as a
Ġg ro
od y
od der
ann y
Ġsp oken
Ġup per
ak ed
Ġtr ans
Ġbitter ly
acc ounts
ruct ion
Ġrejo ice
Ġattent ion
cript ion
ilgam esh
E annatum
P A
Ġs ays
re g
Ġl or
Ġd ust
Ġto o
el f
ac t
id din
iv en
ĠNin urta
Ġacc epted
Ġover seer
Ġlong er
Ġarm s
nig ar
Ġut ter
met ena
Ġchang ed
Th us
B ut
H ouse
k ug
y ing
Ġt ou
in t
Ġw r
or ite
al i
es c
Ġh old
Ġg l
ir a
Ġr unn
un i
Ġst ra
Ġban k
us hes
Ġwork er
Ġoff icial
ous es
edic ate
Ġcl ay
Ġspea king
Ġcreat ure
Ġright eous
Ġmil k
S um
p s
p or
Ġ ent
in sp
Ġb el
Ġf ell
Ġh a
Ġl ay
th r
ĠN un
ter n
Ġdest iny
be fore
ĠK e
ĠH ow
Ġstor e
Ġcont ain
Ġtre as
Ġgrass fed
Ġblack headed
Ġfo ot
bear er
Ġperf ect
Ġcoun sel
Ġanc ient
uth or
iddin am
A b
a fter
Ġt anned
Ġd one
Ġd eliver
Ġp ar
ur m
ĠN am
Ġse a
us h
It ar
Ġmo st
Ġap p
ve y
Ġdr um
Ġmin as
Ġlit tle
B e
T emple
k igal
in im
Ġf itting
Ġc o
Ġl aid
Ġd ates
Ġr adi
ard ing
Ġac ted
ĠM ountain
pro vider
ĠP uz
Ġbec ome
Ġter r
Ġsay ing
anc es
Ġpresent ed
ĠR mSn
Ġspl it
Ġdeter min
N o
d edicate
s l
t e
w ere
at ive
Ġf ly
Ġh or
uk alla
arm er
fl our
Ġstre et
L ord
S h
d ers
r im
s ag
he ad
Ġt em
Ġs ail
Ġp iled
ir ig
ch ief
Ġde ity
ty ard
ry ing
Ġfir m
c es
d le
g ur
i od
v al
z i
Ġ ud
Ġs it
Ġs alt
Ġw he
ou d
it i
is s
is ed
on ze
en ds
Ġh ide
Ġh ides
Ġa uthor
Ġn ow
Ġn anny
Ġ3 4
Ġk illed
ound ed
Ġab le
Ġex c
Ġv arious
ef icit
Ġsub m
Ġir rig
Ġcour tyard
a h
b or
r ing
Ġ He
Ġt ail
Ġb at
al u
Ġm u
Ġc ho
Ġl ov
Ġn ation
ac ed
Ġst ri
ĠA p
ĠA RAD
Ġits elf
Ġme tal
ip ar
Ġbr onze
ma h
Ġpe g
row s
Ġper iod
ĠT emple
Ġpre p
Ġbeh ind
esh ing
Ġpossess ions
Ġcle an
ĠAm orite
Ġfur ious
Ġrejoic ing
d aughter
n el
s i
Ġs ho
Ġb asket
at ched
Ġf un
Ġc are
Ġc ool
Ġp ot
ur ed
ho ol
ĠN isaba
Ġr ed
Ġr ain
Ġse iz
Ġpl ay
ub a
Ġal as
pl endent
Ġhead s
Ġbo x
Ġbull s
Ġcattle pen
Ġver y
ox en
Ġha un
Ġdetermin ed
M onth
n e
o c
y l
Ġb oth
Ġf le
Ġf ill
Ġp ig
ig i
im in
of fer
em ent
ĠI kur
et in
Ġwh ite
Ġal one
ĠB ab
Ġacc ording
Ġbound ary
Ġouts ide
S e
b ecause
o the
Ġs in
Ġs ite
Ġb aked
Ġc ult
Ġl ight
Ġp or
ab ba
Ġe ating
st and
ol ds
ap ed
ĠH oly
ild o
Ġkn ows
me Dagan
Ġle ve
Ġsc hool
Ġdes c
ĠC ity
Ġinc ant
Ġproper ly
Ġass ign
gig ir
insp ect
inim gina
sl aughtered
d o
w ay
Ġt as
Ġthe n
Ġw ailed
Ġf er
Ġd i
Ġd ig
Ġg ig
Ġg ather
am nir
th is
The ir
se t
ĠUr Baba
ther n
ĠNin azu
ĠAn an
Ġab ove
Ġall ure
Ġres plendent
Ġthr ough
Ġins pect
Ġprinc ely
Ġscrib al
Ġspir it
Ġstore house
K A
b an
c c
Ġ ur
an al
Ġb al
Ġl ist
Ġp o
ĠN ine
Ġr ation
em ost
Ġre ver
Ġme at
Ġwork man
iz on
Ġsup er
Ġbrick s
Ġappro ached
Ġcit iz
Ġca ul
Ġfin ished
might y
Ġfav or
Ġtem ples
2 2
O f
g es
p ped
w ife
Ġs ick
Ġf ri
Ġf ears
Ġm ace
Ġm ind
Ġd ro
Ġd et
Ġp en
Ġst ep
ug e
Ġse en
ep ter
su b
Ġch ange
ĠNin mar
ch ing
Ġde v
Ġpro vider
az i
ick s
Ġkn e
Ġbo oked
Ġthr eshing
ib le
Ġtru st
ta ea
Ġplant ed
Ġkid s
Ġdeb it
D U
Ġ id
Ġ used
Ġw ept
re ceive
Ġd aily
ur ub
Ġhe l
up bearer
ip er
kel s
if est
Ġgreat ness
Ġpr ison
Ġlabor troops
Ġlam ma
Ġac t
Ġde fe
Ġcon sum
ĠM ound
Ġdes ign
Ġmeas uring
UrN ane
Ġpray ers
Ġdem on
ĠAl as
A N
A marSuen
K ing
L et
S t
c hosen
d on
l ess
m ade
p ar
p ic
u es
Ġs is
is al
Ġh ouses
and er
ĠE z
ul pae
ĠI l
Ġre leas
Ġgreat ly
Ġch arge
ru cted
Ġor nam
En metena
Ġpro v
Ġheaven s
Ġlo aves
Ġad d
Ġem er
Ġbl ood
Ġbrick work
ici an
ior ite
Ġbuild ing
Ġsec ond
Ġpun ted
Ġvolumes ar
ĠNun amnir
rim ent
1 9
G reat
P ossess
U ru
c l
m un
m ud
Ġ Ġ
Ġthe se
Ġs ust
Ġs ix
Ġb ody
is ion
Ġc alled
re m
Ġd ark
Ġg ard
Ġhe if
Ġin se
am m
am ber
un gal
Ġis su
ĠUr Lamma
ĠUr gigir
ri f
oun ds
om en
Ġgr and
Ġbr ight
Ġson s
ĠB ar
ĠM e
op y
Ġsc epter
Ġins ide
Ġplac es
Ġsome one
ĠAd ab
Ġfatt ailed
Ġlif ted
Ġtreat ed
2 4
I l
f ound
g reat
k n
s aga
Ġf ig
Ġm ill
Ġm ore
Ġh ur
Ġh ung
Ġd imin
ur u
ad d
ul y
Ġr ushes
ĠUr nigar
Ġre pl
Ġsh out
Ġsh ort
ĠEn un
Ġ2 4
ip s
ĠG atum
Ġk ak
Ġex er
end ing
Ġorder ed
igh ts
Ġsc at
Ġmid dle
acc epted
ier ce
Ġche st
Ġany one
Ġcomple ted
Ġhum an
Ġgu ard
Ġradi ance
Ġdet riment
don ated
H ow
H oly
m es
n i
ar g
Ġf odder
it ut
en ing
Ġd elivery
Ġd iorite
Ġin n
the n
ag ara
Ġre f
Ġre pe
Ġ2 1
Ġpl ants
om in
ĠNin ubur
ub i
ell ig
Ġbre ez
ĠM es
Nin urta
Ġsc r
urs aga
Ġev ildo
Ġcap t
ĠLud ingira
Ġtas k
U R
g iven
i al
k un
v el
y ak
Ġt w
in ds
Ġb ol
Ġw ine
or s
ou ble
Ġf ar
re w
Ġl oved
Ġg rown
Ġhe ld
Ġin qu
Ġto ol
ot e
Ġe we
Ġth ick
ic t
ear ing
for cer
Ġman ifest
Ġen forcer
one y
art u
ĠIn im
Ġj ar
Ġwat ers
Ġlo c
ra f
Ġso il
Ġfe ast
Ġany thing
Ġproper ty
Ġhar row
Ġsong s
there from
Ġcro ss
uti um
Ġornam ent
ĠEnun ugal
W h
d eficit
o ice
Ġs ou
Ġb as
at form
Ġf armer
Ġn est
ab uk
ag ed
Ġre c
ĠEn anatum
om ach
ec e
ĠG ilgamesh
ru it
ĠNing ezida
Ġun uri
Ġcom ing
Ġv i
ĠB l
Ġstand s
Ġres erv
ious ly
Ġwea vers
Ġinst rum
tur ed
ĠSim anum
Ġpower ful
Ġconst ant
ĠAg ade
Ġdrin k
Ġhorn s
Ġstra ight
C ome
M U
P ro
R mSn
Ġ esc
Ġs y
Ġb ind
ed s
Ġf is
Ġh alf
Ġhe av
Ġy et
Ġn umer
um en
ic ation
ĠA r
Ġar um
Ġli e
Ġli ve
Ġ2 5
Ġwor t
Ġgo es
Ġgr ade
ud urm
Ġch ari
az elle
Ġkn ife
Ġag ain
Ġdec ree
Ġdec isions
Ġsl aughtered
Ġgiv ing
Ġins ul
Ġhigh priest
anc hes
Ġdis p
ex tile
unn a
Ġca used
Ad ad
Ġcol le
Ġmu ch
inspect ions
Ġinse ct
omen ess
Ġnumer ous
udurm abuk
1 7
g ar
k idu
o ir
u ally
Ġo p
Ġs an
Ġw ise
it er
as ing
Ġc urse
Ġg alla
ro l
Ġhe ir
Ġn or
ir st
Ġ1 7
um m
ĠI d
Ġli ver
Ġpl ent
ea k
Ġ3 6
Ġbr anches
Ġan s
Ġan im
Ġab zu
ĠK ar
orn ed
Ġde ep
per ty
Ġacc ept
Ġle ad
Ġwe ight
she pher
Ġho st
Ġfore ver
Ġext ra
Ġsub j
Ġcle ans
ix ed
Ġdem ons
Ġfront ier
Ġou ter
Ġver d
Ġru in
Ġweep ing
Ġjud g
Ġenpriest ess
Ġpur if
Ġhapp y
Ġhor izon
Ġlov es
Ġfun ction
yl on
KA gina
sub total
Ġsis kur
Ġbreez es
Ġreserv oir
U KAgina
b anda
k en
ar l
ar am
Ġw al
Ġw ide
on y
il y
il ity
Ġd ab
Ġd am
Ġd ream
Ġg one
Ġe kalla
ĠE re
Ġr am
of ty
Ġsh ade
Ġmy self
Ġpl ot
Ġpl atform
Ġen c
Ġbre wer
Ġmonth ly
ĠLugal urub
Ġmo on
Ġcar p
sel ves
Ġoffer ed
Ġest ate
Ġfound ations
Ġinst ruct
Ġbec ame
Ġopen ed
Ġint ellig
Al as
Ġcap tured
Her o
Ġgre w
Ġcal ves
Ġrespon s
Ġreb el
Ġsubm it
ĠAp isal
ĠBab ylon
Ġcaul ked
Ġfri end
Ġdefe ated
omin ated
2 1
L ady
T hose
d ay
h ing
p r
p ri
w here
Ġb ase
Ġh oney
Ġc raf
Ġd ied
Ġd ouble
Ġp op
am i
am p
Ġr ival
un k
ent ly
Ġre ar
Ġwith out
Ġex p
Ġex ha
Ġset tle
iz i
end on
os ed
Ġthem selves
ick ed
Ġcar c
Ġwom b
Ġown er
ĠUrN ane
Ġins cription
Ġbund le
Ġhar bor
Ġob l
Ġjun iper
Ġke ep
Ġcontain er
Ġhaun t
Ġchari ot
2 3
b ers
t ar
z ida
Ġ When
Ġs ent
ou ts
Ġf ut
it ies
Ġh all
Ġc ry
Ġl ear
Ġd istress
Ġy oke
ay ing
Ġfor emost
ir i
id ed
ke ts
Ġr it
Ġshe aves
ow ards
Ġgr as
Ġk ill
ap i
ĠK u
ĠK ish
Ġcom b
Ġoff ice
Ġqu ay
Ġem br
Ġwall s
Ġtru th
Ġboat s
Ġprais ed
Ġmin ister
Ġsec ure
bi Erra
rin c
Ġfall en
long tablets
Ġlim bs
Ġterr ace
Ġprep ared
Ġreleas ed
ĠBar ley
Ġscat tered
Ġfut ure
W hy
l ar
n o
p h
w he
x PA
Ġt all
Ġo ven
at ic
Ġf ates
Ġm arv
is f
is pic
en der
as i
Ġl ofty
Ġd ire
le ase
Ġhe ar
Ġin vol
Ġfor ce
im mud
um gal
Ġli ves
ann er
ĠEnlil s
ĠG uni
ĠG azelle
ud immud
us a
Ġac worker
En anatum
iz ier
wor thy
ass es
ĠAk alla
Ġro ad
Ġinst ead
Ġrul ers
de b
Ning al
Ġgarm ents
ew ard
Ġpleas ant
Ġstre t
Ġdrin king
Ġadv ice
Ġflo or
Ġwid th
Ġlor dship
Ġwhe at
ĠGatum du
Ġinn er
MU xPA
Ġheav y
ispic y
ĠGuni DU
3 6
8 7
A m
a ff
b ani
e ve
l ord
Ġt ri
Ġs ol
er gal
at i
as es
Ġl ine
Ġd el
Ġp irig
Ġin iti
Ġfor m
ot ed
Ġth an
ĠE d
Ġr ise
um a
um u
ĠL ord
Ġre ve
Ġsil o
Ġ2 6
Ġpl ough
Ġher ds
ap e
ĠNin s
ĠNin tur
ub l
In s
Ġor ders
Ġun til
Ġac qu
Ġover turn
Ġaw e
Ġsup pl
Nin ubur
Ġpriest s
ruct ive
Ġarm y
Ġpossess ing
Ġext ispicy
Ġut tered
Ġdonkey s
Ġinter est
Ġprodu ce
ĠSh ulgi
ĠSimur um
Ġdit ches
Ġwr ite
thr ough
Ġdeliver ed
Ġud ug
Ġheif er
Ġexer c
Ġbol t
Ġintellig ence
Ġmarv el
3 5
A RAD
c on
f emale
g le
g rown
r ation
z em
Ġs anc
Ġb est
Ġb urn
Ġf ierce
Ġm ine
Ġm anner
is or
ot ten
ac hes
Ġth ree
ĠN ann
ul u
Ġr ich
of f
em en
ĠA mar
ĠL ukalla
ec h
ch ant
ch ange
Ġv oice
Ġv izier
Ġfl esh
Ġde er
Ġde ad
Ġno se
ash ing
Ġdec ision
Ġnind aba
ĠW arad
work ers
acc ount
Ġsing er
Ġcow her
Ġfaith ful
Ġsun light
Ġutter ance
Ġtreas ure
offer ing
Ġgather ed
ĠEz ina
Uru k
Ġsust ain
UR UKAgina
Ġsou thern
Ġsanc tu
W here
b ird
d est
g u
l aw
l asting
p re
s il
t r
w ays
y a
Ġt igi
Ġw ail
or ated
at ur
at ch
Ġf ac
Ġh ang
il mun
Ġd ri
Ġa f
Ġp il
Ġp hy
Ġn am
ab zu
Ġfor est
Ġst eward
Ġon to
ag g
ri ved
Ġwho le
Ġar u
ĠNin d
ak am
Ġwh y
ĠD ada
ĠB ig
Ġcon vey
ku zu
Ġpre v
Ġrest ore
Ġappro ach
Al l
Ġsat isf
ener al
Ġmat ter
Ġdeter m
ĠSimur rum
ĠPuz ri
Ġfavor able
Ġfears omeness
Ġprison ers
amm ur
arg on
Pro perty
Ġsy rup
umm al
Ġans wer
I d
r on
t ime
Ġt akes
Ġt ore
Ġs ag
ar ing
Ġf ind
Ġf ruit
al so
it ative
es ame
re es
Ġd ir
Ġd ining
id n
id ing
id ug
The n
Ġbe at
ĠN ergal
ĠU n
ĠI meDagan
Ġre ceive
Ġse ts
Ġ2 2
up p
ĠS t
Ġban ks
Ġsp e
Ġdest ructive
ĠNin ursaga
Ġv ia
Ġbre ast
Ġro of
uz ga
ipp ed
Ġbit umen
ĠW h
red its
Ġfe at
Ġquar re
Ġcommand s
ĠFestival of
ĠC anal
Ġmar sh
Ġcor p
Ġdocum ent
Ġfur rows
Ġperform ed
Ġweep s
Ġbear ing
Ġjun ior
Ġeven ing
mag al
Ġmult ipl
reg ular
Ġdrum s
Ġhuman ity
Ġvi ol
Ġsan ct
Ġrespons ible
Ġexha ust
ammur api
2 7
D umuzi
I kur
b l
d ing
e ver
g ir
k a
k es
k ig
r ain
he kels
Ġt ribut
Ġs esame
Ġw agon
Ġf at
Ġf it
Ġf ul
it ud
ing er
Ġp art
Ġn ear
Ġfor g
id s
ĠE t
ĠE gal
ĠN r
ĠN amma
ĠA s
ĠA tu
ĠUr mes
Ġnot hing
ĠEn magal
Ġpl under
Ġman s
Ġher self
ce asing
ĠG etin
Ġsp ace
Ġdest ruction
us hed
ĠNin h
erv isor
ĠK ing
Ġcon s
ĠM y
ĠM ard
ĠLugal inimgina
aug ht
Ġshepher ds
Ġfather s
Ġsl aughter
Ġcont rol
Ġel aps
ĠO val
Ġconst ructed
ĠKi ur
ĠGu abba
Ġdit ch
Ġbox wood
othe d
ĠNine gal
Ġcitiz ens
Ġinstrum ent
ĠKar zida
Ġinstruct ions
Ġlear n
Ġrit ual
Ġphy s
C ity
W e
W arad
c alled
f ather
h and
o in
o king
in en
in ter
Ġs um
Ġw rit
Ġw icked
or m
it ed
it um
it her
Ġc upbearer
Ġl ying
Ġin v
Ġn ig
ir med
ir imu
Ġst omach
all u
ĠI bbiSuen
ĠUr E
ĠUr ulpae
Ġre qu
Ġsh ine
Ġpl ots
iv ely
ec ts
ly ing
ĠG AN
Ġdestroy s
fe ast
ĠK udurmabuk
ĠD ug
ĠD ilmun
ĠM agan
Ġne gle
Ġad orned
ĠUrN ing
Ġreg arding
Ġgif ts
pass ion
ĠIt ar
Ġjug s
Ġrespon se
Ġang er
ĠGu ed
Ġgro an
Be fore
Ġpeg s
Ġdesc ended
Ġhost ile
Ġcleans ing
Ġfunction ary
rinc ely
ubl aga
Ġcorp se
A bb
C opy
T owards
b art
b ala
b uild
c hen
c over
l i
p ress
s es
s ho
s outh
Ġs old
Ġb en
Ġb ore
Ġf am
it chen
Ġm ound
Ġm alt
Ġc urs
Ġhe aped
Ġn ec
ig a
ir c
id ent
Ġe tern
ho st
Ġ1 9
Ġr aven
um ma
Ġst aff
ĠUr ara
Ġre ached
Ġsh are
ess ed
ant ed
Ġgreat est
Ġlam ents
Ġun ceasing
ell es
Ġcom passion
Ġbre ak
iz al
Ġacc ounts
Ġcar ry
Ġcar pen
ree able
ĠT ummal
Ġle v
Ġshepher dship
Ġwom en
Ġer ase
ĠLu ara
ĠLu Ningirsu
Ġsu ch
ĠW ho
Ġspea ks
Ġrem ove
Ġmar ried
Ġcount ries
Ġappro pri
Ġdef iled
Ġpleas ing
Ġinter ior
Ġjud ge
ĠLug ale
Ġris ing
Ġmer chant
Ġlor ds
int endent
Ġgl add
Ġbel ow
Ġfle ece
stand ing
Ġleve es
Ġdev ast
Ġdimin ished
Ġhighpriest ess
Ġhear ts
Ġinvol ved
4 2
D ont
N ow
a vern
e b
i q
i en
m ble
n ake
s m
s erv
t ain
u Suen
w ill
w ards
w ater
Ġ ill
Ġ For
Ġ uzga
Ġt ur
Ġt avern
in ually
Ġo cc
Ġb all
or c
it ing
Ġm our
is a
is m
Ġc ries
re ct
Ġl ust
Ġd uring
Ġp ast
Ġg ipar
ig let
Ġfor t
ir s
Ġth ough
ĠU ree
ag n
ag ainst
st r
ĠL ub
ĠL isi
ent ed
Ġre lease
Ġsh iny
Ġpl an
Ġme al
ub u
Ġal a
Ġwork troops
ch ild
Ġfl ow
ĠB agara
ĠM artu
Ġpro vid
ack s
Ġro pe
Ġwea k
Ġdiv in
Ġbl ock
Ġu ea
ĠUrN ungal
ble m
Ġinc ipit
Ġtal ent
Ġfull grown
wood s
Ġrep aid
Ġul MUxPA
Ġgaz elles
ĠZab ali
Ġapp ear
Ġfer tile
Ġhel per
Ġevildo er
yak alla
Ġplent y
Ġcarc asses
Ġspe ech
2 8
3 3
N ane
Z ab
b and
b ly
c r
c ar
d ried
e k
f it
g od
r est
s ur
t led
t wo
t extile
u w
v il
w ard
Ġ x
Ġt ab
Ġt ong
Ġt iny
Ġw it
Ġf ree
it u
it ida
Ġm al
Ġm old
Ġm aid
Ġm ounds
es ag
Ġh ire
as ura
Ġg arl
ad u
ĠN ag
um uda
ic ted
ĠI ri
ag ers
ec ut
Ġme ad
ce ed
ĠNin k
Ġal ter
Ġal tered
ĠK ul
Ġex ist
ĠB r
ĠH ill
az ida
Ġall owed
Ġsur vey
uk ur
Ġmale vol
Ġshould er
Ġkn ew
Ġad m
Ġsup ervisor
uz u
Ġag reeable
Ġdec orated
Ġbro ken
Nin lil
ib il
ĠP iglet
Ġsl aves
Ġstat ues
Ġgiv es
Ġhero ism
Ġfr ight
Ġfr esh
ex t
Ġdep th
eg igal
Ġfatt ened
Ġfatt ener
bear ing
Ġvolum e
Ġfirst born
Ġconf irmed
Ġte em
Ġgaz elle
Ġlim it
Ġax e
Ġrunn ing
Ġfly ing
Ġauthor ity
Ġirrig ation
Ġincant ation
Ġincant ations
Ġtrust worthy
Ġbas kets
Ġfis her
Ġfeat ures
Ġtribut e
Ġgarl ic
3 2
I s
L ug
L ud
L ukalla
S aying
a im
h ides
i ot
n un
o e
ar r
Ġf rown
al am
is ina
Ġh us
Ġh olds
Ġc ream
Ġl inen
Ġg egigal
el and
Ġn ir
Ġe g
Ġbe t
ĠE x
ĠE annatum
ĠN ab
un ir
um in
ic al
Ġst all
ĠI f
Ġar row
Ġse ated
Ġse par
Ġ2 8
ep ada
Ġhim her
Ġher der
ĠS argon
Ġk itchen
Ġsp ark
qu et
Ġup ro
Ġch amber
ru e
Ġpro found
az allu
Ġro d
Ġwe aving
Enlil a
Ġinst ruction
Ġcl aim
Ġdr agon
aw s
Ġsee ks
Ġfoll ow
ams uil
Ġsmall she
Ġcor rect
Ġvessel s
la x
la im
eg et
Ġserv e
Ġmat ure
Ġequ al
ĠSn iddinam
ages i
Ġris en
ipit Itar
Ġrunn ers
Ġent ire
Ġco ok
iss ion
Ġauthor itative
Ġpor ters
Ġgard en
Ġfig ure
itut e
Ġrepe at
Ġharrow ing
Ġanim als
Ġdam aged
ĠEre kigal
whe l
Ġsanctu ary
ĠEnmagal ana
Ġelaps ed
Ġphys ician
irs ir
Ġhus band
2 9
4 5
A g
I biErra
c om
d ingir
g ood
o o
s alted
t endon
w ind
in law
Ġo be
an k
Ġs ought
Ġs ign
Ġf ed
Ġh on
ro om
ur gal
ir izal
id er
ĠE m
ĠN udimmud
ĠUr saga
Ġar i
Ġli b
Ġre lax
Ġ2 7
iv es
ĠS in
ĠG ud
ther world
Ġk iss
Ġbr an
Ġen g
ak er
ĠAn zu
ĠM an
Ġno ble
Ġacc om
pl ed
who m
Ġover whel
ulgi irimu
Ġreed bed
Ġstat us
Ġtr av
ang er
Ġcont inually
Ġim ak
Ġmeas ures
Ġhoe ing
Ġmar ket
Ġjoy ful
Ġenter ing
Ġce ase
Ġfo x
Ġob j
Ġang ry
Ġvolumes hekels
Ġhapp iness
Ġbeg ot
Ġtrans fer
Ġexc av
Ġseiz e
Ġleve e
Ġlist ens
Ġdro pped
AmarSuen a
Ġemer ged
Ġesc ape
shepher d
Ġobl iter
Ġquarre l
Ġcurs ed
Ġmour ning
Ġtab oo
Ġtong ue
amsuil una
G ilgamesh
H aya
L isi
S up
c y
c our
d ab
d eliver
e ks
l ady
n una
p ing
s nake
u ts
Ġt orn
Ġs outh
Ġs itting
Ġw ages
or p
or ing
ou ted
Ġf if
Ġf ence
Ġl u
Ġl ower
Ġin anna
Ġn ail
ad aga
ir ing
ke ep
Ġth igh
ĠN ew
Ġr un
Ġst ill
all im
ĠI gal
ri ble
Ġbar ges
Ġyour s
Ġse at
able t
uil der
Ġban quet
ĠG ate
if f
Ġas ide
Ġch urn
ate ver
orn ing
Ġun ident
Ġv eget
Ġde ath
Ur Baba
os ition
Ġcar rying
Ġlo aded
under bird
ĠT h
Ġsup por
ra w
ars irsir
Ġrais ing
Ġtr uly
ĠW ith
Ġaccount ant
bbi Sn
Ġsee king
Ġsac rif
fl icted
eck led
Ġel der
Ġregular ly
Ġadministrator s
Ġserv ice
rin ce
Ġspl end
Ġtwo year
Ġbuck s
ĠLud uga
Ġed ge
uh i
Ġcho ose
nel ian
do es
Ġsuper ior
Ġkne es
Ġprov isions
Possess or
Ġissu e
Ġcolle ag
Ġverd ant
Ġdeterm ine
oin ted
Ġben ef
Ġlev y
Ġlust ration
ĠKul aba
ĠHill ock
Ġupro oted
Ġunident ified
4 8
A R
B ring
D amu
G o
M other
U n
W ill
d en
d ug
f all
f illed
k is
k id
l ings
n ot
n ominated
p art
r es
s ide
u umgal
u allim
v oy
Ġ ub
Ġo ath
Ġs end
Ġb u
Ġf are
Ġm ars
il a
il u
Ġc aught
Ġl ow
Ġp ea
Ġp ick
Ġg host
Ġin of
el s
ay ed
im babbar
ho od
Ġbe ard
Ġbe ads
ter ing
est ic
ic ket
ĠA imbabbar
ut y
ri er
ĠL ul
Ġre l
for ated
up on
Ġwor king
Ġday light
ĠG utium
if ies
Ġch arm
ĠNin ursag
ub um
ru st
Ġun lo
Ġex orc
Ġpe op
ĠD a
ĠD am
Ġpro c
Ġall ot
pl us
ĠAk itu
ĠAk urgal
Ġlo an
Ġlo st
ĠT his
Ġperson s
Ġperson nel
Ġle ave
Ġdec ided
ĠLu Utu
ĠUruk agina
Ġter m
Ġpossess ed
Ġpossess es
Ġgrow ing
Ġdep ot
Ġeat s
gr and
Ġperform ing
Ġgaz e
Ġimp osed
Ġreb ell
ĠNig in
Ġtail s
Ġstri ke
Se aled
Ġcult ic
Ġpor ter
Ġgig igal
Ġdesign ations
ĠMes lam
Ġscr atched
kun una
ĠBl uallim
Ġsettle ments
Ġdire cted
Ins cription
upp ak
ĠWh ite
Ġplunder ed
ĠNinh ursag
Ġnec ks
Ġdevast ated
Ġwit ness
ĠHillock of
Ġmars hes
Ġpick ax
Ġpeop les
2 6
A r
D umuz
M e
M es
P uz
e ople
f ast
f estival
g eneral
l er
l ag
r ines
t asura
u su
Ġ ĠĠĠĊ
he e
Ġt um
Ġt ra
Ġs and
Ġb reat
Ġm es
Ġm ud
is es
en n
Ġh om
Ġc hose
Ġl ad
Ġp in
Ġp rom
Ġp ain
Ġp row
Ġp aid
Ġg hee
ro g
Ġfor mer
Ġfor med
ot y
ir in
ac ia
Ġth orn
Ġth rew
ĠE s
ĠE ma
un um
um ber
Ġst ool
Ġon ce
st itute
ut ion
ĠL eve
ug id
Ġli ar
Ġli qu
Ġsh rines
Ġsil ence
ann i
om atic
ĠS m
if fer
Ġsp ending
Ġen ters
ĠK azallu
ch amber
Ġex per
Ġex ecut
Ġbre ed
Ur bart
att ened
Ġstor age
uk kal
ĠLugal n
ĠLugal em
Ġcar ed
Ġcar nelian
Ġro ots
ival ent
Ġle eks
Nin azu
Ġsc ream
ĠP l
Ġdr ag
Ġcomm on
Ġplow men
oy ed
Ġhigh land
Ġter rif
Ġcreat ures
Ġtre mble
Ġcommand ed
Ġmeas ured
ort ant
Ġcover s
Ġbed chamber
oth ing
Ġdep rived
Ġcr ushed
rin k
Ġdog s
gr ain
elle ct
ilim babbar
isi ki
Ġleather workers
Ġax es
mag ure
Ġtou ched
ps es
Ġbel ong
ush ing
Sh rine
Ġplay ed
Ġinspect ion
Ġpo le
Ġsuper intendent
Ġstep pe
ĠMe kigal
Ġinsul ted
Ġpop lar
Ġsol id
ĠNins un
Ġexerc ise
ĠPuzri Dagan
Id din
ĠUn ug
ĠMard uk
Ġdivin ity
uw aw
Ġsurvey or
Ġunlo aded
ĠLeve e
Ġliqu or
iffer ent
Urbart ab
G I
I meDagan
N E
N ig
T rue
b read
e ed
f le
g s
g an
g ate
l s
l arge
m il
Ġ es
Ġb ent
Ġb ell
ar ies
Ġw ish
Ġw inds
ed u
it ary
is ted
is hes
on ed
on der
Ġh ips
as on
as ted
Ġl ugal
Ġl ukur
and ed
Ġg ri
el iness
ig ir
ay amu
th ough
ĠE PA
all uhi
ĠA ma
ag ar
ĠUr Suen
st ead
oun g
ĠL ull
Ġar akam
Ġli es
iv ing
to ok
ĠS amsuiluna
ĠG an
Ġk ur
Ġk isiki
Ġsp end
qu een
ĠNin ki
ĠNin ins
Ġwork men
ĠK in
Ġun f
Ġun its
Ġex pl
Ġcon cer
En innu
Ġpro long
Ur Ningirsu
ĠH ari
Ġset ting
iz u
end ant
Ġgood ness
Ġwater way
Ġhead gur
ack ed
Ġbo oty
Ġro aring
Ġtow n
Ġtow ard
Ġem blem
Nin k
Ġsm ite
Ġsc ent
Ġho ed
du ces
Ġabund ant
with in
Ġfore head
Ġcont ents
Ġsee k
Ġever lasting
Ġext ended
bo at
sp eak
wh ile
Ġcor pses
Ġwell s
Ġwell being
Ġint ellect
Ġqueen ship
Ġcast ing
Ġorch ards
Ġgold en
Ġequ ivalent
met al
Ġru ins
ilg ame
sum un
Ġgro ats
Ġred u
ne therworld
Ġcult iv
Ġrever es
Ġcitiz en
Ġshout ing
Ġguard ian
Ġlead er
Ġdab in
Ġcomb at
Ġacqu ire
Ġwail ing
Ġprev iously
Ġmultipl ied
Ġlearn ed
Ġappropri ate
Ġteem ing
Ġtrav el
Sup reme
Ġsuppor ter
Ġbenef it
Ġpea flour
ĠNinins ina
N ar
P rincely
R eg
S p
U mma
W atch
c ant
f odder
h ar
l azuli
n et
n ew
t roop
t ablet
y ard
z er
Ġt ear
Ġt ied
an ing
an epada
ar es
Ġw ear
Ġf ast
al together
Ġm ould
Ġm ort
as hed
il s
Ġc er
Ġc ause
Ġl ot
Ġl ard
Ġd ike
Ġd agg
Ġd uty
Ġa ff
ur y
Ġin her
el ess
Ġn esag
ab tum
am bers
ac king
Ġe le
ĠN us
ĠN alu
ul ation
Ġr en
est ock
ic es
Ġst ick
ĠI ts
ĠUr G
av ed
ol ution
ug ig
Ġre built
Ġsh outed
Ġpl uck
ill age
et ing
ip e
ĠS ub
ĠS owing
Ġsp eckled
Ġch ar
ĠNin sumun
ub anda
In taea
ru its
ĠAn unna
ĠAn tasura
ell ed
Ġpe ace
ous ly
ki ag
To gether
per forated
Ġhand le
Ġbread s
au e
Ġro de
Ġro ads
eng ura
Ġthr es
Ġcanal s
ĠF light
ipp ar
Ġsl ander
Ġalkal i
Ġins p
Ning ublaga
air s
Ġatt ribut
Ġbring ing
Ġenem ies
Ġlapis lazuli
Ġrem ote
Ġint ro
ĠAl la
Ġeat en
Ġcomple x
Ġcomple te
Ġsw orn
Ġconf used
Ġz ab
ili u
ili ar
Ġpur ified
lo su
Ġsleep ing
Ġed uba
Ġstra w
por ted
Ġdeliver ies
Ġterr or
Ġpot ash
Ġassign ed
Ġdi worker
Ġid le
Ġid iot
Ġhel p
Possess ing
Ġrepe ated
Ġinqu ir
ĠInim ara
Ġjudg ments
Ġwal ked
Ġenc losu
Ġembr ace
Ġstret ched
Am ong
ĠWarad Sn
Ġcowher d
Ġsatisf ied
Ġdir t
ĠBr icks
Ġmalevol ent
Ġsepar ated
Ġobe is
Ġtransfer red
ĠTh underbird
Ġinher it
Ġeduba a
4 3
E ven
E lam
M ama
b end
b ody
c upbearer
d ub
e th
e gal
g ing
k ind
m ens
o h
o il
o ose
r ent
s c
t aken
u ur
v estock
w om
Ġ You
in ct
Ġs ad
Ġs kin
ar ak
Ġw ave
Ġm ain
Ġm orning
es i
en se
en ance
Ġh it
Ġc all
re ady
Ġl aw
Ġl ah
Ġd a
Ġd en
Ġd ur
Ġd ie
Ġd ifferent
Ġp it
Ġp ul
Ġg ir
ur um
el t
Ġn ugig
ir ara
ac es
ac ity
ac her
Ġe a
Ġst ate
Ġst op
ĠUr u
ĠUr ub
st icks
ut ation
ĠL ady
Ġli ps
Ġli vestock
Ġre ach
ain t
Ġsil ent
Ġ2 9
up er
ill i
Ġgo ose
ĠG urs
if y
if ic
us ts
ĠNin ura
ĠNin isina
Ġpr es
ist ing
Ġal ready
ard u
Ġwill ow
Ġex ud
ĠIn ab
Ġv at
Ġfl ower
ĠD ingir
ĠB azi
Ur nigar
Ġset tled
os es
ĠLugal m
ĠLugal nig
Ġgood s
pl ow
Ġlo os
ĠSumer ian
Ġtow er
Ġdec rees
Ġworkd ay
Ġsm ith
Ġsm ote
Ġrais es
ĠLu Nanna
Ġcl o
Ġcl ad
house hold
Ġswe ep
Ġhero es
Ġter rible
Ġmouth s
Ġstr ange
Ġbrother s
Ġpossess or
Ġgrow s
Ġgif ted
Ġmin us
Ġfur row
Ġcap acity
Ġsqu are
br ought
Ġserv ed
Ġfestival s
Ġequ id
Ġhum ble
Ġhorn ed
Ġrejoic ed
Ġrep lying
Ġgre en
Ġimp ortant
Ġmer cy
iven ess
Ab zu
Ġpar ap
ĠNam ani
ĠPuz ur
Ġseiz es
Ġdesc end
Ġur ti
Ġkne e
Ġconsum ed
Ġhung er
Ġloc ust
Ġrulers hip
deb its
Ġdel ight
Ġiniti ate
Ġfac ility
ĠGued ena
sm ith
Ġocc up
Zab aba
Ġmead ows
ĠNink ilim
Lug ale
Ġsmallshe kels
Ġcorrect ly
Ġfif ty
Ġlu x
Ġbu y
Dumuz ida
Puz ur
lag are
Ġbelong s
cant ation
Ġmort ar
Ġattribut es
Ġinherit ance
ĠGurs ar
A yakalla
E x
E tar
L arsa
N aram
S umer
W as
a q
b u
c he
c redits
f fer
f irst
g n
h alf
k er
k kal
l aid
l ared
m ill
r an
r ic
r ang
v ot
v oc
w s
w hat
z agesi
Ġt or
Ġt aking
Ġs ound
Ġs ake
Ġs ukkal
Ġw ol
Ġf al
Ġf re
Ġf reed
Ġf inger
Ġm as
Ġm ix
Ġm ixed
Ġm agn
is ing
on oun
en ter
Ġh az
il um
Ġd um
Ġd ish
Ġd istr
Ġa ch
Ġp ens
Ġg et
Ġy ell
el am
Ġn ominated
Ġn umber
ab it
ab du
am ent
Ġth icket
ĠN ur
ĠU t
un u
Ġst el
ĠI m
ĠI ris
ag i
ag rig
od ged
ĠUr d
ĠUr Nin
ol ished
ri p
Ġar azu
ug i
Ġsh ines
iv ist
Ġman agers
ec ed
our ed
ĠS ag
ĠS ea
Ġbr id
us aga
ak k
Ġpr oud
ĠK A
ch ivist
ell a
Ġcom es
Ġcom pl
Ġex change
ok es
Ġj enn
row ing
ĠD ur
ĠB ad
Ġcon vers
Ur l
ish ing
att a
sh ould
Ġsur r
ĠLugal kuzu
ĠLugal itida
ĠLugal uur
ack ish
Ġstorm wind
Ġres in
Ġres pect
Ġlady ship
Ġle gal
Ġwea ver
Ġsc orp
Ġinst all
Ġu se
Ġtr ade
Ġdwell s
Ġim ple
Ġtre mb
Ġdist ribut
Ġseed s
rit ual
app ed
app ear
Ġserv es
Sin ce
Ġmess age
Ad da
ie ved
Ġru ined
Ġdeb its
Ġattent ive
Ġte am
Ġte eth
Ġflo ated
ĠLug irizal
ĠZab alam
Ġris es
Ġscrib es
Ġtou ch
Ġirrig ated
ĠHe aven
Ġassign ment
Ġresplendent ly
Ġinspect or
Ġgard ener
Ġsubj ect
Ġmoon light
Ġtri um
Ġreve aled
Ġsuppl ic
Ġbest owed
Ġaf flicted
idn im
Ġbeat en
Ġforg otten
Ġnegle ct
Ġcarpen ter
Ġgladd ens
Ġfright ened
Ġfisher men
Ġfrown ed
ĠNab asa
Ġprofound ly
ĠEm ut
Ġaccom pl
Ġobj ect
Ġexorc ised
Ġrebell ious
fle eced
Nar ua
Reg arding
Ġcer em
Ġenclosu re
Ġparap et
6 1
M ami
S ub
b ara
b ni
d ish
e we
f ect
g in
g ive
g ue
h il
h um
h orn
m ore
o om
p ort
q t
s z
s er
z am
Ġ um
Ġt en
Ġt ak
Ġt roop
Ġs er
Ġs us
Ġs wor
Ġs ort
er t
Ġb row
Ġb ought
Ġw et
Ġw ings
Ġw earing
Ġf et
Ġf ame
Ġf ixed
it ten
Ġm a
es p
es age
Ġh y
as ts
as hes
Ġc ur
Ġc ried
Ġc rying
re jo
Ġd ise
and ing
Ġg en
ro ther
ro ss
Ġhe ed
Ġn ights
ab i
am ar
am iliar
ac ts
Ġbe am
ĠN im
ĠN umuda
Ġr ender
un til
um e
em ents
ĠA gi
ĠI p
ag al
ag as
ĠUr l
ĠUr nig
st ones
ĠL ipitItar
ug ani
Ġsh ar
Ġsh ips
ĠEn metena
ĠEn kidu
for t
ess ing
iv ity
Ġat e
Ġwor thy
ong oose
ĠS and
ĠS usa
ĠS ippar
ĠG ilgame
Ġgr an
Ġfrom by
Ġbr ackish
Ġsp ent
qu er
Ġdo e
Ġsheep hides
ap pro
ma ke
Ġen j
In im
ind eed
He aven
Ġpr onoun
Ġdestroy ing
Ġor din
Ġal ways
ard ab
Ġ4 5
Ġ4 8
ch ang
Ġfl ax
month s
ĠD udu
ĠM el
Ur Lisi
ĠH ammurapi
Ġqu iver
Ġheaven ly
op e
Ġwat ch
os ite
ĠLugal azida
ck s
ck ed
Ġbo ard
Ġro bb
Ġro amed
kal a
Ġle ts
Ġdec lared
Ġsm itten
ĠF ather
Ġsu c
Ġdr unk
ĠEr idug
Ġunder standing
pe g
Ġdwell ings
Ġbund led
Ġfe ed
over seer
Ġold er
Ġmid wife
Ġsweet ly
Ġdes ire
led ge
ici ans
Ġpray ed
Ġsing ers
Ġinc re
Ġcle ar
Ġint ent
Ġend owed
Ġel se
Ġel dest
Ġcub it
ung unum
Ġob serv
Ġprec inct
Ġru le
Ġnight time
Ġmesseng ers
Ġfav our
Ġspir its
Ġmus ician
Ġtrans ported
reg n
Ġtou ching
Ġhold ing
Ġtreas ury
Itar an
Sh ulgi
Ġfirm ly
Ġprep are
Ġhaun ted
ne y
Ġfle e
offer ings
Se al
Ġfer ry
Ġpo or
Ġrever se
Ġsix ty
kn own
Ġdimin ish
Ġrepl ace
Ġref uge
Ġconstant ly
ĠAr atta
Ġsubj ug
pr esent
Ġgras p
Ġgras ped
Ġreve al
Ġoverturn ed
Ġinterest bearing
ARAD mu
Ġpil es
Ġviol ence
itud e
ĠEt arsirsir
ĠNamma h
Ġrequ is
Ġetern al
ĠLugale zem
Ġprovid ed
Ġhire lings
ĠPiglet feast
Lud ingira
dingir mu
ĠGud udu
Ġimak ian
keep er
Ġcolleag ues
Ġhom eland
ĠEs ar
uwaw a
Ġunf amiliar
Ġcasting net
Ġredu ced
Ġmould s
Ġren ov
Ġintro duces
Ġobeis ances
Ġmagn ific
ĠIris agrig
qt idnim
Ġswor e
3 8
5 6
6 7
A cc
D eficit
G utium
H ammurapi
L ong
S im
T wo
c le
c ow
c ub
c hose
c ult
d ec
d onkey
e ter
f ashion
f itting
i k
i ander
j ust
n anum
o or
r ate
w ers
w ould
w ild
x en
Ġt extile
Ġo mens
Ġs or
Ġb ag
Ġw a
or al
at u
Ġf urn
Ġf ive
it ted
Ġm ur
Ġm itum
Ġh al
Ġc redits
Ġc rip
re c
Ġl asting
Ġd om
Ġp at
Ġg al
Ġg udu
Ġy ield
Ġy okes
Ġn one
the less
ig e
ig ar
am an
th ose
id den
Ġe ff
Ġr an
Ġr ate
Ġr ang
Ġst ar
Ġon et
ag ana
ag ula
ĠUr g
ĠUr Utu
st one
st ick
ĠL amma
ĠL ama
Ġar ose
Ġar rows
Ġar omatic
Ġse es
Ġsh ip
Ġsh ake
iv ot
up riest
ill ama
ĠG r
Ġgr anted
Ġk or
Ġbr illi
Ġch ick
ak ala
In to
Ġpr ice
Ġor ac
Ġal oud
Ġal ien
ĠK as
ĠK uda
Ġun known
Ġam you
Ġfl owing
Ġde ities
Ġi ib
ĠD ilimbabbar
ĠM ari
En kidu
Ġno ise
Ġtim ber
end ar
os ing
gal nuna
Ġlo ad
Ġlo oking
Ġear s
Ġro se
Ġro om
Ġap ple
bar ge
Nin ursag
Ġthr ones
Ġdiv isions
Ġwe ights
ĠLu Ninubur
ib ira
Ġcl othe
Ġtr ap
ĠW om
Ġfe el
Ning ezida
Ġreg ion
Ġstr ings
Ġopen s
lam ent
Ġcut ter
Ġcut ting
Ġrem ain
Ġbow ed
Ġcor ve
Ġcor iander
Ġsn are
Ġsn akes
ĠAm nanum
Ġpour ing
Ġresid ent
Ġpleas ure
Ġsec ured
labor troops
Ġperf ects
Ġprinc eliness
Ġdais es
Er idu
ĠAg a
Ġcomp an
wood en
Ġchang es
Ġcol or
born s
ĠLug ina
Ġmus icians
kug ani
Ġexc ess
Ġsubm ission
Ġgig una
Ġbal es
Ġbal ag
Ġdro ve
Ġprov ide
rem ain
Ġref ined
Ġcapt ain
yak ala
Wh ile
Ġhalf labor
Ġdecree ing
Ġnor thern
Ġjudg ment
Ġdistress ed
Ġherds man
ĠNann am
off icial
Ġcowher ds
Ġnam ely
ĠGetin ana
Ġsum ac
Ġwrit ten
ĠGAN ma
Ġblock ed
Ġspark ling
Ġtum uli
GI R
Nink asi
Ġdagg er
Ġrepeated ly
Ġlah ar
Ġlux uri
Ġtrium ph
ĠEmut bala
Ġshar pen
6 6
9 6
B r
B el
G ibil
H aving
K i
K in
L am
M ore
N am
S on
W ise
a f
b re
b led
d em
f ood
h or
h ave
i ers
n um
p it
r ight
r act
s ing
t emple
u ana
Ġ Q
Ġ V
Ġ Your
Ġ ipar
Ġt ell
Ġt endon
Ġo re
an as
Ġs ab
Ġs our
er oom
Ġof in
Ġb es
Ġb and
Ġb end
Ġb ond
ar um
ar row
Ġw inn
Ġw aves
at al
at ching
al ent
Ġm em
Ġm oved
as ilim
as agas
Ġc ant
Ġc ord
Ġc enter
Ġc ella
re t
Ġl ions
Ġl oss
Ġd ub
Ġp ort
Ġg ud
Ġg izi
ur ious
Ġto day
ig gal
Ġit a
im il
Ġbe ars
Ġbe ats
ĠN E
ĠN aram
ul g
ul ated
Ġr ite
Ġr ider
ĠU kun
ver y
Ġst ay
Ġst ars
all ow
ĠA t
ĠI gi
ĠI bbiSn
st ele
st orm
ear t
Ġhis her
Ġre v
Ġre ared
Ġse x
Ġsh ield
Ġsil en
for ce
Ġman kind
ea ut
our ing
ĠS irara
ĠG o
ĠG ungunum
Ġsp r
Ġsp ends
Ġsp ring
su kkal
Ġas c
his her
ĠNin m
Ġen ship
Ġwh ile
be er
Ġal ike
Ġwork force
ĠK ugani
ch ambers
Ġac ts
Ġex vot
Ġj ars
ais ed
ĠD ais
ĠD uga
ĠD adaga
ĠB el
Ġcon quer
ĠM ay
ĠM un
Ur ulpae
Ġno ser
ĠH eart
Ġmountain netherworld
iz ida
end ers
pon ent
pl ace
pl aced
ĠAk ak
Ġwater ed
Ġwater cour
Ġcan opy
Ġne ed
Ġover fl
ty pe
ĠT hat
ĠT ower
me as
we et
Nin tur
Ġsm ashed
Ġtowards on
ĠP rince
Ġcl oth
Ġcl oud
Ġcl aws
man ager
Ġtr ough
Ġpre ced
de ad
Ġyoung er
Ġbec om
esh ip
Ġbitter ness
Ġreg ions
Ġcont em
Ġdes p
ened udu
Ġflour ish
Ġdis appear
ĠZ an
There from
ĠAbb asagas
ex change
nig dab
Ġknow ledge
Ġjoy fully
Ġappro aches
Ġcover ing
Ġbed room
Ġyouth ful
Ġsk ill
Ġdep os
Ġpriestess es
Ġhar p
Ġtotal s
Ġserv ing
Sin iddinam
Ġob ed
Ġconst ruct
Ġfall ow
Lu ara
Ġdeb t
Ġdrin ks
Ġcomp osite
Ġrejoic es
Ġcoun ted
Ġrep utation
Ġsw ear
ax es
Ġlif t
Ġflo ating
Ġz am
land s
Ġanc est
Ġcal endar
Ġlook s
Ġutter ances
Ġpar as
Ġapp ointed
Ġstri pped
Ġfun er
Ġpig e
Ġsin ce
Ġdark ness
Ġevildo ers
ĠBl ack
Ġop press
Ġop ponent
Ġanim al
shepher ds
Ġpurif ies
Ġbrewer y
Ġobl ig
Ġherds men
Ġsuppl ication
Ġburn ing
Ġhang ing
Ġanswer ed
Ġexhaust ed
kig ala
kig enedudu
Ġful ly
itud es
ĠNr Adad
Ġsold iers
Ġfam ous
irc led
ĠIri kug
Ġhon or
ĠLul ubu
ĠMeslam taea
ĠLugaln esage
Iddin Dagan
ĠGan zer
Ġzab ardab
Ġgir l
ĠLugalnig lagare
Ġhaz in
Ġdistr ict
Ġscorp ion
Ġinstall ation
Ġdise ase
Ġgran ary
ĠNammah ni
fashion ed
Ġonet alent
Ġcolor ful
Ġnoser ope
nigdab offering
3 1
3 4
3 7
A kalla
B ab
D esp
L o
L aga
L ipit
P er
W ater
W oe
Y oung
b el
c o
c ont
c urse
d is
d iri
e v
e y
e vil
f armer
i ece
l l
l if
m o
m at
m other
m ounded
o bed
p erson
s is
s per
y press
Ġ ing
Ġ ug
Ġ uk
Ġ They
Ġt ex
in ate
in ies
an izi
Ġs ack
Ġs ung
Ġs tern
Ġb ad
Ġb one
ar an
Ġw inter
Ġw onder
or es
at a
Ġf old
al thy
it a
it ions
it tle
Ġm s
is in
is ts
en ith
Ġh ill
Ġc ypress
Ġd ue
and so
Ġa k
Ġa ma
Ġp a
Ġp ol
Ġg uilt
ro te
ur t
ur z
Ġin h
Ġn urse
Ġn ative
ad es
ab ad
ab ly
ab ani
am ing
am ari
ac ing
im p
im ua
Ġe f
Ġe ast
Ġbe ams
Ġth in
ĠN asa
em in
est ed
Ġshe d
Ġst up
Ġst ruct
ĠA w
ĠA ss
ĠI kalla
ag le
ag ement
st ream
ut e
ĠL atur
Ġar abdu
ug ust
Ġre ason
ers ed
Ġsh ad
ant ly
iv ine
Ġat am
Ġher d
Ġ3 8
ip ly
ĠG uz
ĠG ipar
ĠG ibil
Ġk a
Ġdest inies
Ġcity s
ĠNin n
ĠNin t
be x
Ġor gan
ere al
ĠAn z
Ġwork ed
ord ers
ord inate
Ġv ast
Ġfl at
ĠB az
Ġcon ce
ĠM ar
Ur ara
uk u
ĠLugal magure
pl ant
Ġne igh
Ġcar ries
Ġaw are
ara i
ree ts
ĠT ira
kal am
me at
pro du
ĠF irst
Ġbl essing
ĠP eople
Sn iddinam
Ġcl othed
Ġso andso
Ġstat u
Ġstat ement
Ġu umgal
Ġtr acts
inn ing
Ġgovernor s
Ġcreat ion
Ġatt ached
Ġopen ing
Ġopen hand
Ġsheepf olds
acc ording
ici ant
Ġfoll owed
ex alted
Ġgrow th
Ġmar ry
ĠAd d
Ġsk illed
Ġreign ed
bi h
13 43
Ġass ist
gr ess
Ġfirst f
ress ed
Ġbear ers
Ġul pae
Ġsw ept
crib ed
With in
Ġprodu ced
Ġwid ow
Ġpalm s
Ġbeg inning
Ġfell ed
Ġcontain ers
Ġtreas ures
Ġperfect ly
Ġwhe ther
ĠHe aded
Ġcho ice
Ġlov ing
Ġsho vel
Ġred dish
ban k
Ġsick ness
St ele
Ġadd ition
Ġsust enance
Ġfodder reed
vel ed
Wh ich
Ġinsul ts
Ġdisp ersed
Ġcraf t
ĠKu ara
ĠEd am
Ġsustain s
Ġdri ven
Ġconvey ed
Ġprev ious
Ġforg et
Ġwicked ness
Ġnegle cted
ĠUrNing irsu
sur plus
Ġrod ent
Ag ainst
Ġkiss ed
Ġoverwhel m
ĠIgal im
Ġcharm s
Ġtra vers
Ġbreat h
irin i
ĠLugalem ae
ĠKin unir
new borns
ĠNus ka
Ġchar ged
Ġpres ence
Naram Sin
Ġsukkal ma
Ġstel es
Ġsurr ounded
Ġenj oy
Ġhal ub
Ġeff ect
Ġrang es
ĠWom ans
Ġcompan ion
ĠZan r
Ġzam zam
Desp ite
obed ient
4 7
7 2
A p
A u
A tu
B ird
K udurmabuk
M an
M ard
M ake
N ur
N udimmud
a ar
b uilder
c ing
c ts
c ess
c op
d ron
e al
e qu
f ish
f aith
f aced
g er
g ave
g ather
g ida
g udu
g iving
h ouses
i us
j un
k ar
l um
l ud
m ountain
p o
p et
p sum
r am
r un
r ated
r ise
r ont
s a
s im
s inger
t ely
t ibira
x t
y psum
Ġ xxx
he ma
he aven
he gal
Ġs em
Ġs its
Ġof because
Ġb att
Ġb ail
Ġb uilder
Ġb orders
ar th
Ġw are
Ġw rote
or ies
at hema
Ġf ated
al al
al um
al ace
it al
Ġm is
Ġm ated
Ġm ove
es tern
on ds
Ġh ome
Ġc ab
Ġc ases
Ġl un
Ġl ove
Ġd ign
Ġd ried
and s
Ġa ugust
Ġp ull
Ġp ries
Ġp osition
Ġg ut
Ġg ener
Ġg eneral
Ġg ypsum
ur g
ur ti
ur uppak
Ġin laid
the m
ad ministrator
ab aster
Ġfor emen
ir im
ir nun
am b
am t
th ood
id uga
Ġe c
Ġe ani
Ġe agle
ho w
Ġth row
Ġth rown
Ġth ird
ĠE b
ĠE engura
ul um
um ah
ic ed
ic ts
Ġst ation
Ġst ead
Ġst reets
ĠA u
ĠA sag
ĠI r
ag ing
ĠUr a
ĠUr Eninnu
ĠUr Zababa
st ood
ri v
ĠL ike
ĠL usaga
Ġar rived
Ġar rog
Ġre t
Ġre ck
Ġre ady
Ġre aches
Ġsil t
our ney
Ġ3 2
Ġ3 3
et te
ĠG ula
Ġbr ide
Ġan athema
Ġsp ear
Ġsp ice
Ġsp rink
qu ality
qu ids
Ġgreat er
Ġdest ined
ap ing
Ġen si
Ġen voy
ub er
Ġpr ime
Ġpr act
Ġ5 5
ov ing
Ġab s
Ġ4 3
ĠNing izida
Ġac acia
ell ing
Ġex uber
ĠIn taea
Ġoff sho
Ġv al
Ġv agina
Ġv ict
Ġj ourney
ĠD u
ĠD ub
ĠB au
ĠM ag
ĠM arai
Ġpro ced
Ġpro stitute
Ur Lamma
ki a
iz e
Ġall oc
uk uga
ĠLugal kugani
Ġne xt
Ġkn owing
Ġcar es
ail s
Ġlo ose
Ġlo ads
bb ing
Ġaw es
Ġbo ast
Ġro asted
ra wn
Ġap ples
Ġag ents
kur a
Ġdec ides
Ġsm oke
pro fit
Ġwom ens
ĠLu Baba
Enlil bani
abl ished
ĠP ab
Ġafter wards
Ġtr unk
ĠW all
ĠW hat
Ġreturn s
de al
Ġplow oxen
ore house
Ġrest rain
As alluhi
Ġsweet ened
Ġcont ent
Ġdes ired
Ġdes ert
go at
Ġatt ended
Ġstr anger
lam a
lam b
Ġbrick built
ĠC hosen
Ġext ends
Ġsub ordinate
sp ring
Lugal banda
ĠAbb akala
Ġstandard ized
Ġcount ing
Ġjoy ous
pass ing
Ġend ursag
ĠAd da
ĠAd umu
Al ong
Ġdem olished
Ġca us
Ġpleas ed
ĠO h
Ġthus ly
Ġspl itting
Ġass imil
Ġir re
ĠEkin ual
Ġprinc ess
ie ve
Ġcomple tely
ĠAg u
Ġfin ish
Ġcomp elled
Ġspread s
Ġcour se
Ġnever theless
Ġsuit ed
Ġpath s
Ġul agana
Ġmil itary
Ġz enith
nir gal
Ġcal m
ĠZab aba
ĠSh uruppak
uh u
Ġke quids
Ġmult iply
reg arding
Ġrunn er
ĠNam tar
Ġcool ing
Ġlight ning
Ġpen et
Ġheif ers
Ġrepl ied
Ġinqu ire
Ġtool s
Ġinstrum ents
Ġesc aped
Ġdisp atched
Ġweight y
Ġsubmit ted
pre ter
sil ver
ĠNind ara
Ġsatisf y
ĠEt emen
ĠEgal esi
Ġslaughter ing
Ġwrit ing
ĠUrE e
Ġetern ity
Ġcarpen ters
Ġfort ress
Ġthough ts
car rying
Ġmaid en
Ġlimit profit
Ġeg gs
ĠEx alted
Ġoverwhel med
Ġexcav ated
Ġobliter ated
Ġveget able
Ġsplend or
uumgal ana
Ġproc laim
Ġwitness es
Ġsand als
anni hil
Ġexper ien
Ġexecut es
ĠLull ubum
Ġpluck ed
oh l
Ġda wn
Ġpul ses
first born
mill ing
Ġwol f
Ġsupplic ations
Ġsubjug ator
Ġrenov ated
Ġmagnific ent
Ġluxuri ant
ĠUkun uti
Ġexvot o
Ġobed ient
Ġfuner ary
Lipit Etar
Ġing red
Ġef face
ĠNinn udu
Ġconce aled
Ġstatu ette
Ġbail iff
Ġcab in
Ġpries thood
Ġassimil ate
9 5
9 8
A ma
A ga
B o
D am
D uring
E d
G ive
H as
H uwawa
I r
N or
N ann
N alu
N othing
O ver
S ay
U N
a ign
b as
b rother
c ut
c her
c ould
c ame
c anal
d esc
f att
f ields
f earing
h ur
h im
h arvest
i um
l ive
l ier
m ouse
r or
s an
s uper
t om
t ty
t ree
u ed
u se
w ar
w ise
y al
z sz
Ġ ant
Ġ uba
Ġ annihil
Ġt in
in anna
Ġo h
Ġo men
an ki
er ated
Ġb le
ar n
ar ted
Ġw ander
Ġw estern
or ch
at ely
ou ds
ou ch
Ġf ow
Ġf ist
Ġf act
al d
al th
al asaga
Ġm ad
Ġm ood
Ġm ongoose
en ces
as u
as iga
il ver
Ġc u
Ġc old
Ġc amp
Ġc umin
re ement
Ġd ont
Ġd rew
Ġd raw
Ġa ir
Ġa ge
Ġa worker
Ġp ine
Ġp ect
Ġp ots
Ġp aue
Ġg e
Ġg em
Ġg ates
ro at
Ġto ld
ig hed
ab out
ot tom
ir m
ir es
id ence
Ġe kala
Ġth ief
ĠE ana
ĠE mah
ĠN ana
ĠN asilim
Ġr ing
Ġr ipped
un to
em e
ver se
ĠA yakalla
ĠI pae
ĠUr S
ĠUr Mami
st ationed
ut t
ut um
ol en
ri age
ĠL et
ĠL umma
Ġar able
ain ed
Ġse le
Ġsh ore
Ġsh aking
ĠEn am
ep ar
ec es
her ds
Ġ3 5
et urn
ĠS umu
ĠG irini
if ying
if ication
Ġk il
Ġbr aid
su it
qu e
us z
Ġwh ip
Ġwh atever
Ġab gal
ard ed
Ġ4 4
ĠNing ublaga
ĠK amari
Ġac ting
Ġlife giving
Ġv ir
Ġv alu
Ġj ack
ais e
ĠD r
ĠD ay
ĠB y
ĠB ida
Ġpro sper
Ur mes
Ġno ises
ĠH urti
ish ment
Ġheaven An
Ġall ow
ĠNingirsu s
Ġstor es
Ġhand ed
ct or
pl anted
Ġlo yal
Ġ6 1
Ġear ly
Ġear lier
Ġad ds
Ġsup rem
Ġem b
Ġag ent
Ġag reement
Ġle g
Ġsm ash
Ġdiv ide
Ġer ed
Ġwe ed
ĠF ield
Ġcorn er
ib gal
Ġinst ructed
Ġlong fleeced
Ġso bbing
Ġnind an
Ġtr am
ĠW hy
Ġpre emin
Ġreturn ing
Ġins cribed
Ġweapon ry
Ġrest ing
Ġrest itut
Ġfr ond
Ġmid day
ĠAb gal
Ġcont est
Ġim pro
lam u
Ġwind ow
anc ed
Ġdis c
Ġdis order
Ġsac r
Ġsub s
sp ouse
Ġturn s
Ġsing ular
Ġche cked
Ġseed cub
ĠAbb agina
Ġcor rup
Ġdoor s
nig uru
ept re
unn ing
Ġcle ver
Ġint ake
Ġbeaut y
Ġemp t
ĠAl l
sin ce
ĠO xen
Ġcr ushing
Ġcr aved
Ġalong side
Ġsun rise
Ġwarrior s
Ġperf ected
Ġperf ume
Ġir on
Ġprinc es
ĠGeme Narua
Ġcomp are
Ġhum bly
uri qtidnim
Ġart fully
Ġsw allow
Ġconf ron
Ġgre eting
nam ely
Ġreb uild
Ġleather worker
Ġbeg at
ĠElam ite
Ġborder ing
Ġke pt
Ġus ing
Ab u
si k
Ġcool ed
Ġbox es
Ġpig s
set t
Ġur uppak
Ġlist en
Ġcaul dron
Ġstep s
Ġact ively
Ġconsum e
Ġdark ened
Ġmill stone
Ġcapt ive
Ġinqu ired
Ġwaters kin
Wh atever
ĠAr ali
Ġop p
Ġplent iful
Ġpurif ication
Ġkeep s
Ġembr aced
ĠGazelle feast
Ġiniti ated
Ġplough man
con st
ĠWarad Sin
dest roy
tr uly
Ġsanct um
Ġful filled
ĠEgal mah
ĠDug amu
ĠUrNing ezida
ĠItar an
ĠGued ina
sho p
Ġuzga house
Ġtur tle
Ġtur ban
Ġappear ance
Ġmal let
Is ina
Ġstall ion
Ġlib ation
ĠIgal ima
Ġsacrif ice
res pon
ĠDa aga
ĠHillockof Urbartab
Ġthorn b
Ġterrif ied
NE gar
Ġconcer ning
Ġprolong ed
Ġcultiv ated
Ġfast ened
Ġpeace ful
Ġthres hold
Ġdur ation
Lugale zem
ric ult
Ġbrid al
Ġcompl aint
Ġjenn y
ĠDur anki
ĠBad tibira
Ġma j
rejo ice
Ġordin ary
regn ant
present ed
ĠGr and
Ġclothe s
ĠNannam aba
Lam atu
Ġsab ar
Ġsour ce
eaut iful
Ġwatercour se
Ġstup or
Ġshad ow
Ġka usa
Ġorgan ized
Ġneigh bor
Ġware house
Ġstead fast
ĠEtemen niguru
Ġingred ient
harvest ed
Ġcamp aign
Ġpect oral
Ġpreemin ent
Ġcorrup ting
5 5
7 4
A yakala
B l
B oth
C on
D udu
H um
I G
I gal
I bbiSn
K usu
L ipitItar
M en
O r
S olution
T hr
U t
a a
a ult
b ir
b ow
b are
c ase
d aily
f ri
f ill
g if
h ind
h ani
i y
i ag
k um
l ion
m n
m aster
o it
p ut
p regnant
q an
r ations
t ow
t eland
w ing
w ent
Ġ ann
he ries
Ġt ends
in uga
Ġo ak
an y
an ed
Ġs ure
Ġs ame
Ġs ides
Ġb ows
Ġb ison
Ġb inds
Ġb ottom
ar u
ar chivist
Ġw est
ou ter
ou bled
Ġf il
Ġf ug
Ġf ight
al ama
it umen
Ġm onkey
Ġm olds
Ġm uriqtidnim
is en
is su
on ial
Ġh ot
Ġh ail
Ġh uge
Ġc at
Ġc rum
Ġl y
Ġl ast
Ġl augh
Ġl arsa
Ġl oud
Ġl odged
Ġd rawn
Ġa v
Ġp ed
Ġp est
Ġp aws
Ġg n
Ġg le
Ġg eb
le arn
ur al
Ġto il
Ġn ubanda
ot ter
ir ror
ac y
Ġe z
Ġe ither
Ġbe fitting
se c
se ed
ĠE bih
ĠN an
Ġr ide
Ġr ib
Ġr ough
Ġr age
un es
ic ated
ic ating
Ġst in
Ġst ro
Ġst olen
ĠA kia
ĠI biErra
ag ala
od s
Ġwas teland
ĠUr Dumuzida
st omach
st orehouse
ut u
ri ad
oun ced
ĠL uma
Ġar rum
Ġar rang
ĠEn ul
ĠEn ak
ĠEn unna
ĠEn kis
ĠEn iggal
ess eng
ep l
ep ting
Ġpl aster
Ġman u
Ġman hood
Ġwor th
ea f
our agement
Ġher ald
uil ds
ight y
ĠG old
ĠG ae
qu ent
Ġdo ves
ap se
Ġch ase
ĠNin a
ak a
ound ing
ugal ama
ist ance
Ġout lying
art ial
Ġal abaster
Ġ4 2
Ġ4 6
Ġ4 7
Ġun re
Ġac ross
Ġex ceed
Ġex isted
Ġex chang
Ġthere in
Ġthere from
Ġfl ed
Ġfl own
Ġfl ashing
Ġde eds
ĠD unn
ĠD ivine
ĠB a
ĠB ara
ĠB asa
ĠM en
Ur Suen
Ġqu ick
op ard
und ers
ĠLugal ane
ĠLugal saga
ĠLugal banda
ĠLugal zagesi
Ġacc epting
Ġcar essed
Ġcar rier
Ġlo om
Ġstand ards
ans a
Ġbur ied
Ġ6 6
Ġres c
Ġres ide
Ġro ar
ĠT idn
ra id
Ġap pe
eng then
Ġdec iding
bar asiga
Ġthr ashing
Ġsc re
Ġsc eptre
Ġwe ighed
Ġbl ade
abl es
Sn kid
Ġcl ouds
Ġcl ods
Ġsl ing
Ġdr essed
man i
Ġho le
Ġpre bend
Ġbeh ave
Ġput ting
Ġsweet ens
Ġatt acking
Ġatt ract
Ġulgi ayamu
Ġopen sticks
Ġarm ies
Ġev illy
Ġpossess ion
Ġ9 6
ĠR im
ĠR iver
Ġright ful
Ġdis cover
wh ite
Ġseed ing
Ġmar ker
Ġdoor man
Ġappro val
Ġsn atched
ĠSim ti
Utu egal
ung s
ĠDumuzi abzu
cer ning
Ġprinc eship
Ġequ ids
ĠGeme barasiga
Ġcomp ares
Ġspread ing
ress ion
Ġrep ay
Ġsw amp
Ġjud ges
Ġbowl s
gig i
gig ire
Ġz ig
Ġprodu ction
Ġwid ows
Ġimp ure
ĠZab ala
Ġbeg otten
Ġestablish ing
Ġed ges
uh ha
Ġmus tered
kug e
Ġtou ches
Ġwr ought
Ġgl or
por ate
Ġpar ents
Ġbat hed
Ġsho ok
Ġseiz ing
Ġfill ing
inspect ion
Ġdi kes
Ġfri ends
Ġfears ome
Ġstep ped
Ġtrust ed
Ġissu ed
Ġgrand ly
found ation
Ġhur ting
Ġrepl aced
ĠGatum dug
Ġcapt ivity
Ġrec ite
Ġbind ings
Ġnor th
Ġpurif y
Ġenc ouragement
Ġcraf ty
Ġsettle ment
Ġhang s
Ġaf raid
Ġnam es
Ġdeterm ines
Ġanswer ing
Ġsanct ified
ĠMard u
Warad Sn
Ġinv oked
Ġgladd ened
Ġill ness
ĠNag abtum
Ġadm ir
Lud uga
Ġspark le
Ġeng ender
deliver ies
Ġchurn ing
Bring ing
Ġlow land
ĠDam galnuna
Ġpickax e
Ġprom ise
Ġgri ev
stead fast
Ġexpl oit
Ġemblem s
Ġdabin flour
ĠSub artu
Ġhelp ers
wom b
Ġexud ing
Ġflower ing
plow men
ran king
voc able
Url umma
Ġdistribut ed
Sub total
ĠUrl ugal
Ġship yard
Ġorac ular
Kin ir
hor izon
Ġbes ide
Ġwinn owed
ĠNE NEgar
Ġsilen ced
ĠMun us
Ġskill fully
Ġconstruct ing
Ġancest ors
Ġpige on
person nel
Ġnurse ma
ĠAnz ud
Ġopenhand s
Ġtravers ed
faith ful
po le
Ġdign ity
amt ara
Ġval ue
Ġproced ure
Ġirre vocable
Ġexperien ced
bas kets
desc endant
Ġcu cum
Ġbraid ing
Ġvalu ed
Ġrestitut ions
Ġseedcub its
ricult ural
tow ard
Ġfug it
Ġhail stones
Ġgeb ur
ĠDunn um
Ġattract iveness
ĠSimti il
5 8
A G
A kur
B eloved
D ead
E ating
E vil
G ate
G AN
H oe
J ust
L ul
L arge
L agash
N r
P ure
P eople
R o
S u
T ira
U re
W hose
b ing
b um
b od
c ket
c ated
c ry
c les
c ons
c ereal
d i
d ri
f o
f av
f ive
f attened
g rowing
h u
h ant
h app
i u
k ir
l iness
n a
n ina
o bs
p a
p an
p ig
p rince
p ipe
p ivot
q i
r ites
s ay
s ong
s hed
t ra
u in
u ous
w ea
w ord
w ool
Ġ ugal
Ġ ign
Ġ ubi
he m
Ġt ilim
Ġt axes
in cantation
Ġo val
an u
an ity
an kug
an edu
Ġs a
Ġs al
Ġs ig
Ġs ow
Ġs ang
Ġs acks
Ġb a
Ġb asketoftablets
Ġb ake
Ġb uilds
ar akam
or ted
ou ches
ou ching
Ġf ool
al k
al im
al ter
al kal
al ankug
Ġm or
Ġm ere
es hed
es idence
on to
Ġh ate
as il
as eless
il es
Ġc up
Ġc oll
Ġl ac
Ġl id
Ġd ough
Ġd rown
and ul
Ġa kuge
Ġp ac
Ġp ack
Ġp ala
Ġp ile
Ġp ond
Ġp uts
Ġp hant
Ġg ot
Ġg ug
Ġg us
le ts
ro ch
ro ffer
ur ra
ur Sin
Ġhe ight
Ġhe ard
Ġto oth
ad ala
ig ara
ay asi
ab e
ab ala
ab outs
Ġfor ces
ir gal
ir rig
ac acia
im ony
Ġe gi
Ġbe ating
se ized
Ġth ir
Ġth roat
ĠE g
ĠE al
ĠE mu
ĠE Ab
ul ations
ul MUxPA
Ġr ush
Ġr ented
Ġr aging
ĠU p
ĠU re
um p
um ed
ic ing
ic ol
ic its
ic ious
ow ers
Ġst ud
Ġst yl
Ġst icks
Ġon agers
ĠA ud
ĠI um
ĠUr sag
ĠUr sil
ĠUr Ikur
ĠUr kununa
ĠUr Itaran
st or
st atic
ear th
ol in
ol ina
ĠL am
ĠL ife
Ġar g
Ġre j
Ġre al
Ġsh ri
Ġsh iver
ĠEn n
ĠEn hed
ĠEn me
Ġmy your
Ġpl a
om s
Ġhim them
Ġ3 7
et i
ĠS um
ĠS et
ĠG ood
ĠG uti
Ġgr ind
Ġk ohl
Ġsp ot
su ckling
us s
ap is
Ġland mountain
ĠNin ul
ĠNin ma
ĠNin az
ĠNin mu
ĠNin inimgina
ub bed
ind u
Ġpr essed
ist ent
Ġson inlaw
ĠAn s
Ġab od
Ġal ad
Ġ4 9
ĠK U
ĠK is
ĠK igal
Ġun it
Ġun to
Ġun sh
ell u
Ġoff spring
Ġfl att
Ġfl ock
Ġfl attened
Ġbre ach
Ġbre asts
month ly
ĠD uk
ĠD oor
Ġcon d
ĠM ama
En ter
Ur im
Ur Nin
ĠH and
ĠH ab
ĠH alankug
tu ku
end ursag
sh are
wor t
fore ver
ĠLugal gigire
gal ana
Ġacc us
Ġper ished
ku a
ku roffer
Ġne ither
ull ab
Ġhead ed
Ġcar et
ail able
Ġdown stream
Ġ6 4
ulgi ayamu
Ġres ound
pher d
Ġro ared
kal ama
You th
Ġag run
Ġag asil
Ġle aves
we en
She pherd
bar agesi
Ġbro ke
ife ast
Ġer ad
Ġer ect
Ġer da
Ġwe eds
Ġbl own
Ġbl ue
ĠP rincely
Ġlong lasting
Ġsu ffer
Ġu su
Ġu Sin
Ġwhere abouts
Ġho ok
ĠW here
ĠW ater
Ġpre tty
Ġ8 4
min ing
Ġfr anc
ĠAb u
Ġim mun
Ġcreat e
Ġtre acher
Ġatt endant
ile ge
acc ept
Ġgate keeper
ĠR esidence
ĠC ome
ĠZ ulum
Ġext end
Ġext ens
Ġsing ing
Ġbattle ax
Ġpass ing
governor general
Lugal itida
Ġmar ked
Ġmar riage
Ġcor porate
Ġdoor gate
ĠHouse of
Ġriver bank
Ġara h
ĠAd alal
ĠGem ed
ĠGem eg
Al la
Al though
Ġcow pen
Ġfur y
Ġtal k
Ġhow ever
Ġbuild ings
Ġpleas es
Ġcr acks
br ing
booked outs
rin king
ark idu
Ad d
gr ound
Ġir gida
Ġslave gir
Ġequ ipped
Lu Suen
Lu Ningirsu
Ġbroad ly
Ġbear er
Ġul aga
Ġte ams
Ġte acher
Ġadv ance
Ġadv ise
Ġadv ised
Ġlif et
Ġnew s
til es
Ġouts kir
Ġlim its
ĠSh ara
Ġang u
Ġpun ishment
Ġbeg an
ĠElam ites
mag ir
Ġent ries
thr one
thr eshed
urm uring
ĠNam hani
Ġsail ing
zi ana
Ġsit u
Ġable bod
Ġbat tering
ĠARAD mu
Ġclean ed
Ġsho w
Ġfill s
Ġgig ur
Ġpen is
Ġkne el
Ġdefe at
Ġadd ed
cl ad
great ly
Ġfig s
Ġmill ing
ĠInim anizi
Ġloc ation
therefrom s
Ġcross ed
Ġbind ing
Ġcolle cted
Ġsan k
ĠId din
Ġcleans ed
Ġverd icts
Ġwal king
ĠEre kigala
Ġcraf ts
Ġpop ulation
Ġexp and
Ġstret ches
ARAD Nanna
Ġburn ed
off iciant
Uruk agina
Ġsanctu aries
Ġsag kal
ĠWh ich
ĠFestivalof ulgi
ĠAs alluhi
ĠGetin anna
Warad Sin
Ġsold ier
eb are
iq am
tain ed
Ġill umin
Ġocc ur
Ġpast ure
ĠLub anda
ĠLub alasaga
Ġflow ers
Ġprovid es
Ġmead ow
Ġfisher man
Ġbet ween
ĠEx tra
Ġequal ranking
Ġrelax ing
Ġrelax ation
Ġimak i
Ġexcav ating
Ġobliter ate
Ġsplend id
fall en
Ġworking fort
Ġpain ful
Ġsolid ify
ĠAma uumgalana
Ġconcer n
Sp eak
Ġthres hed
wom an
Ġloos en
Ġloos ened
Ġdescend ants
che ese
Ġdum ugi
Ġach ieved
Ġyell ow
Ġyell owed
ĠNur Suen
Ġimple ment
Ġimple ments
Ġtremb ling
Ġaccompl ish
Ġcerem ony
Ġtak ers
Ġsus pic
appro pri
Ġpronoun c
ĠMel uhha
Ġrobb er
Ġincre ased
Ġflee ing
Ġferry boat
Ġrequis ition
Long tablet
cult iv
eter mining
Ġbag s
Ġmur der
Ġdom estic
ĠUrg epar
remain der
GIR gal
Ġsharpen ed
ĠQ u
ĠV illage
Ġcant or
ĠGo ing
Ġconquer ed
Ġpreced ence
Ġoblig ations
Ġgirl fri
Per fect
Ġtex tiles
Ġinh abit
Ġstruct ure
ĠNint inuga
produ ce
Mard uk
Nur Adad
cop ies
Ġsem olina
Ġbatt les
Ġec static
Ġble w
Ġfow ler
Ġkil n
suit able
Ġprosper ity
Ġered igir
Ġsacr ilege
destroy ed
Igal im
learn ed
Ġquick ly
ĠTidn um
Ġgriev ous
Akur gal
shed onkey
Ġtilim da
roch s
Ġegi al
ĠEAb itumen
Ġstyl us
ĠNinaz imua
Ġagasil ig
Ġfranc olin
Ġimmun e
Ġoutskir ts
Ġablebod ied
Ġworkingfort ifying
Ġgirlfri end
4 4
5 4
6 5
8 5
A L
A mar
B ar
B orn
C h
D est
D aily
E l
E ma
E engura
F l
F estival
G r
G od
G irsu
I L
I M
I mma
I sin
K u
L isin
M ag
M ound
M ighty
N ind
P r
P artial
S et
S argon
S AR
W ould
a i
b at
b ale
b ack
b ony
b eautiful
c ast
c ome
c ows
e ast
e kalla
f ine
f oll
f ined
g ark
g room
i ap
i ated
i bb
i ence
j ac
k am
k ure
k illed
l ash
l odged
l ungs
m id
m us
m old
m ult
m oke
m urmuring
n in
n or
n anny
o int
p ur
p irig
p ouring
s ip
t w
t ak
t ies
t rust
u rochs
v ated
v arious
v oice
w ave
w ages
y oung
z a
Ġ il
Ġ ugid
he a
in al
in kua
an es
Ġb ab
Ġb its
Ġb ones
ar in
ar ant
ar ia
ar ana
ar rum
Ġw ig
ed ars
at ar
at ep
at tered
Ġf ared
Ġf asting
Ġf ruits
al m
al es
it ter
Ġm ouse
Ġm ass
Ġm ash
is ans
es ter
en ters
Ġh ing
Ġh ol
Ġh ated
Ġh arm
as su
Ġc her
Ġc irc
Ġc edars
Ġl ullab
Ġd ry
Ġd ung
Ġd unes
Ġd eaf
Ġa ver
Ġa urochs
Ġp ill
Ġp ity
Ġp aw
Ġp ushed
Ġp ounding
Ġg oring
ur ity
Ġhe ap
Ġhe ws
Ġhe althy
Ġin fer
Ġn ann
the se
ad v
ad rup
ad orned
ab um
Ġfor s
am ong
ac ious
th us
im med
im ti
Ġe bony
ho e
Ġth read
ĠE l
ĠE arth
ĠN o
ĠN ow
ul ma
Ġr ent
Ġr idden
ĠU R
ĠU b
ĠU bi
um ea
em ae
est al
est ablished
Ġshe l
Ġst eal
all er
ĠA z
ĠA du
ĠA gr
ĠI tur
ĠI would
ĠI sim
ag r
ag etin
ts t
ĠUr En
ĠUr tur
ĠUr Enlila
ĠUr Damu
ĠUr ugalama
Ġnot indeed
ri ers
ĠL um
ĠL ue
Ġbar bed
Ġar r
Ġre cum
Ġre ally
Ġre iter
Ġse ason
Ġsh outs
ĠEn men
ĠEn dingirmu
for emost
ess ion
Ġmy riad
Ġpl ows
Ġpl unders
Ġwor e
Ġher ders
her der
Ġ3 9
et uous
ĠS he
ĠG iap
Ġan x
Ġan us
Ġan ointed
Ġas cer
Ġdo ing
Ġdo ve
Ġup lands
us iga
ap id
Ġch ases
ma kes
ĠNin mah
ĠNin kuzu
ĠNin agala
Ġen v
Ġen ough
Ġen du
Ġgod fearing
ak al
uen a
ind azi
Ġor ph
Ġ5 3
Ġ5 4
Ġ5 8
ov es
Ġout let
Ġwork troop
Ġwork shop
ĠK a
orn ament
Ġun d
Ġun cle
Ġun alter
Ġam ounts
ell ent
Ġex am
Ġex ting
ĠIn d
Ġoff ic
Ġv ig
Ġfl ute
Ġj ew
ous ed
Ġde ed
ĠD ad
ĠD umuz
ĠD agan
ĠD ingira
Ġcon c
Ġcon voy
Ġcon verse
ĠM alt
Ġpro str
Ur d
Ur kununa
Ur Dumuzida
Ġno bly
Ġno body
ĠH im
ĠH iy
Ġqu adrup
Ġdid a
az ing
Ġstor eroom
iver ted
ĠLugal kigenedudu
ĠLugal nirgal
ick work
ct um
pl ored
Ġwater y
Ġmo oring
Ġkn ot
ail ing
Ġlo ck
Ġlo af
ash ions
Ġ6 8
ulgi il
Ġres ounded
Ġlamb hides
sel y
Ġro b
Ġro sett
Ġad ab
Ġad ult
Ġad jac
An am
Ġsup port
Ġap iece
eng ur
Ġag ricultural
Ġle veled
Nin mar
pro per
pro perty
Ġwom ans
Ġfather inlaw
Ġlament ing
Ġrais ins
Ġmother s
arm ers
Ġwe igh
ĠF lash
ĠLu Inanna
ĠAkkad ian
Ġbl ind
ĠP u
ĠP aue
ĠP owers
Ġso othe
Ġdr ank
Ġafter no
Ġstat ure
Ġunder taken
Ġtr immed
ĠW e
ĠW inter
ang u
Ġbut cher
ĠUrN igar
Ġins urg
Ġplow ing
Ġhero ic
Ġplac ing
ta e
ĠAb a
Ġsweet wort
Ġim agi
Ġim plored
Ġtre ad
go ats
Ġatt ach
Ġstr ing
Ġprais ing
Ġroyal ty
ici als
form ed
Ġdis obedient
Ġdis lodged
Ġfoll ows
Ġext ent
Ġext rem
bo ot
Ġsub st
Ġsub mer
ator y
sp ect
Ġdaughter s
Lugal zagesi
ĠLand s
Ġenemy evil
Ġcor ds
ama h
ĠHouse month
Ġjoy ously
Nanna Suen
Ġinc ite
Ġinc ense
tur tle
Ġint est
ced ar
Ġend ed
Ġend less
Ġmin is
ĠAm ur
Ġflood storm
Ġforeign ers
Ġel o
ĠAd ad
ari k
Ġfur ther
Ġut ters
Ġdem anded
ĠAmarSuen a
als i
Ġdep arted
ener y
Ġcap ital
Ġblack smith
Ġresid ences
Ġevery where
ĠO r
Ġcr ess
Ġeyes moke
br id
Ġmat ters
bear d
Ġface ey
Ġborn e
Ġconst ruction
Ġ18 6
Lu Nanna
Lu Utu
Lu Ninubur
Ġdeb ts
Ġplain s
Ġcour t
Ġart isans
Ġul uh
Ġgre enery
Ġcol ony
Ġimp etuous
Ġang el
ha i
Ġpun ting
Ġpay ment
Ġcro ok
ĠNig arkidu
Ġharvest ed
Ġtreat ing
Ġmult icol
Ġutter ly
esc ent
Ġrighteous ness
ĠNun gal
Ġcontain ing
Ġco ated
Ġhor ses
Ġstri king
Ġstri kes
Ġsho ws
Ġcare fully
Ġrain bow
Ġplay ing
oc king
Ġpig let
ĠBab ati
stand s
do or
Ġdi arr
Ġbal bale
Ġconsum ing
Ġconsum es
Ġdesign s
Ġdesign ation
St and
ĠIl um
Ġemer ging
19 5
cl ay
Ġsix ties
Ġissu es
kn ife
Ġhur ts
Ġscr atching
Ġtw in
Ġtw ice
Ġtw isted
Ġloc ated
Ġsou p
Ġfis heries
Ġans wers
Ġverd ict
Ġwal ks
Ġfriend ly
Ġhall san
ĠKu Nanna
ph ant
Ġdire ct
Ġinvol ving
ĠNins adu
Ins ide
Ġacqu aint
Ġexerc ises
ĠNann as
ĠAmar ayasi
Ġfac es
Ġdir ty
ĠSt ele
Ġroof be
Ġviol ent
ĠAs zsz
ĠGetin anas
ĠNinh ursaga
Ġcons ign
ĠUrE ma
Abb asaga
cover s
cover ed
li k
li able
sm all
Ġmalevol ently
Ġknew learned
Ġadm ired
ext ra
Ġincantations murmuring
Ġsmallshe kel
com m
Ġaccom pan
Ġobj ects
Ġnail s
Un til
kis alsi
Ġallot ted
Ġlad ies
Ġprom ised
Ġbreed er
Ġscream ing
Ġdrag ged
Ġhighland s
Ġsolid ifies
Nig in
Ġbell owing
ĠLull ubu
Ġaff airs
ĠSub ir
Ġinquir ies
Ġea flour
Ġreach ing
ĠLugalm um
Ġclo ister
Ġoccup ies
Ġfre ely
Ġmas ons
ĠIm sag
ĠUrd un
ĠSag ub
akk an
Ġtremb led
Ġtak arin
Ġfet ch
Ġgen ius
ĠIp qu
Inim ara
Ġpronoun ced
Ġobserv e
Ġfavour able
Ġrequis itions
Acc ount
Ġsor row
Ġwa iting
Ġcrip pled
Br ickwork
ĠNaram Suen
Ġoverfl owing
Ġbecom ing
Ġdesp air
ĠMar hai
Ġfirstf ruit
gather ed
Ġfated etermining
Ġpull ed
Ġpract ice
Ġabs ence
Ġoffsho ot
Ġawes ome
Ġcaus ing
Ġpenet rate
Ġfortress es
super intendent
ĠNana ia
Ġvir gin
Ġjack asses
Ġdisc uss
Ġconfron ted
respon ding
Hum anity
Thr ough
bir th
gif t
Ġcrum bs
Ġped estal
Ġgn aw
esseng er
ĠGold Mound
Ġunre fined
Ġscre amed
Ġzig gur
Ġengender ed
Lul al
uin ak
Ġsig flour
Ġmor tal
Ġlid ga
Ġthir ty
ĠEal ubi
ĠSum mer
Ġabod e
Ġcond ition
kuroffer ing
ĠGemed ardu
Ġlifet ime
Ġsuspic iously
ĠQu ay
gark idug
ĠIwould live
ĠIsim ud
Ġrecum b
ĠGiap inkua
Ġunalter able
Ġexting u
ĠHiy are
Ġafterno on
Ġinsurg ent
Ġdiarr hea
Ġhallsan ctum
4 9
5 1
5 2
5 3
9 2
A K
A gi
B azi
B bread
C anal
D a
D ad
D ay
D ada
D agn
D raw
D ilimbabbar
E a
E b
E v
E an
E anna
F ood
F aith
F east
G ood
G atum
H I
H ab
K ish
M ountain
N ot
N umuda
R es
S Z
S l
S weet
T r
T ake
a um
b ound
b ore
b als
b ansa
c el
c rown
d ed
d ef
e ani
f ig
f ly
f urious
g l
g re
g iz
h ired
i et
i ara
i ya
j ug
k an
k aid
k isal
l u
l ad
l ku
l ife
l ength
m it
m outh
n u
n er
n th
n ight
n urse
o on
o gn
p es
p um
p ure
p ended
r at
r al
r age
r aised
s aw
s ible
t re
w all
w rest
x cess
y ond
z ag
Ġ Y
Ġ ket
Ġ One
Ġ key
Ġ ubur
Ġt it
Ġt est
Ġt ut
Ġt ent
Ġt iara
in c
in u
in er
in for
in stead
Ġo per
an im
an un
an irgal
Ġs ine
Ġs ounded
er y
er ate
Ġb un
Ġb ov
ar p
ar ea
ar omatic
ar cated
Ġw in
Ġw ays
Ġw ax
ed ge
ed ged
Ġf ol
Ġf ang
Ġf air
Ġf ix
Ġf rog
Ġf ault
Ġf ashions
al le
al ag
al us
al abor
al one
it ch
it ors
Ġm ot
Ġm aker
is k
is ag
ing ers
on ing
en e
Ġh ard
Ġh und
il ing
il sag
il apid
Ġc ake
re turn
re hem
Ġl a
Ġl ed
Ġl ain
Ġl ance
Ġl ots
Ġl umah
Ġd u
Ġd er
Ġd ap
Ġd uck
Ġd ilapid
Ġp el
Ġp os
Ġp ays
Ġp air
Ġp ost
Ġp lease
Ġp onder
Ġp ivot
Ġg in
Ġg akk
ro th
ur ani
ur tur
Ġhe ights
Ġin f
Ġin und
Ġin with
el ary
Ġn ue
Ġyou pl
ig ate
ig igal
ab z
ir it
am ana
am eless
ac ement
im ma
im ized
id ab
Ġe aster
Ġe gar
se en
se min
se mble
Ġth inn
Ġth irst
ĠE a
ĠE anatum
ĠE usiga
ĠN ation
ĠN alus
ul ts
Ġr iding
Ġr enders
Ġr ubbed
ĠU l
ĠU mani
ter r
ter ior
un ted
un ire
un kug
um ent
ic ally
Ġst air
Ġst ock
Ġon r
Ġon ager
ĠA R
ĠA h
ĠA ian
ĠA ua
ĠA cc
ĠA anepada
ĠA lamu
ĠA Bbread
ĠI bex
ĠUr amma
st ool
st ock
ut ak
ol ved
ri b
ri ve
ri eve
ĠL ars
Ġbar ber
Ġar gue
ug an
Ġli ved
Ġli pit
ent um
Ġre ceiv
Ġre vol
Ġre liable
ain s
Ġsh ame
Ġsh aved
ĠEn mah
Ġsil ently
ann um
ant um
Ġpl anned
iv ory
to othed
reat ed
ea king
ce eds
Ġ3 1
et ina
Ġone half
ĠS e
ĠS ud
ĠS utium
ĠS oh
uil iu
ĠG rain
Ġgr acious
ud ge
ud udu
Ġk ung
Ġk inds
Ġsp ad
su iq
Ġas king
ap es
ap el
ap riest
Ġch ased
Ġch amp
ma king
ĠNin tu
Ġen lar
ate xcess
Ġare I
ak u
ak ug
In cantation
For that
For emost
ound ation
abor ate
be hind
ist ant
art um
ĠAn u
Ġal g
Ġal um
Ġal gar
Ġlam enters
ard en
ĠK indazi
ch ain
Ġun suitable
Ġun seen
Ġam id
ell ow
cri p
Ġex ists
Ġex terior
Ġox dri
Ġv en
Ġv ase
Ġfl owed
row el
Ġbre aking
ĠD N
ĠD rehem
ĠB iduga
ĠM a
ĠM ad
ĠM ani
Ġsilver smith
Ġpro st
Ġpro ceed
Ur ku
Ur amma
Ur gigir
Ġno on
ĠH er
Ġmountain land
ather s
az ed
Ġall oyed
end it
os ter
Ġsur plus
und ul
und ance
ĠLugal anda
ef ace
gal a
gal ama
Ġper pet
Ġmo ored
Ġshould ers
aster s
Ġstorm s
Ġaw ake
Ġ6 7
Ġbo asting
Ġres olution
Ġro l
Ġro le
Ġro ot
Ġro gue
Ġad ze
An um
ĠT rees
Ġem pl
uz i
Ġag o
Ġag gress
Ġle opard
Ġdec e
Ġdec ide
Nin h
Nin inimgina
Nin isina
Nin Isina
Ġsm o
Ġsm iting
pro found
Ġlament ations
ĠLu Suen
ĠLu Uru
ib tum
Ġbl owing
she aves
ĠP ro
Ġsu hur
Ġso othed
Ġso othing
Ġu Erra
Ġestabl ishes
Ġcomm itted
aw ay
Ġdwell ed
Ġrest ed
Ġhigh ways
Ġboat men
Ġfr agr
Ġey eface
ult itudes
Ġmid night
ta x
Ġcont ented
Ġim ped
Ġim bu
go ing
Ġcommand er
anc y
Ġrem ission
ĠR e
ĠR ange
ĠR aised
Ġdis gr
men a
sp read
Ġpass es
Ġche w
Ġche ek
Lugal kuzu
Lugal kigenedudu
Lugal emae
ĠAbb a
Ġcor responding
Ġcle ared
ced ing
ĠAm are
ĠAm bar
Ġflood ed
Ġflood ing
Ġflood water
Ġlit er
Ġel ders
Ġel apse
ĠGem em
ĠGreat barge
ele br
Ġsk ipp
ĠAmarSuen arak
Ġoffering ritual
la Il
ĠAl ulu
ris on
Ġbuild ers
Ġdep art
Ġhar ness
Ġcr ab
Ġcr ime
br ight
Ġfull er
Ġmat urity
Ġass es
Ad ab
Do es
Ġinter preter
Ġfin al
Ġfin ds
Ġcomp et
Ġcomp osition
ĠSn iqam
Ġconf ront
16 5
Ġflo atexcess
Ġz age
Ġother wise
Ġwid ened
Ġterrit ories
Ġouts t
lo oked
Ġhapp ily
ition al
Ġmus cles
Ġmult itude
Ġmult itudes
Ġgro ve
Ġtrans port
Ġtrans gress
Sum u
Ġent r
Ġent rust
insp iring
Ġstore houses
Ġfoot stool
Ġcounsel or
Ab out
Ġhor se
Sh all
Ġwhe el
Ġexc ellent
Ġirrig ate
ah i
Ġcho pped
Ġcho osing
aced deb
Ġfurious ly
ildo ers
Ġassign ments
Ġfer ment
Ġdi as
Ġpo ison
Ġfavor ably
Ġsick les
Ġdro p
Ġdev oted
par as
Ġreleas ing
Ġadd ressed
Ġemer ge
cl oth
Ġissu ing
add itional
Ġrepl acement
Ġcapt ives
Ġmanifest ed
ĠEnunugal ana
Ġbas in
Ġrec order
Ġvi ew
ĠKar ar
Ġhost ility
Ġpurif ier
ken e
pr ay
Ġcraf ted
ami q
Ġexha usts
Ġcarc ass
Ġlear ning
ĠKu Baba
Ġembr acing
Ġtruth fully
whe ther
Enanatum a
Ġstret ch
Ġtri p
Ġdel ib
Ġiniti ates
Ġplough men
Ġawe inspiring
Ġmarvel ed
ĠAmar Su
ĠEzina Kusu
pre bend
Ġfac ing
ĠNind anirgal
ĠBig Stele
Ġconvey ances
Ġapproach ing
Id iot
Ġquarre ling
Ġmultipl ies
Ġviol ently
Ġsanct ifies
ĠEgal ma
ĠNr il
Ġplunder ing
Ġcons isting
Ġslaughter s
Warad ama
Ġinv est
Ġinv oke
Ġinv oking
Ġrequ ested
ĠDug ru
ĠItar n
Abb agina
Ġfam ine
Ġnec ess
str anger
Ġplan king
child ren
Ġblock s
Ġappear ed
Zab ala
rest ored
sur passing
ĠNag su
Ġbet roth
Ġdragon face
Ġentire ty
Ġsign s
ĠEm uk
Ġeng enders
deliver ed
Ġthigh s
Ġrun s
Ġstill born
Ġveget ables
ĠDam qi
Ġtra itors
Ġbreat hed
Ġprow ls
ĠSm aller
ĠSm laIl
ĠPl ace
Ġgri eve
Ġkur gar
ĠKin ira
Ġtravel ed
har bor
ils a
Ġaff ixed
Ġele vated
ĠNus ku
Ġinsp ected
rent ice
Ġsad ug
Ġsad dle
Ġden ig
Ġstop ped
ĠLugalm elam
Ġclo is
Ex alted
Ġtor ch
Ġfal con
ĠUt ami
ĠUrNin mar
Ġproud ly
Ġjenn ies
Ġconvers ation
hum bly
Ġsus pended
Ġhy ena
Ġhy brid
Ġcur rent
Ġsuc ceed
Ġintent ions
Ġobserv ed
Sim at
Sim num
dec orated
Ġfurn ish
Ġdom ain
Ġpat rim
Ġran ks
Ġbrilli ance
remain ing
Nam ani
bre wer
Ġdub dub
Ġgud upriest
ulg ira
sukkal ma
Ġasc end
Ġasc ended
meas ures
Ġbecom es
Ġcontem pt
Ġdepos ited
Ġparas ite
Ġparas ites
co al
lif ted
sis kure
Ġwonder ful
Ġhill s
ĠAss ur
Ġflat ter
ĠFirst f
Au wer
Ġgener als
ĠIr nina
riv aled
Ġarrog ance
Ġret rieve
Ġreck oned
Ġexuber ance
ĠDub lama
Ġproclaim ed
Nann am
fatt ener
ued ina
Ġsele cted
ĠSumu qan
Ġsuprem acy
Ġemb ell
Ġempt ied
ĠOxen boot
sik il
const ant
Ġthornb ushes
Ġmaj estic
Ġsure ly
Ġly re
Ġlaugh ing
Ġloud ly
Ġav ailable
Ġpest le
Ġez ibtum
ĠMunus g
Ġnursema id
Ġfugit ive
Just ice
fo ot
fav ored
Ġign or
Ġlac erated
irrig ation
Ġrej ected
Ġerad icated
Ġtreacher y
Ġextens ive
Ġbattleax e
Ġarah i
Ġillumin ate
Dest roy
Ġcher ished
Ġinfer ior
Ġnann ies
ĠAgr unkug
ĠItur ungal
Ġreiter ated
Ġanx ious
Ġorph an
Ġuncle an
ĠDumuz id
Ġadjac ent
Ġintest ines
Ġminis hekels
Ġfurther more
ĠOr deal
Ġrecumb ent
Gatum du
bals suiq
wrest ler
Ġtut elary
Ġoper ate
Ġfault less
Ġhund red
Ġdap pled
Ġdilapid ated
Ġgakk ul
Ġeaster n
Ġthinn ed
ĠAcc laim
Ġlipit Itar
ĠSoh n
Ġkung ar
Urku su
Ġimped e
Ġimbu ed
Ġdisgr aceddeb
ĠAmarSuenarak iag
ĠAmarSu entum
Ġbetroth al
ĠDamqi iliu
balssuiq bi
Ġdisgraceddeb ased
2 16
6 4
6 8
7 1
7 8
7 9
9 4
B ir
C ities
D uga
D adaga
E anatum
E very
E abani
F ire
G ave
G old
G uedina
H ave
I m
I ri
I AN
I ran
K alkal
L un
M ost
M artu
N I
N ine
N ibru
N asa
N oses
O h
O pen
P N
R e
R ais
S ur
S ilver
b ur
b ad
b ig
b und
b gal
b oy
b ush
c at
c king
c attle
c ities
c ross
d r
d ent
d iv
d udu
d rinking
e ach
e ez
e kug
f r
f in
f is
f ull
f les
f led
f ierce
g en
g et
g row
g ara
g ry
g azelle
h our
h igh
h air
i am
i ak
i eces
k y
k it
k uga
l able
m al
m em
m ost
m ongoose
m oving
m irror
m essenger
n ind
n und
n ail
n ment
n ubanda
n upriest
o b
o g
o id
o ok
p ent
p ly
p aid
p ower
p oured
p alace
p iles
q um
r id
r ite
r ented
r unning
s up
s kin
t ub
t les
t owards
t aker
u le
u als
v essel
v illage
w age
x icating
x HI
y ellow
z ard
Ġ ess
Ġ ild
Ġ To
Ġ ursag
Ġ Year
Ġ ivory
he av
Ġt ill
Ġt ub
Ġt aught
Ġt ext
Ġt amar
in as
Ġo ars
an ks
an other
Ġs en
Ġs ear
Ġs ap
Ġs aga
Ġs well
Ġs ending
Ġs emen
Ġs ize
er st
ar zi
Ġw ip
Ġw ake
Ġw ears
Ġw ives
or gan
at ter
at ill
at ue
at ura
at ified
ou ched
Ġf elt
Ġf armers
Ġf ingers
al y
al aya
al uge
it iz
Ġm ag
Ġm ri
Ġm oun
Ġm ak
Ġm ast
Ġm arsa
is u
is er
is are
on ies
en able
en ous
en tered
en ched
Ġh ig
Ġh av
Ġh ip
Ġh irin
Ġh abit
as ped
il k
Ġc row
Ġc ost
Ġc atch
Ġc uts
Ġc ircled
Ġc unning
re aches
re infor
Ġl av
Ġl ent
Ġl uma
Ġl uhu
Ġl angu
Ġd ines
Ġd ying
Ġd uly
Ġd iverted
Ġa ud
Ġp us
Ġp ounded
Ġp icked
Ġp ipe
Ġp iece
Ġp onds
Ġp riv
Ġp ouches
Ġg ar
Ġg all
Ġg etin
Ġg iri
le v
le ather
le mn
ro se
ur ine
Ġin law
el der
Ġn th
Ġn ag
the d
ig idu
ig enous
ab u
ab andon
Ġfor b
ot ing
ir p
ir u
ir um
ir ib
am ade
am azi
ac le
ac les
th rit
im it
im ent
im du
im mu
id ingir
Ġbe yond
se e
Ġth reat
ĠE mud
ĠE engur
ĠE sikil
ĠN I
Ġr ound
Ġr ays
Ġr out
Ġr ates
Ġr ides
ĠU g
ĠU arum
un ukuga
of the
of Heaven
ver ing
Ġshe goat
Ġst able
Ġst art
Ġst ayed
Ġst acked
Ġst airs
Ġst alk
all um
ĠA be
ĠA uni
ĠA yakala
ĠI rin
ĠI gigi
ag ena
Ġwas h
Ġwas hed
Ġwas hing
ĠUr aya
ĠUr Ninurta
ĠUr Dumuzi
st ruct
st ructed
ear ed
ut ar
ut en
ut alla
ri a
ĠL uk
ĠL ala
Ġbar k
Ġar si
Ġar gu
Ġar chivist
Ġar isen
Ġar thrit
ug ina
Ġli p
ent ial
ent arzi
Ġre ad
Ġwith d
Ġwith stood
Ġsh ut
Ġsh ores
Ġsil os
Ġits their
Ġpl ated
Ġat ec
ec rated
Ġme t
Ġme aning
ce aseless
ip ak
ĠS z
ĠS on
ĠS aman
ĠS ilver
ĠEnlil a
ĠG a
ĠG ab
ĠG ive
ĠG irnun
if er
Ġgr ab
Ġgr ant
Ġgr ave
Ġgr apes
Ġgr atified
ud ar
ud ed
ud ra
Ġk i
Ġk ad
Ġan ew
Ġsp an
Ġsp elt
ount ry
qu ence
us c
us i
us ag
us ion
Ġhouse born
Ġch ann
Ġch ambers
Ġen cl
Ġen nupriest
ub aga
ub ani
ak i
ak ara
ak alla
Ġpr ess
Ġpr ide
Ġdestroy er
Ġor ig
Ġ5 1
ood s
Ġout fl
Ġout cry
Ġlabor troop
fe ed
ĠAn heaven
Ġab ra
Ġab ility
Ġ4 32
oug ho
ĠNing ek
ĠNing irim
ĠK utalla
ch it
ch urn
Ġun able
Ġun do
Ġun blem
Ġun rivaled
Ġam bush
Ġam enable
Ġac tu
Ġex it
Ġex ult
Ġgrain he
Ġthere by
ĠIn ann
Ġpe er
Ġoff icials
Ġv an
Ġv ari
Ġv illage
Ġfl ap
Ġfl ame
Ġfl ash
Ġj amb
Ġi bart
Ġi bex
ĠD el
ĠD im
ĠD onkey
ĠD rum
ĠD amu
ĠB e
ĠB urSin
ĠM other
ĠM anum
ĠM ubi
ĠM ultitudes
En ak
En anedu
Ġpro ved
Ġpro pit
Ur g
Ur am
ĠH ave
ĠH ani
ĠH uwaw
ĠH uwawa
Ġset adv
ish ly
Ġqu it
iz es
iz ation
op ed
az a
az e
az ame
Ġall uring
sh rine
sh aped
Ġstor ed
os al
os ts
ĠLugal a
ĠLugal igi
ĠLugal gudu
ĠLugal siskure
Ġname year
per form
Ġhand w
ick en
Ġacc um
Ġacc used
ct ions
ct ive
pl uck
pl aces
ĠAk iti
Ġne ts
Ġhead plowmen
Ġkn obs
Ġcar go
Ġover come
Ġlord ly
Ġoxen manager
Ġbo ar
Ġbo asted
vern ess
au z
Ġres ides
Ġad orn
An a
An gry
ĠT op
ĠT hr
ĠT arsirsir
kal i
Ġap ex
kur aga
Ġdec or
Ġearth carrying
Ġearth moving
Ġpure bright
Nin ura
Ġsm ites
Ġsm ashes
Ġdiv or
Ġdiv ided
pro v
pro stitute
mar sh
Ġwe alth
ĠF itting
ĠF oundation
ĠLu G
ĠLu Enlila
ĠLu Narua
Ġcorn el
Enlil s
Enlil gin
ib i
Ġbl ocking
Ġbl unted
ĠP A
ĠP ers
Sn i
ven ge
Ġcl im
Ġcl ut
Ġcl ose
Ġsl ain
Ġsl apped
Ġsu ck
Ġso lemn
Ġdr ain
Ġdr ess
Ġafter ward
Ġu a
Ġu um
ĠEr r
ĠEr ra
Ġunder stand
Ġunder taker
Ġtr act
Ġtr oubled
ough men
Ġho isting
ĠW at
ĠW ay
ang a
ang led
ĠUrN anna
Ġ7 2
Ġ7 5
Ġ7 7
arv ation
Ġplow ed
inn um
Ġhigh way
Ġword case
Ġreg arded
Ġreg ulations
Ġwood s
Ġsweet into
Ġcont r
Ġdes ecrated
Ġprais es
Ġulgi irimu
jo ining
jo icing
Ġarm ed
Ġrem it
UrN ungal
Ġdis cer
Ġdis semin
Ġ14 4
ĠZ uzu
sp eaking
Ġturn ing
Ġturn ips
Ġdist ur
ĠAbb amu
priest ess
ex p
but ter
ĠHouse hold
Ġcount enance
Ġinc ites
Ġinc lud
Ġriver s
Ġriver canal
bab ly
Ġsn iff
Ġcle verness
reed s
Ġend uring
ĠAm or
ĠAm agetin
Ġlit ers
Ġel aborate
ĠAd garkidug
Al ulu
ĠGreat stele
Ġkind ly
Ġwis hes
Ġpour s
Ġsqu eez
Ġbig cheese
mb ol
ĠO ut
Ġfo g
Ġcr ack
pt ion
Ġver ified
Ġseven th
Ġserv ants
Ġfull time
Ġmat er
Ġmat ron
Ġsun set
ons umed
Ġthings food
Ġdog stranger
tect ive
Ġneck stock
Ġperform s
Ġperform er
14 4
14 7
Ġstanding place
order ed
Ġinter rup
ĠAg ugu
Ġfin ely
Ġprayer offering
Ġcour rier
Ġpath as
Ġart ful
ĠSn m
ĠSn balssuiqbi
Ġmil king
Ġgre et
long fleeced
Ġcol ored
Ġpur p
Ġpur ity
Ġprodu ces
Ġprodu cing
Ġnew born
there in
ĠLug ula
Ġcal c
cript ions
ĠZab u
Ġpun ched
Ġgu arant
18 4
ĠNig urum
Ġfear ing
Ġke el
Ġmus ter
Ġmus ical
act ion
ali k
Ġgl owing
Ġgl ory
Ġrighteous ly
Ġlay ing
thr eshing
tern al
ĠKe ekug
Ġperfect ing
Ġco ach
Ġco als
Ġradi ant
irig an
si ana
Ġpot ter
Ġcattlepen s
ne ver
Ġfle w
Se ver
Se ven
Ġtas ks
Ġinspect ions
Ġinspect ors
KA L
ban idu
Ġtrust y
St anding
less ly
ĠEz ida
Ġprov in
cl an
Ġbright ly
ĠMe Enlil
kn ow
kn owing
Ġfig urine
Ġhur led
Ġhung ry
Ġexer t
Ġscat ter
arg ing
Ġthick ened
ĠInim Inanna
Ġloc usts
Ġbas alt
Ġrec ited
Ġrec ogn
Ġstraight ened
Ġstraight away
Ġsy mbol
Ġheav ily
Ġlie uten
Ġdisp osal
Ġheir s
Ġenc irc
Ġenc ircled
Ġdouble hour
Ġrival s
Ġexp endit
Ġjuniper cedar
Ġrit uals
Ġgras ping
Ġcomb ined
Ġtall ow
usa izu
deb it
Ġdel uge
Ġudug ita
Ġmarvel see
Ġrich ly
ĠAmar ki
tr ans
Ġpil ing
ĠNind ar
ĠBig festival
ĠSt and
ĠFestivalof Me
ĠFestivalof Ninazu
Ġmarsh land
Ġmultipl ication
bl ack
Ġful fill
Ġcons ort
hand ed
hand le
inter preter
ĠGAN xHI
build ing
ĠLugale gal
water way
Ġtavern brewer
Ġfort ification
Ġplan ks
Nane GIRgal
cr atched
Ġmal es
Ġmal icious
ĠIri bare
Ġfright ening
Ġbet ters
Ġclaim s
Ag ade
Ġobe y
Ġlib ations
Ġreedbed s
keep ers
Ġveget ation
Ġsacrif ices
Ġsacrif iced
Go ing
Ġrel ative
Ġcharm ing
Ġexorc ist
Ġproc ession
Ġallot ments
ĠHillockof plant
ĠHillockof acacia
Ar uru
Ġtum ult
Ġpain fully
Ġexper t
Ġexecut ed
Ġbreed ing
ĠLugalem u
Ġterrif ying
rink ling
Ġes aga
Ġlugal ane
Ġlugal banda
Ġabundant ly
Ġcultiv ation
Ġwear y
Ġele phant
Ġslander er
Ġda istent
plow oxen
Ġsweep er
Ġsweep ing
ĠPuzur Mama
ĠPuzur Shulgi
Ġoccup ied
Lugale gal
aq ar
bu uk
Ġwol ves
Ġfal se
Ġfal sely
Ġfre quent
Ġmas ab
Ġdum ud
Ġach ieve
Ġbrid ge
Ġconvers ing
Ġdistribut ion
Ġaccompl ished
Ġser ies
Ġser pent
Ġwet nurse
ĠNim gir
appro ached
Ġordin ances
Ġrobb ers
67 6
Acc ording
just ice
Ġsor cer
Ġgal atura
Ġgudu officiant
Ġyield ed
Ġnone x
Ġbrilli ant
Ġfeel ing
Ġexcess ive
Ġsharpen ing
More over
bre ak
dem on
Ġmem bers
Ġrev oked
Ġsex ual
Ġsex ually
Ġspr out
Ġneed le
Ġdisappear ance
Ġoblig ation
cont ain
cont rol
Ġak kan
Ġpol es
ĠAw an
Ġassist ants
Ġfirstf ruits
Ġaddition al
equ ipped
jun ior
Ġlun ches
Ġthrow sticks
ĠEb la
Ġexuber ant
Ġvict ories
Ġalloc ated
ĠPab ilu
Bo ats
Dam galnuna
orch ards
Ġge ese
Ġgem s
ĠGirini isa
Ġtram pled
Ġsubs istance
Ġorganized gathered
any one
Ġfil thy
Ġrib s
ĠEnak ale
epl ace
Ġexchang ed
Ġtherefrom s
Ġresc ind
Ġsling stones
Ġadmir ation
Ġcucum bers
ĠSimtiil ak
happ iness
Ġugal am
Ġsa fe
Ġcoll aps
Ġgus ur
ĠUp per
Ġstud ent
Ġreal ised
Ġpla que
ĠGuti ans
Ġunsh orn
ellu Dagan
Ġflatt en
Ġcaret aker
ĠGemeg anun
bring ing
Ġslavegir l
Ġcrafts man
appropri ate
Ġpronounc ements
Ġrequisition ers
Ch ild
Nind ara
atep alm
Ġmass ive
Ġlullab y
ĠUR UKAgina
ĠUb ifeast
Ġshel ter
Ġjew els
Ġquadrup eds
ĠPu auz
Ġextrem ely
Ġsubst ance
Ġfaceey e
Ġmulticol ored
Ġacquaint ances
ĠLugalmum ag
Ġfreely humbly
Ev ildoers
Ean ia
Faith fully
def icits
Ġtest imony
Ġsine w
Ġpos it
Ġinund ated
ĠIbex of
ĠLars as
Ġreceiv ing
Ġspad ix
Ġchamp ion
Ġenlar ged
ĠGemem unukuga
Ġfinal ized
ahi atal
paras ite
amiq iliu
Ġclois ters
Ġfurnish ings
Ġpatrim onial
ĠFirstf ruits
ĠMunusg ilsa
Destroy er
fles h
Ġild ag
heav y
Ġtamar isk
Ġsen ior
Ġmri qtidnim
Ġmoun ted
Ġlav ishly
Ġlangu age
Ġpriv ate
Ġnag abtum
abandon ed
irib am
ĠEmud kura
Ġrout e
Ġarthrit ic
Ġatec onsumed
Ġunblem ished
Ġibart um
Ġpropit ious
ĠHuwaw amade
Ġsetadv anced
ĠLugalgudu a
ĠThr one
Ġsweetinto xicating
Ġdiscer nment
Ġprayeroffering ritual
ĠFestivalofMe kigal
Ġtavernbrewer y
ĠHillockofplant oil
1 12
1 15
3 9
4 6
5 9
7 5
A B
A M
A w
A z
A bi
A uni
A uthor
A part
B I
B uilt
B attle
B AD
B agara
B aran
C ar
C om
D ingira
D istant
D amiqiliu
E z
E re
E ld
E gal
E mah
F earing
G rowing
G eme
G ududu
H ani
I g
I bi
I pae
J un
K azallu
L U
L ub
L amm
M a
M aking
M atur
N e
N u
N ab
N im
N un
N amed
N ungal
N eti
O uts
P l
P u
R I
R un
R iver
R ushes
R eturn
R eplace
S c
S m
S il
S ome
S amsuiluna
S irara
T urn
T aken
T ummal
T ablet
U nig
W ind
W ild
Z am
a us
a wn
b am
b reat
b asket
b one
b ull
b ra
b rown
b reed
b ond
c ool
c alf
c iful
c raf
c orp
d ir
d ant
d ate
d ire
d rum
d uring
d ark
d ress
d ili
d ouble
e at
e ur
e king
e ign
e br
e vel
e ila
f ur
f ear
f ight
f ate
f urn
f ront
g ab
g am
g ear
g ud
g old
g arm
g ird
g azi
h ak
h ide
h aps
h ali
i kur
i work
i age
i oc
j a
k allum
l or
l ay
l ib
l ative
l apis
m as
m our
m ale
m ite
m ans
m ats
m eme
n al
n unk
o ing
o ices
p he
p ath
p read
p rison
p rinkling
q a
r ak
r ade
r ings
r ates
r ange
r ani
r ating
r aged
r ider
s w
s ple
s end
s old
s ome
s asa
s weet
t ig
t am
t ri
t ill
t ears
t ie
t ten
t ouching
u ven
u anas
u eship
v ine
w earing
y rup
y ria
z ed
z it
z ad
z ab
z ana
Ġ ull
Ġ elluDagan
he ro
he st
he art
he ese
Ġt ug
Ġt ight
Ġt ried
Ġt ie
Ġt ax
Ġo v
Ġo ar
Ġo ri
Ġs ight
Ġs own
Ġs ings
Ġs owed
Ġs elf
Ġs ense
er ic
er min
Ġof where
Ġb od
Ġb ount
Ġb ite
Ġb rown
Ġb ends
ar ag
ar An
ar kali
ar innum
Ġw ides
ed am
at en
at im
at ings
at red
Ġf ro
Ġf ec
Ġf ought
Ġf ib
Ġf oster
al g
al p
al ing
al amu
al uh
it ana
it ches
Ġm ou
Ġm ir
Ġm un
Ġm ug
Ġm ates
Ġm ons
Ġm ss
Ġm ax
Ġm oney
Ġm utt
Ġm irror
es aga
on ly
on ind
on ious
en ers
en uru
Ġh ay
Ġh inds
Ġh iding
Ġh irim
Ġh atred
as ira
as ured
il en
il pa
Ġc um
Ġc ada
Ġc asts
Ġc ereal
Ġc elebr
re v
re ver
re ach
re ars
re leas
Ġl on
Ġl aga
Ġl ice
Ġl int
Ġd aba
Ġd ies
Ġd air
Ġd edicate
Ġd iff
Ġd edu
Ġd atepalm
Ġa z
Ġa id
Ġa agar
Ġa gala
Ġp an
Ġp le
Ġp um
Ġp ant
Ġp up
Ġp ier
Ġp ounds
Ġp upp
Ġp ouch
Ġp ounced
Ġg ab
Ġg id
Ġg ala
Ġg ore
Ġg adala
Ġg ermin
le g
le veled
ro ad
ro of
ro tten
ur am
ur est
Ġhe w
Ġhe at
Ġhe goats
Ġin d
Ġin on
Ġin ex
Ġin flicted
Ġin duces
Ġto g
Ġto for
Ġn un
Ġn om
Ġn aga
Ġn ov
Ġn onind
ad uga
ig imu
ab an
ab en
ab id
ab ta
Ġfor ef
Ġfor ced
Ġfor serv
Ġfor ward
ot eric
ir ds
ir ina
ir aran
am in
am es
am el
am mer
am ati
am nunk
ac red
th row
im uda
im iting
id ary
Ġe ight
Ġe me
ho ly
Ġbe f
Ġbe ings
se al
se par
Ġth or
ĠE e
ĠE ur
ĠE am
ĠE st
ĠE unir
ĠE umea
ĠN ar
ĠN UN
ul ace
Ġr av
Ġr ather
Ġr ainst
Ġr azed
Ġr abid
ĠU d
ĠU bar
ĠU mu
ĠU tum
ĠU gur
ĠU gn
ĠU buuk
un sealed
um un
of t
ver ted
ver dant
Ġis are
est y
est ar
Ġshe arl
ic ate
Ġst on
Ġst akes
Ġst unn
Ġst arvation
all i
ĠA S
ĠA fter
ĠA Enlil
ĠA abba
ĠI M
ĠI s
ĠI bni
ĠI giz
ag ugal
od ay
ĠUr en
ĠUr ru
ĠUr Enlil
ĠUr gu
ĠUr endursag
ĠUr Igalim
ĠUr Imma
ĠUr akkan
ĠUr iru
st atue
av ings
ut es
ut ur
ut ions
ri bs
ĠL uz
ĠL uba
ĠL amm
ĠL apis
Ġbar bar
Ġwho ever
Ġar azame
Ġar zana
Ġli zard
Ġking al
Ġking master
Ġre mar
Ġre ward
ain ts
Ġse as
Ġsh ameless
Ġsh avings
ĠEn inn
for emen
Ġ2 15
ep s
ep pe
ann ing
iv ed
Ġman worker
Ġman anyone
up ae
to od
to ol
to cks
Ġwor n
Ġwor ried
Ġher bs
Ġgo ad
ce ip
ip ro
ip per
ip ment
ĠS I
ĠS o
ĠS il
ĠS ec
ĠS IG
ĠS iraran
ĠEnlil ship
Ġgur ma
ĠG od
ĠG UR
ĠG iri
ĠG arana
Ġfrom at
ud e
ud g
ud ing
Ġk ib
Ġbr ough
Ġbr amb
Ġan gr
Ġan vil
Ġsp ind
Ġsp ell
Ġsp ared
Ġsp ittle
Ġsp ades
Ġas ks
Ġas ked
Ġas lum
Ġdo cks
Ġup stream
Ġdest oyed
Ġcity cities
us isa
Ġch apel
ĠNin ild
ĠNin ti
ĠNin urt
ĠNin sik
ĠNin SAR
ĠNin siana
Ġen act
Ġen kum
Ġen raged
ub in
ub ar
ub ba
ub alag
ak an
ak um
In d
In deed
In uinak
erv e
erv ing
Ġwh ir
He ad
Ġpr im
ru a
ov al
ist ence
art a
ĠAn the
ĠAn ail
Ġab use
Ġal ub
Ġal though
Ġ4 1
ĠK ur
ĠK im
ĠK ings
ĠK ara
ĠK ian
ĠK urz
ĠK irit
ĠK akug
ĠK IAN
ch ick
ch air
ch ants
Ġ12 6
Ġun t
Ġun w
Ġun leas
Ġun chang
Ġam arm
ell er
ell ation
Ġcom rade
Ġex iled
ĠIn tae
Ġoff iciant
Ġoff abandoned
Ġv is
Ġv on
Ġv oices
Ġfl ows
Ġfl ashes
Ġfl anks
Ġj um
Ġj ail
Ġj uven
ais a
ĠD er
ĠD ud
ĠD abala
ĠB o
ĠB an
ĠB il
ĠB eloved
ĠB ani
Ġcon ven
Ġcon ifer
ĠM u
ĠM onth
ĠM arad
ĠM uru
Ġsilver y
En men
En dingirmu
Ġpro lif
Ur Enlila
Ur Damu
Ur Zababa
Ur Mami
Ġno ses
ĠH is
ĠH amazi
Ġpeople land
Ġheaven wards
iz ing
op en
op ened
az um
az ige
Ġall y
Ġall knowing
end ri
Ġwat ched
sh gi
sh ort
Ġseal bearer
wor m
wor king
Ġbeer bread
ĠLugal ge
ĠLugal pae
ĠLugal gir
ĠLugal pirig
ĠLugal kisalsi
ĠNanna Suen
gi bil
gal abzu
Ġhand iwork
ass ign
Ġacc ord
Ġper man
ct ing
pon sible
pl ay
pl ants
Ġfour th
ĠAk tu
ĠAk ala
Ġwater marsh
Ġcan ebr
It r
ull ed
Ġhead gear
Ġcar ess
Ġcar riers
Ġlo in
ans wers
Ġbur sag
Ġ6 3
Ġ6 48
Ġbo ther
Ġmighty reinfor
Ġres idu
Ġro am
Ġro ars
Ġro ll
Ġro pes
Ġad joining
Ġad amin
An n
An y
An an
Ġtow ed
Ġtow path
ĠT ult
ĠT ram
ĠT utt
ĠT ipak
kal immu
Ġbir ch
Ġap kallum
Ġag rig
Ġag adala
Ġle aving
Ġle gs
Ġle aning
ane an
ane ously
we ight
we aving
bar ad
bar ber
igh th
ause ways
Nin s
Ġthr ash
Ġsm ell
Ġsm ashing
Ġsm eared
Ġdiv iding
ue igimu
Ġtowards alone
edic ating
arm ed
arm Uram
Ġer ases
Ġer idingir
Ġwe ir
ĠF ierce
ĠF urious
ĠLu Gudea
ĠLu aya
ĠLu azida
ĠLu Zabala
ib ility
Ġwool sheep
ĠP ada
ĠP irig
ĠP asira
Ġinst itut
ship yard
Ġcl ar
Ġcl osed
Ġcl enched
Ġsl ack
Ġsu h
Ġso cket
Ġu w
Ġtr ad
Ġtr ack
Ġho of
ang ing
Ġpre gn
ĠUrN isaba
ĠUrN amnunk
pe as
pe ople
Ġ8 1
Ġ8 3
Ġrul ing
urs zad
Ġcomm its
Ġcomm ission
Ġsar cast
Ġswe e
Ġrest s
Ġrest oring
Ġrest ores
Ġwoman hood
Ġhigh quality
work troops
over ty
with out
with stand
Ġlap idary
Ġreg ard
12 3
ta ulu
ĠAb sim
Ġsweet en
Ġdes ol
Ġmouth word
Ġim mo
Ġatt end
Ġatt ack
Ġatt acked
Ġstr engthen
Ġbrick mold
ens ils
acc heese
Ġbrother hood
anc ing
Ġ9 9
Ġpresent ation
ĠC on
ĠC om
ĠC attle
ĠC edar
ĠC ountry
ĠC auseways
Ġfine quality
Ġ14 7
ĠZ am
Ġext r
Ġext ol
Ġext ract
bo ard
bo ats
Ġsub du
sp oke
sp eckled
Ġback con
Lugal nig
Lugal inimgina
Lugal magure
ister n
ĠAbb au
ĠAbb agena
kin s
tle ment
Ġmar hali
Ġdoor keeper
Ġbirth mother
Ġany more
Ġinc ised
Ġinc ising
Ġriver ine
pass es
fl ood
fl ame
fl ower
rit ing
Ġsn acking
unn er
Ġint one
Ġint oned
Ġbound aries
aps m
Ġmin ed
ĠAm m
eck ed
app y
app rentice
Ġpower wing
Ġforeign er
Ġel ite
Ġbed ding
ĠGem en
ĠGreat Stele
ĠGreat Festival
Ġdistant profound
Ġjust ly
Ġut ensils
Ġsk ull
Ġhow ling
ung a
ĠAl ul
Ġbeautiful verdant
bil ical
Ġdep ression
eg ir
eg ated
Ġgrass es
alt um
Ġbig ger
Ġfatt ening
Ġfatt eners
Ġpleas ures
mb led
Ġfo e
Ġcr imin
Ġcr anes
Ġcr escent
Ġtotal ity
Ġseven headed
Ġfull body
bi ya
Ġspl its
13 5
13 8
light ning
Ġlion ess
Ad udu
labor ers
Ġir sag
Ġconst able
ie ves
vers ing
Ġ18 1
Lu Baba
Ġdeb ris
ĠAg ades
ĠGeme ulgi
ĠGeme Lamma
ĠGeme Ninubur
ĠGeme ek
ĠGeme Eanna
ĠGeme eila
Ġfin est
Ġbroad ened
Ġprayer ritual
Ġhum ility
anum ea
Ġcour age
Ġprotect ing
Ġprotect ion
Ġcalf gazelle
ress ing
Ġrep ays
Ġcountry side
Ġsw ord
Ġtop s
Ġconf ine
Ġconf usion
Ġadv oc
With out
pect oral
Ġorchard man
Ġlif ts
Ġlif ting
Ġprodu cts
ze ilen
Ġwid ely
Ġfav ored
Ġfav orite
Ġimp ose
Ġcal ender
Ġsuitable carrying
vol ent
ĠSh ining
ha ver
ha ust
ĠGu ugu
lo c
lo ok
ti ea
Ġcovered covers
Ġcro aker
ĠNig Baba
ĠNig tuku
Ġharvest time
Ġassembly throne
Ġed ada
Ġborder land
Ġborder ext
Ġtreat s
Ġmer ely
Ġmer chants
Ġmus ic
Ġgro om
int aba
Ġwr est
Ġwr ath
Ġwr apped
Ġhold ers
Ġgl ance
Ġent reat
Ġent ry
thr oned
Ġdeliver s
Ġpar ts
Ġpar aly
ĠNam nund
Ġco oked
ĠPuz ris
Ġdetermin ing
Sh ould
Sh outer
Ġfirm ament
Ġauthor it
Ġirrig ates
ĠAp iak
ĠARAD Nanna
ĠARAD ula
Ġsho ots
Ġpot ion
Ġpot ters
Ġred furious
Ġrain ing
Ġplay er
do g
Ġdi workers
Ġthrough out
Ġbal k
Ġlist ening
Ġpo in
Ġrever ent
Ġrever ence
Ġsuper lative
sub jug
Ġdev oured
Ġdev ouring
Ġbooked outs
Ġid ioc
Ġact ivity
Ġconsum ption
Ġdemon str
St one
par alle
Ġsis ters
Ġornam ents
Ġprov ision
Ġemer y
mun u
Ġsix th
rem ote
Ġgard ens
Ġgrand father
Ġbright ened
Ġbright faced
24 2
Ġhur t
Ġ24 4
Ġinn ards
Ġref used
ellig ence
Ġbreez e
ĠMes ilim
ĠMes anepada
Ġtask arinnum
Ġbol ts
Ġbol ted
Ġstraight en
Ġfis hes
ĠAr ad
Ġ25 5
Ġinsul ter
Ġcolle ctor
ĠId ilpa
Ġsubj ects
Ġjudg ements
Ġfunction aries
Ġwal k
Ġinstruct ing
Ġintellig ent
Ġrespons ibility
pr aise
Ġhoney plants
Ġdouble mil
Ġpop ulace
Ġcarc ases
Ġkeep er
Ġkill s
Ġkill ing
ĠKu Ningal
Ġtruth ful
rinc ess
ĠGazelle Feast
deb t
Ġtri be
Ġtri ang
Ġsol itary
Ġform ing
Ġform ation
Ġform ula
Ġplough share
Ġacqu ired
Ġexerc ised
Ġbest ow
Ġburn t
ĠAmar Sin
Ġdri p
Ġdri ver
Ġdri ve
Ġpil asters
Ġpil oting
agg er
Ġconvey or
Ġsag gal
Ġsag ida
ĠUn aben
ĠSt eppe
Ġspe ed
Ġfeat ure
ĠFestivalof An
ĠFestivalof Baba
rain t
Ġfat bread
Ġpart ic
ĠNr Adda
Ġspace crown
ĠNinegal a
oin ts
Ġsum accheese
Ġwicked ly
orm ous
Ġnig dab
ĠUrE babbar
Ġrequ est
ĠUrNing al
Ġcleansing rites
sho vel
Ġfam ily
Ġbreak s
ĠLugale bansa
iq iam
tain ing
Ġlust rations
Ġpast e
Ġpast ures
Ġpast ured
ĠLub imu
Ġweak ness
Ġweak ened
Ġgazelles nake
Ġplenty happiness
car ried
rest s
rest raint
Ġmaid servant
Ġhire ling
ĠNag ar
ĠNink asi
Ġexist ence
Lug irizal
arr am
Ġeg kuraga
Ġstall ions
Ġarrow head
Ġentire ly
Ag ain
com b
ank le
Ġhon our
ĠSin iddinam
ĠSin magir
ĠSin iribam
Ġobliter ation
orning touching
Ġcolleag ueship
Un der
res pect
ila a
Ġbeard ed
Ġrel ent
Ġrel ied
ĠDa Umma
Ġrebell ion
ĠMeslam tiea
Ġpickax ing
Ġpickax es
Me asured
Mes ilim
Mes kiag
Ġhom es
Ġlad en
Ġlad ders
Ġthorn y
Ġshrines ea
Ġshrines places
anni ya
Ġsolid ified
Nig ine
mil itary
Ġes oteric
Ġbell ows
edu ana
Ġkur un
Ġkur measures
Ġkisiki Ninazu
Ġleader bond
Ġtravel ing
har p
Ġdagg ers
ĠUrG igir
ĠUrG ebare
Ġchar coal
Ġinsp ire
Ġinsp ires
Ġinquir y
Ġinquir es
sc ales
Ġskin s
Ġden uded
Ġpul ver
ĠUru Baba
Ġgoose flesh
Ġexud e
Ġflower ed
ĠDingir ma
Ġtower ing
Ġdelight ful
Ġoccup y
Ġcorrectly set
Ex uding
aq artum
Ġtor ches
Ġfreed om
Ġfinger ing
Ġget ting
Ġstel a
ĠKA L
Ġsurr ound
Ġrespect ful
Ġsupplic ate
Ġcerem onial
Ġfet ters
Ġcur ved
Ġheed ed
ĠNim intaba
Ġrender ing
ĠMel u
Ġsuc king
Ġsuc ceeds
Ġincre ase
Ġintent ion
Ġfurn ished
Ġcrip ple
rec ieve
ĠGr ound
Ġchick peas
Ġorac le
Ġalien ated
Ġtrap restraint
lament ing
Ġremain der
right eous
Ġband age
Ġmem ber
ret ched
Ġdub ban
Ġspr outs
ĠNinm usisa
ĠNinm ueigimu
Ġcontem pl
Ġknowledge able
Ġyouthful ness
Ġskill ful
Ġpige ons
Ġoppress ion
Lo ok
Lo oking
bel ong
sis kuroffering
Ġwinter time
Ġwonder ous
Ġama zi
Ġpa uper
Ġpol ice
Ġguilt y
urt ura
urz an
imp osed
ĠAss yria
Ġreason ing
ĠBaz izi
ĠBaz ige
ĠMar sh
Ġassist ant
Ġoverwhelm ing
Man ifest
ius udra
jun iper
lud i
Ġlun ch
ĠEb gal
ĠIr igal
Ġret reat
Ġsprink le
Ġsprink ling
Ġenvoy s
Ġprime val
Ġoffsho ots
Ġvict ory
ĠMag ure
ĠMag uena
Ġawes omeness
ĠPab ilsag
Ġcaus es
Ġdawn ed
Bo oked
Dam utak
Ed ar
war f
Ġannihil ating
Ġwander ed
Ġmad aria
Ġpots herds
ĠEnam zu
herds man
ĠDr agon
Ġsuprem ely
Ġimpro ves
Ġimpro ved
Ġthornb ush
74 6
Con cerning
Ġann oyed
Ġann ounced
Ġgle am
Ġgle aming
sec ond
ĠNan aya
ĠNan ibgal
Ġstin k
Ġstin king
Ġarrum il
Ġexceed ing
ĠMen il
Ġappe als
Ġglor iously
Ġcucum ber
ĠSimtiil hak
wea pon
Ġdrown ed
Ġphant om
Ġphant oms
Ġgug gazi
ĠAud atur
ĠAud agula
ĠUrsil alu
ĠUrsil aluh
stor age
stor eroom
Ġarg ument
ĠEnhed uana
ĠEnhed uanas
ĠEnme baragesi
ĠEnme ziana
ĠSet tlement
Ġgrind ing
ĠAns wer
ĠKis iga
Ġflock ed
ĠDuk ra
Ġusu ally
Ġadvance withstand
Ġsitu ation
Ġoccur red
foll owed
ibb u
mid itana
mus ician
Ġbab ies
Ġhing es
Ġdeaf ness
Ġaver aged
Ġpill ar
tst ationed
ĠUrEn unna
ĠLum mag
Ġarr ayed
Ġascer tain
Ġoffic ers
Ġvig or
ĠDad umu
Urd ukuga
Ġknot ted
Ġrosett estar
Ġelo quence
ĠAszsz ur
Ġconsign ments
Ġaccompan ied
Ġziggur at
Ġextingu ished
Eb la
Hab ra
Res ponsible
Sl ave
Tr uly
tre mbled
anim al
Ġbov ine
Ġfol iage
Ġmot tled
return ed
ĠUl ma
terr anean
Ġstair case
Ġonr ushing
ĠAh uni
ĠEnmah galana
Ġalg ars
crip pled
Ġoxdri vers
ĠMad ga
undul atings
Ġrol ls
Ġaggress ively
Ġsmo othed
Ġcontented ly
Ġskipp ers
Ġcompet e
Ġentrust ed
Ġferment ing
Ġcrafted furn
Ġinvest igate
ĠEmuk alama
Ġembell ished
Ġunclean liness
Rais ing
nind aba
Ġursag galama
erst e
atill ati
Ġhig hest
Ġhav oc
Ġhabit ations
Ġaud ience
Ġgetin anna
Ġforb idden
ofthe L
Ġorig inal
Ġactu ally
Ġexult ant
ĠInann as
Ġpeer less
ĠDel imiting
ĠMubi ana
Ġhandw riting
Ġaccum ulated
pluck ed
Ġadorn ment
Ana Damutak
Ġdecor ations
ĠPers ia
Ġdistur bed
exp anding
Ġsniff ing
ĠAmor ites
ĠAmagetin ana
ĠOut let
Ġinterrup t
Ġcoach house
Sever al
Ġprovin ces
Ġexpendit ure
Ġfrequent ing
Ġsorcer y
Ġcollaps ed
Baran amtara
Distant remote
Ez ina
LU M
Ma azum
Nun amnir
breat h
dir ie
evel s
lor dship
sple en
sold ier
zit ara
Ġwides pread
Ġfec und
Ġmun zer
Ġmons ter
Ġmax imized
Ġmutt on
Ġcada ver
rever ent
releas ed
Ġdair y
Ġdiff ic
Ġpant ry
Ġgermin ating
Ġinex haust
Ġnov ice
Ġnonind igenous
ĠEst ablished
Ġrav ages
Ġrainst orm
ĠUgn im
Ġshearl ings
Ġstunn ed
ĠAEnlil dirie
ĠUriru village
Ġbrough tstationed
Ġbramb les
Ġangr ily
Ġspind le
ĠNinild uma
ĠNinsik ila
ĠAnail i
ĠKurz zeilen
ĠKirit ab
Ġunleas hed
Ġunchang ing
Ġamarm n
Ġconven ed
ĠLugalgir izal
Ġmightyreinfor ced
Ġresidu e
Ġtowpath s
ĠTult a
ĠTutt ul
edicating dedicate
Ġinstitut ed
Ġpregn ant
ĠUrNamnunk a
urszad ue
Ġsarcast ically
ĠAbsim t
Ġimmo bil
Ġbackcon fine
Ġadvoc ate
Ġborderext reme
ĠNamnund ak
Ġidioc y
paralle led
ĠIdilpa unu
Ġdoublemil es
Ġfatbread s
undulatings prinkling
Ġcraftedfurn ished
AnaDamutak lku
Distantremote undulatingsprinkling
6 3
6 9
7 3
9 7
A c
A k
A ur
A me
A ra
A ba
A mag
A way
A rua
A shgi
B re
B urn
B uild
B earing
B rother
B eautiful
B urSin
B itter
B ulma
B road
C over
C ont
C asting
C itiz
D ec
D onkey
D ingir
D agger
E m
E s
E t
E kin
E mb
E bih
E aar
E arth
F ur
F ear
F ive
F oll
F ounded
G u
G al
G iven
G arana
H es
H alf
H ala
I sh
I gi
I kalla
I bni
J a
J udge
K e
K as
K ul
K An
K ae
K bi
K urub
K uzu
L q
L ay
L um
L ion
L umm
L umma
L AK
M E
M i
M er
M ar
M on
M tu
M uk
M agan
M ardu
M ilk
N amma
N aw
N ippur
N ergal
N asilim
O xen
P ab
P ap
P ries
P ower
P regn
P alace
R it
R ep
R api
R isen
S ig
S ippar
S Ame
T e
T en
T ime
T AR
T irigan
T oday
U D
U u
U ree
U taulu
V eter
V ery
W he
W or
W all
W ere
W ool
W rit
Y et
Z uzu
Z ubaga
a he
a ul
a ana
a vering
b in
b it
b all
b ec
b et
b asketoftablets
b aba
b attle
b idu
b ase
b red
b ones
b uck
b tum
b agara
b eak
c an
c al
c il
c ent
c ity
c ap
c orn
c ious
c red
c ept
c annot
c als
c rim
c opy
c ceed
c laim
c ircled
c iated
d ur
d ep
d one
d own
d ays
d ry
d well
d ont
d ie
d uru
d orm
d istance
d upae
e e
e h
e as
e well
e ens
e ternal
e volent
f t
f un
f ounded
f ron
f elt
f ume
f Bazi
g as
g ent
g ard
g ull
g ory
g ins
g otten
g host
g ical
g ulation
g unu
g shaped
h out
h let
h abit
i w
i est
i bar
i Enlil
j ar
j udge
k ers
k ara
k ena
k iri
k ohl
k kene
k imdu
l en
l im
l ist
l iver
l oving
m ou
m ith
m ug
m ind
m end
m ust
m ond
m ada
m Anum
n t
n ow
n ers
n ip
n ect
n ia
n ana
n amed
n unna
n othing
n ails
n ene
o iled
o ined
p is
p ill
p Sn
q ar
q ir
r ay
r esent
r amp
r ouch
r escent
s n
s ed
s ud
s ap
s are
s ays
s ix
s isa
t ch
t own
t end
t urs
t rowel
t elligence
u i
u q
u it
u ds
u ere
u ff
u Mama
v a
v ived
w re
w ear
w ol
w ept
w eak
w ailing
y e
z id
z gi
z ani
z age
z uzu
Ġ irsu
Ġ ide
Ġ On
Ġ ukur
he ads
Ġt un
Ġt ere
Ġt ire
Ġt earing
Ġt issu
Ġt ables
Ġt rowel
Ġt angled
in of
in ts
in ce
in ished
in ens
in abad
in isu
an z
an ag
an zu
an imu
an ka
an ibgal
an amtara
Ġs z
Ġs ed
Ġs im
Ġs ki
Ġs ue
Ġs ows
Ġs age
Ġs ired
Ġs ounds
Ġs adu
Ġs aman
Ġs oft
Ġs eller
er a
er as
er ep
er ted
er ry
er rum
er eturn
Ġof s
Ġof at
Ġof att
Ġb ul
Ġb ath
Ġb ats
Ġb ush
ar f
ar ke
ar ts
ar ri
ar ent
ar ily
ar asi
ar abi
Ġw ed
Ġw ur
Ġw rong
Ġw ars
Ġw agg
Ġw aning
or th
or ious
or ial
or itative
ed in
ed anumea
at d
at ig
at ure
at ia
at tering
at ibira
at ofHeaven
ou p
ou thern
Ġf ara
Ġf olds
Ġf ails
Ġf eces
Ġf awn
al il
al ist
al udu
it em
it ating
it fully
it ae
it als
Ġm el
Ġm om
Ġm illed
Ġm esh
Ġm oll
Ġm uhu
is to
is tered
is asa
is iga
is ige
is imti
ing irsu
es ters
on esh
en em
en ch
en cy
en cour
Ġh ut
Ġh ug
Ġh ud
Ġh ana
Ġh amm
Ġh uts
Ġh osts
Ġh ammer
Ġh ulled
as k
as erv
as age
il ight
il ated
il ities
Ġc ou
Ġc ave
Ġc his
Ġc erv
Ġc akes
Ġc ren
Ġc atching
Ġc amel
re ar
re ts
re hen
re placed
re versing
Ġl um
Ġl ag
Ġl ack
Ġl ater
Ġl ubi
Ġl agar
Ġl acking
Ġl arak
Ġl isin
Ġl ute
Ġl engthen
Ġl inens
Ġd ear
Ġd us
Ġd are
Ġd roop
Ġd iverse
Ġd ashing
Ġd oubled
Ġa h
Ġa ur
Ġa us
Ġa gi
Ġa kal
Ġa ua
Ġp iv
Ġp et
Ġp ainst
Ġp ae
Ġp ush
Ġp ubl
Ġp ieces
Ġp overty
Ġg ear
Ġg ated
Ġg uz
Ġg ubi
Ġg otten
le ad
le cted
le opard
ro ps
ro ken
ro dent
ro phe
ur d
ur re
ur ur
ur ker
ur abi
Ġhe eds
Ġhe aping
Ġin im
Ġin du
Ġin fl
Ġin appropriate
Ġy oked
Ġy ore
Ġto e
Ġto ss
Ġto ll
el um
el ior
el dest
Ġn ations
Ġn arrow
the art
ad ing
ig u
ig rates
ab ur
ab rum
Ġfor k
Ġfor obs
Ġit them
ir t
ir ies
ir ida
ir tum
ir rup
ir gu
ir ping
ir bam
ir gam
am er
am us
am amu
am mu
am ugi
ac iously
th in
th ief
th ird
th oritative
im ate
im ama
im tum
id am
id st
id able
id munu
Ġe el
Ġe ase
Ġe ellu
Ġe tub
Ġe ighth
ho l
ho su
Ġbe ad
Ġbe fall
Ġbe asts
se ers
Ġ1 62
Ġth ud
Ġth ought
Ġth ins
Ġth underbird
ĠE h
ĠE ki
ĠE pe
ĠE met
ĠE sag
ĠE ban
ĠE uzga
ĠE aar
ĠE ulma
ĠN a
ĠN e
ĠN u
ĠN amu
ĠN eti
ĠN orth
ul ate
ul gal
ul me
ul ama
ul mat
ul va
Ġr im
Ġr um
Ġr ip
Ġr ung
Ġr ounds
Ġr ape
Ġr umin
Ġr anger
Ġr ipe
ĠU B
ĠU kalimmu
ĠU ludi
un er
un uri
un ua
um ar
um id
um ul
of Nin
of Ninazu
em ed
em ples
est ing
est ow
est ate
est one
Ġshe af
Ġshe ll
ic er
ic or
ic le
ic iously
Ġst ag
Ġst ren
all ot
all amu
all owed
Ġon in
ĠA N
ĠA a
ĠA y
ĠA ab
ĠA gal
ĠA ia
ĠA ra
ĠA ti
ĠA uda
ĠI ar
ĠI kn
ag u
ag in
ag ia
ag ian
ag irnun
od iment
ĠUr n
ĠUr ur
ĠUr zu
ĠUr Enki
ĠUr ua
ĠUr abba
ĠUr kun
ĠUr Urbartab
ĠUr Mama
ĠUr sukkal
ĠUr nin
ĠUr kisal
ĠUr amana
st y
st ar
st eward
st raw
st onesh
ear rings
av essel
ut a
ut ul
ut able
ut ations
Ġhis sing
oun sel
ĠL un
ĠL ag
ĠL uga
ĠL azuli
ĠL ower
ĠL ah
ĠL ittle
ĠL ook
ĠL usaizu
ĠL arag
ĠL evels
ĠL irgam
Ġar ri
Ġar ising
Ġar rive
Ġar chit
Ġar rears
Ġar gibil
Ġar isto
Ġli ec
ent y
Ġre pt
Ġre ins
Ġre ceding
Ġre lev
Ġre venge
ain ing
Ġse ction
Ġse ctions
Ġsh ot
Ġsh orn
Ġsh ack
Ġsh akes
Ġsh red
Ġsh ields
Ġsh ares
ĠEn anna
ĠEn anedu
ĠEn entarzi
ĠEn egir
ess anga
ep ing
Ġpl ays
Ġpl anning
om o
om iting
Ġman acles
to oth
reat e
Ġat op
Ġat by
Ġat hlet
ill at
ill ages
Ġwor se
ea ks
our ishing
Ġher b
Ġher it
her ding
Ġday break
Ġ3 96
ip es
ip ated
ĠS i
ĠS it
ĠS ng
ĠS abum
ĠS ky
ĠEnlil m
ĠEnlil amah
Ġgur dub
ĠG ur
ĠG ig
ĠG aba
ĠG agi
ĠG arden
ĠG athers
ĠG ubin
ĠG erste
if ted
if ier
Ġgr ants
Ġgr inds
Ġgr ape
Ġgr azing
ud um
ud der
Ġk u
Ġk ug
Ġan ts
Ġan zam
Ġsp ade
Ġsp ect
Ġsp ins
su ited
su cceed
Ġas k
Ġas ila
Ġas semble
year s
year old
qu iries
ine yard
Ġdo ctor
Ġsheep s
Ġup right
Ġup lifted
Ġdest itute
Ġhouse temple
ap r
ap pe
ap ults
Ġch aff
Ġch arging
Ġland people
ge ts
ĠNin ur
ĠNin urs
ĠNin nig
ĠNin sag
ĠNin kununa
ĠNin magure
ĠNin Isina
ĠNin imma
ĠNin mena
Ġen un
Ġen gur
Ġen vel
Ġen large
Ġen kar
Ġen throned
Ġen ormous
ate gory
ub ara
ub ia
ub ird
ub bing
ub alli
Ġare as
ak uzu
ak abtum
In stead
Ġwh arf
For ever
ind ing
He aded
be fitting
Ġdestroy ers
Ġor deal
Ġ5 7
ov en
Ġout set
ĠAn n
ĠAn nun
Ġab sc
Ġal im
Ġal ive
Ġal together
Ġal mond
Ġlam sare
Ġwork s
ard a
ard ian
Ġshall ow
ĠNing inabad
ĠK an
ĠK ark
ĠK iri
ĠK itchen
ĠK asura
ame Ningal
son s
ch ar
ch ased
ch craf
Ġun ison
Ġun does
are zem
Ġam ount
Ġam elior
Ġac workers
ell i
ell or
ord omo
Ġthere with
ĠIn ana
ĠIn cantation
ĠIn uinak
ĠIn struct
Ġox s
Ġox endri
Ġoff ers
Ġoff ices
Ġv ie
Ġv iper
Ġv ision
Ġv eh
Ġv omiting
Ġv illages
Ġfl ight
Ġfl ies
Ġfl acc
Ġfl ames
Ġfl ask
Ġj oint
Ġj ester
Ġj oined
Ġbre wers
Ġde al
Ġde bil
ĠD U
ĠD aga
ĠD ara
ĠD read
ĠD uge
ĠD imp
ĠD itch
ĠD og
ĠD ingirsu
ĠD abrum
ĠB ur
ĠB ul
ĠB attle
ĠB uz
ĠB aya
Ġcon nect
ĠM ade
ĠM ada
ĠM ami
ĠM adaga
ĠM akan
ĠM essanga
En anned
En eduana
Ġpro pped
Ġpro gen
Ur S
Ur Enlil
Ur saga
Ur Ninurta
Ur Urbartab
Ur Lugalbanda
Ur Imma
Ur meme
Ġno bil
ĠH as
att u
att ening
tu al
Ġqu art
Ġqu iet
Ġqu eens
Ġdid abe
iz irtum
op lar
az aru
Ġall ub
Ġall uh
Ġwat ches
Ġwat ching
sh an
sh ining
Ġsur ged
Ġsur vived
Ġheart womb
uk kene
ĠLugal d
ĠLugal an
ĠLugal eng
ĠLugal ala
ĠLugal dub
ĠLugal gue
ĠLugal Ema
ĠLugal unire
ĠLugal Nigine
ĠLugal Kuzu
ast e
ast rophe
ĠNanna isa
ĠNanna kiag
ĠNanna kam
per fume
Ġoil s
Ġoil butter
Ġhand mirror
Ġmight ily
ick ening
Ġper for
Ġper forated
Ġper haps
Ġper cept
riest s
riest ess
pon d
pl ayed
pl acing
pl oughmen
Ġfour leg
Ġwater pouring
Ġne gl
ull a
Ġhead bund
Ġmo or
Ġmo ist
Ġmo bil
Ġmo oing
Ġbread one
Ġcar av
Ġlo ins
ign ed
ards hip
Ġover th
Ġover taken
Ġlord en
ans um
Ġbur gi
Ġ6 2
au ul
au thoritative
Ġres em
Ġres ults
Ġres olved
ara ana
Ġro ams
Ġro iled
Ġad min
An un
An ita
Ġtow s
ĠT uk
ĠT rue
ĠT armUram
ĠT irgu
ĠT ameNingal
Ġsup ply
Ġbir thing
uz a
Ġag an
Ġle ver
Ġle ans
Ġle ads
Ġle aned
Ġdec ept
Ġearth baskets
we aned
Its the
pen ing
Nin tu
Nin alla
Nin mah
Nin kununa
Nin Ki
Nin mena
ars i
pro vid
pro bably
pro claim
mar ried
Ġsc or
Ġsc alp
Ġreed mats
Ġlament ed
edic ation
ĠUtu egal
Ġer rum
Ġer ased
Ġwe ird
Ġfound ing
ĠF ears
ĠF erry
ĠF attening
ĠLu Enki
ĠLu Nane
ĠLu Damu
ĠLu Abu
ĠLu alim
ĠLu Ninmar
ĠLu ugina
ipp als
Enlil e
ib ulmat
Ġbl ad
Ġbl ess
Ġbl azing
Ġwool en
ĠP a
ĠP er
ĠP ur
ĠP alace
ĠP atibira
ĠP riests
Ġlong tablets
Ġshepherd ing
Ġcl as
Ġcl ash
Ġcl amp
Ġsl a
Ġsl ay
Ġsl ab
Ġpal aces
Ġso ap
Ġso cle
ried ly
Ġdr ill
Ġdr essing
Ġdr edged
Ġafter birth
Ġu edar
Ġu Id
Ġu Mama
Ġu Ea
Ġbit ch
Ġtr aps
Ġtr usts
ĠW or
ĠW ill
ĠW ell
Ġbut ted
Ġbut tocks
ĠUrN umuda
Ġ7 4
ĠUmma harbor
aw a
aw oods
Ġins ult
Ġins criptions
de fe
Ġdwell er
Ġsar uba
Ġbund el
Ġfe ather
Ġquar ts
min ates
Ġboat man
From by
Ġfr onds
As arl
Ning ar
Ġgovernor ship
Ġold dead
12 4
12 5
Ġmid rib
Ġmid ribs
Ġplac ated
ĠAb z
ĠAb an
ĠAb isare
Ġdes cription
Ġmouth voice
Ġmouth beak
Ġim mem
Ġim agian
Ġcreat ing
Ġcreat es
Ġcreat ions
Ġcreat ress
hold er
hold ing
hold ers
Ġsee ing
Ġstr aps
Ġstr apped
Ġopen er
lam m
lam ah
Ġwind bl
age ua
Ġcut separ
ens i
led g
Ġflour ishes
Ġstatue form
anc ial
Ġside ways
Ġev icted
ier c
Ġpresent ing
Ġrem itted
Ġrem oves
Ġrem oval
UrN anna
Ġpray ing
ĠR uler
ĠR ising
ĠR unner
ĠR mAnum
ĠC lad
ĠC hair
Ġdis s
Ġdis rup
Ġdis use
Ġdis sip
Ġ14 2
ĠZ amu
ĠZ ubi
ĠZ iusudra
Ġamong st
Ġabandon s
bo x
bo iled
Ġfir es
Ġsub tr
Ġsub stitute
Ġsub terranean
Ġturn ers
Ġbow throw
Ġdist orted
Ġback s
Ġche ck
Ġsmall er
Lugal d
Lugal m
Lugal si
Lugal nirgal
Lugal kisalsi
Lugal unire
wh y
Ġseed lings
priest s
Ġspeak er
ex c
ex orc
Ġplant ing
Ġmar ched
Ġmar ries
Ġdoor keepers
read ing
ingir mu
ĠSuen s
ĠSuen iddinam
mer chant
mer kar
Ġkid omen
Ġinc ise
Ġwell built
Ġwell founded
Ġappro ving
ew ing
fl on
unn el
Ġint act
Ġint oning
Ġpraise worthy
Ġaura fear
ced ed
fer til
Ġwar like
ĠAm ars
Ġpower fully
ez oid
ĠAd udu
ĠAd ingirmu
ĠGem et
Ningirsu s
Al banidu
iny Gatumdu
Ġsat out
dom estic
Ġcast rate
Ġdem arcated
Ġ11 1
Ġcub s
ĠAl u
Ġbeautiful good
bil ak
Ġwisdom ear
ris ing
Ġdep uty
Ġdef ile
Ġdef amed
Ġdef icits
ursag kalama
ond ed
Ġce asing
Ġce aseless
Ġresid ed
Ġresid ing
Ġbig governor
Ġhar har
Ġpleas ur
ĠO ld
ĠO pening
Ġfo es
Ġcr acked
Ġcr ouched
Ġfull ers
Ġsec ret
13 4
Ġwild ly
Ġmat s
Ġcop y
Ġcop ulated
ark ed
Ġlion headed
Ad aga
gr an
gr ass
Ġlarge goat
tect ion
ese e
Ġ18 8
Ġequ ipment
14 1
Do g
Lu aya
Ġcrown ed
Ġinter ceding
ĠGeme AmarSuen
ĠGeme Lisi
ĠGeme Nungal
ilg a
Ġcomp utation
Ġcomp rehen
Ġhum ans
Ġhum ili
Ġsurpass es
ress es
Ġrep osing
ĠSn irbam
Ġattent iveness
Ġul al
Ġsw allowed
Ġconf ident
Ġconf irm
Ġadv isor
Ġadv ising
Ġadv anced
Ġadv iser
Ġorchard ist
Ġorchard ists
16 6
Th in
Th ough
Ġz idmunu
ins ide
Ġother s
Ġkir igu
Ġprodu ct
nam ent
til a
there fore
Ġwid en
ird ed
Ġexalted ness
Ġjun ction
Ġrespon ded
ĠSh uSuen
ĠGu aba
Ġgu ur
Ġgu ide
Ġgu ards
Ġbeg et
Ġhair dress
Ġcro ps
Ġcro tch
ĠNig gur
Ġharvest ing
Ġassembly mour
ga er
ats uner
Ġcedar juniper
Ġyourself your
Ġfear fully
uth a
Ġway at
ater pill
Ġmer ry
Ġmer ciful
Ġtrans lu
But ter
Ġwr ites
Ġgl ad
Ġgl ow
por aneously
Ġbel t
Ġfell ow
ĠNun bare
ĠKe eps
Ġpar cel
urm ama
urm oil
urm alik
ĠNam nin
ĠNam rat
ĠNam zitara
Ġapp rent
Ġapp arent
Ġradi ated
No ble
sl ave
Ġsail ors
gur u
zi um
zi agal
iti kal
Ġexc laim
ah ili
Ġmu errum
Ġcho oses
Ġlov ely
ĠAp su
ĠARAD d
ĠARAD nene
Ġmetal worker
Ġclean se
daughter inlaw
si que
Ġsho es
Ġsho cks
Ġrain s
uba BAD
Month ly
ne ol
yl lable
Ġpor rid
Ġeating drinking
stand ard
Ġschool father
Ġschool boy
Ġdig ging
Ġgather s
Ġgather ing
Ġur u
Ġbal aserv
Ġlist ened
Ġpo int
Ġrever e
urub ata
Ġact ion
pic ious
Ġsis kuroffering
ĠEz imu
ĠIl i
ĠIl bani
19 3
19 8
rem oved
Ġinse minates
Ġgrand stele
Ġgrand eur
Ġbright est
ĠBar anamtara
Il um
Il ik
found ations
Ġhur l
Ġhur ries
Ġhur rying
Ġkak cheese
Ġexer ts
itut es
Ġscr aps
Ġevildo ing
Ġtw ist
Ġtw isting
Ġtw ilight
Ġfar reach
ĠEnunugal Inanna
Wh ite
Ġbas is
Ġnest s
Ġvi able
Ġstands erve
Ġesc ort
Ġgoes went
Ġinsul ting
Ġdisp atch
Ġdisp elled
17 5
17 7
ĠId d
ĠId amar
Ġdeep en
Ġsubj ected
arl ag
aram utum
Ġdream interpreter
pr ice
pr ayed
Ġhoney ed
Ġdouble edged
amp Gutium
Ġexp ounded
Ġexp anded
Ġexp ressed
Ġchariot ry
Ġprepared taken
whe el
Ġforce encour
Am ur
Am miditana
Am arezem
Ġsol ve
Ġsol utions
Ġform idable
ĠEd ar
ĠEd ge
ĠEd ana
ĠNins isa
Ins ul
con cerning
ĠNann i
Ġflesh skin
Ġsustain ed
gu fields
pre cious
sil o
Ġaf ar
Ġaf fl
agg ing
ĠBig stele
Ġfruit flower
Ġdir ge
Ġsets ailed
upp ort
ĠSt el
Ġroof s
Ġjunior ramp
Ġsanct ify
Ġexhaust ion
bl ind
ĠAs zgi
Ġcons ider
Ġslaughter er
Ġelaps es
Ġphys ical
We alth
Warad Erra
Ġsum mer
Ġlying cr
Ġnig lam
ĠUrE anna
ĠGAN gufields
ĠDug anizi
Abb au
Abb amu
Towards on
Ġben evolent
Ġfam iliar
Ġunceasing ly
Ġcompassion ate
Ġappropri ated
Ġdevast ate
iq Adad
serv e
Ġtur tles
Ġprovid ing
Ġdivin er
28 8
cr at
cr icket
god dess
god fearing
uw aqar
ward ly
Ġwit chcraf
Ġmaid ens
adu qa
ĠBr ick
Ġadm ire
Ġadm iring
Ġfrown ing
Ġlinen clad
Ġeg iz
Ġeg gshaped
Ġbet ter
ĠNab u
Ġ28 8
ĠErekigal When
good s
Ġhon est
Ġ27 6
ĠGud eas
Ġeng age
ĠAnzu chick
Ġexcav ation
cour rier
Ġfif th
Ġsplend our
Ġcolleag ue
Ġverdant beautiful
Ġbenef ic
Un u
den igrates
dug ani
Ġub ifeast
rust worthy
ĠDam imama
ĠNinhursag as
Ar ali
Dumuz id
Mes anepada
Puz urszadue
Ġmud d
Ġprow ling
Ġprow led
Ġformer ly
ĠSm El
Ġexper ience
Ġbreed ers
ĠPl ain
ĠPl ougho
Ġterrif ies
grain fed
Ġtouched adorned
Ġbelong ing
Iddin Erra
Ġes z
Ġbell ow
Ġgri ef
Ġkur gara
Ġkisiki ofNinazu
Ġgoodness good
Ġredu ce
Ġcultiv ate
Sp reading
Ġtear fully
aning a
Ġfast en
Ġaff irmed
Ġele li
Ġintro du
Ġzab ala
Ġinquir er
Ġobeis ance
Ġsad gal
Ġlaw ful
Ġlah ama
Ġpit fall
Ġgir ls
Ġpres ents
Ġexud ed
ĠDingir saga
Ġclo ak
Ġsweep s
che w
voc ab
Ġfre qu
Ġfinger nails
Ġmix es
Ġdum ubaBAD
Ġach ie
ĠNur Adad
ĠUrd ardu
ĠSag ku
Ġcompl aints
Url ugal
Url amma
Ġscorp ions
Ġdwells it
Ġcerem onies
hum ble
Ġser iously
Ġcur led
rejo icing
Ġgen itals
amar ku
ĠNim gird
Ġrender ed
ĠIp iqAdad
Ġenj oyed
ĠMel ua
Ġfeed ing
Ġsweetly b
Ġincre ases
Ġferry man
Ġrenov ate
dec ree
donkey s
ik il
Ġwa it
Ġfurn ishes
Ġcrip ples
Ġpat ches
Ġaromatic s
Ġbrilli antly
Ġremain ing
Br ought
Bel ow
Bel itikal
Kin unir
Nam tar
sing ing
sing le
Ġsab itum
Ġbes et
Ġband ages
arrow head
Ġwinn owing
Ġmem ory
Ġcant ors
Ġport ion
Ġport ending
ĠNaram il
ĠNaram Sin
ulg is
ĠAt tam
Ġrev oke
ĠGo vernor
Ġspr outed
Ġwatercour ses
Ġoverfl ow
meas ured
Ġtrough s
Ġcontem poraneously
Ġdesp atched
Ġjoyfully like
Ġdepos it
Ġdepos its
Ġoppress es
Bab an
Bab ati
Lo oked
Per form
co hol
ey es
Ġuk ubum
Ġuk uku
Ġtex tst
Ġak tum
Ġinh ab
abad bi
ĠAw al
Ġatam official
ĠGuz ana
ĠGuz zani
kalam dug
Ap il
cop per
equ id
gudu officiant
Ġbatt len
Ġmis er
Ġmis car
Ġmis fort
ands ized
Ġposition ed
irnun ta
Ġec ho
Ġthrow stick
Ġbride groom
Ġabs ent
ĠDub lamah
Ġreturns end
Ġrestrain ed
Ama uumgalana
Over seer
fatt ailed
Ġannihil ated
Ġannihil ates
orch ard
Ġfist fight
Ġmad area
Ġge ts
ĠUrS aga
Ġsele ct
ĠSumu el
Ġdisorder ed
Ġsingular ly
Ġempt iness
Ġopp osed
Ġmaj esty
Ġneighbor liness
Or nament
Ut ami
Ġfil tered
Ġmonkey s
Ġcat ches
Ġcat apults
Ġcat astrophe
Ġlaugh s
Ġav eng
Ġez imu
sec ret
seed barley
Ġstro kes
Ġarrum bani
Ġarrang ed
Ġarrang ements
Ġplaster ed
Ġexchang ing
ĠBa amu
ĠBara en
Ġresc ue
Ġgladdened bet
Ġadmir esee
Ġnursema ids
Nr il
Ro aming
Ure ma
happ ily
Ġsal utations
Ġsow cultiv
Ġsang a
Ġfool ish
Ġhate ful
Ġcoll apse
Ġpac ify
Ġgus isa
ĠLam atu
Ġshri ek
Ġshri eking
Ġpla ited
Ġalad rum
ĠKU Mtu
Ġunsh rinking
Ġflatt ening
Ġaccus ation
Ġaccus ations
Ġcaret aking
Ġsuffer ed
Ġpretty face
ĠGemeg igir
Ġslavegir ls
Ġangu ish
Ġkneel ing
Speak er
Ġpronounc ement
Ġrequisition er
cultiv ated
Ġmurder ing
Ġinhabit ant
Ġinhabit ants
Bar ley
Fl ood
Gr ant
Ku Nanna
Pr aise
mult itude
pur chased
trust ed
Ġil am
Ġil ulama
Ġhing e
Ġhol der
Ġharm ony
Ġcirc uit
Ġaver age
Ġfors ake
Ġfors aken
thus ly
ĠAz ar
ĠLue bgal
ĠEnmen SAR
Ġascer tained
Ġenv y
Ġenv ious
Ġworktroop ers
ĠKa amu
ĠKa GAN
Ġund one
Ġexam ined
ĠInd asu
Ġoffic er
Ġvig our
Ġprostr ate
Ġprostr ated
Ġrosett es
Ġsoothe s
ĠAba Enlilgin
spect or
spect ive
Ġelo quent
Stand serve
Ġroofbe ams
ĠAszsz urmalik
Ġconsign ment
comm ander
Ġaccompan ying
Ġcrippled warf
Through out
Ġgnaw ed
Ġziggur rat
fig ure
gre ase
mouth s
Ġket tle
Ġtit hed
inc re
Ġbun ches
Ġfang s
alabor ers
Ġdu ia
Ġpair ed
ugan elum
Ġrevol ting
ĠSe kel
Ġalum sheep
Ġven om
Ġven uere
Ġprost ration
Ġprost itutes
Ġperpet u
Ġempl oy
Ġdece itfully
Ninh ursag
ĠAmare gal
Ġharness ed
Ġoutst anding
Ġoutst retched
Ġmultitude eras
Sumu qan
Ġentr ance
Ġview s
pray ers
Ġdelib er
Ġdelib erated
Ġnecess arily
Ġdenig rate
ĠUtami arram
Simat Adad
Nannam aba
Nannam ansum
Ġignor ant
Ġignor ance
Every thing
Iri az
Lun atic
Re joicing
Sur passing
cross ed
fin ancial
fis her
mal ts
Ġess ence
Ġsear ching
Ġswell ing
Ġwip ing
Ġlent ils
Ġgall oped
Ġgiri ura
imit ti
ĠLuk ala
Ġargu ing
ĠGa ame
ĠGab akara
Ġkad ra
Ġchann el
Ġoutfl attened
feed ing
ĠNingek imti
Ġgrainhe ap
Ġvari egated
ĠDim galabzu
ĠBe fore
Enak uana
Ġdivor ced
Ġcornel ian
ĠPA P
Ġclim bing
Ġsuck led
Ġdrain pipe
ĠWat arum
Ġinclud ed
Ġsqueez ed
ĠSnm gir
Ġpurp oses
Ġcalc ulation
Ġguarant or
Ġrecogn ised
Ġlieuten ant
Ġencirc le
ĠAmarki i
ĠStand ard
handed ly
Ġdumud ab
Ġnonex istent
contain ers
Child ish
Abi ati
Author itative
Ere kigal
Eld est
Egal gas
Nab asa
Nim gir
Outs ide
Some one
Zam biya
bra e
breed ing
lib ation
some thing
tig er
Ġori ented
Ġbod ies
Ġbount y
arkali arr
Ġfoster child
alg asu
Ġmou flon
Ġmug uba
Ġcum ins
Ġlon eliness
Ġpan ic
Ġple a
Ġpier ced
Ġpupp ies
Ġtog gle
Ġnom ads
Ġforef ather
Ġforserv ed
Ġbef ell
Ġthor ough
ĠEur bidu
ĠUgur tur
ĠUbuuk kena
ĠLuz ina
Ġbarbar ian
ĠEninn us
Ġgoad stick
ipro cals
ĠSI A
ĠSil ber
Ġprim ary
ĠKara ar
Ġunw avering
ĠIntae as
Ġvis ible
Ġjuven iles
Ġprolif erate
Ġperman ently
Ġcanebr ake
Ann ual
Ġclar ified
Ġcommission er
Ġswee ts
ĠCon structed
ĠCom m
ĠCattle herder
Lugalnig lagare
ĠAlul im
loc ust
Ġparaly zed
ĠPuzris Dagan
Ġauthorit at
Ġpoin ted
ĠArad gu
Ġtriang le
Ġdrip ping
Ġpartic ipated
respect ful
Ġpulver ized
ĠMelu ha
ĠDragon oftheL
Ġexceeding ly
Ġvigor ous
Ġimmobil ised
ĠNamnundak igara
Citiz ens
Fur ther
Foll ow
Hes he
Ja hr
Lum elam
Mi ime
Mon at
Muk urubata
Pregn ancy
Rapi qum
Veter an
Writ ten
bin th
dorm ouse
fun ction
gard ener
gull alabor
mou thed
wol f
Ġtere binth
Ġtissu e
Ġski es
Ġofatt ached
Ġwur de
Ġwagg ons
Ġfara way
item s
Ġmom ent
Ġmoll usc
Ġhud dle
Ġhamm ers
Ġhammer stonesh
Ġchis el
Ġcren ellation
Ġlum apriest
Ġlag oon
Ġlute harp
Ġdus k
Ġaus picious
Ġpiv ots
Ġpainst aking
Ġpubl ic
Ġgated oor
Ġinim ical
Ġtoss ed
irrup riestess
hosu e
ĠEmet e
Ġstren th
ĠLirgam lum
Ġarchit r
Ġaristo crat
Ġliec rouch
Ġrept ile
Ġrelev ant
Ġshack le
ĠSng mil
Ġspect acle
ĠNinurs aa
Ġenvel op
Ġabsc onded
ĠNinginabad im
ĠKiri LUM
ĠInstruct ions
Ġoxendri vers
Ġveh icle
Ġflacc id
Ġdebil itating
ĠDara abzu
ĠDingirsu kkal
Enanned u
Ġprogen y
Ġnobil ity
Ġdidabe er
Ġalluh ab
ĠLugaldub la
Ġpercept iveness
Ġfourleg ged
Ġnegl ig
NinKi ura
Ġweird am
ĠFears omeness
ĠFerry man
ippals am
ĠuId im
Ġimmem orial
Ġwindbl own
Ġcutsepar ate
Ġdisrup ted
Ġbowthrow stick
exorc ist
Ġapproving ly
fertil ized
Ġhairdress er
Ġassemblymour ning
aterpill ar
Ġtranslu cent
ĠNunbare gunu
ĠNamnin ani
Ġmuerrum commander
Ġporrid ge
Ġbalaserv ice
Ilik auul
ĠIdamar az
Ġforceencour agement
Ġjuniorramp ant
Ġlyingcr ouching
Ġwitchcraf t
ĠPlougho fBazi
Ġtouchedadorned chose
ĠAttam annum
Ġtextst ext
Ġbattlen et
Ġgladdenedbet tered
Ġsowcultiv ate
Ġvenuere gulation
Ġmultitudeeras er
Egalgas ud
ĠDragonoftheL and
Ġhammerstonesh andsized
1 13
2 15
2 14
2 11
3 15
3 14
4 1
4 35
4 42
5 18
7 65
7 75
7 746
8 8
8 9
9 3
A h
A x
A all
A be
A ki
A anepada
A lamu
A anzu
A edin
B U
B al
B ind
B ara
B arge
B iting
B arak
B azige
B estow
C attle
C ase
C asing
C ampGutium
D il
D ir
D ug
D ate
D ais
D az
D ays
D edicated
D aya
D iorite
D adu
D AG
D anu
D itches
D edicatingdedicate
E N
E e
E er
E ig
E st
E mer
E sag
E ither
E gigi
E Gate
E umea
E pum
F ill
F our
F ine
F ield
F emale
F lo
F ierce
F irst
F urious
F allow
F inished
G e
G ig
G ay
G et
G ula
G etin
G oring
G iving
G ilgame
G ungunum
G imil
G irini
G AL
G utar
G urzan
G irded
H or
H and
H ur
H om
H igh
H ire
H endursag
I R
I S
I bbi
I lam
I la
I rin
I you
I GI
I BI
J oy
K is
K ur
K ub
K ak
K ings
K uli
K uda
K atar
K Unig
K utha
L a
L e
L at
L it
L augh
L aid
L ife
L ib
L inen
L iving
L ubanda
L ament
L usaga
L ittle
L usaizu
L animu
M am
M id
M ull
M aid
M outh
M akes
M anum
M arad
M elam
M essenger
M Kbi
M uds
N an
N on
N ag
N au
N urse
N idn
N ever
N abi
N IG
N era
N uganelum
O x
O ut
P ed
P ur
P ut
P row
P ise
P rison
P rev
R el
R ec
R ight
R uler
R eed
S a
S k
S it
S and
S ong
S qu
S erv
S ister
S ix
S ele
S ilim
S usa
S IG
S cratched
S wearing
S tood
S outhern
S upport
T a
T er
T ar
T ru
T aking
T ahiatal
T AB
T Unig
T emples
T rustworthy
U L
U S
U p
U bar
U ser
U sa
U mani
V eget
W ar
W ine
W add
W icked
W rite
W aqartum
Y arlag
Z um
Z ubi
Z ibb
Z izirtum
a os
a amu
a used
b es
b est
b ol
b our
b ite
b les
b ling
b ae
b oth
b ese
b uri
b urse
b ison
b aked
b azi
b rew
b adu
b eaut
b alum
b itch
c i
c or
c am
c up
c reat
c ara
c age
c olumn
c ream
c ient
c ili
c els
c ella
c itiz
c istern
c uff
c rops
c ounsel
c aused
d ar
d or
d it
d es
d el
d im
d ul
d ain
d edic
d ana
d ough
d uga
d anum
d imin
d rew
d lar
d isting
d ivine
e ing
e um
e ug
e ers
e ala
e ven
e ating
e ved
e ater
f ac
f ox
f lying
f ession
f armers
f ule
f usc
g il
g em
g ug
g ugal
g ates
g ena
g ener
g ada
g ula
g ives
g mil
g arden
g aze
g imuda
h n
h s
h un
h all
h ade
h ous
h rine
h inn
h arsa
h ung
h alt
h uge
h orned
h usu
h hum
h aping
h amati
h ulla
i ar
i il
i ab
i ir
i ant
i om
i ans
i als
i eg
i ally
i ked
i kura
i ately
j ect
j enn
j eal
j udg
j ordomo
k le
k ill
k ina
k ne
k aisa
k unga
l t
l al
l un
l ace
l ap
l iz
l ance
l ail
l ars
l oss
l ness
l ights
l ukur
l iving
l ittle
l arging
m ur
m ain
m ace
m ood
m ash
m istress
m ied
m atum
m man
m una
m oth
m uga
m ater
m idn
m itted
m elling
m utable
m aduqa
n x
n im
n ic
n are
n ants
n uri
n esag
n ext
n oses
n esage
n eme
n ification
n ecked
o ed
o ches
o bl
p in
p at
p il
p ay
p ab
p ot
p un
p est
p ain
p ea
p are
p ast
p rong
p ossess
p hy
p atched
p hing
p aying
p rincely
p olished
p ouches
p El
p attered
p inu
p osts
p rincess
p alil
q ur
q atar
q udum
r m
r ul
r ds
r ais
r ish
r ima
r ons
r ushes
r ush
r uly
r ending
r abi
s ad
s ig
s ow
s ts
s ent
s ign
s over
s sp
s ister
s uru
s ulu
s orted
s cratched
s acred
s theart
s vocab
t of
t ear
t ure
t orn
t are
t ake
t au
t ied
t ore
t ified
t ended
t ribut
t irig
t omach
t rue
t estic
t orch
t arsi
u ice
u ished
u Erra
u Hani
u RI
u Edar
u ibbu
v ian
v ement
w w
w in
w ed
w al
w et
w ings
w ail
w atching
w alk
w aqar
x im
x alted
x uri
x li
x ical
x erted
y ield
y outh
y my
y riad
z ing
z ug
z ip
z rum
z nig
Ġ ig
Ġ ip
Ġ uil
Ġ ale
Ġ anted
Ġ ilu
Ġ Young
Ġ Justice
Ġ Judge
he ed
he ld
he ds
he ther
he arted
he arts
Ġt ro
Ġt am
Ġt ip
Ġt end
Ġt ies
Ġt we
Ġt ib
Ġt ired
Ġt ons
Ġt ally
Ġt ended
Ġt ender
Ġt ech
Ġt iring
Ġt ires
Ġt urmoil
in i
in ation
in ana
in una
in ating
in ie
in iti
in ently
in laid
in abdu
in ancy
in kers
in quiries
Ġo pt
Ġo dor
an ch
an ake
an aru
Ġs q
Ġs ke
Ġs ave
Ġs ale
Ġs ugal
Ġs und
Ġs wo
Ġs iny
Ġs ugu
Ġs ends
Ġs ights
Ġs agara
Ġs oured
Ġs apped
Ġs elling
Ġs ieve
Ġs appy
Ġs ifted
er in
er gi
er oll
er ries
er halt
Ġof as
Ġof be
Ġof set
Ġb is
Ġb il
Ġb ale
Ġb aba
Ġb owing
Ġb ile
Ġb ushes
Ġb onds
Ġb erries
ar c
ar ce
ar ali
ar rows
ar chit
ar husu
Ġw ad
Ġw if
Ġw ents
Ġw oken
Ġw aged
Ġw oe
Ġw edge
or ic
or ate
or ting
or eroom
ed ina
ed udu
at ab
at its
at hed
at face
at ters
at Enlil
at Sn
at ches
at isf
at ives
at asage
Ġf ab
Ġf um
Ġf oun
Ġf und
Ġf ail
Ġf igh
Ġf ruct
Ġf unnel
al h
al o
al er
al at
al as
al ts
al et
al ong
al aga
al nuna
al ization
it or
it ness
it tered
it ality
it tum
it appe
Ġm ul
Ġm od
Ġm ut
Ġm ent
Ġm ap
Ġm are
Ġm att
Ġm ainst
Ġm ens
Ġm ada
Ġm iq
Ġm grain
Ġm oves
is an
is ht
is her
is ku
is dom
is zsz
ing ar
es u
es z
es er
es ig
es ir
es ep
es stands
on ep
on cili
en as
en gi
en priest
en nam
en dship
en com
en usi
en larging
Ġh its
Ġh iz
Ġh ue
Ġh ating
Ġh idden
Ġh ardship
as c
as ig
as to
as elf
as agn
as irp
il er
il is
il age
il ula
il izing
Ġc ru
Ġc ust
Ġc red
Ġc agan
Ġc rust
Ġc rev
Ġc udg
Ġc istern
Ġc ategory
Ġc aterpillar
re b
re et
re ams
re lease
re paid
re ceip
re paying
Ġl es
Ġl ab
Ġl ep
Ġl ouse
Ġl ea
Ġl ate
Ġl ub
Ġl ane
Ġl owing
Ġl ush
Ġl ights
Ġl inger
Ġl acks
Ġl aws
Ġl umber
Ġl urker
Ġl ilis
Ġd omin
Ġd ict
Ġd azed
Ġd edication
Ġd reams
and u
and als
and anu
Ġa a
Ġa eg
Ġa head
Ġa zi
Ġa ank
Ġa urum
Ġa venge
Ġp its
Ġp ard
Ġp ome
Ġp hr
Ġp eak
Ġp acks
Ġp acked
Ġp airs
Ġp elt
Ġp ails
Ġp arked
Ġg an
Ġg ad
Ġg un
Ġg ain
Ġg ale
Ġg irsu
Ġg olds
Ġg irin
Ġg ushing
Ġg atep
Ġg ghost
Ġg isiga
le ver
le ag
le gi
le ct
le vel
le gs
ro ke
ro ve
ro pe
ro ots
ro lo
ro aring
ro sett
ro iling
ur il
ur ul
ur su
ur uk
ur ulgi
ur igal
ur ugu
ur bs
ur ring
ur gu
ur utum
Ġhe she
Ġhe aled
Ġhe alth
Ġin from
Ġin by
Ġin form
Ġin dis
Ġin lay
Ġin wardly
el i
el er
Ġn in
Ġn um
Ġn ine
Ġn ua
Ġn aked
Ġn irig
Ġn ourishing
Ġn akabtum
Ġn isku
the ma
the harbor
ad t
ad um
ad em
ad alla
ad ingir
ad udu
ad aman
ad ziana
ad orningtouching
Ġyou on
Ġyou him
ig in
ig ant
ig ated
ig ating
ig mud
ig ands
ig isasa
ab al
ab et
ab atum
ab ura
ab ove
ab bani
ab undance
ab arasi
Ġfor ear
Ġfor fe
Ġfor res
Ġfor ordered
Ġfor esters
Ġfor nic
ot ic
ot ry
ot ely
ir ation
ir isag
ir urtura
am or
am il
am ine
am ped
am adi
am uzu
am utum
am idst
am gula
am yriad
ac tual
th ud
th orn
th ings
th roat
th icken
th ickening
im g
im son
im ulgi
im ber
im zi
im udar
im aki
king ship
id um
id ity
id us
id ates
id inn
id anum
id agal
id bae
Ġe t
Ġe as
Ġe ec
Ġe ef
Ġe pon
Ġe bb
Ġe tur
The se
ho ok
ho sts
Ġbe ver
Ġbe ans
Ġbe hold
Ġbe gets
se ff
se SAme
se lect
Ġth re
Ġth ong
Ġth ous
Ġth insp
Ġth ieves
ĠE A
ĠE ag
ĠE sh
ĠE ail
ĠE me
ĠE bar
ĠE ating
ĠE eg
ĠE mes
ĠE ek
ĠE gan
ĠE abani
ĠE gida
ĠE use
ĠE ibgal
ĠE pum
ĠE Iri
ĠE ye
ĠE TUnig
ĠN ir
ĠN uil
ĠN aw
ĠN ira
ĠN AG
ĠN ibulmat
ul ed
ul ating
ul abba
ul agana
Ġr at
Ġr id
Ġr ic
Ġr ings
Ġr aked
Ġr ushed
Ġr ank
Ġr ushing
Ġr aces
Ġr af
Ġr oused
ĠU L
ĠU U
ĠU u
ĠU du
ĠU nd
ĠU gig
ĠU rees
ĠU bart
ĠU SZ
ĠU kkene
ĠU mman
ter m
ter in
un e
un ed
un as
un ura
un ks
un zi
un idug
un paralleled
um ac
um ents
um ites
um priest
um uh
um ps
um ush
um bilical
of old
of Enki
of sheep
of heaven
of Garana
of six
em p
em ur
em em
em mer
ver b
ver ts
ver ly
ver min
est abl
Ġshe et
Ġshe rd
Ġshe donkey
Ġshe rds
ic ep
ic ting
ic eman
ic irc
ic apr
ic svocab
ow down
Ġst e
Ġst ir
Ġst ated
Ġst ake
Ġst rol
Ġst aying
Ġst acks
Ġst ump
Ġst ench
Ġst amped
all us
all ure
all iya
all urest
Ġon ion
ĠA bar
ĠA zida
ĠA sil
ĠA ya
ĠA hu
ĠI the
ĠI rum
ĠI bilum
ĠI bl
ĠI sz
ĠI amadi
ĠI imulgi
ag uba
ag reeable
ag etina
ion ed
ion al
ts umac
od ule
Ġwas p
ĠUr s
ĠUr su
ĠUr ge
ĠUr Ur
ĠUr ulgi
ĠUr du
ĠUr ubur
ĠUr Inanna
ĠUr nam
ĠUr abzu
ĠUr kig
ĠUr nun
ĠUr Haya
ĠUr Lisi
ĠUr Abu
ĠUr Alla
ĠUr galama
ĠUr Tummal
ĠUr rani
ĠUr Anan
ĠUr bagara
st en
st ag
st up
st ation
st ack
st rum
st ruck
st ring
st ret
st inancy
av our
av ior
av ailable
ut ed
ut ag
ut ub
ut esp
ut uku
ut abe
ol ed
ol le
ol der
ri x
ri ke
ĠL a
ĠL al
ĠL ion
ĠL ut
ĠL up
ĠL ive
ĠL ib
ĠL ana
ĠL ead
ĠL ofty
ĠL arak
ĠL aq
ĠL AK
Ġbar e
Ġbar ely
Ġbar rage
Ġbar akara
Ġbar dili
Ġbar sud
Ġar ar
Ġar ab
Ġar id
Ġar aga
Ġar ise
Ġar oused
Ġar agugal
ug ma
ug ida
ug igi
ent ing
ent ates
ent ary
ent ammu
Ġre ct
Ġre vers
Ġre plendent
Ġre produce
Ġre ceip
Ġre ceded
ain im
ain isige
Ġse v
Ġse er
Ġse qu
Ġwith you
Ġwith surpassing
Ġwith corp
Ġsh one
Ġsh ined
Ġsh aped
Ġsh attered
Ġsh atters
ĠEn k
ĠEn ar
ĠEn ough
ĠEn nir
ĠEn dingir
ĠEn num
ĠEn dudu
ĠEn Pries
ĠEn urigal
Ġsil ig
for get
Ġ2 13
Ġ2 16
ess ive
ep riest
ep endent
ant ic
Ġpl um
Ġpl ate
Ġpl edge
Ġpl ougho
Ġman king
Ġman age
Ġman ually
up per
up ervisor
ht an
lil a
lil i
lil ng
ld ie
to p
ace an
Ġat u
Ġat akuzu
ec isions
ec essive
ill a
ill es
ill assu
Ġwor ry
ea x
our s
our th
our ce
Ġme an
Ġme als
Ġme you
Ġme te
Ġher where
Ġher ding
Ġgo ss
her d
her ders
Ġday day
Ġday storm
Ġday laborers
Ġ3 56
Ġhas ten
et w
et re
et ins
et aker
et axes
ong od
ong ated
ip ers
ip ew
Ġone alone
ĠS c
ĠS p
ĠS u
ĠS ip
ĠS aga
ĠS ch
ĠS aba
ĠS ulgi
ĠS idu
ĠS ix
ĠS hip
ĠS ami
ĠS ium
ĠS cat
ĠS ilaa
ĠS yllable
ĠS ource
ly nx
ĠEnlil bani
ĠEnlil bni
Ġgur baskets
ĠG ar
ĠG ir
ĠG ut
ĠG ars
ĠG ang
ĠG ani
ĠG ez
ĠG eg
ĠG ubi
ĠG utar
ĠG arta
ĠG urzan
if t
Ġgr ounds
Ġgr oup
Ġfrom in
ud i
ud ance
ud ena
ud ada
ud ata
ud awoods
Ġk m
Ġk is
Ġk su
Ġk uda
Ġk agina
Ġk iggal
Ġk abta
Ġk umul
Ġk containers
Ġbr and
Ġbr ay
Ġbr im
Ġbr ush
Ġbr aying
Ġbr igands
Ġan oint
Ġan zug
Ġan thema
Ġsp in
Ġsp un
Ġsp ike
Ġsp illed
Ġsp ears
Ġsp rin
Ġsp ouses
Ġsp ares
Ġsp oil
Ġsp attered
Ġsp oon
Ġsp iked
su s
su ing
su st
su ch
Ġas h
Ġas so
Ġas tr
Ġas word
Ġas zrum
Ġby re
Ġby from
qu al
qu is
qu est
qu ished
qu ipped
its their
Ġbarley crops
Ġgreat barge
Ġgreat stele
his per
Ġsheep house
Ġsheep hide
Ġup one
Ġup wards
Ġup imposed
Ġcity but
Ġcity gates
us es
us ig
us hip
us elli
us ikil
ap ir
ap art
ap ae
ap els
ap orate
Ġch armer
Ġch irping
Ġch aos
Ġch apels
Ġland making
ma id
ma ker
ma jordomo
ge banda
ĠNin z
ĠNin ub
ĠNin irsu
ĠNin ib
ĠNin ani
ĠNin kalla
ĠNin urra
ĠNin Da
ĠNin Nag
ĠNin arhusu
ĠNin esir
Ġen s
Ġen semble
Ġen ergi
ub t
ub ae
ub anz
ak ine
ak ku
ak uge
In ab
In ana
In telligence
erv ed
Ġwh ips
For t
For eign
uen ce
uen na
ind a
ind ler
ind ependent
Ġbuilt up
Ġpr ed
Ġpr ays
Ġpr uned
be am
be gotten
ru in
Ġor man
Ġ5 2
Ġ5 29
ov ated
one third
ist ens
Ġout b
Ġout waterway
ere joicing
ere quipped
Ġson apprentice
fe athers
art un
art fully
ĠAn ar
ĠAn ana
ĠAn ati
ĠAn dab
ĠAn san
ĠAn arAn
ĠAn ahe
ĠAn edanumea
ĠAn shan
ĠAn ahili
ĠAn uship
Ġab su
Ġab ib
Ġab omin
Ġab rog
Ġab aluge
Ġab udance
Ġal al
Ġal ign
Ġal ters
Ġal tern
Ġal ert
Ġal cohol
Ġal tirig
Ġlam enter
Ġshall l
oug hed
ĠNing akam
ĠNing etins
ĠK ig
ĠK ab
ĠK id
ĠK ud
ĠK au
ĠK esh
ĠK ams
ĠK uli
ĠK asa
ĠK arg
ĠK unum
ĠK aa
ĠK anes
ĠK atar
ĠK aku
ĠK allamu
ĠK arda
ĠK oches
ĠK adaman
ch ase
ch ari
ch armer
ch asing
ch illes
Ġun c
Ġun sp
Ġun like
Ġun ified
Ġun ending
Ġun ited
Ġun fit
Ġun not
Ġun sc
Ġun covered
Ġun control
Ġun paralleled
Ġun amugi
Ġun weaned
Ġun married
Ġun cultivated
Ġun fertilized
Ġun uRI
hed u
Ġam ass
Ġam atillati
Ġam mur
Ġcom pen
Ġcom fort
Ġex ped
Ġex pect
Ġex hum
Ġex ceeds
Ġex ternal
Ġex alts
Ġex otic
Ġgrain st
Ġgrain fattened
Ġthere upon
ĠIn sasa
ĠIn nana
ĠIn spector
Ġox hide
ok s
Ġpe bb
Ġoff ended
Ġv ar
Ġv aster
Ġv ats
Ġv eter
Ġv ault
Ġv angu
Ġv ulva
Ġv andals
Ġfl ail
Ġfl ung
Ġfl int
Ġfl ank
Ġfl ints
Ġfl utesp
Ġyear old
Ġj ump
Ġj oints
Ġj ewell
ous al
Ġbre ached
Ġbre wing
Ġde ified
aven ged
Ġi aya
Ġi banda
ĠD um
ĠD est
ĠD uil
ĠD az
ĠD istr
ĠD age
ĠD ilim
ĠD UR
ĠD ubl
ĠD adu
ĠD ulum
ĠD anniya
ĠD edicatingdedicate
ĠD irt
ĠD ecisions
ĠB ow
ĠB ut
ĠB are
ĠB ull
ĠB ala
ĠB arge
ĠB read
ĠB ari
ĠB asaga
ĠB ond
ĠB agina
ĠB iti
ĠB alu
ĠB ank
ĠB rother
ĠB aar
ĠB ansa
ĠB itter
ĠB roken
ĠB urmama
ĠB IBI
ĠB atasage
ĠB irurtura
ĠB entammu
ĠB ainisige
Ġcon ting
Ġcon du
Ġcon cl
Ġcon verts
Ġfield area
aba ali
ĠM al
ĠM ount
ĠM ast
ĠM ans
ĠM istress
ĠM akes
ĠM een
ĠM uti
ĠM agula
ĠM uhu
ĠM lik
ĠM algasu
ĠM EGate
ĠM iszsz
ĠM owdown
Ġsilver chair
En me
En annatum
En met
En gar
En Nane
En voy
En anepada
En iggal
En sip
En entarzi
En kimdu
En merkar
En enusi
Ġpro ve
Ġpro blem
Ġpro bably
Ġpro spective
Ġpro xim
Ur a
Ur ub
Ur tur
Ur Utu
Ur da
Ur abba
Ur kidu
Ur uma
Ur Ikur
Ur Itaran
Ur ugalama
Ur Igalim
Ur Ema
Ur Eanna
Ur ulgira
Ur Enenusi
Ġno ct
ĠH ad
ĠH aving
ĠH uh
ĠH AR
ĠH endursag
ĠH aus
ĠH appy
ĠH ibar
ĠH unuri
ĠH arali
Ġmountain fore
Ġmountain range
own ook
ions hade
ki urs
att ens
Ġdays storm
tu ous
Ġheaven ward
urn al
urn asirp
ĠInanna ka
iz a
iz en
iz um
op h
op p
op ot
op ener
op ening
az atum
az agar
Ġall um
Ġall oted
end ages
ings erving
Ġwat cher
ĠNingirsu isa
ĠNingirsu kaisa
sh orn
sh out
os itions
wor ds
Ġbeer pouring
Ġbeer poured
Ġheart gl
Ġheart rending
und u
und antly
uk a
uk idu
uk alet
ĠLugal g
ĠLugal t
ĠLugal x
ĠLugal kur
ĠLugal bar
ĠLugal kin
ĠLugal bi
ĠLugal annatum
ĠLugal anatum
ĠLugal uri
ĠLugal nam
ĠLugal nir
ĠLugal abba
ĠLugal Ninubur
ĠLugal uumgal
ĠLugal dingirmu
ĠLugal sa
ĠLugal urani
ĠLugal urtur
ĠLugal irida
ĠLugal ukkene
ĠLugal hamati
ĠLugal sulu
ast al
ĠNanna ursag
ĠNanna zi
ĠNanna igi
To ok
ef fect
ef oster
gal anna
gal dudu
per fect
Ġhand tablet
Ġhand cuff
May if
Ġmight iest
ass ite
ass au
ass orted
Ġgood the
Ġgood ly
Ġgood very
Ġgood beautiful
Ġper ch
Ġper ish
Ġper mit
pon ders
pl ing
pl anner
pl icate
ĠAk a
Ġwater ing
Ġwater work
Ġwater irrig
Ġwater roiling
istr ar
umer able
Ġhead ress
Ġhead master
Ġhead voice
Ġhead denigrates
Ġmo an
Ġmo at
Ġmo aning
Ġmo aned
Ġmo ongod
Ġshould should
Ġkn ives
Ġkn elt
Ġkn otter
Ġkn ocking
Ġcar ing
Ġcar ps
Ġarea Lagash
Ġlo g
Ġlo se
Ġlo ver
Ġlo cked
Ġstand ingserving
Ġbrought poured
Ġover ri
Ġover ly
Ġover com
Ġover laid
Ġstorm ing
Ġstorm who
Ġstorm day
Ġstorm demon
Ġgods s
ans ive
Ġoxen fields
Ġbur u
Ġbur ial
Ġbur den
Ġbur zip
Ġ6 33
Ġbo y
Ġbo aster
Ġbo ots
Ġbo asto
Ġorder seff
Ġgoat house
Ġres p
Ġres ult
Ġres haping
ara amu
ara uma
ara idab
Ġear ring
Ġear then
Ġro ds
Ġro be
Ġro ped
Ġro cks
Ġro aming
Ġro cket
Ġro iling
Ġro asters
Ġad a
Ġad ept
Ġad ministr
Ġad vers
Ġad artun
An una
An ubu
An epada
An tasura
An ger
An ikura
Ġtow el
ĠT U
ĠT ur
ĠT ake
ĠT ree
ĠT aking
ĠT AR
ĠT abala
ĠT ai
ĠT irigan
ĠT ahiatal
ĠT eum
ĠT win
ĠT umuh
ĠT utub
Ġmay or
Ġmay altum
Ġmaster s
Ġsup per
me ts
me edu
ra ver
ra herder
Ġhere by
Ġem itting
Ġem bers
Ġem bank
Ġem drum
Ġem inently
Ġem esig
Ġchild citiz
eng urs
Ġpow erequipped
Ġag a
Ġag u
Ġag ina
Ġag reed
Ġag ubi
Ġag rees
Ġaway fall
Ġaway profound
kur ub
Ġle an
Ġle vel
Ġle ek
Ġle xical
here in
ane e
Ġdec ider
Ġdec imate
Ġearth s
Ġearth work
Ġearth covered
we ed
we igh
If may
Ġpure armed
bar bar
bar rage
pen ter
idu hhum
ve ying
ve get
Ġbro om
Nin ma
Nin ki
Nin ursaga
Nin kala
Nin igara
Nin lu
Nin hedu
Ġsm oked
Ġsm other
Ġsm iter
Ġsm oking
Ġdiv ision
ars alnuna
ars rosett
pro fession
ue en
Ġcanal inspect
Ġcanal present
Ġcanal mouths
mar i
mar k
mar ry
Ġsc ur
Ġsc ul
Ġsc are
Ġsc outs
Ġsc ales
Ġsc arce
Ġfather ed
Ġlament a
Ġlament voc
Ġest rang
Ġmother father
arm ent
arm are
arm ents
arm onious
arm rests
ĠUtu hegal
Ġer in
Ġer us
Ġer imtum
Ġwe ave
Ġwe althy
ĠF ine
ĠF ate
ĠF odder
ĠF irm
ĠF ierc
ĠF ourth
ĠLu I
ĠLu u
ĠLu ur
ĠLu Nin
ĠLu igi
ĠLu Ikur
ĠLu Haya
ĠLu Eridu
ĠLu Laga
ĠLu Asalluhi
ĠLu utu
ĠLu ulgira
ĠLu Unu
ĠLu Daya
ĠLu irisag
ĠLu ugida
ipp ing
ipp atum
Enlil bni
Enlil esu
ib a
ib u
ib um
ib artum
turn ed
ting set
Ġbl oom
Ġbl ameless
Ġbl inkers
abl ereturn
Ġwool bearing
ĠP N
ĠP it
ĠP ad
ĠP ir
ĠP ul
ĠP us
ĠP rinc
ĠP rec
ĠP ray
ĠP oplar
atum dug
Sn akes
Sn lam
Sn ime
Sn magir
Sn tak
Sn kaid
Sn imit
Sn ibbu
Ġlong tablet
Ġlong distance
Like as
Ġshepherd ed
Ġcl an
Ġcl ub
Ġcl ashing
Ġcl asped
Ġcl amor
Ġsl ip
Ġsl ipped
Ġsl edge
Ġsl uice
Ġsu cc
Ġso on
Ġso ak
Ġso cles
Ġdr ained
Ġdr agging
ipl ied
man y
man acles
Ġstat utes
Ġupon against
Ġu u
Ġu Itar
Ġu alaya
ĠEr ba
ĠEr inda
Ġwhere ver
Ġbull calf
Ġ13 5
Ġnind igir
Ġunder ta
Ġunder foot
Ġtr unks
ough s
Ġown ers
Ġho es
Ġho op
ida a
ĠW arm
ĠW hose
ĠW oe
ĠW hether
ang ed
Ġpre fect
pe ech
Ġ8 5
Ġ8 7
Ġ8 8
red dish
Ġreturn kill
Ġ7 3
Ġ7 8
Ġ7 98
Ġ7 65
arv a
Ġrul ings
ĠUruk s
After because
After wards
urs ed
Ġcomm it
Ġcomm entary
aw ed
aw ays
de v
de ath
Ġyoung est
ore al
ore ally
Ġbeh avior
Ġworld s
oy al
Ġaccount ants
Ġwoman ly
inn ards
esh ade
Ġbitter toothed
Ġbitter pain
ani ya
work ed
work men
work shop
over s
over seers
ise ge
ise ase
Ġword ponders
Ġlet ting
From at
Ġey eturn
Ġey estone
Ġey eroll
As sorted
Ning izida
Ġput established
Ġreg istrar
Ġold en
12 1
12 6
12 8
12 32
Ġmid heaven
Ġmid stheart
Ġ23 2
Ġsay ings
Ġtable the
Ġwant ing
ĠAb il
ĠAb uni
ĠAb undance
ĠAb akine
Ġsweet ness
Ġsweet ening
Ġcont in
Ġcont ext
Ġdes ires
Ġmouth tooth
Ġmouth opener
Ġim at
Ġim age
Ġim men
Ġim med
Ġim mutable
Ġcreat or
hold s
Ġtre mend
And ul
go esstands
aled items
Ġatt ain
Ġatt ained
Ġatt ains
Ġstr ap
Ġstr ide
Ġstr iding
Ġstr anded
Ġstr ands
lam ation
Ġwind ownook
ĠNinlil s
Ġbring succeed
Baba idab
ular ies
Ġchildren junior
Ġchildren atits
Ġofferings a
Ġflour ishing
Ġflour milling
Ġestablished main
Ġgate keepers
umuz ida
Ġarm or
anc ellor
Ġev ent
Ġev ents
Ġev ident
Ġev aporate
ier odule
ating effect
ici ent
Ġ9 1
Ġ9 3
Ġ9 5
Ġ9 8
Ġ9 12
Ġlapis bl
Ġrem nants
Ġrem otely
UrN anibgal
Ġgiven brought
sen ior
ĠR o
ĠR ight
ĠR ib
ĠR ise
ĠR ites
ĠR ele
ĠR eg
ĠR adi
ĠR ender
ĠR eb
ĠR ai
ĠR igmud
ĠR oyal
Ġright ly
ĠC h
ĠC ities
ĠC arp
ĠC rescent
ĠC overs
Ġdis k
Ġdis qu
Ġdis int
Ġdis arr
Ġdis placed
Ġdis cerning
Ġ14 5
Ġ14 8
ĠZ ak
ĠZ urz
ĠZ ubaga
ĠZ azaru
ĠZ imudar
ĠZ abaali
Ġstone gr
Ġext reme
Ġext ending
bo ast
bo asting
Ġfir med
Ġfir eshade
cum ulated
Ġsub urbs
sp arrow
sp ousal
Ġbattle field
Ġbattle ments
Ġbattle cry
Ġbattle mace
Ġdaughter inlaw
Ġpass able
Ġdist inct
Ġground ed
Ġback outs
Ġback wards
Ġback liver
Ġback armrests
Ġche er
Ġche esep
Lugal mu
Lugal anatum
Lugal inim
Lugal KA
Lugal saga
Lugal kis
Lugal uumgal
Lugal kugani
Lugal pirig
Lugal urani
Lugal amarku
Lugal nesage
Lugal tarsi
ae gal
so ever
wh atever
Ġseed grain
Ġbehalf because
ĠAbb agula
ĠAbb akalla
ex ist
ex ecut
ex cess
ex ecessive
Ġmar es
Ġmar ches
Ġcor ral
Ġcor rid
Ġdoor men
ingir Baba
Ġany where
Ġknow until
Ġknow ledg
Ġbird hun
Ġkid ney
Ġinc urring
Ġriver ban
pass ed
pass age
Ġwell orchards
Ġwell pond
Ġwell cistern
Ġwell tended
Ġwell anch
igal ana
igal aguba
udu a
fl it
fl attering
Ġ15 1
Ġ15 2
Ġsn atch
Ġsn eers
Ġint r
uli um
Because after
ced es
ced ars
Ġvessel mirror
Ġend killed
ĠNingal s
aut u
fer red
Ġwar p
ĠAm u
ĠAm am
ĠAm agula
ĠAm rima
ĠAm agetina
ĠSim udar
ĠSim aki
ĠSim akum
Ġflood s
Ġflood wave
Ġlit re
Ġlit ter
Ġara amu
Ġara uma
ix ture
Ġel i
Ġel icit
Ġel ongated
Ġbed bed
Ġyouth fully
ĠAd aga
ĠAd dab
ĠAd ata
Ġqueen ly
oth irds
Ningirsu kiag
Al inisu
ĠGreat festival
Ġhimself his
Ġenter tain
15 5
ele li
ele phant
Ġstrong holds
Ġjust ness
Ġkind ness
Ġut ur
Ġut ilizing
Ġcast rated
Ġtal king
Ġtal ons
Ġdem ol
Ġdem ond
ber ing
Ġhow l
Ġhow led
Ġhow ls
Ġ11 6
Ġ11 8
Ġ11 42
Ġmountains ide
Ġmountains netherworld
la Utu
ĠAl ia
ĠAl ph
ĠAl alum
ĠAl lamu
ĠAl banidu
ĠAl umid
Ġbeautiful faced
ima h
Ġdep endent
Ġdep rive
Ġdef icient
eg ara
Ġsqu eal
Ġce ases
sin strum
Ġfo al
Ġcr ates
Ġcr esc
Ġcr ush
Ġcr imson
Ġver ily
Ġseven corn
Ġeyes ight
Ġeyes gaze
br ick
Ġserv ile
Sin magir
Sin kaid
Sin iqiam
Ġmess ages
Ġrites offerings
Ġsec rets
Ġbecause in
bi Itar
Ġspl ashed
13 1
13 2
Ġmat ch
Ġmat rons
Ġcop ies
Ġsun k
Ġface front
Ġlion faced
Ġforth com
Ġass ailed
Ġass ert
Ġass umed
Ad du
Ad ama
Ad ding
Ad alal
Ad garkidug
Ad orningtouching
gr ounds
mu a
mu ir
Ġlarge toothed
Ġir tum
Ġob tained
Ġob fusc
Ġchosen amed
let on
Ġneck lace
Ġneck thickening
ie ge
ie ku
Ġsong hy
Ġsong festival
Ġsong sinstrum
Ġfall s
Ġfire is
Er r
Er ram
Er idus
Ġ18 22
Ġperform ers
Ġperform ance
Ġequ aled
Ġequ alled
Ġequ ally
ĠLagash s
14 9
Lu Inanna
Lu ulgira
Ġgift the
Ġinter val
Ġinter pre
Ġinter cour
Ġinter cal
Ġinter cedes
Ġnight ly
ĠAg etin
ĠAg uzi
ĠAg amgula
ĠGeme Suen
ĠGeme Baba
ĠGeme Utu
ĠGeme Enlila
ĠGeme edam
ĠGeme ubar
hy ena
ants hy
Ġfin s
Ġfin ishing
Ġcomp el
Ġcomp aring
Ġcomp eting
Ġcomp ositions
Ġbroad en
Ġbroad ening
Ġprayer rites
Ġhum bled
Ġcour riers
ĠKi arAn
Ġprotect ionshade
Ġcalf s
ress ive
Ġcoun s
Ġcoun cel
Ġcoun cil
Ġrep ly
Ġrep air
Ġrep resent
ĠSn ake
ĠSn uselli
Ġlamentation priest
Ġlamentation great
Ġul utul
Ġul gimuda
Ġsw ays
Ġsw ishing
Ġsw indler
Ġtop icsvocab
Ġconf ined
Ġconf idence
Ġeye b
ten der
ten ance
Ġte at
Ġte ach
crib al
Ġturned crossed
ead ing
Ġadv ancing
ff alo
Ġchang ing
Ġjud ged
Ġmeasure assign
Ġsnake charmer
Ġsky ward
16 1
16 4
16 8
Ġ16 4
Ġ16 6
Ġlif es
Ġflo at
Ġflo ats
Th ree
Ġz irrupriestess
Ġz anaru
Ġz ippatum
ili atory
Ġcol oured
Ġcol onies
Ġpur chase
ime kug
ĠIt armare
Ġprodu ctive
Ġnew year
Ġnew borns
11 7
nam ub
Ġty p
Ġty ing
semb ly
semb les
ĠLug amu
ĠLug uza
Ġwid ening
Ġbrings goesstands
Ġjun ipers
Ġimp ort
Ġimp act
Ġimp ending
Ġimp oses
Ġimp regn
Ġouts ides
tum person
Ġsle w
Ġsle pt
Ġaround circled
ĠSh ould
ĠSh rine
ĠSh inyGatumdu
Ġang els
Ġsaw s
Ġbuck ed
ĠGu udu
ĠGu ardian
Ġassemb led
lo om
lo cated
Ġax esag
ĠLud ingir
18 5
57 1
bed ding
eous ness
Ġhair y
Ġhair sty
Ġcro p
Ġcro ak
Ġcro aking
ĠNig er
ĠNig gina
ĠNig indu
ĠNig dugani
Ġtrees wood
Ġbirds sparrow
Ġsleep s
ition er
adi iil
Ġed a
Ġed ab
Ġed ible
Ġfear dis
Ġchair bearer
Ġchair holders
25 5
Ġway decree
Ġmer riment
Ġgro ans
Ġtrans formed
PA a
reg arded
Ġdust I
Ġdust earth
Ġdust wre
Ġutter ing
Ġwr ist
ali ant
Ġworker year
Ġclay car
Ġclay tablet
Ġspeaking singing
Ġmilk fed
Ġmilk cream
por ary
por cup
Ġent ity
Ġent angled
Ġbel ly
Ġbel owed
Ġfell ing
Ġlay ed
Ġlay ers
Ġcontain s
Ġcontain ed
Ġfoot wear
Ġcounsel s
Ġcounsel ed
Ġancient old
Ab undance
Ab isare
Ab isimti
Ab undantly
after wards
Ġpar ches
Ġpar alle
ĠNam zium
Itar n
Ġapp ly
Ġapp ears
Ġapp rentice
Ġapp endages
Ġdrum sticks
Be er
Be at
Be ing
Be hind
inim pae
Ġco at
Ġco iled
Ġco hor
Ġdates yrup
Ġradi ate
Ġradi ates
ĠMountain s
ĠMountain range
ĠPuz rish
Ġterr aces
ances ense
No on
te at
te ady
te brae
Ġhor rible
Ġstreet town
Sh ara
Sh ining
Ġtem pest
Ġtem porary
Ġud der
Ġsalt pet
Ġwhe els
Ġexc ept
Ġsubm its
Ġirrig ating
Ġbat he
Ġbat tered
Ġmu le
Ġstri p
ĠAp il
ĠAp indu
ĠARAD ara
ĠARAD ani
ĠARAD hulla
Ġpeg ged
Ġclean ing
si qatar
Ġsho p
Ġsho wn
Ġcare ful
Ġpot ential
Ġpot entates
hool boy
ĠNisaba andul
Ġrain y
Ġseiz ep
Ġplay ground
Ġplay grounds
oxen manager
ne ed
oc ent
yl ons
Ġfle ec
offer ed
etin anka
ĠBab atur
Ġlight ing
ildo er
Ġdesc ent
Ġdesc ends
Ġassign s
do ors
way station
Ġtas ted
Ġdi adem
Ġdig ger
Ġgig antic
Ġgather ers
Ġinspect ing
ban quet
Ġur im
Ġur tum
Ġbal iff
ĠNine ve
ĠNine izu
Ġrever ber
Ġsuper b
22 2
Ġdet ained
Ġstep ping
ĠNinmar ki
Ġdev ice
Ġtrust ing
DU N
Ġid ea
Ġprison er
Ġdemon fate
St at
St rong
St orm
St rang
par to
ĠEz agin
ĠIl m
ĠIl neme
ĠIl urugu
Ġreleas es
Ġreleas epl
Ġadd ressing
Ġemer gent
Ġblood y
Ġbuilding function
19 2
19 9
Great ly
Possess ed
Possess ions
cl ock
rem ove
ĠMe Itaran
Ġplaces olution
24 3
Il t
Il bani
Il ulu
Il lness
Il uibbu
Il itappe
great soldier
kn ows
kn ew
Ġfig ures
Ġmill ers
Ġmill house
Ġmill workers
Ġhur in
Ġhur ry
Ġhur riedly
add les
add ening
Ġ24 1
Ġexer ted
Ġscat tering
How ever
ening reversing
Ġinn umerable
Ġinn ocent
Ġref ashion
Ġref res
ĠMes kigal
ĠMes antum
Ġscr ap
Ġscr ub
Ġscr atch
Ġcapt or
Ġtw ine
Ġtw enty
Ġtw othirds
ors upervisor
Ġfar off
Ġinqu iring
Ġthick er
Ġthick en
Ġthick ness
Ġthick tri
Ġthick eningreversing
ĠInim Utu
ĠInim adingir
Ġloc king
Ġanything food
Ġharrow ed
Ġcross bar
ĠEnunugal anna
Ġrec ord
Ġrec ept
Ġrec iting
Ġrec iprocals
Ġrec oncili
Ġcoming bringing
ĠBl at
Ġreserv ed
MU PA
Pro tective
Ġsy cam
Ġhalf way
ĠAr atum
Ġlive the
Ġchari ots
Ġcolle ctive
ĠId ia
ĠId ena
ĠId nun
Ġliver lungs
Ġplent itude
ĠKar har
Ġlead ing
shepher dship
Ġcleans es
Ġouter cover
Ġruin m
Ġjudg ing
Ġdream ing
Ġplot ted
Ġplot ting
Ġplatform ruin
Ġcarp filled
Ġcarp flood
Ġrespons es
Ġrebel s
pr aying
Ġdouble leag
Ġpop ulated
Ġpop lars
Ġexp ose
Ġexp ands
Ġexp ression
Ġexp ansive
Ġwomb mat
Ġharbor s
Ġkeep ing
23 3
23 5
23 8
Ġhall mark
Ġcry breath
ĠKu su
Ġcomb ination
Ġlimbs lap
ĠBarley at
no ise
Ġtall ied
Ġoven s
Ġdire ction
Ġdire cts
Ġdire ctor
Ġhear ing
Ġforce ful
deb ts
Ġgarments cloth
Ġpleasant ly
Ġstret ching
36 3
Am maduqa
Am abarasi
Ġtri ple
Ġsol ution
Ġdel icious
Ġform ations
oted oxen
ĠEd uga
ĠEd ik
ĠEd ubba
Ġreve als
Ġ26 6
Ġ26 8
Ġplough s
ĠNins una
Ins criptions
Ġawe bearing
Ġsuppl ied
Ġinterest bering
Ġexerc ising
con verted
con fron
Ġburn s
ĠNann ain
ĠNann agugal
ĠNann aludu
off spring
off icials
ĠAmar uba
ĠAmar asi
Ġdead old
Ġsinger musician
Ġsustain fin
Where ver
dest ructive
gu ak
gu arded
gu arant
pre par
pre tty
pre pare
sil ent
sil os
tr av
tr ap
tr unk
Ġwail s
Ġdri vers
Ġnam ing
Ġnam ita
Ġforest s
Ġforest for
Ġsteward ess
ĠNind am
ĠNind ub
ĠNind ingirBaba
ĠBig Festival
ĠBig Barge
Ġconvey ance
ĠPuzri Enlil
ĠPuzri Itar
Ġsag ursag
Ġsag bur
Ġsag aciously
Ġbeat ings
ĠUn der
ĠSt orm
ĠSt oreroom
ĠSt adt
ĠSt rike
Ġroof to
ĠFestivalof Dumuzi
Ġcorp oreal
Ġjunior wild
regular ly
Ġhumanity man
Ġviol ated
Ġsanct ary
27 5
27 6
Dumuzi Abzu
Ikur s
bl ock
gir inie
Ġtribut etaxes
Ġfat ho
Ġfit ted
Ġpart y
Ġpart ners
ĠEt amuzu
ĠEgal isi
ĠAs al
ĠAs sembles
Ġplunder er
Ġspace face
aught y
Ġslaughter house
Ġcontrol super
Ġelaps ing
We althy
We eping
Warad Nanna
inter est
Ġwrit efoster
ither ing
Ġnig ar
Ġnig diri
Ġnig suru
Ġstomach s
ĠDug as
ĠDug ab
ĠDug azida
ĠDug ubt
ĠMagan arrum
ĠUrNing ubalag
Abb akala
Abb akalla
Ġben ch
Ġmound cr
Ġcurs es
Ġ19 7
Ġ19 8
Ġlev elled
Ġsuch set
Ġappropri ations
Ġappropri ately
Ġgladd en
Ġdevast ation
Ġhearts tomach
iq uril
tain s
Ġill Etar
ĠFor ever
Ġmour ner
Ġfort owards
str ings
str icken
ĠLub ine
33 8
Zab alam
cr acked
cr ubbed
car penter
god s
sur face
sur ra
tled rum
two headed
Ġtab ulation
Ġtong ues
Ġmal ts
Ġmal iciously
ĠNag Nane
ecut ter
ĠKul ab
Ġexist ing
Ġsurvey s
Ġshoulder top
Ġadm ixture
Ġfright en
Ġteem s
Ġincantations noise
Ġfeatures figure
arr at
Ġholds cat
Ġnir muir
unir re
Ġarrow heads
Ġsepar ately
Ġclaim ed
Ġcook s
Ġgarden ers
Ġfigure trunk
29 2
com p
com pl
dingir tuku
wind pipe
Ġhon ored
ĠNudimmud has
Ġlib ir
Ġlib ate
Ġlib ated
Ġrelax ed
ĠSin iqiam
Ġbran ch
Ġeng iz
Ġeng raver
Ġtrav elling
Ġfox es
orp ion
Ġlower ed
iring u
keep s
ĠNew SIG
Ġrun aways
Ġchurn s
Ġdeath ly
ĠTh ree
Ġsuppor ted
ĠWith in
AR A
AR BI
Go vernor
Un uga
Ġub ar
Ġub isag
Ġbu ffalo
ilu vian
ĠLul al
ĠLul zi
ĠLul ubum
ĠLul guak
Ġrel ations
Ġrel ieved
ĠDa agi
ĠDam dingirmu
Ġproc reated
Ġallot ment
Ġloan ed
Ġpersonnel s
Ġgrowing boasting
grand ly
Ġscratched ground
Ġscratched cracked
ĠNinhursag s
Ar chivist
Ar oused
Ar bit
Me an
Me ager
Me baragesi
Mes antum
Mes kalamdug
usu h
Ġtra verse
enn u
Ġpin pectoral
Ġpain ed
ĠEs ara
ĠSm lail
ĠLugaln amma
ĠLugaln idbae
ĠLugaln emur
ĠLugalem a
ĠPl ow
ĠPl owing
ĠPl oughs
Ġdrag s
Ġdrag ons
Ġterrif y
Iddin Dagn
ĠMarduk nir
NE e
Nig urum
Nig dupae
mil k
Ġes parto
Ġbell ied
Ġbell owed
Ġwish ing
Ġwinds wept
Ġlugal sap
Ġlugal nesag
ĠAma ki
ĠAma abz
ĠAma engurs
ĠGan un
ĠNinki ara
ĠNinki harsa
Ġunf avour
Ġexpl ain
Ġexpl icate
Ġtown s
Nink arke
boat builder
Reg ent
Sp eaks
net um
Ġtear ful
Ġaff irm
Ġren ewing
ĠUrG ula
ĠUrG ilgame
ĠUrG etinanka
Ġspeckled faced
Ġinsp ired
Ġcomplex foundation
Ġzab alum
Ġpurified set
Ġenclosu reat
Ġstretched out
Ġmalevolent destructive
kind ling
sc orpion
Ġmain tenance
Ġhit ch
Ġcall ing
Ġden izen
Ġdur allu
Ġpit ched
Ġpul se
Ġstop s
Ġ29 2
illi ance
Ġpres erved
ĠDingir mah
ĠDingir igidu
ĠDingir Mardu
ĠLugalm ea
ĠLugalnig barad
Ġgoods weet
Ġsmith s
ĠPuzur Suen
Ġdelight ed
Lugale bansa
Puzur il
Puzur Sn
Puzur Mama
Puzur Shara
Ex cess
Naram Suen
bu cket
che st
che cked
ric ot
rang ing
vot o
Ġtor ched
Ġtor rent
Ġfinger nail
Ġmas cara
Ġmix ing
Ġhaz el
Ġdistr icts
ĠUt us
ĠUt tu
ĠUt usaga
ĠUt ubae
ĠIm id
ĠIm iEnlil
ĠIm nia
ĠUrd ukuga
ĠUrd umuzida
ĠUrNin tu
ĠSag dana
akk um
ĠKA IGI
ĠKA TAB
Ġcompl icated
ĠDur ul
ĠDur gara
ĠBad Ir
Ġconvers ed
Ġconvers ations
should er
Ġassignment passage
Ġtrium phing
ĠEmut balum
Ġaccompl ishment
Sub ir
Sub mit
bara abzu
hil iba
Ġum me
Ġum bilical
Ġten th
Ġser ious
Ġwet lands
Ġwings feathers
Ġfet id
rejo iced
Ġdise ases
Ġgen ie
Ġgen ital
abi ku
Ġrender er
ĠUrl amma
ĠUrl umma
Ġgran aries
appro ved
Inim zi
chang ed
Ġdwellings itting
Ġfavour ably
Seal bearer
Ġrefuge es
Ġsubjug ated
Ġreveal ing
Ġmagnific ence
Ġmagnific ently
cle ver
cult ic
dec ided
Ġwa vers
Ġmur ky
rec ieved
Ġpat ient
Ġgal b
Ġnone theless
Ġstar ted
ĠUrg ula
ĠLamma a
ĠLamma amamu
ĠLama h
Ġarose was
Ġchick pea
ĠKas urra
Ġthrones rul
Ġtrap ezoid
ĠWom an
Ġpleasure allurest
Ġcompan ions
Ġmusicians singer
Ġexcess ively
Ġcaptain s
ĠNannam ea
Ġluxuri ance
Bel arik
Bel atsuner
Ki utu
Son inlaw
dem olished
dem arcated
hor se
right ening
ĠV izier
ĠV ineyard
Ġband aged
Ġcenter po
Ġdub la
Ġport ent
Ġgud ug
Ġgud abz
Ġgud apsm
ĠNE reed
ulg imuda
ĠUkun ut
ĠIgi egal
ĠIgi eala
Ġrev ive
Ġsilen ces
Ġsilen cing
ĠNinm ubanz
beer pouring
Ġexvot os
ĠBel ili
ĠBel arik
ĠBel atter
ĠMun ida
Ġcanopy roof
Ġneed ed
Ġoverfl owed
meas ure
meas uring
Ġcloud ed
Ġtrough bucket
Ġpreced ing
Ġdebt bearer
Ġancest or
Ġancest ral
Ġfuner al
Ġoppress ed
Ġsupplication prayers
Ġfully equipped
Ġzabardab official
bel ow
cont inually
dis z
dis approved
mo on
mo ist
mo ored
mat ure
Ġug ar
Ġuk ul
Ġsung od
Ġbad ly
Ġbone foot
Ġama ikur
Ġpa ittum
Ġpa umpriest
urz aran
imp osition
imp ortant
Ġstup id
Ġstruct ures
Ġstruct urest
ĠAw lama
ĠAss urnasirp
Ġarabdu official
Ġshad ows
Ġatam officials
Ġ38 98
ĠGuz um
Ġka GAN
ĠAnz agar
Ġvast ness
Ġflat tering
ĠBaz a
produ ction
ĠAdd amu
ĠAdd aya
ĠAdd atillati
Ġassist ance
Ġreddish furious
Ġcraft iness
Ġconveyed repaying
Ġoverwhelm s
Ġtravers ing
Ġenjoy ing
Ġenjoy able
Ap su
Ap isal
Ap ply
Mard a
Make prepare
faith fully
gather ing
jun ction
pet ual
Ġsem icirc
Ġpull ing
Ġgener ously
urg ara
amt imber
ĠAu wer
Ġarrog ant
Ġarrog antshy
Ġreck on
Ġreck ons
Ġsprink led
aping mouthed
Ġpract itioner
Ġval idates
Ġvict orious
Ġjourney s
ĠDu Urbartab
ĠDub laUtu
ĠMag urre
Ġproced ures
Ġalloc ation
Ġalloc ate
ĠPab ilga
Ġtrunk roots
Ġreturns answers
ĠAdda illat
Ġpleased rejoicing
Ġpenet rating
Ġwriting making
Ġexperien cing
Ed im
war p
war rior
Ġant el
Ġant imony
Ġfow l
Ġfact ory
Ġdraw ing
Ġge banda
ĠUrS ulpae
ĠUrS ukkal
ĠEnam tila
Ġ35 21
ĠGirini idab
Ġkil ldie
Ġvir gins
ĠDr Abu
ĠDay ya
Ġprosper ous
Ġloyal hearted
Ġemb ittered
Ġered ingir
Ġtram ple
Ġtram ples
Ġdisc ord
Ġsubs crip
Ġsubs istence
Ġcrushing grow
Ġconfron ts
Ġrebuild ing
Abu GAN
Ġpigs kins
Ġsteps double
Ġopp ose
Ġopp oses
const antly
respon sible
Ġthreshold s
Ġneighbor s
Ġsteadfast ly
Bl ood
Hum bly
Ut us
Ut tu
fill ing
iag Nanna
lion ess
wing ed
any thing
Ġsure ty
Ġfight ing
issu ed
Ġly res
Ġped astal
Ġrib cage
Ġrough ly
Ġrough ground
icating gathering
Ġstro king
Ġstro de
Ġarrang ement
esseng ers
Ġplaster ing
Ġmanu wood
Ġmanu fac
ĠGold en
ĠBa er
ĠBa aga
ĠBara Ilitappe
UrSuen a
Ġappe ased
ĠRim Sin
ĠRim Anum
ĠRim Snlam
Ġdiscover er
Ġdiscover ed
Ġzig iduhhum
Ġglor ification
Ġengender er
steadfast ly
ĠMunus kigal
Ġfugit ives
Ro aring
Ro amer
cons um
di kes
fo am
fav orite
wea ver
wea vers
Ġubi Feast
Ġsal tsumac
Ġcup board
Ġlac erate
Ġpac ified
Ġpac ifies
ĠEg ageua
ĠEg abura
ĠUre mu
ĠUre mah
ĠUre bara
ump u
Ġstud ents
ĠLam azatum
Ġarg anum
Ġarg uments
Ġrej ect
Ġreal ize
ĠEnn ail
ĠEnn ugi
ĠSet tingset
ĠKU ge
ĠKis urra
Ġbreasts nip
ĠDuk ug
ĠDuk uge
UrNin tu
Ġaccus atory
Ġerad icatinggathering
Ġerect ing
Ġusu al
Ġtreacher ous
Ġextens ively
ĠHouseof Heaven
ĠHouseof woman
ĠHouseof Day
Ġarah uma
Ġbuildings hrine
Add ada
Add ressing
Ġsitu ated
Ġsitu ations
Ġshow ed
ĠIddin Dagan
ĠIddin Erra
ĠIddin Dagn
Ġcrafts men
Ġsplendid ly
Ġconcern s
appropri ately
cultiv ation
Ġmurder ers
Perfect ing
ĠTidnum ites
AL si
Gr and
Ku Ninura
Mag ilum
Nind uba
Pr oud
Pr ayed
bat tering
foll owing
mid st
mult iplied
pur am
sip azi
tw in
tak ers
Ġbab ble
Ġwig allure
Ġmass acred
Ġhol es
Ġharm onious
Ġcirc le
Ġlullab ies
Ġdung bedding
Ġpill aged
adv iser
ĠEl ub
ĠEl aku
ĠNo ble
ĠUR tum
Ġsteal ing
ĠLum elam
ĠLue b
ĠLue gal
Ġarr ulabba
ĠEnmen una
Ġund ressed
Ġexam iner
ĠInd agara
Ġconc ord
Ġconc ept
Ġconc iliatory
ĠMalt feast
Urd un
Ġknot ting
Ġrob es
proper ly
Ġweigh s
ĠLuInanna ka
Ġblind ed
Ġextrem ities
Ġsubst ant
Ġsubmer ge
Ġsubmer ged
Ġsubmer gem
NannaSuen s
ĠAmur ru
ĠAmur Suen
ĠAmur rum
Ġfaceey es
Ġmulticol oured
door keeper
ĠIlum bani
ĠIlum bni
Ġdirect ing
Ġacquaint ance
Ġroofbe am
Ġroofbe amtimber
comm anded
ĠLugalmum anag
Ġfreely forget
ĠIpqu a
ĠIpqu Adda
Account ant
Ġsorrow wailing
Ġgnaw ing
Ġmortal s
Ġextingu ish
Da agi
Dad umu
Hab aluge
SZ UL
Tr ap
gre eting
iet y
lad der
pes znig
zag in
ĠY es
Ġket tledrum
Ġtit hes
inc ise
anim als
Ġbun ched
Ġfol k
Ġfang ed
Ġfix es
Ġmot ion
Ġla htan
Ġlance t
Ġder ision
Ġduck s
Ġpel ted
Ġpel ting
Ġpair ing
urtur as
Ġinf esting
Ġinf lamm
Ġrubbed polished
terr ace
Ġstair way
Ġonr ush
Ġrevol t
ĠEnmah galanna
ĠSe aleditems
Ġalg ame
Ġamid st
Ġexterior s
undul ating
Ġperpet ual
Ġempl oyed
uzi ana
Ġaggress ive
Ġdece ased
Ninh ursaga
Ġsmo oth
ĠPro tective
Ġfragr ant
Ġfragr ance
Ġfragr ances
tax es
ĠRe aches
Ġchew ed
Ġliter ally
elebr ation
Ġskipp ing
Ġcompet ition
Ġtransport ation
Sumu el
Ġentr ails
Ġhorse fly
Ġchoosing adorningtouching
Ġferment ation
Ġtrip ping
Ġinvest igated
Ġnecess ary
Ġsaddle hook
Ġobserved disapproved
Simat Etar
Ġinferior ity
Bir urtura
Bir urturas
Im gur
Open ing
Sur plus
big governor
dr agon
fr esh
fis heries
full ers
full body
kit ubia
ob stinancy
power ful
sup ported
Ġess ential
Ġtill er
Ġsap ar
Ġsap lings
Ġswell ed
Ġmag ic
Ġmag urum
Ġmak im
Ġmak ers
ilk bi
Ġgar mets
Ġgiri PAa
abu u
imdu a
ĠUg IL
ĠAbe u
ĠIrin ieku
Ġwithd rew
Ġwithd raw
Ġshut tle
Ġmet rolo
ĠSz ara
Ġgrab bed
Ġgrab bing
Ġki utag
usag dili
Ġchann els
Ġencl ose
ubani us
Ġpress er
Ġoutfl attens
ĠNingek imzi
Ġgrainhe aps
Ġvan quished
Ġflash flit
ĠDim atEnlil
Urg epar
perform er
prov isions
ĠLuG irizal
ĠLuG ebare
Ġcornel wood
ĠPA house
Ġclut ch
Ġclut ches
Ġsuck lilng
ĠErr abani
Ġcontr acts
Ġcontr actual
Ġarmed working
Ġdissemin ate
Ġdissemin ates
Ġmater ial
Ġmater nal
Ġartful ness
ĠSnm uballi
Ġgreet ed
Ġpurp ose
Ġcalc ulations
know ledge
Ġexert ion
Ġrecogn ise
Ġlieuten ants
Ġencirc ling
Ġobey ed
Ġprocession al
Ġexpert ise
Ġdumud aba
ĠNimgir ane
ĠNimgir inimgina
Ġnonex istence
contain er
ĠIbexof Abzu
ĠIbexof Apsu
Ġspadix es
AM KUnig
Az imua
Az aar
Car etaker
Com ing
Geme Ningal
Ig mil
Ibi Erram
Jun ior
Jun iper
Lub imu
Lub alasaga
Lamm asaga
Ne ither
Ne therworld
Nu umar
Pl atform
Sm all
Sil ently
Tablet basket
cool ness
dire cted
dire cts
gab atab
gab raherder
gud upriest
gud apsm
garm ent
garm ents
mas z
sw ears
till ers
tie th
zab ardab
Ġull at
Ġtug sag
Ġtight en
Ġov oid
Ġov icapr
aten ess
Ġfro st
Ġfib er
Ġfib ers
Ġmirror holder
Ġhay stack
Ġcelebr ated
Ġlint el
Ġlint els
Ġdedu cted
Ġaz bala
Ġpum ped
Ġpum ping
Ġgab IL
Ġgid i
Ġgid im
Ġind ifferent
Ġeme usuh
ĠEam ara
ĠNUN fish
ĠUd duru
Ġston ecutter
ĠIbni ulgi
ĠIgiz ubara
ĠIgiz igalana
ĠUren unna
ĠLamm asaga
Ġarzana flour
Ġremar ks
Ġremar ries
ipper y
ĠSec ure
ĠSec ond
ĠSIG a
ĠGiri araidab
ĠGiri Babaidab
ĠNinti uga
ĠNinurt anu
Ind agara
Ind asu
Ġwhir l
Ġunt iring
Ġflanks ofsheep
Ġjum ping
ĠBo atofHeaven
ĠBo otedoxen
ĠBil alama
ĠMu ki
Enmen ana
short fall
ĠLugalpirig turs
Itr ilum
Ġloin cloth
Ġbother ing
Any thing
ĠTram il
ĠTram Dagan
ĠTipak Inuinak
Nins un
Ġslack ening
Ġuw um
Ġuw awa
Ġtrad er
Ġtrad ers
Ġdesol ation
Ġdesol ate
Ġstrengthen ed
ĠZam ubanius
Ġsubdu ed
ĠAmm dit
ĠGemen igar
Ġcrimin al
Ġcrimin als
ĠGemeek are
ĠGemeek uga
Ġcourage ous
ĠGuugu a
ĠNigtuku inabdu
Ġwrest ling
Ġwrest ler
Ġentreat ies
subjug ated
subjug ator
Ġdemonstr ate
Ġprovision ed
Ġhurt with
Ġinnards heart
ĠNagar bi
comb ined
Ġbearded ness
Meskiag Nanna
Meskiag gaer
ĠKAL Lat
Ġcontempl ated
belong ing
Ġimproves beaut
Ġdeafness stup
Ġdeafness obstinancy
ĠLummag indu
ĠLummag irnunta
Ġalgars ur
Ġalgars ura
Ġdiffic ult
Ġinexhaust ible
Ġinexhaust iveness
Ac cumulated
Ak ak
Aur men
Ara ir
Aba Enlilgin
Amag inas
Bre wer
Burn ing
Cover ing
Cont ents
Dec ided
Dingir ma
Et arsirsir
Ekin ual
Emb odiment
Gu abba
Hala Baba
Ish biErra
KAn ara
Kae ala
Kurub Erra
Lq pum
Lumm atur
Mer chant
Mar rying
Pab ilsag
Power fule
Rit ually
Rep aid
Sig ri
Te am
Wor k
cap tain
cred ited
crim inal
hout chew
habit ual
list ened
sn akes
tend ons
zid guru
Ġsed iment
Ġsadu allot
Ġsoft ly
erep ly
Ġofs crubbed
Ġwed ding
enem y
Ġhug ged
Ġhana had
Ġcou rier
Ġcerv id
Ġlengthen ed
Ġaur aself
Ġagi ua
Ġakal wood
Ġpet ition
Ġpoverty execessive
Ġindu cing
abur ia
Ġforobs erving
ĠEsag ila
ĠNe therworld
ĠNorth Wind
ĠUB ARA
ofNin Arali
icer oy
icor ice
ĠAN BU
ĠAti Esag
ĠUrkun unas
ĠUrnin tu
ĠLun amtara
ĠLag ip
ĠLook out
Ġshred ding
Ġathlet e
Ġherb alist
ĠEnlilm assu
ĠGig una
ĠGaba a
ĠGagi ua
Ġgrape vine
Ġkug nuna
ĠNinimma imma
Ġenun ci
Ġoutset per
ĠAnn anee
ĠAnnun tum
ĠKark ar
char coal
Ġamelior ate
ĠDU DU
ĠDimp imekug
Ġconnect ing
ĠMessanga Unuga
UrS uana
ĠLugaleng ardu
ĠLugalEma e
Ġheadbund le
Ġmobil ization
Ġcarav ans
Ġburgi a
Ġresem ble
Ġadmin istered
Anun pa
ĠTuk ri
Ġdecept ively
provid ed
Ġscor ching
Ġscalp el
Enlile kiag
Ġblad der
Ġbless ings
ĠPer f
ĠPur usz
Ġclas p
Ġsla very
Ġtraps nare
ĠWill ow
ĠWell Being
defe ated
Asarl ui
ĠAbz ukidu
ĠAban isege
Ġdiss olved
Ġdissip ated
Ġsubtr action
Lugalm elam
Lugalsi NEe
ĠGemet ur
Ġpleasur erejoicing
Ġcomprehen s
Ġbeget ter
ĠNiggur ani
Ġapprent icep
Ġexclaim ed
Ġschoolboy s
Ġfarreach ing
ĠIdd aya
wheel ed
ĠEdar ilu
Insul ting
ĠStel ae
Ġegiz aga
Ġbenefic ent
Dumuzid abzu
Ġmudd led
Ġesz tub
Ġintrodu ced
Ġfrequ ented
Ġachie vement
ĠNimgird ine
Ġsweetlyb ending
Baban en
Ġinhab ited
Ġmiser ablereturn
Ġmiscar riage
Ġmisfort une
Ġecho ed
Utami aram
Ġaveng ereply
ĠBaraen idu
ĠKUMtu e
Ġilam za
Ġenvious watching
Ġofficer ofsix
incre ased
Ġpaired workmen
Ġperpetu ity
Ġdeliber ator
malts er
ĠBefore Emah
Ġdumudab alaborers
Ġtoggle pin
Ġthorough bred
ĠSIA a
Ġsweets melling
ĠConstructed wall
ĠComm and
ĠCattleherder ofNinArali
Ġauthoritat ively
ĠEmete ursag
Ġarchitr ave
ĠDaraabzu ofEnki
Ġneglig ent
exorcist incantation
Abe u
Cattle pen
Dir itum
Danu we
Ditches buri
Eer zidguru
Eig inimpae
Est abl
Emer y
Fill ing
Flo ating
Gay au
Getin ana
Gimil Marduk
Hom eless
Hire ling
IS ALsi
Ilam kurub
Irin abadbi
Kur bilak
Kub tum
Kings hip
Lit igant
Laugh ing
Lament ation
Mid day
Maid en
Muds pattered
Non precious
Nau a
Nurse maid
Ped dlar
Prow ling
Prev ious
Sk ull
Serv ile
Silim Utu
Tar ibu
Usa ara
Veget ation
Wadd ling
Wicked ness
Write incise
Zibb atum
burse ment
brew ing
counsel ed
del ight
dedic atd
disting uished
even ing
gil ima
hinn y
jeal ous
judg ments
liz ard
mater ial
midn ight
pun ting
past ured
prong ed
possess ions
pinu uni
sign un
tof rom
tribut e
wal ked
youth ful
Ġanted iluvian
Ġtro d
Ġtwe eting
Ġtib ubird
Ġtender ly
Ġopt imized
anake zu
Ġske leton
Ġsiny es
Ġsoured jealous
erhalt en
Ġofset tle
Ġbis ons
archit ect
Ġwif es
Ġwents tood
Ġfum igating
Ġfoun der
Ġfund ament
Ġfigh ters
Ġfruct ify
Ġmod el
Ġmut ilated
Ġment orsupervisor
Ġmatt ress
Ġmainst ay
Ġmiq tumperson
isht usu
onep ipew
asagn udi
Ġcust oms
Ġcrust acean
Ġcrev ice
Ġcudg el
Ġlub ir
Ġdomin ion
andanu unga
Ġaeg is
Ġaank ar
Ġpome gran
Ġphr ase
Ġgad amah
Ġgolds mith
Ġgirin hiliba
Ġgatep ost
legi ancesense
Ġnirig i
Ġforear m
Ġforfe it
Ġforres ters
Ġfornic ator
thud ding
idinn am
Ġeec elebration
Ġeef estival
Ġepon ymy
Ġebb ed
Ġthous and
Ġthinsp read
ĠEsh nunna
ĠEme urur
ĠEek ite
ĠEgan kalama
ĠEuse ga
ĠEIri kug
ĠETUnig aana
ĠNAG ARBI
Ġric hes
Ġraf t
ĠUnd aga
ĠUgig a
ĠUbart utu
umush da
ofGarana woods
Ġstamped ing
allus asa
ĠAbar num
ĠIbl pEl
ĠIamadi umites
ĠUrkig ula
ĠUrnun taea
Ġrevers ed
Ġreplendent ly
Ġsequ ester
Ġwithcorp oreally
Ġmete oric
Ġgoss ip
ĠSch mied
ĠShip yard
ĠSami um
ĠScat tering
ĠGang ir
Ġksu reeds
Ġanzug ulme
Ġasso ciated
Ġupone xerted
ĠNinub ura
ĠNinib tae
ĠNinDa Lagash
ĠNinNag su
ĠNinesir kiag
Ġenergi es
Ġorman ment
ĠAndab si
ĠAnarAn u
ĠAnahe pat
Ġabib im
Ġabomin ation
Ġabrog ated
Ġaltirig u
ĠKau f
ĠKams ala
ĠKunum kitubia
ĠKanes z
chari otry
Ġunnot iced
Ġunsc athed
Ġuncontrol lable
ĠunuRI banda
Ġamass ed
Ġammur pinuuni
Ġcompen s
Ġexhum es
Ġpebb les
Ġveter ans
Ġvangu ard
Ġflutesp ipes
Ġjewell ery
ĠDistr ict
ĠDilim barbar
ĠDubl autu
ĠDulum idu
ĠBrother s
ĠBIBI ana
Ġconting ents
Ġcondu cted
ĠMeen kar
ĠMuti abal
ĠMiszsz urabi
ĠMowdown amyriad
Enme baragesi
Engar zi
EnNane kiag
Ensip adziana
Ġproxim ity
Ġnoct urnal
ĠHuh nuri
ĠHAR AL
ĠHibar itum
Ġmountainfore ign
Ġheartgl addening
ukalet uda
ĠLugalbar abe
ĠLugalkin edudu
ĠLugalnam tare
ĠLugalsulu u
Ġhandcuff s
Ġheadress pectoral
Ġovercom es
Ġboasto verly
Ġorderseff ects
Ġadministr ative
Ġadvers ary
ĠTai atal
ĠTeum man
ĠTumuh ursag
Ġembank ment
Ġchildcitiz en
Ġawayprofound undulating
veget able
Ġsmother ed
arsrosett es
profession al
Ġcanalinspect or
Ġlamentvoc alization
Ġestrang ed
ĠFierc ely
ĠPrec ious
ĠPray er
ĠPoplar planted
Sntak lku
Snimit t
Ġsucc ess
ĠErba Marduk
Ġunderta king
Ġbitterpain ful
Ġeyeturn er
Ġeyeroll er
Ġimmen se
Ġimmed iately
Ġchildrenjunior s
Ġchildrenatits side
Ġestablishedmain tained
atingeffect ing
Ġlapisbl ue
ĠRele ase
ĠRadi ance
ĠRender ing
ĠReb el
ĠRigmud n
Ġdisint eg
Ġdisarr ayed
ĠZurz ur
Ġstonegr inding
Ġbackouts ide
Ġcheesep ot
LugalKA NE
Lugalkis una
Lugalpirig tur
Ġcorrid or
Ġknowledg able
Ġbirdhun ters
Ġriverban ks
Ġwellanch ored
Ġsneers houtchew
Ġelicit ing
ĠAddab ani
Ġentertain ment
Ġdemond isease
ĠAlph abet
ĠAlumid d
Ġcresc ents
Ġsevencorn er
Ġforthcom ing
Ġassert ory
Ġobfusc ate
Ġsonghy mn
Ġsongsinstrum ents
Ġinterpre t
Ġintercour se
Ġintercal ary
ĠKiarAn tu
Ġcouncel or
Ġtopicsvocab ularies
Ġaxesag ricultural
Ġhairsty le
Ġfeardis dain
Ġdustwre aking
Ġclaycar nelian
porcup ine
Ġparalle l
Ġcohor ts
ĠPuzrish Dagan
Ġsaltpet re
ĠBabatur su
Strang ers
Ġreleasepl oughmen
Ġbuildingfunction ary
Ġthicktri plicate
Ġreconcili ation
Ġsycam ore
Ġdoubleleag ues
Ġwombmat rix
ĠEdik udata
confron ted
Ġsustainfin ish
guarant or
Ġcontrolsuper imposition
ĠMaganarrum a
Ġmoundcr acks
Ġholdscat ches
Arbit uram
Ġlugalsap ar
ĠAmaengurs i
Ġunfavour able
ĠLugalnigbarad ug
Excess ive
Ġcomplicated thudding
ĠBadIr ina
Ġgenital ia
Ġthronesrul ers
Ġpleasureallurest arsrosettes
Ġcenterpo int
Ġgudabz m
ĠNinmubanz ige
ĠBelatter aban
Ġstructurest onepipew
ĠAssurnasirp al
Ġsubscrip ted
Ġcrushinggrow ling
Ġmanufac tured
ĠRimSnlam assau
Ġbreastsnip ples
ĠElaku qir
Ġsubmergem ake
Ġfreelyforget fully
pesznig gilima
Ġinflamm atory
Ġmetrolo gical
AMKUnig gena
IbiErram lik
Ġovicapr ids
ĠAmmdit na
ĠKALLat arak
Ġimprovesbeaut ifies
Ġdeafnessstup idity
Powerfule xalted
Ġsaduallot ment
Ġenunci atingeffecting
Ġapprenticep urse
Ġofficerofsix ty
Ditchesburi al
Ġstructurestonepipew ater
