) 2801597
( 2801596
disz 1408989
1 998379
{ 886392
} 886392
2 606565
d 563255
u 450544
3 435243
ki 324704
5 301482
sila3 283899
4 246015
asz 240914
ban2 233182
... 226308
mu 201577
barig 180343
iti 161348
gin2 152349
gur 140737
u4 136133
gesz2 131369
ur- 130272
dumu 126518
x 116782
/ 116206
gesz 111610
udu 110413
szunigin 102311
6 101058
kasz 99809
-kam 98326
sze 91299
lugal 87372
ninda 84932
kiszib3 83888
8 65199
7 63943
gurusz 63178
suen 59412
szu 57072
gu4 56874
lu2- 56849
i3 56247
dub-sar 55278
-sze3 53447
niga 53071
ugula 51143
giri3 50145
ba-hul 50100
lu2 48369
sila4 47478
szum2 47327
ma-na 44317
GAN2 43953
tug2 43590
iku 43257
a-sza3 40611
| 38925
ba-ti 38439
la2 37957
-ta 37645
szu- 37462
masz2 36795
sza3 36465
us2-sa 35035
e2 34502
naga 33357
' 33242
n 31937
saga 30154
en 29905
i3-dab5 29236
u3 27292
du 26772
szara2 26107
ba-ba6 25626
zi3 25597
ezem- 25543
gi 25479
DU 25291
9 24654
gu2 24106
sa 24096
mu-kux 23800
ba-hun 23751
ma2 23504
u2 22487
zi-ga 22364
geme2 21838
bur3 21568
inanna 21403
us2 21355
a2 20718
nanna 20594
$ 20575
esze3 20167
uri5 18900
sze-bi 18633
a-ra2 18409
u8 18247
ensi2 18066
ab2 17937
siki 17716
kusz 17337
la2-ia3 17085
sar 17020
engar 16790
szul-gi 16276
ga 16045
gar 15474
ku6 15441
dug 15159
amar- 14976
gub-ba 14832
masz2-gal 14633
ba-zi 14547
ki-masz 14507
sukkal 13988
maszkim 13849
dabin 13722
ba-du3 13645
sze-sag11-ku5 13584
ur-nigar 12749
ud5 12649
ba-usz2 12430
dida 12107
sa2-du11 12017
bad3 11877
en-lil2-la2 11786
hi-a 11380
ansze 11186
mar-tu 11089
igi 10888
en-lil2 10853
dumu-zi 10715
i3-gesz 10672
ki-la2-bi 10665
amar 10633
nu-banda3 10548
umma 10429
ku3-babbar 10417
id-gur2 10352
blank 10238
utu 10210
space 10190
szesz-kal-la 10041
ur-mes 9683
a2-bi 9551
nin-a-zu 9532
lu2-dingir-ra 9375
gigir 9374
en-ki 9371
sar-ta 9365
lugal-e 9247
a-kal-la 9214
diri 9067
sza3-gal 9051
sag 9043
munus 9001
kin-gi4-a 8880
nin-szubur 8864
lamma 8686
sze-ba 8681
eridu 8659
szul-pa-e3 8564
a 8557
lu2-kal-la 8546
li9-si4 8501
-ma-ke4 8420
szabra 8270
-ma 8252
erin2 8219
ku3 8204
ba-zal 8178
uruda 8167
si-mu-ru-um 8163
bala-a 8037
ab-ba-sa6-ga-ta 8008
sza3-bi-ta 8001
ba-ab-du8 7993
ziz2 7981
sila3-ta 7860
zu2-lum 7820
usz-bar 7812
nansze 7783
hun-ga2 7732
iszkur 7715
ur-bi2-lum 7644
mu-hul 7561
sipa 7555
ARAD2 7301
i7 7205
nin-gir2-su 7142
szar2 7120
i-bi2- 7072
unu 6989
si-ma-num2 6931
ARAD2-zu 6924
nibru 6916
mu-du3 6869
ak 6836
kas4 6812
guz-za 6748
gu-za 6616
szu-numun 6556
zi3-gu 6549
i3-pa3 6539
udu-nita2 6489
gen-na 6458
ku3-bi 6430
lugal- 6430
kiri6 6397
muszen 6295
szu-gid2 6271
i3-dub 6210
su-ga 6135
geme2- 6121
en-unu6-gal 6084
dumu-ni 6058
du-ni 5990
tu7 5984
sanga 5980
szusz3 5829
nu-banda3-gu4 5801
ARAD2-mu 5789
inim- 5776
ba-dim2 5750
duh 5748
nig2-lam2 5701
kal-ga 5686
sig15 5677
asz2-gar3 5660
ma-da 5632
bur 5573
lugal-e2-mah-e 5533
-am3 5531
-a 5378
szitim 5353
a2-ki-ti 5331
-ka 5273
gu4-gesz 5239
esza 5218
al 5216
ezem-mah 5194
ensi2-ka 5168
sagi 5146
ig-alim 5136
da-da 5109
kir11 5082
gukkal 4984
gal 4971
bala 4964
isztaran 4887
da 4868
siskur2 4859
kusz3 4831
esir2 4804
aga3-us2 4784
gub-ba-am3 4778
x- 4775
limmu2-ba 4744
dam 4715
ka 4712
usz2 4689
lugal-ezem 4680
a-tu 4676
ug3-IL2 4618
hu-uh2-nu-ri 4555
lu2-du10-ga 4554
dur3 4544
an-ub-da 4535
ezem-an-na 4487
nig2-ka9-ak 4468
nin-mar 4454
-gal2 4443
dumu-ni-me 4402
gid2-da 4386
ba-an-ti 4368
lugal-ku3-zu 4348
a-a-kal-la 4276
ur5-ra 4271
ge6 4249
za-ab-sza-li 4248
ur-sa6-ga 4237
da-gan 4227
an-sza-an 4223
kuruszda 4132
si-ga 4123
i3-nun 4121
, 4116
na4 4116
puzur4- 4113
nu-ur2- 4077
masz2-e 4005
gudu4 4003
nesag 3983
dal 3918
sza-asz-ru 3896
e2-iti-6 3893
@ 3884
na-gada 3863
a-lum 3840
ab2-mah2 3819
nig2-ar3-ra 3815
tukul 3770
ki-su7 3764
du11-ga 3760
nin-lil2 3751
a-ru-a 3734
-ra 3717
gu-la 3715
nig2 3708
szuszin 3700
nin-gesz-zi-da 3693
bar-gal2 3690
gid2 3679
sza3-gu4 3679
ezem-me-ki-gal2 3623
masz-da3-gu7 3618
na-ru2-a-mah 3600
masz-da3 3595
kar-zi-da 3575
nun-gal 3567
ma2-gur8-mah 3561
en-mah-gal-an-na 3531
ku3-sig17 3525
muhaldim 3515
e2-muhaldim 3474
szar3 3463
KWU147 3461
ha-ar-szi 3451
ki-siki- 3450
ses-da-gu7 3434
gir2-su 3401
e2-gal 3369
sahar 3352
GAN2-ta 3344
elam 3343
zi-ga-am3 3336
nita 3334
tur 3332
nin-lil2-ra 3325
im 3318
ur-e11-e 3300
u5-bi2-gu7 3290
ARAD2- 3274
ba-a-gar 3268
lugal-ma2-gur8-re 3250
SIG7-a 3236
lu2-giri17-zal 3225
hu-hu-nu-ri 3208
kin 3203
-ga 3188
nin-ur4-ra 3185
pa4-u2-e 3180
gurum2 3167
e 3157
min-esz3 3130
masz 3128
ug3 3105
ugu2 3105
gu4-e-us2-sa 3060
us2-sa-bi 3050
bar 3041
nam-ha-ni 3028
nu 3025
ma-nu 2981
x-x 2947
zabar 2940
su-su 2928
amar-a-a-si 2922
gada 2920
-kam-asz 2885
szuku 2857
. 2842
ma2-a 2839
dam-gar3 2837
szara2-kam 2821
gig 2820
lu2-gi-na 2810
masz-e 2790
-me 2785
du10-ga 2774
SZIM 2759
ab-ba-gi-na 2759
-@@ 2757
na-ru2-a 2755
lugal-nig2-lagar-e 2748
SZE.KIN 2747
im-gen-na-a 2743
szimaszgi 2723
lugal-a2-zi-da 2715
al-la 2701
ga6-ga2 2686
da-mu 2681
lugal-nesag-e 2648
ku3- 2643
gu3-de2-a 2637
i3-kal-la 2634
a-da-lal3 2621
in-ta-e3-a 2610
tab-ba 2610
gaba 2605
iri 2605
hu-ur5-ti 2602
gin2-ta 2598
szesz-a-ni 2592
ur3-ra 2588
kur 2585
lu-lu-bu 2583
da-da-ga 2579
unu3 2579
lugal-ku3-ga-ni 2571
munu4-gu7 2565
GAN2-gu4 2557
ga-esz 2557
nig2- 2538
ri-ri-ga 2531
gaba-ri 2530
na-ba-sa6 2529
ARAD2-ta 2522
szesz 2502
sza3-iri 2494
su3 2492
KA 2483
szul-gi-iri-mu 2476
lu2-dingir-ra-ta 2474
didli 2460
szu-esz5-sza 2457
szu-gi4 2431
lagasz 2425
lugal-iti-da 2424
gu-nigin2-ba 2418
zah3 2403
szunigin2 2398
kux 2397
nin- 2389
lu2-sa6-ga 2373
inim 2359
kid 2354
masz2-nita2 2351
szu-esz18-dar 2344
mu-szu-du7 2340
sig4- 2337
sze-il2-la 2330
an 2327
lugal-he2-gal2 2323
szul-gi-ra 2323
zabar-dab5 2321
ur-dun 2320
apin 2302
kaskal-sze3 2283
lugal-sze3 2277
azlag2 2276
a-pi4-sal4 2271
zi 2268
x-@@ 2261
i3-gal2 2260
guru7 2250
kunga2 2221
puzur4-isz- 2214
ba 2205
dumu-munus 2201
si 2192
ad-da 2186
ur-nig2 2184
numun 2182
duru5 2177
nar 2168
sze-ta 2155
kaskal 2150
ra2-gaba 2148
la2-ia3-am3 2135
sig4 2119
kiszi17 2115
e2-muhaldim-sze3 2107
lugal-inim-gi-na 2104
mu-ne-du3 2102
sze-kar-ra-gal2-la 2086
had2 2079
dumu-zi-da 2059
KU 2050
e3-a 2048
haszhur 2048
na-lu5-ta 2048
e2-duru5 2043
kab2-ku5 2035
ma2-lah5 2025
giri3-se3-ga 2024
nig2-u2-rum 2022
aszgab 2017
a-gu-ta 2013
gu 2010
kiszib3-bi 2010
ab-ba 2004
siki-gi 1988
ezem 1986
ur-lugal 1981
ma2-dara3-abzu 1976
gar-ra 1975
SIG7 1973
sa-ta 1970
- 1958
su-su-dam 1956
kur-ra 1953
a-hu-ni 1952
x. 1951
ur-ku3-nun-na 1950
szuku-ra 1948
muru13 1943
nu-tuku 1937
szul-pa-e3-ta 1934
nagar 1933
bar-su-ga 1932
gub 1917
iszkur-illat-ta 1916
du3-a 1914
nu- 1914
nig2-dab5 1902
har 1901
sumun 1887
a-hu-wa-qar 1882
gi-zi 1882
gurx 1876
nin-tu 1874
in-ta-e3-a-ta 1873
NE 1859
ba-ra-zal 1852
GAN2-masz 1845
-ke4 1835
de6-a 1833
sze-numun 1832
gazi 1830
lu2-@@ 1824
tu-ra 1822
s 1820
hi 1816
sza13-dub-ba 1815
AN 1811
i3-du8 1811
+ 1798
sza3-du10 1797
na-lu5 1789
szu-esz-sza 1785
pesz3 1784
ku3-ga-ni 1777
babbar 1776
gaba-asz 1772
iti-ta 1770
zar3 1770
szah2 1765
usz-mu 1765
ma-an-szum2 1761
dub-dub 1757
ga2-nun 1755
mu-ri-iq-ti-id-ni-im 1751
ku5-ra2 1750
me 1744
u3-suh5 1744
erin2-na-bi 1740
libir-am3 1738
du-du 1737
e2-ba-an 1735
ku-li 1728
gesztin 1720
sza-asz-ru-um 1718
a-da 1717
tukul-gu-la 1717
dumu-nita2 1715
sza3-ku3-ge 1715
dub 1714
nam-sza3-tam 1713
sukkal-mah 1702
ba-zi-ta 1695
si-i3-tum 1695
nam-mah 1694
lunga 1687
na-silim 1680
kun-zi-da 1678
kusz3-ta 1676
nigar 1674
nam 1672
mu-ne-dim2 1671
e2-uz-ga 1667
dab5-ba 1653
nin-sun2 1651
nin-urta 1645
sza 1644
esz3 1641
: 1629
-x 1627
gigir-re 1626
e2-gal-la 1624
u3-ma-ni 1615
gu2-ab-ba 1612
igi-6 1603
iszkur-illat 1600
gesz-ur3-ra 1597
gu-za-la2 1595
ba-ba6-ta 1594
mug 1585
mah 1582
gal2-la 1579
ha-ia3 1576
nin-hur-sag 1576
szara2-ta 1576
kikken2 1566
gibil 1565
-ki-du10 1559
dingir-ra 1554
lugal-sa6-ga 1554
i7-pa-e3 1550
dingir-ba-ni 1549
e2-@@ 1549
lugal-ta 1540
ab-ba-sa6-ga 1531
munu4 1531
szesz-kal-la-ta 1527
nisaba 1525
kas 1518
us2-sa-a-bi 1515
ma-mi 1509
-bi 1498
u4-sakar 1490
nu-ur2-i3-li2 1487
na-sa6-ta 1486
bar-dul5 1485
ASZxDISZ 1484
nin 1478
ad-kup4 1476
gesz-du3 1473
ka5-a-mu 1466
szu-ku6 1464
ba-an-kux 1461
tusz-a 1458
ur-sukkal 1456
me- 1454
ga-ar3 1452
ba-al-la 1449
ba-sa6 1448
ab-ba-kal-la 1445
pisan-dub-ba 1437
zex 1437
e2-a 1434
gu-du-du 1432
ZI 1429
szu-i3-li2 1428
da-a-ga 1426
gar-sza-an-na 1425
lugal-e-ba-an-sa6 1421
lu2-kal-la-ta 1415
gu-u2-gu-a 1413
mu-na-du3 1412
nin-@@ 1410
su-ba 1409
sila4-nita2 1404
ga2-ga2 1403
ka-ma-ri2 1402
a-ab-ba 1400
szu-ma-ma 1399
an-na 1397
na-sa6 1397
ur-szu-ga-lam-ma 1394
lu2-eb-gal 1387
ra 1385
tir 1384
ur-ge6-par4 1381
za3-mu 1377
ur-e2-an-na 1373
szu-nigin2 1372
ha-bu3-da 1370
-na 1366
lugal-@@ 1364
bala-bi 1363
nig2-ka9 1363
pisan 1362
tak4-a 1357
ur-@@ 1357
hur-sag 1351
sa10-a 1349
E2-A 1342
simug 1335
ba-ba 1334
gur10 1323
dagal 1322
szagina 1322
zi3-da 1319
a-kal-la-ta 1314
ki-la2 1314
imgaga3 1313
lu2-sa6-i3-zu 1312
dingir 1310
lu2-bala-sa6-ga 1309
babbar2 1308
ab-ba-mu 1307
a-@@ 1305
gaz 1303
hu-wa-wa 1297
na 1295
puzur4-da-gan 1290
lugal-bi 1288
szesz-tab-ba 1287
i3-szah2 1281
g-gal 1280
la2-a 1279
he2-dab5 1273
ku5-a 1271
gala 1268
pa 1264
gaba-ta 1260
tum-ma-al 1253
tag-ga 1251
ukken-ne2 1251
kur2 1250
giri3-ni-i3-sa6 1249
gu4-ra2-bi2-mu2-mu2 1247
szara2-a-mu 1247
igi-3 1246
me-ki-gal2 1242
u-bar 1242
lu2-bala-saga 1239
ur-dingir-ra 1234
igi-4 1231
ba-ab-ti 1230
gur-ra 1230
sa12-du5 1226
ugu2-a 1223
zu2-lum-bi 1223
du8-a 1222
giri3-ni 1214
a-gu 1209
ur-ab-ba 1206
uz-tur 1200
siki-ud5 1199
a-dara4 1198
lu2-sza-lim 1198
ig 1195
gun3-a 1191
ga2 1190
uru11 1186
lu2-banda3 1185
ur-am3-ma 1183
siki-bi 1182
e2-gal-e-si 1181
hendur-sag 1179
ti-a 1178
NI 1175
kesz2-ra2 1172
esz3-esz3 1165
sze-lu2 1162
-ra-ta 1157
kar2-har 1154
bi2-du11-ga 1152
ama 1149
sza3-ga-du3 1148
in-pa3 1147
szu-@@ 1143
gu7-a 1142
sa10 1142
bad3-gal 1140
szu-i 1136
la2-mah 1134
di 1133
sza-asz-szu2-ru-um 1127
ad6 1125
zu 1119
ka-guru7 1118
nin-dar-a 1118
lu2-ga 1115
ba-ur4 1104
gu2-na 1102
lu2-uru11 1101
sza3-ba 1100
-e 1098
ba-gen-na-a 1098
a-szar2 1096
ma-na-ta 1095
gir 1092
na-ra-am-i3-li2 1091
ninda-ta 1090
gur-ta 1087
puzur4-esz18-dar 1086
a-hu-a 1085
zi3-sig15 1085
KI.AN 1083
& 1080
guru7-a 1072
mer 1072
nanna-ta 1072
a-zu 1070
szara2-kam-ta 1066
tur-tur 1064
ur-e2-mah 1064
mar-sa 1063
ur-e2-ninnu 1063
a-gu-gu 1062
gurdub 1060
gi-na 1059
nu-@@ 1057
suen-ta 1056
gu-nigin2 1055
bi 1053
lu2-me-lam2 1053
lu-lu-bu-um 1050
sag-nig2-gur11-ra-kam 1050
x-ta 1050
ba-@@ 1046
szimaszgi2 1046
asznan 1042
sa-bu-um 1041
szim 1041
ke4 1039
% 1031
gu2-gal 1031
BAD3.AN 1030
nanna-ma-ba 1026
se3-ga 1026
i3-@@ 1025
ASZ 1021
igi- 1018
sze3 1018
x-x-x 1016
za3 1016
erin2-na 1015
dusu2-nita2 1012
al-la-mu 1009
nig2-gal2-la 1005
gesz-bar-e3 1003
ki-a-nag 1003
mun 1003
ad-da-kal-la 1001
szar 999
na-gab2-tum 997
si-sa2 995
an-ne2 994
gu2-edin-na 993
masz-da3-nita2 992
geszimmar 991
ma 986
ur-bad3-tibirx 986
im-e 984
szu-er3-ra 982
nu-musz-da 981
aga3-us2-e-ne-sze3 980
en-lil2-la2-ta 979
ur-ba-gara2 976
ba-tab 975
a-du 974
bu 972
nigin6 972
za 971
KWU636 970
KUM 969
utu-bar-ra 969
ku4-ra 968
im-e-re-sza-a 967
szul-gi-a-a-mu 967
szul-gi-i3-li2 964
ka-guru7-ta 963
lu2-saga 962
lugal-me-lam2 960
gu2-tar 958
ad3 957
duh-hu-um 957
ur-tur 956
hal 954
dumu-lugal 953
ti 952
a-lu5-lu5 949
a- 943
nin-gal 942
um-mi-a 941
nansze-GIR2 938
SZID 937
ur2 936
kal 935
a-lu5-lu5-ta 934
g 932
nig2-@@ 932
sze-sag11-ku5-ta 932
ur-mes-ta 932
kar 930
ad7 924
szar2-ra-ab-du 924
az 923
anzu2 919
nig2-ba 919
ur3 916
n-kam 915
en-nu 912
ki-@@ 910
lugal-pa-e3 909
ga2-tum3-du10 908
nansze-ta 908
gazx 907
e2-kiszib3-ba 905
ur 904
u3-tu-da 903
da-da-a 902
en-ig-gal 901
szum2-sikil 901
a-sza3-ga 900
su4-an-na 900
til-la 900
aga3-us2-gal 898
dusu 896
en-du8-du 890
gu7 890
ta 890
nu2-a 883
du6-ku3 878
a-ba- 873
tu 873
gi4 872
lu2-inim-ma-bi-me 872
gesz-ur3 870
ha-ba-lu5-ge2 868
szara2-sze3 866
alan 865
gal-gal 864
e3 863
i-di3- 861
en-ki-ka 860
am 859
a-du-mu 857
dusu2-munus 854
szesz-da-da 854
utu-mu 854
ma-la-ku 851
e2- 849
ma2-gur8 849
ni 849
asal2 847
du10 847
dur3-gesz 847
szu-nir 845
kun 844
nigin2 844
esz2 843
gi4-a 843
lugal-banda3 842
ba-e-re-sza-a 840
x-sze3 839
murgu2 838
ma-an-sim 836
a-dam-szah2 835
nig2-gur11 835
da-@@ 834
ur-ku3-nun-na-ta 834
ga2-ra 832
szu-kab-ta2 832
x-x-@@ 832
sza3-su3 831
a2-zi-da 828
igi-ma-sze3 827
a-na 826
ur3-bar-tab 826
kin2 825
a-bu-ni 824
ma2-gur8-re 821
ar-szi-ah 820
uru4-a 818
de2-a 817
bara2 816
szandana 816
nam-@@ 815
u4-da 815
= 814
egir 814
e2-gal-sze3 813
pa3-da 813
ri-ri-ga-am3 813
da-a-a 812
mu-@@ 810
gesz-i3 809
ba-a 808
lu2-usz-gi-na 808
gilgamesx 804
gu4-numun 804
x-kam 804
ar 803
du-ta 803
ku5-da 802
lu2-gu-la 802
du6 799
bar-si 797
ka5-a 795
gu3 794
ur-sag 794
adab 793
puzur4-a-ku-um 790
sal4-la 790
ba-a-hun 787
ur-e2-nun-na 785
ga2-ga2-dam 784
usz-mu-ta 784
giri3-lam 783
gurusz-e 781
masz-da3-munus 781
husz-a 778
lugal-ur2-ra-ni 778
-da 777
na-na-a 775
szusz3- 775
e2-kikken-ta 773
tuku 770
nam-zi-tar-ra 769
du11-ga-zi-da 768
ka2 768
saggal 768
igi-kar2 767
mu-un-@@ 765
du11-ga-ta 764
BIL3.GA.MES 759
tukum-bi 759
szu-a 757
e-lu-usz- 755
ki-ag2-ga2-ni 755
ki-nu-nir 755
sa12-du5-ka 755
e2-kiszib3-ba-sze3 753
mur-gu4 752
nin-kar-ke3 752
ur-saga 752
eme6 751
da-du-mu 748
szara2-ka 748
ku5 746
ki-ag2 743
bar-ra 742
min 741
szara2-za-me 741
a2-bi2-li2-a 740
bi2-gu7-bi 740
iti-da 740
kam 738
ip-qu2-sza 736
suen-ra-ki-ag2 736
tu-gur4 735
dingir-dan 734
ur-gi7 734
e-@@ 733
tug2-gurx 733
lugal-ukken-ne2 732
nun 731
inim-ma-ni-zi 729
tug2-du8 728
du10-gan 725
in-la2 724
iszib 723
nin-dingir 723
saga-ta 723
suhub2 723
ur-gu-la 723
ur-ki-gu-la 723
a-sza3-ge 722
diri-ga 722
za-gin3 721
ba-hun-ga2 719
bala-sze3 717
szer7-ru-um 717
ki-be2 715
kasz-de2-a 714
ki-ba 714
siki-ba 714
sze-gesz-i3 712
e2-kikken 711
nin-lil2-la2 710
e2-udu 709
gin7 709
nusku 709
puzur4-ma-ma 709
im-@@ 708
nanna-sze3 708
sa6-ga 708
ar-za-na 707
im-babbar2 706
sza3-tam 706
szar-ru-um-i3-li2 705
ba-zi-ge 703
si-du3 702
abzu 701
geme2-@@ 701
ma-asz2 701
udu-gal 701
-gu7 700
en-um-i3-li2 697
u2-hab2 697
u3-@@ 695
u3-na-a-du11 695
gag 694
szinig 693
nin-su 692
nu-ur4 692
ur-e11-e-ta 692
apin-la2 691
dalla 689
ki-siki 688
gid2-bi 687
lal3 687
e-sir2 685
dih3 684
gu-du-du-ta 684
sag-@@ 684
du8 683
su 683
da-a-gi4 682
szul-gi-a-a-mu-ta 682
ur5-sze3 682
dumu-zi-sze3 681
ba-du3-a 680
lu2-igi-sa6-sa6 680
lugal-uszur4 678
ne 678
ra-gaba 678
i3-szub-ba-gar 677
nam2-an-ka 677
a-bu-du10 676
en-@@ 675
szabra-ta 675
gamun2 674
PA 673
gu2-tur 672
lugal-iri-da 672
si-e3 672
ga-@@ 671
in-sa6-sa6 671
sza3-bi 671
ur-zu 671
du3 669
ga-UD 669
e2-gal-ta 668
mun-gazi 667
ku6-sze6 666
ur-ab-ba-ta 666
a-bi2-a 664
agrig 664
u5-bi2 664
im-ti-dam 663
ir7 663
i3-kal-la-ta 662
tu-ra-am-i3-li2 662
nin-gir2-su-ta 661
i3-bi 660
UD 659
PAP 658
ba-la2 657
dusu2 655
ge6-par4 655
ki-su7-ra 655
i-@@ 654
sze-sag11-ku5-sze3 653
er3-ra-ba-ni 652
lugal-amar-ku3 650
szeg9-bar 650
nu-ub-tuku 649
ab-ba-saga 646
ur-bi2-i3-lum 646
in-@@ 645
u2-@@ 643
um 643
a-a 642
gurusz-bi 641
gal2 639
la 639
a-hu-du10 637
tul2-ta 637
nin-ti2-ug5-ga 636
iri-sa12-rig7 635
ka-@@ 635
mu-ni 635
gir2 634
ma-@@ 633
he2-@@ 631
na-@@ 630
hu-bu7 629
i7-da 628
asz-a 626
nanna-kam 626
lugal-sza3-la2 625
sa2 624
sza3-@@ 624
a-da-ga 622
nir-i3-da-gal2 622
a-ga2-la2 621
nin-mug 620
ab 619
e2-ninnu 619
ba-a-ga 618
zabala3 618
hu-la-al 617
igi-@@ 616
nin-szubur-ta 614
ub-da 614
ba-gara2 613
er3-ra 612
zal-la 612
a-hu-we-er-ta 610
lugal-ka 609
-ma-ra 608
kin- 607
ma2-la2-a 607
-kam-ma 606
ga2-ga2-de3 605
ma-ni 605
urua 605
da-da-ga-ta 604
lugal-u2-szim-e 604
a-gu-a 603
ninda-bi 603
nu-a 603
dingir-re-ne 602
szesz-szesz 602
am3 601
i-din- 601
sag-bi 598
kun-zi 597
AB 595
a2-@@ 595
ba-ba-ti 595
banszur 594
sahar-ba 594
asalx 593
la2-tur 593
lu2-gi-na-ta 592
ur-sag-ub3 591
a-szi-an 590
nanna-a 590
szu-e2-a 590
a-ta 589
ba-sa6-ga 589
en-du8-du-ta 589
-x-@@ 587
b 587
ensi2-ta 587
ur-gu 587
la-na 586
nigin-ba 586
utu-ta 586
LAL2.TUG2 585
ba-an-@@ 585
e2-mah 585
ni2 582
U8 581
ur3-re-ba-du7 581
lugal-nir 576
uzu 576
li9-si4-ta 573
gesz-sze3 572
lugal-igi-husz 572
szum2-ma 572
tug2-ba 571
ur-zigum-ma 571
za-@@ 571
nita2 570
ba-a-a 569
gu2-@@ 568
lukur 568
la2-mah-ta 567
kal-la 566
ma-szum 566
namma 566
ensi2-ka-sze3 565
a2-bi2-li2 564
iszkur-ba-ni 564
ur-li 564
a-hu-we-er 563
i3-ba 563
ib-ni- 563
a2-ge6-ba-a 562
gir2-gul 562
ki- 562
ku3-dim2 562
giri3- 561
kin-bi 561
nam-1 561
al-@@ 558
gesz-@@ 558
be-li2-i3-li2 556
i3-lal3-lum 556
lugal-uszurx 556
di-ku5 555
lu2-lagasz 555
szuruppak 555
ga-sze-a 552
ba- 551
lugal-nir-gal2 550
mi-ri2-za 549
bur-ma-ma 548
gesz-gi 548
dingir-@@ 547
giri17-dab5 547
mu-un-na-an-e3-a 546
da-ni 545
HI 544
e2-kiszib3-ba-ta 542
en-lil2-ta 542
kesz2 542
szul-gi-ta 542
il2-la 541
ad-da-mu 540
sag- 540
a-gar 539
x-a 538
ARAD2-dam 536
min3-esz3 536
nin-x 534
ba-ba-a 533
nin-gubalag 533
ka-us2-sa2 532
lugal-a2-zi-da-ta 532
lugal-za3-ge-si 532
puzur4-i3-li2 532
u2-a 532
sud3 531
szara2-i3-zu 531
zu2 531
lugal-ezem-ta 530
szu-szum2-ma 530
szesz-saga 529
didli-me 528
libir 528
nig2-lagar-e 528
BI 527
a-sza3-bi 527
udru 527
ur-ama-na 527
kas4-ta 526
iti-bi 525
suen- 523
szara2-he2-gal2 523
ba-an-tuku 522
il2 522
ad 520
kikken 520
-a-kam 519
kal-la-mu 519
kar-ra 518
sukud 518
mu-na-gi4 517
na-ra-am-i3-li2-ta 517
uku2-nu-ti 517
-babbar2-ra-ni 516
DISZ 516
dumu-gu4-gur 516
gu-za-ni 516
szara2-mu-tum2 515
muszen-du3 514
ri 514
-ba 513
gu4-ra2-bi2-mu2 511
lugal-si-NE-e 510
ama-@@ 508
e-ne 507
a-hu-szu-ni 506
nin-tu-ta 506
nin9 506
masz2-bi 505
sze-@@ 504
szubur 504
lugal-mu-ma-ag2 503
gi-@@ 502
nu-su 502
szara2-ba-zi-ge 502
szu-na 502
a-hu-ni-ta 500
lugal-uszumgal 500
sza13-dub-ba-ka 500
-a-bi 499
kal-i3-li2 499
lu2-he2-gal2 499
-gal2-bi 498
lu2-nimgir 498
bi2-du11 497
gab2-us2 497
du3-a-ku5 496
bappir 495
ur-gu2-edin-na-ta 495
ni-@@ 494
sila-a 494
tum 494
za-la-a 493
a-e3-a 492
gub-ba-me 492
si-@@ 492
an-na-hi-li-bi 491
gu10 491
im-ma 491
ku3-ga 491
me-e2-a 491
udul2 491
utu-@@ 491
bar-ra-an 490
i3-udu 489
kalam-ma 489
lu2-du10-ga-ta 489
nam-erim2-bi 489
ba-an-ku4 488
e2-ta 488
i3-li2 488
nig2-sa10 488
sa6-sa6 488
ar3-ra 487
A.TU.NIR 486
nin-isin2 486
lu2-igi-sa6-sa6-ta 485
sza-@@ 485
a-bi2-si2-im-ti 484
sig 484
suen-@@ 484
balag 483
e2-a-i3-li2 483
ge6-ba-a 483
musz-bi-an-na 482
ab-u2 481
an-nu-ni-tum 481
bahar3 481
en-dingir-mu-ta 480
bar-ta 479
sahar-ra 479
ur5-ra-sze3 478
gesz-kin-ti 477
me-@@ 477
gesztin-an-ka 476
lugal-gu4-e 475
zi-zi-de3 475
nin-e2-gal 474
lugal-uszur3 473
eme3 472
gug2 472
ha-@@ 471
ma-lik-ba-ni 471
me-en-kar2 471
pa-ku5 471
e2-a-na 470
ib2-@@ 470
USZ 469
lugal-bad3 469
buru14 468
ig-alim-ta 468
ERIM 467
GAN2-mah 467
en-lil2-le 467
lu 467
sa6 467
udu-sze3 467
gigir-ta 466
lugal-gaba 464
szesz-gal 464
ti-la 463
ARAD2-mu-ta 461
i-di3-er3-ra 461
lugal-im-ru-a 461
la-@@ 460
en-dingir-mu 459
la-ni 459
diri-sze3 458
nin-ezem 458
URxA 457
mu-du3-a 456
ze2-na 456
erin2-me 455
masz-da-re-a 455
NIG2 454
da- 454
A 453
en-nun-e- 452
nag 452
bu3-ra 451
en- 451
kiszib3-ba 451
nin-gir2-su-ka 451
nigin2-ba 450
dam-gar3-ta 449
ma-ma 449
URU-KA-gi-na 448
gesz-gar-ra 447
gesztu 447
li 447
lum-ma 447
sze-er-gu 447
a-tu-ta 446
la-ag 446
v 446
a-du-du 445
a2-na-na 444
hul 444
KA-@@ 442
szu-numun-na 442
bala-a-sze3 441
dim2 441
NE-NE-gar 440
umbin 440
ab-sin2-ta 438
hu-ba 438
ki-sur-ra 438
la-ni-mu 438
ur-x 438
ambar 437
szul-gi-si2-im-ti 437
i3-la2 436
suhur 436
szul-gi-ra-ta 436
an-@@ 435
na-ni 435
na2 435
bi2-in-@@ 434
u2-IL2 434
gu2-e3 433
ur-ru-ta 433
ur-ma-ma 432
ab-@@ 431
ba-de6 431
gur-dub 431
nig2-diri 431
szakkan 431
apin-du8-a 430
lu2-u18-um 429
lu2-x 429
x-bi 429
gesz-asz 428
ha-zi-in 427
nam2-nun-ka 427
GAN2-masz-ta 426
ag2 426
ku3-ta 426
ra-a 426
sag-ga2 426
du8-szi-a 425
gug4 425
ib2-ra 425
kisal 425
la-gi-ip 425
ur-ra 425
du10-i3-li2 424
nig2-gul 424
surx 424
a-ba 423
ur-dam 422
agar4-nigin2 421
lugal-an-ne2 421
sze-sag-ku5 421
szu-kab-ta 421
a-ni 420
igi-nu-du8 420
ku-@@ 420
ur-gu2-en-na 420
lamma-ta 419
ur-e2-masz-ta 419
aszgi 418
geme2-bi 418
a-udu 417
gan 417
kunga2-nita2 416
szar-ru-um-ba-ni 416
ama-kal-la 415
dar-du3 415
gu-@@ 415
ki-en-gi 415
bu-@@ 414
da-a 414
gug 414
ma2-gin2 414
sza-at- 414
zi-@@ 414
zi-gu5-um-sze3 414
e2-an-na 413
kal-kal 413
sag-gu4 413
bur2 412
gir13-gesz 412
nam-mah- 412
ru 412
HUL2 410
dumu-zi-ta 410
mes 410
lum 409
u2-ta2-mi-szar-ra-am 409
* 408
-mu 408
ISZ 408
e2-masz 408
gesztin-an-na 408
lu2-bi-mu 408
zu-zu 408
bahar2 407
nin-gesz-zi-da-ta 407
sag-du3 407
du11-ga-ni-zi 406
szabra-e2 406
hu-@@ 405
i3-si-in 405
lu2-ma2-gan 405
ma-da-bi 405
na-bi2- 404
BAD.AN 403
na-mah 403
a-hu-ba-qar 402
ur-sila-luh 402
ka-ta 401
lu2-nigin6 401
mar-ha-szi 401
ne-sag 401
a-gesztin-na 400
mar 400
uri2 400
du6- 399
szu2 399
u4-ba 399
ur-esz3-ku3-ga 399
sa10-am3 398
eme 397
suen-ke4 397
sze-il2-la-sze3 397
amar-@@ 395
masz-ku3-gu7 395
GIN2 393
du11-ga-ni 393
NINDA2x 392
su-@@ 392
ur-ab-zu 392
sa-gi4-a 391
sahar-bi 391
ug3-IL2-me 391
dub-la2- 390
ur-sa6-ga-mu 390
bir3 389
dagal-bi 389
e2-ki 388
gaba-tab 388
gil 388
i3-ta 388
szi-@@ 388
szul- 388
IL2 387
ba-hul-ta 387
lu2-mah 387
ur-sa6-ga-ta 387
ba-saga 386
ensi2-ke4 386
gur10-a 386
ib2-tak4 386
puzur4-isz-da-gan 386
szakkan2 386
zi-da 386
aktum 385
e2-kas4 385
lugal-x 385
tum3-dam 385
a-na-ah-i3-li2 384
hirinx 384
u3-dag-ga 384
ur5 384
a2-bi2-la-tum 383
amar-szuba3 383
e2-gibil4-le 383
en-am-gal-an-na 383
bi2-tum-ra-bi2-um 382
e2-a-szar 382
in-u 382
munu4-mu2 382
szesz-a-ni-ta 382
EN 381
gi-bi 381
gu4-si-su 381
ha-lu-ub2 381
mangaga 381
u2-gu 381
e2-kikken2 380
inanna-ka 380
nam-erim2-am3 380
bi2-@@ 378
ezem-a-dara4 378
lu-lu-bum2 378
szara2-ke4 378
-la 377
SZE3 377
la-la 377
mu6-sub3 377
en-lil2-zi-sza3-gal2 375
szu-ku-bu-um 375
gu3-de2-a-ta 374
masz-tur 374
gu4-@@ 373
nanna-ki-ag2 373
ur-me-me 373
apin-sze3 372
e2-da 372
en-na 372
nun-gal-ta 372
lugal-nam2-mah 371
u4-@@ 370
NE-@@ 369
asz-ta2-qar 369
ensi2-ka-ta 369
ka-sze3 369
lu-a 369
na-ba-sa2 369
suen-ba-ni 369
guzza-ni 368
i-ri-ib 368
kab2-ta 368
ti-@@ 368
gala-mah 367
EN- 366
dab-ba 366
e2-A-me-esz2 366
erin 366
i3-szub-ba-ga2-ra 366
la-la-a 366
sza3-ge 366
dab5-ba-me 365
sze-gin2 365
dumu-gi7 364
bar-ba 363
ur-szu-ga-lam-ma-ta 363
wa-ta2-ru-um 363
HAR 362
a-a-kal-la-ta 362
c 362
asz-ta2-qar-ta 361
ba-an-gar 361
mu-zu 361
na-gab2-tum-ta 361
szid-da 361
za3-hi-li 361
a-al-li2-ta 360
hur-sag-ga-lam-ma 360
i-di3-a 360
ki-lu5-la 360
me-en 360
na-mu 360
szu-gar-gal 360
eme6-mah2 359
ki-a 359
szul 359
szuku-ra-ke4-ne-sze3 358
i3-ra2-ra2 357
kisz 357
lugal-lu2-sa6-sa6 357
ta-@@ 357
en3-bi 356
inanna-ta 356
ka-tab 356
ur-gu2-de3-na 356
ze2-a 356
en-lil2-la2-sze3 355
masz2-da-re-a 355
nansze-kam 355
kab2-du11-ga 354
nig2-siskur2-ra 354
a-mur- 353
er2 353
suen-ka 353
bi2-in-du11 352
nimgir 352
szu-dim2 352
KA- 351
ku3-ga-ni-ta 351
lugal-amar-ku3-ta 351
sze6-ga2 351
U.EN 350
ba-du8 350
hul2-la 350
ga-rig2 349
i3-ak 349
ne3-eri11-gal 349
szul-gi-@@ 349
AMA 348
igi-e2-mah-sze3 348
HI-da 347
szesz-@@ 347
da-a-gi 346
in 346
nig2-gu7 346
dal-ta 345
pa5-u2-e 345
szeg9-bar-munus 345
bappir3 344
TUR3 343
erin-da 343
gur4-za-an 343
he2-dab5-me 343
kur-bi-la-ak 343
nu-ur2-esz18-dar 343
sa-dur2-ra 343
be-li2-du10 342
hun-ga2-me-esz2 342
in-szi-sa10 342
nanna-@@ 342
puzur4-@@ 342
ra-@@ 342
gu2-la2 341
ma-ri2 341
mu- 341
szeg9-bar-nita2 341
-ni 340
a-x 340
ba-ra-@@ 340
gen-na-me 340
he2-sa6 340
nin-inim-gi-na 340
szu-numun-ta 340
ur-si-gar 340
gu-nigin2-bi 339
lugal-ma2-gur8-re-ta 339
be-la-at-dar-ra-ba-an 338
i3-li2-@@ 338
igi-zi-bar-ra 338
tir-gu 338
u8-sze3 338
KA-sze3 337
dingir-ra-bi2 337
tum-malx 337
gibil-ta 336
i3-szum2 336
sikil 336
bil3 335
ib2-dab5 335
ki-tusz-lu2 335
ma-nu-ta 335
90 334
KWU318 334
de3 334
ezem-ma 334
gu4-suhub2 334
lugal-an-da 334
na- 334
u-bar-um 334
nin-ku3-zu 333
ur2-ra-ni 333
banda3 332
sa2-du11-ta 332
ba-hul-a 331
nin-ur4-ra-ta 331
a-a-mu 330
gan-gan-e3 330
gu2-du8-a 330
gul-la 330
kar-ta 330
lugal-edin-ka 330
re 330
bi-@@ 329
dub-ba 329
idigna 329
mu-gal2 329
ur-gi7-ra 329
za-ri2-iq 329
zu-@@ 329
a-bi 327
al-hul-a 327
da-ba-tum 327
duh-ta 327
ma-sa2-ab 327
ma2-dara3 327
suhusz-ki-in 327
ur-esz3-lil2-la2 327
usz 327
di-@@ 326
du-@@ 326
sa-@@ 326
zi-re-dam 326
MI 325
HA 324
ab-ba-iri 324
ba-kux 324
lu2-hu-rim3 324
nita-me 324
sza3-gu4-ka 324
sze-kar-gal2-la 324
udu-bi 324
SZE.2 323
a-ra 323
lugal-szu-nir-re 323
sur-ra 323
x-da 323
be-la-at-suh-ner 322
lugal-dumu-gi7 322
sag-kesz2 322
udu-nita 322
ge26-e 321
gi-musz 321
gi-sig-ga 321
nimgir-an-ne2 321
szul-gi-si2-im-tum 321
ARAD2-hu-la 320
inanna-ke4 320
limmu2-ba-ke4 320
zi-gum2 320
a2-na-mu 319
ba-na-gi-in 319
i3-li2-an-dul3 319
la-a-sa6 319
szu-numun-a 319
ummu3 319
zi3-IL2 319
al-ba-ni-du11 318
ba-ra-zal-la-ta 318
sza3-gu4-me 318
ur-e2-gal 318
ur-szu 318
al-tar 317
du11 317
igi-du8 316
iri-ta 316
lu2-tur-tur 316
mah2 316
sag-nig2-gur11-ra 316
us2-bi 316
kir11-si-ak 315
kuruszda-ta 315
nu2 315
za-e 315
ga-ti-e 314
ha-ba-at 314
nu-ra-a 314
ur-du6 314
dara4 313
nin-geszkim-zi 313
szu-luh 313
utu-ba-e3 313
ba-ri2-ga 312
gu2-nida 312
gu4-bi 312
kas4-ke4-ne-sze3 312
tug2-gur10 312
tug2-ta 312
u2-kur 312
ur-sila-luh-ta 312
zabar-ta 312
a-ga-am 311
iti-6 311
nig2-ezem-ma 311
nin-pirig 311
szesz-sa6-ga 311
GAN2-bi 310
an-ne2-ba-du7 310
dah-hu 310
masz-kan2 310
szu-ma-am3 310
zi-bi2-tum 310
bi2-bi2 309
eb-gal 309
erin2-e 309
ib2-gu7 309
ke4-ne 309
f 308
kab2 308
la2-ia3-ta 308
nam-lugal-la-ka-ni 308
nanna-dalla 308
sur 308
zi-zi 308
ba-ba6-sze3 307
nig2-e-ga 307
tu-ra-am- 307
u2-rum 307
har-an 306
igi-5 306
lu-@@ 306
mar2-da 306
na-ba-sa6-ta 306
ur-x-x 306
zu2-uh 306
AN-@@ 305
lugal-am3 305
lugal-me 305
szum 305
ur-e2-nun 305
ur-gu2-edin-na 305
ziz2-bi 305
LAGAB 304
a-a-gi-na 304
li-@@ 304
lugal-ab-ba 304
saga-bi 304
sza3-nin-ga2 304
za3-mu-ka 304
U2-U2 303
dub-sag 303
sa3-si2 303
si-mu-ur4-ru-um 303
a-ba-@@ 302
an-za-gar3 302
e2-usz-bar 302
en-nu-ga2 302
gi4-gi4-de3 302
lugal-gu10 302
nu-ur2-ma 302
su4 302
da-da-ta 301
gu2-ta 301
he2-gal2 301
ba-ab-@@ 300
ga-esz5 300
nin-he2-gal2 300
ur-kisal 300
bi2-da 299
iszkur-ta 299
nu-e3 299
a-tu5-a 298
ba-an-si 298
usz-gid2-da 298
-5 297
du8-de3 297
en-kas4 297
ep-qu2-sza 297
tibira 297
ha-za-num2 296
lugud2-da 296
u2-ta2-mi-szar-ra-am-ta 296
ur-du6-ku3-ga 296
a-mur-dingir 295
du6-@@ 295
dumu-zi-da-ta 295
giri3-@@ 295
i3-li2-mu 295
tukul-e 295
da-ba 294
ganun 294
i-szar-ru-um 294
li9-si4-na 294
nam-mah-ta 294
nin9-kal-la 294
tag 294
u4-de3 294
e2-u4-1 293
ka-ku3 293
ma2-gan 293
min3 293
sza3-da 293
tu5-a 293
BAD 292
ka-tar 292
ke4-de3 292
lugal-engar 292
pu-lu-lu 292
mu-bi 291
sze-li 291
szub-ba 291
tu-@@ 291
zu-ba-ga-ta 291
ki-tusz 290
na-gab2-tum-ma 290
nam-ra-ak 290
nin-mu2 290
sag-du 290
ur-zabala3 290
bar-@@ 289
bara2-nam-tar-ra 289
dar-ra 289
gal5-la2-gal 289
gu2-de3-na 289
masz-@@ 289
nin-ga2 289
gaszam 288
ka-ka 288
ri-a 288
bu3-@@ 287
musz 287
nir7 287
a-ba-gal 286
lugal-dub-la2 286
munus-me 286
nin-a-na 286
pesz-murgu2 286
ad-da-ta 285
ba-x 285
dab5 285
dab5-ba-de3 285
in-da-gal2 285
aszgab-ta 284
di-ku5-bi-me 284
en-gal-du-du 284
i-szar-pa2-dan 284
iri-@@ 284
sza-al-mah 284
a2-nin-ga2-ta 283
bur-zi 283
hu-ba-a 283
lugal-ra-us2-sa 283
pa4 283
pesz 283
puzur4-ha-ia3 283
ta2-hi-isz-a-tal 283
x-x- 283
nanna-si-sa2 282
ri-@@ 282
sag-kur2 282
szu-da-da 282
a-sze3 281
du-ne-ne 281
en-lil2-gin7-ta 281
ha-la- 281
inim-ma-dingir 281
lugal-ku3-zu-ta 281
suhusz-gi 281
ezem-a-bi 280
nig2-gu2-na 280
szara2-ki-ag2 280
-ka-sze3 279
du7 279
dur 279
gisz 279
im-sumur 279
lugal-gu2-gal 279
usz-gi-na 279
KI 278
TAR 278
e2-e 278
isztaran-ta 278
ma2-@@ 278
mu-szu-du8 278
a-u2-da 277
ba-a-@@ 277
bar-la2 277
gab2-ra 277
nag-su 277
nin10-nu-du3 277
ra-ra 277
se-ge4-de3 277
am-na-nu-um 276
ku6-bi 276
nam-erim2 276
szara2-i3-sa6 276
sze-numun-sze3 276
ugula-gesz2-da 276
ul 276
e2-tur3 275
ha-la 275
lu-lu 275
nu-dab5 275
sag-dub 275
urumx 275
anzu 274
ba-a-si 274
min-kam 274
nig2-kal-la 274
niga-sze3 274
amar-giri16 273
dim2-ma 273
te 273
ur-mah 273
x-ba 273
HU 272
KU.KU 272
igi-an-na-ke4-zu 272
kiri6-ta 272
lugal-nig2-lagar-e-ta 272
nam-ha-ni-ta 272
szu-mah 272
-am6 271
du-bi 271
nesag-ta 271
su7-su7 271
dara4-nita2 270
he2-me-en 270
ka-zal-lu 270
sila 270
szesz-saga-ta 270
tab 270
za3-@@ 270
a-hu-ma 269
lu2-eb-gal-ta 269
szara2-@@ 269
mu-na-@@ 268
a-ha-ni-szu 267
bi-sze3 267
nu-zu 267
szen 267
utu-GIR2 267
dur2 266
esz 266
ga2-@@ 266
gul 266
kur-@@ 266
lugal-ti-da 266
pa-@@ 266
siskur2-ra 266
zadim 266
N01 265
ba-hul-sze3 265
dara3 265
si2-si2 265
szara2-nir-gal2 265
ur-nig2-ta 265
ur-x- 265
en-ki-ke4 264
i3-ku6 264
ma-an-@@ 264
-du 263
IGI 263
be-li2-a-zu 263
he2-na-ab-szum2-mu 263
lugal-mas-su2 263
tar-re-dam 263
u3-kul 263
lugal-i3-sa6 262
mu-na-dim2 262
mu2 262
na-gada-ta 262
nig2-du7-pa-e3 262
nin-mug-ga 262
szul-gi- 262
-zu 261
amar-kiszi17 261
ba-an-de2 261
gi4-gi4-dam 261
iz-zi 261
mi-@@ 261
zabala4 261
ba-ba6-i3-dab5 260
hul-tag 260
gi4-gi4 259
utu-saga 259
ba-mu 258
e-ta-e11 258
e2-u4 258
ga2-nun-na 258
gal-@@ 258
ne-@@ 258
sza3-ga 258
a-a-@@ 257
a-ab-ba-ta 257
apin-bi 257
du8-du8-li2 257
lu2-ga-mu 257
mar-sa-asz 257
sa-a 257
ur-sze-il2-la 257
SZE 256
UR 256
a-bala 256
edin-na 256
engar-ta 256
ensi2-sze3 256
ga-szex 256
i-di3-dingir 256
kunga2-munus 256
lu2-x-x 256
lugal-dalla 256
suen-sze3 256
ur-gi7-re 256
U3 255
ab-ba-@@ 255
ab-e3 255
en-lil2-gin7 255
id-da-a 255
ku 255
lulim-nita2 255
nun-na 255
u-bar-tum 255
u2-da 255
un-da-ga 255
lugal-nesag-e-ta 254
nu-kiri6 254
ur-kun 254
DI 253
na-an-@@ 253
pu2 253
AN- 252
a-gesztin 252
a2-an 252
du3-de3 252
er3-re-eb 252
lugal-an-na-tum2 252
lugal-mu 252
nin-zu 252
szum2-mu-dam 252
ugula-ta 252
im-ma-@@ 251
nin-kal-la 251
suen-a-bu-szu 251
u5 251
za-hum 251
a-ab-ba-ni 250
mu-sar 250
nin9-@@ 250
ur4-ra 250
ba-zi-ir 249
du-u2-du11 249
geme2-bara2-si-ga 249
gi4-@@ 249
lu2-iri-sag 249
sza-lim-be-li2 249
a-ab-ba-mu 248
e2-ki-bi 248
pirig 248
szaganx 248
szum2-mu 248
x-ra 248
zi-bi2 248
NI-@@ 247
an-na-szum2 247
asz-sze3 247
erin2-na-sze3 247
pa5 247
ru-um 247
x-na 247
-kal-la 246
-zi 246
di-utu 246
ku3-@@ 246
la-qi3-pu-um 246
tusz 246
-ka-ke4 245
gir2-nun 245
lugal-mudra5 245
bappir2 244
ur-e2-babbar2 244
da-ga 243
dar 243
de6 243
en-ku3 243
ze2 243
an-ne2-ba-ab-du7 242
du7-a 242
he2-ma-du 242
i3-zu 242
sza3-ku3-ge-ta 242
u4-du8-a 242
u4-te-na 242
ur-e2-masz 242
ME 241
a-ba-al-la 241
kesz3 241
lid2-ga 241
ma2-lah5-bi 241
nagga 241
sza-asz-szu2-ru 241
a-li2-ni-su 240
e2-ta-mu-zu 240
gesz-ta 240
ha-ma-ti 240
na-we-er-dingir 240
sa2-ba 240
tar 240
ugula-iri 240
a-mu 239
igi-sa6-sa6 239
kusz-bi 239
masz-da3-gu7-ta 239
szul-gi-i3-li2-ta 239
ab-ba-a 238
dingir-ra-ta 238
ib-@@ 238
kikken2-me 238
ma-al-tum 238
ma-an-ba 238
ak-de3 237
ha-lu5-lu5 237
kasz-a 237
lunga3 237
me-esz2 237
nanna-i3-sa6 237
nunuz 237
sze-numun-ta 237
SI-A-a 236
dumu-na 236
lamma-mu 236
sag-da-na 236
da-gi 235
gu-bi 235
i-ta-e3-a 235
i3- 235
tum3 235
ur-bara2-si-ga 235
TE 234
dam-@@ 234
e2-sze3 234
esz18-dar 234
nin-dingir-ra 234
nun-e- 234
par4 234
szid 234
e2-du6-la 233
su7 233
tu-da 233
IM 232
abul 232
ba-ba6-eb2-gu-ul 232
du5 232
gul-gul 232
in-u-da 232
mu-sze3 232
U 231
ellag2 231
ma- 231
nu-um 231
-babbar2 230
a-ba-a 230
ba-a-mu 230
ba-ni 230
babila 230
kar-sze3 230
kur-kur-ra 230
lugal-e2-mah-e-ta 230
lugal-kisal 230
nigin2-na 230
ud5-sze3 230
RI 229
du10-ga-mu 229
dumu-@@ 229
geszbun2 229
lugal-ha-ma-ti 229
GA2 228
a2- 228
al-la-mu-ta 228
bala-ta 228
kas4-e-ne 228
lu2-ur4-sza3-ga 228
lulim 228
lulim-munus 228
nanna-ku3-zu 228
tug2-bi 228
ur-gesz-sza3-ga 228
ur4 228
usz2-a 228
asz-@@ 227
ba-ba6-@@ 227
dub2-ba 227
e2-bappir 227
nesag-sze3 227
zi-zi-dam 227
ba-ad-da-ri2 226
lugal-me-a 226
ansze-sze3 225
ba-an-ti-esz2 225
ba-usz2-me 225
esztub 225
nam-ti 225
puzur4-er3-ra 225
sagszu 225
ugu2-du6 225
unu3-ta 225
gu4- 224
hu-rim3 224
igi-sag 224
lu2-i3-zu 224
nin-ga2-sze3 224
sig4-ga 224
tu-ra-am-i3-li2-ta 224
lu2-ba-gara2 223
szu-gar-ra 223
ur-mah-sze3 223
MU 222
b. 222
ba-sa6-ta 222
ib2-ta-zi 222
lu2-bulug3-ga2 222
mu-sza 222
sza-u18-sza 222
ab-ba-gi-na-ta 221
ba-ab-gu7 221
bala-e 221
ga-bi 221
nin-e11-e 221
sukkal-me 221
te-@@ 221
ur-usz-gid2-da 221
ARAD2-@@ 220
ad-@@ 220
an-sze3 220
gesztu2 220
gu2-gal-gal 220
i- 220
sanga-ta 220
szu-a-gi-na 220
bi2-du11-ga-ta 219
dim 219
e2-kiszib3-ba-ka 219
eme-sig 219
i3-de2-a 219
lungax 219
masz-gu-la 219
szu-na-mu-gi4 219
utu-sa6-ga 219
MUSZxPA 218
an-sza 218
gi-ra-num2 218
na-ru2-a-ta 218
naga-bi 218
nin-me-lam2 218
UR2xU2 217
de2 217
isz-me- 217
kasz-bi 217
kasz-ta 217
la-a-mu 217
na-ra-am- 217
pa3 217
sza3-gu2-bi 217
szuba3 217
durux 216
engar-zi 216
gi-ru-usz 216
hi-li 216
nisi 216
tu-di-da 216
KU-@@ 215
a-sza3-ta 215
dingir-ra-ni 215
en3 215
ga2-nun-ta 215
i3-nun-bi 215
kur-ku-du3 215
lugal-dur2-du10 215
siskur2-sze3 215
x-me 215
-de3 214
ARAD2-da-ni 214
BIxNIG2 214
SI-A-a-ta 214
ki-gal2 214
ku3-babbar-sze3 214
mu2-a 214
szar-ru-ba-ni 214
t 214
um-@@ 214
ARAD 213
gu2-tur-tur 213
hi-@@ 213
i7-da-ta 213
ib-ni-dingir 213
nin-ma2-gur8-re 213
ugnim 213
ur-gi7-ra-sze3 213
MUSZ 212
amar-ku5 212
ba-ba6-ka 212
ba-la-la 212
da-du 212
dux 212
en-lil2-la2-ke4 212
inim-ma 212
ma-an-szum2-na 212
sza3-ha 212
szul-gi-sze3 212
tu7-bi 212
GAN2-@@ 211
da-gu 211
lugal-ki-gal-la 211
szusz3-ta 211
udu-nita2-sze3 211
a-ga-de3 210
am-@@ 210
be2 210
gurum2-ak 210
ir 210
ki-bi 210
na-ap-la-num2 210
nim 210
sukkal-mah-ta 210
szer7-da 210
an-ta 209
ba-an 209
bala-bala-e-de3 209
e2-a-ba-ni 209
isz-me-dingir 209
tug2-@@ 209
u2-na-ab-sze-en6 209
-gal 208
MIN 208
eme3-mah2 208
gam-gam 208
gibil6 208
ka5-a-mu-ta 208
lugal-saga 208
mi-ni-in-@@ 208
mu-ni-@@ 208
szudul5 208
a-ka 207
du6-ur2-sze3 207
en-lil2-@@ 207
nig2-la2 207
nu-mu-un-@@ 207
szu-ur2-me 207
usz-bar-me 207
x-ga 207
ba-an-sa6 206
du11-ge 206
dub-sar-me 206
ha-la-a 206
mi2 206
szesz- 206
tar-re 206
za-ri2-in 206
ab-ba-du10-ga 205
e3-@@ 205
er2-du8 205
ib2-gid2 205
isz-@@ 205
lu2-x- 205
lugal-uru11 205
sza3-kal 205
usz-@@ 205
en-u2-a 204
i3-kux 204
i3-li2- 204
i3-szub-ga2-ra 204
inim-@@ 204
isin2 204
lu2-ba 204
za-ba-lum 204
a2-an-du-ru 203
ba-an-zi 203
dara4-munus 203
durunx 203
ga- 203
gu4-e 203
im-du8-a 203
mes-lam-ta-e3-a 203
nig2-gu7-a 203
sze-er-ha-an 203
usz-bar-sze3 203
zi3-bi 203
ARAD2-hul3-la 202
TUR 202
a-gin7 202
ad-tab 202
al-la-tum 202
e2-A 202
edin 202
gaba-ri-a 202
lu2-eridu 202
num2 202
puzur4 202
te-na 202
u3-na-du11 202
a-bu-um-dingir 201
ba-al 201
e2-szu-tum 201
hu-li2-bar 201
hum 201
ku3-SZIM 201
lu2-zabala3 201
mu-de6 201
szu-ma-ma-ta 201
-ke4-ne 200
GI 200
TUG2 200
dab 200
du11-du11-ga 200
dub-la2 200
igi-ni-da-a 200
ki-sze3 200
kikken-na 200
lu2-u18 200
lugal-engar-du10 200
ni-sze3 200
zimbir 200
al-lu 199
e2-u4-sakar 199
ga-a 199
ge 199
he2-a 199
lu2-nin-ga2 199
lu2-sukkal-an-ka 199
ub 199
uz 199
ASZ-ur4 198
ba-ba6-i3-dab5-ta 198
ba-gar 198
gu-la-sze3 198
in-na-ba 198
izi 198
kal2-bu-um 198
ma-ni-ta 198
sza-at-i3-li2 198
szu-u2-u2 198
ur2-@@ 198
ba-za-ta 197
en-lil2-sze3 197
gu2-edin-na-ta 197
lugal-si-sa2 197
me-e 197
musz-lah5 197
na-ga-ab-tum 197
numun-sze3 197
sal 197
szul-gi-ba-ni 197
utu-sze3 197
DA 196
a-na-@@ 196
am3-@@ 196
ba-ra-kesz2 196
e2-tum 196
gu2-bi 196
i-s 196
ma2-gur8-ra 196
nam- 196
szu-zu 196
ugur2-tur 196
ur-dun-ta 196
-x-ta 195
KAxX 195
be-li2-a-ri2-ik 195
e2-kuruszda 195
hun 195
in- 195
in-na-@@ 195
iri-bar-re 195
ki-uri 195
mar-sa-me 195
na-ap-ta2-num2 195
nu-siki 195
sza13-dub-ba-ta 195
a-KA 194
ur-ki-ag2-mu 194
zi3-dub-dub 194
a2-ag2-ga2 193
ba-zal-ta 193
e2-gal-e-si-ta 193
en-lil2-la2-ka 193
kar-@@ 193
kum 193
lam 193
mu-ta 193
nig2-mu10-us2-sa2 193
sza3-gu 193
sze-sze3 193
ur-abzu 193
ur-ku3-nun 193
an-na-hi-li-bi-ta 192
ba-za-za 192
dub-sar-ta 192
g-bi 192
lugal-x- 192
na-na 192
sa6-sa6-ga 192
sal-la 192
tug2-gur8 192
u2-u2 192
e-na-szum2 191
er3-re-szum 191
gu4-gesz-ur3 191
guru7-ta 191
ku-li-ta 191
lahtan2 191
mu-ni-in-@@ 191
ni- 191
al-la-@@ 190
dingir-sukkal 190
dub-@@ 190
hendur-sag-ta 190
nanna-ka 190
szi-ma-asz-gi5-me 190
szu-ga-tum 190
tab-sza-la 190
tu-dur 190
ur-dub-la2 190
ur-ki 190
zi- 190
be-li2-i3-li2-ta 189
e2-zi 189
he2-ti 189
lu2-eb 189
ma2-dara4-abzu 189
n-sze3 189
na-bi2-hu-um 189
an-dul3 188
gu-la2 188
kas4-me 188
lugal-gu2-en-e 188
nidba 188
nimgir-di-de3 188
nu-dab5-me 188
szesz-du10-ga 188
u2-tul2-ma-ma 188
gi-a 187
i7-@@ 187
kal-@@ 187
lugal-sukkal 187
mu-un-na-@@ 187
nerah 187
nu-hi-lum 187
tur-@@ 187
ze2-@@ 187
-gin7 186
ba-za 186
di3-ma-at 186
e3-de3 186
igi-ni 186
illu 186
ku-ku 186
kul 186
lugal-x-x 186
nin-ildu3-ma 186
nindax 186
ru-@@ 186
be-li2 185
dah-ha 185
ezem-@@ 185
lugal-nam-tar-re 185
naga-ta 185
nansze-ka 185
puzur4-e2-a 185
szu-ku8-bu-um 185
ur-tul2-sag 185
DUB 184
dingir-sa6-ga 184
e2-ur2-bi-du10 184
ha 184
ka-ga 184
ka-sa6 184
lu2-giri17-zal-ta 184
lugal-iti-da-ta 184
na-me 184
nanna- 184
nigin2-bi 184
ur-ab-ba-saga 184
ak-@@ 183
da-x 183
gen 183
lugal-ur-sag 183
absin3-bi 182
ba-a-dul9 182
bar-ra-kar-ra 182
du3-@@ 182
i3-szub-gar 182
ku3-ge 182
muhaldim-me 182
nimgir-inim-gi-na 182
szu-ru-usz-ki-in 182
zu2-si 182
-dam 181
-i3-sa6 181
NE-NE 181
azlag2-e-ne 181
du6-ku3-ga 181
dumu-munus-ni 181
en-lil2-la2-i3-sa6 181
gurdub2 181
kas4-e-ne-sze3 181
lu2-i3-si-in 181
mah-ta 181
masz2-da-re6-a 181
na-nam 181
nig2-gur11- 181
tul2 181
ur4-sza3-ki-du10 181
x-x-ta 181
KWU896 180
ba-ba6-ke4 180
ba-szim 180
luh-ha 180
szal2-mah 180
u-@@ 180
za-ul 180
a-la2 179
e2-masz-sze3 179
ga-ni 179
hu-um 179
szu-si 179
BA 178
a-e 178
kal- 178
la2-@@ 178
larsa 178
nanna-zu 178
nin-a2-zi-da 178
su4-a 178
ur-ur 178
x-ni 178
zi3-ta 178
a-da-@@ 177
a-du-ta 177
ab- 177
ab-ba- 177
e-da-ti 177
erinx 177
ha-zi 177
hu-ur-ti 177
ka-tar- 177
nu-hi-dingir 177
szu-esz-dar 177
tum2 177
um-ma 177
duh-bi 176
e2-gu4 176
e2-gu4-gaz 176
e2-u4-7 176
gam-gam-ma 176
gu-la-ta 176
he-gal2-ta 176
lu2-lal3 176
si-mu-ru 176
zal-la-ta 176
min-esz3-ta 175
sze-le-bu-um 175
ur-e2-@@ 175
di-ni-li2 174
dingir-re-e-ne 174
e11-e 174
e2-a-@@ 174
e2-gi4-a 174
inanna-ra 174
ki-sikil 174
ku3-dim2-me-esz2 174
li-bur- 174
lugal-sipa 174
mu-da-@@ 174
musz-@@ 174
nu-banda3-gu4-me 174
szara2-i3-dab5 174
ur-ga2-nun 174
uru4 174
utu-kam 174
zi-mu 174
-me-esz2 173
ba-e-@@ 173
eb 173
i3-du8-me 173
ma2-lah5-me 173
silim-ma 173
szu-sar 173
u2-du-lu 173
zu-sze3 173
ambar-lagasz 172
hal-mu-sza4 172
i 172
igi-zi 172
ki-ag2-mu 172
lugal-ra 172
mar-sa-ta 172
maszkim-bi 172
mu-dim2 172
nir 172
sag-gu4-gesz-sze3 172
sag-ku5 172
si-ga-ta 172
szu-du7-a 172
szu-gur 172
a. 171
bur- 171
du10-@@ 171
eb-la 171
hu-un- 171
i3-bi2-za 171
lugal-nigin6 171
nu-banda3-gu4-ta 171
nu-dab 171
uru2 171
a-gar3 170
ab-ba-kal-la-ta 170
ab2-mah2-sze3 170
al-la-ha-ru 170
ba-an-dab 170
ba-ni-@@ 170
du11-ga- 170
dumu-nita 170
e-da-se12 170
e-ri2-na 170
e2-udu-sze3 170
hu-uh3-nu-ri 170
igi-zu-bar-ra 170
ni-ta 170
sza-at-er3-ra 170
szu-dul9 170
a-hu-@@ 169
ab-ba-gu-la 169
en-mah-gal 169
il 169
kislah 169
li9-si4-sze3 169
lugal-geszkim-zi 169
ma2-lah5-gal 169
nam-iri-na 169
nig2-dab5-ba-ke4-ne 169
nig2-du3-a 169
szul-gi-mi-szar 169
-ki-du10-ta 168
ba-ak 168
er3-@@ 168
ga6-ga2-de3 168
gal-la 168
gur8-za-an 168
inim-bi 168
la-a-a 168
szu-numun-sze3 168
ukken-ne2-ta 168
ulu3-di 168
ur-me-me-ta 168
-a-ni 167
KI.KAL 167
SU 167
aga3-us2-me 167
da-lagasz 167
da-mu-ta 167
dam-ni 167
e2-zi-mu 167
en-lil2-da 167
gu-za-ni-ta 167
ku5-da-mu 167
mi 167
nam-en-na 167
pu-us2 167
sag-ub3 167
sukkal-mah-sze3 167
szi 167
szu-ni 167
za-ha-din 167
-kam-ma-asz 166
-ti 166
a2-gu4-hu-um 166
al-zi-ra 166
da-umma 166
dingir-su-ra-bi2 166
dur9 166
inanna-sze3 166
isz-ha-ra 166
lu2-gir2-nun 166
mu-e-@@ 166
su-he2 166
utu-ba-ni 166
-da-@@ 165
a-sag-du3-du 165
aszgab-gal 165
ba-ku4 165
e-ne-ba 165
gu2-an-sze3 165
hal-li2-a 165
hun-ga2-sze3 165
ku5-ta 165
lugal-ki-ag2 165
ma-ra-@@ 165
mes-@@ 165
na-bi 165
sar-ra 165
sza3- 165
szara2-gu2-gal 165
szu-dulx 165
u2- 165
za-na 165
GIN2.SZE3 164
a2-ag2 164
bu-um 164
dingir-kal 164
e2-szu-tum-ta 164
enku 164
esz-am3 164
gu4-sze3 164
in-nu 164
ka-ke4 164
kar-ke3 164
lu5-lu5-ni 164
lugal-ba-ta-e3 164
na-u2-a-ta 164
nagar-pa-e3 164
nam-tar-eb2-gu-ul 164
sza3-sahar-ra 164
szesz-tur 164
tur-tur-ra 164
u2-bil2-la 164
ur-e2-mah-ta 164
-ka-ta 163
bara2-si-ga 163
dub-la2-mah 163
engar-e 163
gin2-a 163
gu4-ku-ru 163
gur-@@ 163
ha-ba-@@ 163
lu2-bi 163
lu2-nin-ga2-ka 163
lugal-nir-ta 163
masz2-nita2-sze3 163
nig2-ki-luh 163
nu-gal2 163
sza3-bar 163
ti-e2-mah-ta 163
-tum 162
e2-gal-ka 162
gar3 162
ha-ba-zi-zi 162
hu 162
hun-ga2-me 162
igi-gun3 162
ma2-lah6 162
nir-gal2 162
ur-dumu-zi 162
zu-a 162
SAR 161
ama-gi-na 161
bu3-bu3 161
da-sze3 161
en-ki-ta 161
i-di3-e2-a 161
i-pa2-li2-is 161
i3-ib2-u3 161
ka-ba 161
x-am3 161
zi3-da-sze3 161
-sze3-du 160
NIM 160
asz2 160
dah 160
e2-i3-gara2 160
engar-e-ne 160
im-mi-in-@@ 160
inim-du11 160
ka-kam 160
ma2-u4-zal-la 160
szul-gi-zi-mu 160
ur-ku3 160
-gal2-ta 159
PA-@@ 159
a-ba-al 159
an-na-ah-i3-li2 159
da-da-mu 159
diri-ga-am3 159
i3-li2-dan 159
kab2-kul 159
mah-@@ 159
na-u2-a 159
nam-ti-la-ni-sze3 159
sipa-da 159
szu-ku8-ub 159
tur3 159
ur-gi7-me 159
-mah 158
an-na-@@ 158
gi-sal 158
kisal-luh 158
lu2-sa6-ga-ta 158
nam-dumu 158
nig2-lagar 158
nimgir-@@ 158
sipa-e-ne 158
sze-kar-ra-gal2 158
sze3-@@ 158
szesz-ki-ag2 158
u6 158
utu-ka 158
x-e 158
azlag2-me 157
ba-da-@@ 157
bad3-@@ 157
gurumx 157
hu-wa-wa-ta 157
i-di3-@@ 157
il-@@ 157
karx 157
lu2-usz-gi-na-ta 157
munus-@@ 157
sag-tag 157
sze-kar-ra 157
szi-ma-num2 157
um-mi-t 157
ur-e2 157
x-mu 157
-um 156
ENxMASZ 156
da-da-ni 156
e2-an-na-tum2 156
e2-babbar2 156
engar-me 156
ga-IL2 156
gu4-tug2-gur10 156
karkar 156
lamma-@@ 156
me3 156
nigar-mud 156
nin9-hi-li2-a 156
ur-szu-ku3-ga 156
a-bi2-@@ 155
dam-gal-nun-na 155
di-da-ka-sze3 155
esz3-@@ 155
gi-sza 155
giri3-gub 155
gu-nu-ra 155
ir-@@ 155
me-esz 155
nig2-dara2 155
nu-dab-ba 155
-NI 154
SI 154
a-ab-ba-sze3 154
absin3 154
ak-a 154
buru14-sze3 154
du-a 154
egir5 154
lugal-hi-li 154
ma-at-i3-li2 154
ma-nu-sze3 154
sa2-@@ 154
szesz-a-na 154
szesz-zi-mu 154
szu-nu-kusz2 154
tu-gur8 154
a2-na 153
aga3 153
bur-@@ 153
da-gan-ta 153
dilmun 153
he2-sa6-ge 153
i3-sa6 153
ku3-zu 153
la-qi3-ip 153
ne2 153
nigin-de3 153
re-@@ 153
du-u2-du 152
dun-a 152
e-mul 152
e2-hi-li 152
e2-sukkal 152
giri17 152
husz 152
i3-szub 152
mu-ni-im 152
n-ta 152
nig2-sa10-bi 152
sza-ru-um-i3-li2 152
ur-i3-li2 152
zu2-ga-li 152
UR2x 151
an-na-hi-li 151
ba-an-du8-du8 151
bi2-ib2-@@ 151
du- 151
en-am-gal 151
garig2-ak 151
i-din-er3-ra 151
igi-tur-tur 151
la-a 151
la-ba-@@ 151
lam-lam-ma 151
lu2-gu3-de2-a 151
lugal-uri5 151
mug-bi 151
nig2-ka9-ta 151
nin-a-ni 151
nin-ki-ur5-sa6 151
nu-ur2-zu 151
szum2-@@ 151
um-mi-du10 151
ur-PA 151
ur-tesz2 151
ab-ba-ta 150
an-dim2-dim2 150
ba-la 150
ba-ta-zal 150
da-a-a-ti 150
dub-sar-mah 150
ga2-tum3-du10-ke4 150
gin2-kam 150
giri17-zal 150
gu-za-na 150
igi-sag-bi 150
lu2-na 150
lugal-du10-ga 150
lugal-nam2-mah-ta 150
lugal-zi-mu 150
nin-e2-gal-e 150
sal4 150
su3-a 150
AN-nu-me 149
BU 149
ansze-edin-na 149
da-a-ti 149
da-na 149
du11-ga-@@ 149
gesz-bi 149
gesz-gid2-da 149
kul-aba4 149
mu-a 149
mu-mu 149
nu-i3-da 149
nu-me-a 149
sig4-a 149
sza-ra-hu-um-ma 149
sze-ba-sze3 149
szi-ma-asz-gi4 149
ARAD2-da-ni-ir 148
KA-x 148
ba-a-ga2-ar 148
bara2-za3-gar 148
be-li2-@@ 148
er3-ra-ur-sag 148
gesz-i3-ka 148
iszkur-@@ 148
kin-@@ 148
lu2-x-@@ 148
lugal-an-dul3 148
me-a 148
mur-gu4-bi 148
nig2-sa10-am3 148
nu-u3-@@ 148
sza3-gu4-sze3 148
u2-du 148
a2-bi2-lum 147
al- 147
ba-ra-sze6 147
e2-x 147
er3-ra-dan 147
gar3-du-e-ne-sze3 147
igi-du 147
igi-ma-sze3-ta 147
ildu3 147
lugal-eridu 147
ne-ne 147
szara2- 147
ti-um 147
u4-da-tusz 147
ur-e2-dar-a 147
ur2-ra-dingir 147
IGI.ERIM 146
ad-da-@@ 146
ar3-a 146
ba-ba6-da 146
de3-@@ 146
di-de3 146
dun 146
e2-a-ni-sza 146
e2-te-na 146
gala-tur 146
gesz- 146
gig-bi 146
im-IL2 146
ki-ta 146
ma2-ta 146
nin-sze3 146
puzur4-a-bi 146
sag-kul 146
si-mu-ur4-um 146
sur-sur 146
sze-numun-bi 146
tur-ra 146
za3-sze3-la2 146
zu2-lum-ta 146
a-sza3-sze3 145
bara2-@@ 145
du6-ku3-sig17 145
ha-ba-ad 145
igi-a-a 145
im- 145
li-bur-be-li2 145
ma-an-szum2-ta 145
mur 145
nam-mah-ni 145
nig2-i3-de2-a 145
nig2-sa10-ma 145
nin-za3-ge-si 145
nu-ak 145
taskarin 145
ti-ti 145
ur-sa6 145
ur-szubur 145
a-gu-du 144
a2-sa6-ga 144
al-la-ta 144
am6 144
bi-ta 144
ku3-babbar2 144
lugal-mas-su 144
mi-ni-@@ 144
si-il-la 144
aratta 143
bad 143
dumu-da-ba 143
im-ma-an-@@ 143
iri-ni 143
li2 143
lugal-da-ga 143
na-ta 143
pesz2-gesz-gi 143
pu-@@ 143
sila-ta 143
sipa-@@ 143
szara2-a-zi 143
szer7-um 143
ug3-IL2-ta 143
ur-e2-ninnu-ta 143
x-ka 143
x-la 143
zabala 143
du-uk-ra 142
e2-masz-a 142
en-nun-ga2 142
en-sza3-ku3-ge 142
gaba-@@ 142
mu-x 142
nig2-ul-pa-e3 142
nu-ub-@@ 142
nu-un-@@ 142
pa-bil3-sag 142
ri-im- 142
tak4 142
ur-tur-ta 142
amar-ezem 141
an-sze3-gu2 141
asar-lu2-hi 141
ba-an-zi-ge 141
da-bi 141
diri-ta 141
e2-ur2-bi 141
en-ki-sze3 141
lu2-bala-saga-ta 141
lugal-a-ma-ru-ta 141
ma-mi-tum 141
me-luh-ha 141
mun-gazi-sze3 141
na-sze3 141
nin-e-i3-zu 141
pa-e3 141
sza3-ba-na-sig 141
szah2-nita2 141
u2-li 141
x-kal-la 141
TU 140
ba-ba6-i3-zu 140
ban 140
gara2 140
he-gal2 140
kur-giri3-ni-sze3 140
mar-sa-a 140
mu-du-lum 140
nanna-i3-zu 140
udu-ta 140
bu3-du 139
dag 139
dili 139
du-du-ta 139
du-x 139
e-ak 139
idim 139
me-pa-e3 139
na-ab-be2-a 139
nanna-hi-li 139
nin-gir2-su-ra 139
nu-ti-a 139
nun-@@ 139
sahar-u2-u2-ta 139
szesz-lu2-du10 139
szitim-e-ne 139
usz-bar-ta 139
al-la-gu-la 138
dingir-a-mu 138
du8-@@ 138
ga2-la 138
gun3 138
i-ti-a 138
i3-x 138
iri-na 138
la-za-wi 138
lu2-e2-a 138
lu2-ma2-gu-la 138
lu2-pa3-da 138
si-ig-da 138
ur-sa6-sa6 138
x-x-x-@@ 138
ad-da-tur 137
he2-em-@@ 137
kalam 137
lil-la 137
lugal-im-ru-a-ta 137
musz3 137
szeg12 137
til 137
udu-@@ 137
uz-ga 137
-la2 136
amasz 136
ba-ni-in-@@ 136
e2-gu4-gaz-sze3 136
ha-li2-li2 136
ia 136
ib2-gi-ne2 136
ib2-su-su 136
la- 136
muhaldim-sze3 136
munu4-gu7-ta 136
nansze-ki-ag2 136
nimgir-sza3-kusz2 136
nin-ur2-ra-ni 136
nun-gal-ke4 136
pa4-u2-e-ta 136
sahar-u2-u2 136
tab-@@ 136
ur-dub-szen 136
DU-@@ 135
GAR 135
ab-sin2 135
ba-ti-esz2 135
bala-@@ 135
im-me 135
kab 135
masz-bi 135
na-silim-ta 135
ub-@@ 135
ug3-e 135
za-bir 135
ad-da-mu-ta 134
e2-na 134
en-unu6-gal-an-na 134
er3-ra-nu-id 134
erin2-bi 134
esz3-sze3 134
ga-za-PI 134
gu2-ba 134
hal-@@ 134
im-sar-ra 134
nam-lugal 134
nin-hi-li-su3 134
nin-mu 134
pa4-@@ 134
sig4-@@ 134
un-@@ 134
ur-tum-al 134
usz-bar-e 134
-a-@@ 133
-gurx 133
a-bi2-du10 133
a2-sag3 133
bi2-ib-@@ 133
e2-gibil4-le-ta 133
e2-kur 133
gal-ta 133
geme2-nigar 133
gu-za-mah 133
ha-ma-@@ 133
i3-li2-be6-li2 133
mes-e2 133
ni2-@@ 133
ra-ta 133
sa-du8 133
suen-e 133
ab2-ba 132
ama- 132
bi2-du11-i3-sa6 132
da-num2 132
dumu-nita2-ni 132
e2-duru5-sze3 132
e2-gu-la 132
e2-ki-gal-la 132
i-szar-i3-li2 132
inim-ma-ni 132
lugal-an-na-ab-tum2 132
lugal-me3 132
szabra-ne 132
szu-x 132
ubi 132
-gi 131
ARAD2-da 131
ba-ra 131
da-ta 131
en-nun 131
gir2-@@ 131
i3-li2-asz-ra-ni 131
i3-me-a 131
in-du3-a 131
kam-sal4-la 131
ku-ba-tum 131
lamma-iri-na-ta 131
mah-ba 131
mar-@@ 131
murux 131
nin-dub-sar 131
sze-du10 131
tak4-a-me 131
u2-ga 131
u3-um-de6 131
ur-ki-sal4-la 131
ur-tum-ma-al 131
ur5-ra-ka 131
3-@@ 130
PI-@@ 130
a-hu-um 130
ansze-@@ 130
ba-sur 130
be2-@@ 130
didli-bi 130
i-din-dingir 130
in-dim2 130
la-la-mu 130
lagab 130
lugal-ke4 130
mu-na-an-@@ 130
sipa-da-ri2 130
ur2-ba 130
-i3-li2 129
-kak 129
45 129
MIR.ZA 129
a-ga 129
a-hu-um-dingir 129
ba-ku5 129
e2-duru5-@@ 129
ga-x 129
gesz-kin-ti-me-esz2 129
gur-kam 129
hu-mu-@@ 129
i3-gesz-bi 129
ku4 129
lu2-gir2-su 129
lugal-x-@@ 129
nig2-banda3 129
nin-gir2-su-ke4 129
sipa-ta 129
su-su-da 129
ur-an-ne2 129
ur2-ni 129
LU 128
ZU 128
a-x- 128
aga 128
dingir-a-su2 128
er3-ra-@@ 128
gesz-gi-ta 128
gu2-u3-mu 128
ha-an-da 128
hu-ru 128
lugal-en-nun 128
nin-hur-sag-ga2 128
si-mu 128
su3-@@ 128
szu-la2-a 128
szu-nir-ra 128
a-da-a 127
a-ke4 127
dagal-la 127
gaszam-e-ne 127
gi7 127
gu2-gu2 127
nig2-ki 127
nin-eb-gal 127
ra-szi 127
u3-na 127
zi-gu5-um 127
-dingir 126
2- 126
e2-kur-ra 126
e2-udu-ka 126
en-lil2-ra 126
ig-@@ 126
na-ka 126
rum 126
sagi-me 126
saman3 126
sza-szu2-ru 126
szum2-ta 126
tar-ra 126
u4-de3-nig2-sa6-ga 126
ur-mu 126
ur-ra-sze3 126
wa-@@ 126
a-a-ni-szu 125
ab2-@@ 125
amar-a-a-si-sze3 125
dab5-ba-sze3 125
en-ki-@@ 125
hu-li-bar 125
im-mi-@@ 125
iszkur-ra-bi2 125
lam-ma 125
lugal-ba-ta-ab-e3 125
ma-sza-lum 125
mu-na-ru 125
na-x 125
nanna-igi-du 125
nin-mu-sze3-igi-mu 125
nin-zabala3 125
ri2 125
rib-ba 125
suen-la-ma-ha-ar 125
ur-nu 125
-kux 124
-sa6 124
a-li2-a-hi 124
a-na-ti 124
a2-bi2-la-sza 124
ar-@@ 124
ba-an-dab5 124
dingir-nu-me 124
engar-@@ 124
gi-apin-ku5-ra2 124
i3-li2-bi-la-ni-ta 124
ka-ni 124
ki-BAD 124
ki-sar 124
lah5 124
lu-ub2 124
lu2-sukkal 124
lugal-erin2 124
muhaldim-ta 124
na-a 124
nergal 124
nig2-bar-ra 124
nu-um-@@ 124
tah-sza-tal 124
tum3-da-sze3 124
ur-sag-@@ 124
ur-x-@@ 124
zi-du 124
TAG 123
a2-bi2-la-num2 123
ba-tuku 123
da-da-@@ 123
e11-de3 123
esz18-dar-um-mi 123
gigir-ra 123
giri3-a 123
ha-ha-sza 123
ha-ni 123
he2-en-@@ 123
in-sa6-sa6-ta 123
inim-gi-na 123
la-ni-a 123
lu2-du6-lugal-pa-e3 123
mu-na-de2-e 123
na-ba-lu5 123
ninda2 123
sza3-ad-da 123
szargal 123
szub 123
-ma-@@ 122
GU4 122
amar-ga 122
bar-udu 122
dan-u2-pi2 122
en-nu-lum-ma 122
gar-ra-ta 122
ge6-kam 122
ge6-par4-ra 122
hur-ti 122
ib2-pa3 122
lu2-igi-sa6 122
nin-ildu3 122
nin-lu2-sa6-sa6 122
nu-ba 122
nu-banda3-ta 122
ru-a 122
sa-gaz 122
tusz-a-me 122
u2-hab2-bi 122
LUM 121
aktum2 121
al-e 121
ba-du3-sze3 121
e2-da-na 121
e2-gibil 121
e2-musz3 121
igi-gal2 121
mar-tu-sze3 121
mi-ni-ib-@@ 121
nansze-ke4 121
ni-a 121
nig2-sa6-ga 121
nin-lil2-ka 121
nin-pa 121
sag-ba 121
szabra-sze3 121
ur-al-la 121
ur2-mud 121
uzu-a 121
KID.SZU2.MA2 120
a-ga-@@ 120
an-ta-lu2 120
ansze-nita2 120
ba-an-de6 120
du11-ga-na 120
gal2-la-am3 120
gi7-lam 120
i-di3-zu 120
i-na 120
lu5-lu5 120
me-ki-gal2-sze3 120
nin-gir2-su-lu2-mu 120
ri-is 120
szu-er3-ra-ta 120
ta2-hi-isz-a-tal-ta 120
ugu2-bi 120
ur-esz2-dam 120
x-ma 120
za-ah 120
UD-@@ 119
a-al-li2 119
a-de2 119
ba-ta 119
da-a-@@ 119
da-an-@@ 119
du10-us2 119
e2-duru5- 119
e2-sag-da-na 119
gar-@@ 119
garig2 119
gu-gu-a 119
gu4-lah5 119
ha-ti 119
i3-la2-e 119
ki-es3-sa2 119
kiri6-mah 119
ku3-sa6-ga 119
masz-masz 119
mu-ni-mah 119
nir3 119
pesz5-a 119
samanx 119
szu-esz18-dar-ta 119
tum2-ma 119
unu3-e-ne 119
ur-sag-ku5 119
-har 118
KA-us2-sa2 118
a-nun-na 118
ama-mu 118
bad3-gal-bi 118
bi2-gi4 118
bur-ra 118
du-sze3 118
du5-la2 118
en-u2-szim-e 118
gal-gal-la 118
gal-zu 118
gi-ne2-dam 118
gu- 118
iri-a 118
kuara2 118
kun-gid2 118
lugal-he2-gal2-ta 118
ma2- 118
mu-na-ab-@@ 118
nin-gir2-su-a2-zi-da- 118
sa3-si2-ta 118
szul-gi-ha-ma-ti 118
ti-ra-asz2 118
ummux 118
ur-e2-gu-la 118
us2-a 118
E2 117
EN-x 117
RU 117
a-bu-@@ 117
bur-sag 117
e2-gal-me 117
geme2-e2-an-na 117
he2- 117
in-na-szum2 117
lugal-me-lam2-ta 117
ne-sze3 117
nig2-si-sa2 117
sa6-@@ 117
szah2-gesz-gi 117
szul-gi-na-da 117
tu7-ta 117
ur-ga2 117
utu-ke4 117
-ma-sze3 116
a-ne 116
al-la-ka 116
bi-a 116
esir2-bi 116
giri3-ni-i3-dab5 116
gu7-@@ 116
i3-gesz-ta 116
la2-e 116
lu2-sa6-i3-zu-ta 116
lugal-i3-mah 116
ma2-gid2 116
nu-mu-@@ 116
su2-@@ 116
sumun-ta 116
wa-mu 116
zu2-lum-ma 116
IGI-@@ 115
LAK020 115
a2-bi2-lum-ma 115
apin-la2-da 115
bala-a-ri 115
e2-mah-ki-du10 115
e2-mah-sze3 115
en-DU 115
engar-du10 115
gu-za-la2-ta 115
ki-bi-sze3 115
ki-ru-gu2 115
ki-sa2-a 115
lugal-kar-re 115
nar-munus 115
szul-gi-me 115
u2-u2-mu 115
ur-ba-gara2-ta 115
ur-i7-edin-na 115
ur-tilla3 115
zu2-ga-li-ta 115
A.NA 114
a-mur-e2-a 114
bi-im 114
e- 114
gal-bi 114
hul-a 114
hul2 114
i-mi-id-dingir 114
il2-@@ 114
lugal-igi 114
ma-ta 114
na-ab-@@ 114
nig2-gu3-de2 114
nu-ur2-@@ 114
puzur4-a-ku-um-ta 114
si- 114
suhusz 114
sze- 114
sze-sag-ku5-ta 114
szu-ta 114
ur4-sza3-ki-du10-ta 114
ur5-bi-sze3 114
wa-da-al-tum 114
-ki 113
AB-@@ 113
ba-hun-sze3 113
ba-lu5 113
e2-PA 113
esz3-du10-nun 113
gar3-@@ 113
geme2-sze-il2-la 113
gu-nigin2-ta 113
gu2-ne-sag-ga2 113
isz 113
lugal-sza3 113
munus-am6 113
murgu 113
nim-mu 113
nu-x 113
sag-gal2 113
sza3-ta-ku3-zu 113
sza3-zu 113
ur-im-nun 113
us2-@@ 113
zah3-ta 113
TUM 112
an- 112
ba-ba-@@ 112
ba-na-@@ 112
be2-se3 112
bur-ma-am3 112
ensi2-me 112
ga-ar3-bi 112
ga-sze3 112
gi-na-mu 112
ka-guru7-ka 112
lu2-ma2-gur8-re 112
nag-@@ 112
nig2-dag 112
silim 112
sim 112
sipa-de3-ne 112
szu-ab-ba 112
szu-ni-an-nam 112
tesz2 112
tur-am3-i3-li2 112
ur-e2- 112
GAN 111
a-kam 111
ab-ba-mu-ta 111
asz2-@@ 111
ba-ab-du11 111
ba-an-du5 111
du11-ga-zi-da-ta 111
gi-dah-ha 111
giri3-ni-i3-sa6-ta 111
gu4-gal 111
gu7-de3 111
hal-li2 111
hul-@@ 111
ib2-IL2 111
ib2-nag 111
in-na-an-szum2 111
inanna-@@ 111
ki-sumun 111
kikken2-ta 111
lamma- 111
lu2-e2-mah 111
lugal-di-ku5 111
ma-ra-an-@@ 111
na-gab2-tum-sze3 111
naga3 111
nin-ti 111
sa2-du11-sze3 111
sag-ki 111
szar2-ra 111
szu-zi-an-ka 111
ta2-ki-ru-um 111
udu-lah5 111
un 111
ur-sa6-sa6-ga 111
PI 110
SZESZ2 110
a-zu-zu 110
apin-ba-zi 110
ba-am6 110
ba-ba6-zi-mu 110
e2-bi 110
e2-te-na-sze3 110
en-e 110
en-lil2-sze3-ta 110
i-szar-ra-ma-asz 110
lu2-bala-sa6-ga-ta 110
lu2-kisal 110
lu5-@@ 110
masz2-@@ 110
nin-bara2 110
nin-gir2-su-i3-sa6 110
ninni5 110
si-gar 110
temen 110
ur-gu2-en-na-ta 110
ur3-@@ 110
a-li2-ah 109
a-ru-a-ta 109
asar 109
ba-ba-an-sze-en 109
be-li2-ba-ni 109
bulug4 109
di-ku5-i3-li2 109
ensi2-gal 109
gesz-a-ni 109
hab2 109
i-lu 109
igi-bi 109
im-bi 109
im-ti-da 109
ka-bi 109
la2-mah-sze3 109
lu2-ra 109
lugal-ku3-ga-ni-ta 109
mu-szu-du7-ta 109
na-ra-am-e2-a 109
nansze-sze3 109
sza-ru-mi-um 109
szum2-ha-din 109
ugula-@@ 109
ur-sag-pa-e3 109
ur-tur-tur 109
ur4-sza3-ta-lu2 109
.@@ 108
HAR-@@ 108
NIG2.SAG.LAL.MUNUS 108
a-gub-ba 108
a-na-ah-i3-li2-ta 108
a-zi-da 108
ad-kup4-me 108
aga3-us2-gal-gal 108
bala-a-ta 108
bi2-bi2-a 108
du-u2-um 108
du3-du3-a 108
e2-u6-e 108
en-um- 108
engar-gu4 108
ga-esz8 108
gar-sza-na 108
hu-li2-bar-me 108
i3-li2-bi-la-ni 108
kaskal-ta 108
kiri6-me 108
ku-mul 108
la-lu5 108
lu-de3 108
nig2-sza3-ge 108
nin-sun2-ka 108
siki-@@ 108
ur-e2-zi-da 108
za3-mi2 108
zi-gum2-ma 108
zu-ta 108
a-ad-da 107
a-x-x 107
adkinx 107
am3-ma 107
esz2-@@ 107
ge-@@ 107
ha-bu-um 107
hu-un-@@ 107
hu-ur-tum 107
i-di3-lum 107
iri-ul 107
lu2-inim-ma 107
luh 107
ma-da-@@ 107
me-me 107
men 107
mu-hul-a 107
muszen-e 107
nansze-@@ 107
nig2-du10-ga-mu 107
nig2-ka9-bi 107
nig2-u2-rum-ta 107
nin-lil2-ama-mu 107
nu-banda3-sze3 107
nu-kusz2 107
ri2-@@ 107
sag3-ga 107
sukkal-an-ka 107
tum-sze3 107
u3-ma-ni-ta 107
ul-ma-szi-tum 107
x-x-sze3 107
-ne 106
BAHAR2 106
a-bi-@@ 106
a-me 106
ba-a-ta 106
bara2-za3-gar-ra 106
du-u2-du-ta 106
gab2-kas4 106
gar3-szum 106
ha-ra-@@ 106
i3-pa3-da 106
i3-szum2-ta 106
ki-nu2 106
lu2-u3 106
ma-ba 106
nanna-sa6-ga 106
nansze-me 106
nin-gir2-su-sze3 106
nisaba-ta 106
se3 106
sza-lim-mi 106
tum-ma 106
za-ra 106
zi3-da-ka 106
NINA 105
al-dar-ra 105
ba-an-na-zi 105
ba-gid2 105
bi2-in-du11-ga 105
dingir-mu 105
dingir-su-ra-bi2-ta 105
en-mete-na 105
gidri 105
ha-ia3-ta 105
i3-szub-ba 105
ka3-ma-am3-tum 105
kam-kam-ma-tum 105
kiri6-ke4-ne 105
kur-kur-ra-ke4 105
lu2-ki-nu-nir 105
lu2-uszur2-bar-ra 105
mud 105
nin-ga2-gi4-a 105
nin-x- 105
sag-apin 105
sal4-la-ta 105
si-du3-ta 105
sig4-ansze 105
su4-an-na-ta 105
szu4 105
tuku-@@ 105
ur-gu-ta 105
ur-ru 105
zi3-@@ 105
-x- 104
E2-A-bi 104
MA 104
NE- 104
ba-ab-szesz4 104
ba-an-szum2 104
ba-dab-ba 104
dam-dingir-mu 104
didli-ta 104
e-ta 104
e2-a-ra-bi2 104
e3-e3-de3 104
gag-@@ 104
gu4-nu2-a 104
gu4-ta 104
hur-sag-ga2 104
i3-sa6-ga 104
im-da-@@ 104
kiri6-@@ 104
ku5-@@ 104
lu2-gu-la-ta 104
lu2-sa6 104
lugal-a-ni 104
nin-nam-mah-zu 104
ra-ni 104
sa-bi 104
suen-ha-ma-ti 104
sze-a 104
szu-bi 104
szu-bur2-a 104
u18-lal3 104
utu-ik-s 104
-si 103
-zi-da 103
a2-ne2-kur-ra 103
ba-ba6-da-nu-me-a 103
da-ze2 103
e2-a-ni 103
e2-iti-da 103
gesz-hur 103
gi-ne2 103
gir-ru-um 103
giri3-ne2 103
gu-du 103
gu-na 103
hu-bu-um 103
i-im-@@ 103
i-t 103
kar2 103
kur-ra-ke4 103
lu2-dingir-ra-sze3 103
lu2-me-lam2-ta 103
ma-ma-szar-ra-at 103
masz-da-re6-a 103
min-@@ 103
nig2-ki-zah3 103
nin-ku3-nun-na 103
nir2 103
si-u3 103
sukkal-@@ 103
szi-ma-asz-gi5 103
tug2-ga 103
ugula-gesz2 103
ul-@@ 103
utu-ba-an-e3 103
GA 102
KA-a-du 102
SZU 102
agargara 102
anzux 102
at 102
ba-ba6-me 102
bahar3-me 102
bar-su 102
bu3-ka 102
dabx 102
eme-gi 102
en-igi-ni-ib2-zu 102
ga-na 102
gibil-sze3 102
i3-li-de9 102
igi-nim-ma 102
in-ku5 102
ku4-ku4 102
le-@@ 102
lugal-dingir-mu 102
masz2-szu-gid2-gid2 102
nam-lugal-la 102
nanna-ar 102
ni2-bi 102
nu-esz3 102
nu-ga2-ga2 102
ra-sze3 102
szara2-za-me-ta 102
szu-kab-ta-sze3 102
tir-gaba-gid2-da 102
um-mi-@@ 102
utu-di-de3 102
-na-@@ 101
NA 101
SZE3-@@ 101
a-gi4 101
ab-sin2-bi 101
ab2-sze3 101
alim 101
apin-@@ 101
ba-e-de6 101
bar-bi 101
e-a 101
e-la-ak-nu-id 101
e2-udu-ta 101
garigx 101
gir4 101
gu2- 101
ha-bu-da 101
i7-da-sze3 101
kikken2-sze3 101
mar-sa-sze3 101
mu-ri-iq-ti-i3-di3-ni-im 101
nig2-dab5-ke4-ne 101
nin-u3-ma 101
si-ma-nu-um 101
sirara6 101
sza4 101
szum2-mu-de3 101
tuku5-a 101
tum-ta 101
ur3-re-ba-ab-du7 101
x-da-@@ 101
-asz 100
-kam-us2 100
4-@@ 100
A-@@ 100
UR-UR 100
ba-du3-ta 100
e11 100
en-in-na-dan 100
er3-ra-na-da 100
esi 100
gur-bi 100
had2-bi 100
i-ti-@@ 100
i3-ib2-gar 100
i3-li2-mi-di3 100
i3-si2-na 100
ku-da-num2 100
kun-@@ 100
lugal-lu2-sa6-sa6-ta 100
na4-bi 100
nin-en-sa6 100
nin-me-lam2-ta 100
sar-@@ 100
siki-ta 100
sikil-la 100
szah2-ze2-da 100
ta2-din-esz18-dar 100
u3-tu 100
ur-numun-du10-ga 100
utul2 100
za-gin3-na 100
HI-sar 99
a-hu-a-ta 99
ab-ba-ab-ba-me 99
b.1. 99
be-la-at-suh6-ner 99
bulug3 99
di- 99
e2-nig2-lagar 99
en-u2-szim-ma 99
engar-ra 99
ensi2-ke4-ne 99
esz-@@ 99
ga-ta 99
gab2-IL2 99
gul-@@ 99
gur4-gur4 99
hal-la-a 99
im-ta-@@ 99
kur-sze3 99
lu2-kar-zi-da 99
lu2-za-su6-ma 99
lugal-a-ma-ru 99
lugal-ku-li 99
ma-lik-ba-ni-ta 99
mah-a 99
mu-ni-ib-@@ 99
muszen-na 99
pi-@@ 99
saman4 99
sipa-e-ne-ta 99
su3-he2 99
szi-ma-asz-gi5-sze3 99
szu-ma-mi-tum 99
szu-ur3-ra 99
ugula-ne 99
ur-e11-e-ke4 99
ur-tilla5 99
usan3 99
-gu10 98
-re 98
GAG 98
IB 98
an-na-sze3 98
ba-al-@@ 98
bala-e-de3 98
be-@@ 98
bu-bu 98
dim2-@@ 98
e2-gal-@@ 98
erin2-tur 98
ga-am3 98
ge-en 98
gi-ta 98
gid2-de3 98
i3-du10 98
i3-ib2-@@ 98
i7-de3 98
ib 98
in-szi-sa10-a 98
ku5-dam 98
li-la-a 98
nin-dar 98
nin-zi-sza3-gal2 98
ra- 98
ra-ke4 98
si-masz-kum 98
su-si 98
szu-ku6-me 98
szu2-@@ 98
szul-gi-kalam-ma-me-te-bi 98
u4-kur2-sze3 98
ur-en-gal-du-du 98
ur-szu-@@ 98
x-zi 98
-a-sze3 97
KA-gu7 97
SZUL.GI 97
a-ba-gal-gu-la 97
a-na-mu 97
asz8-gi4 97
ba-a-ti 97
ba-na-zi 97
ba-szum2 97
dingir-ra-ke4 97
e2-ku4 97
en-lil2- 97
en-nun-e 97
esz18-dar-@@ 97
gab2-@@ 97
gurum2-ma 97
hu- 97
i-szar-be-li2 97
idigna-sze3 97
igi-dingir-sze3 97
igi-esir2 97
ik-szu-dum 97
la-ta 97
lamma-igi-du 97
lul 97
masz2-sag 97
me-esz18-dar 97
nin-e2-@@ 97
su-a 97
su4-@@ 97
sze6 97
szu-gur5 97
ta-am3 97
-ba-ni 96
-kal 96
-la2-me-esz2 96
SZUL 96
a-bi2-a-ti 96
ama-tu 96
e-pe-esz-na-am-tu-ra 96
ha-da-da 96
ip-hur 96
li2-@@ 96
lugal-a2-mu 96
lugal-sza3-la2-tuku 96
mu-ra 96
mu-tuku5 96
mu2-mu2 96
nar-@@ 96
nin-a-@@ 96
puzur4-esz-dar 96
sa12-du5-ta 96
sza3-ga-na 96
szara2-an-dul3 96
ur-szul 96
utu-ur-sag 96
zal 96
E 95
NI- 95
TA 95
ag2-@@ 95
asz3-gi5 95
da6-da6-de3 95
dib 95
dingir-igi-du 95
dingir-re-e-ne-ke4 95
ga-mu 95
gu-u2-gu 95
in-bul5-bul5 95
iri-ka 95
nig2-szu 95
nin-mu-da-kusz2 95
ra-ka 95
sa10-sa10-de3 95
sag2 95
si2-si2-munus 95
sig4-ta 95
sza3-sahar 95
szandana-ta 95
szu-ga-ga 95
szu-u2 95
unu3-me 95
ur2-ra 95
x-x-a 95
ZUM.SI 94
a-a-dingir 94
a-bu3 94
ama-ni 94
asz2-nun 94
ba-gul 94
bala-a-ka 94
dingir-ra-kam 94
e2-te-na-ka 94
gar-gar 94
geme2-dub-szen 94
i-bi- 94
i-la-ak-nu-id 94
i-szar-@@ 94
i3-li2-ba-ni 94
i3-lum 94
i3-na-@@ 94
in-da-@@ 94
ka- 94
ka-us2-sa 94
lu2-ur4-sza3-ga-ta 94
lugal-gesz-hur-e 94
mu-bi-sze3 94
mu-gid2 94
mudra5 94
nig2-x 94
sa6-ge 94
sud3-ur-sag 94
szu-igi-du 94
u2-du-lu-ta 94
x-zu 94
zabar-dab5-ta 94
zi-zi-bi2-a-num2 94
a-da-lal3-ta 93
a-ri-a 93
a-x-@@ 93
azlag2-ta 93
b.2. 93
ba-a-dulx 93
ba-gi-in 93
bu3-lu5-lu5 93
bu3-u2-du 93
da-a-da 93
dah-u3 93
di-mi 93
du-du-am3 93
du7-du7 93
e2-sag-il2-la 93
e2-usz-bar-sze3 93
gissu 93
he2-dab5-sze3 93
i-ku-mi-szar 93
iri-ki-bi 93
la-gi-pu-um 93
la-sze3 93
la2-tur-ta 93
lamma-ra-ni-sa6 93
lugal-inim-gi-na-ta 93
lugal-nig2-zu 93
ni-in-@@ 93
nig2-du10 93
nig2-sza3-te 93
nimgir-an-ne2-zu 93
nin-mu-@@ 93
nin-x-@@ 93
ninda-@@ 93
nun-me-te-an-na 93
pa-li 93
sag-ta 93
sahar-dub-ba 93
su3-ra2 93
szita 93
szul-gi-ra-sze3 93
ta2-@@ 93
u5-@@ 93
ur-ki-@@ 93
utu- 93
DU.DU 92
a-bi2 92
a-ga-am-me 92
abzu-sze3 92
ak-e 92
amar-ra 92
an-da 92
an-na-ke4 92
e-la-@@ 92
e2-bappir2 92
eb-@@ 92
g-@@ 92
geme2-lugal 92
geme2-ni 92
gigir2 92
gu2-un 92
he2-gal2-la 92
im-szi-gen-na 92
ki-duru5 92
kun5 92
mul 92
na-da 92
nin-gu10 92
pesz2 92
su3-la 92
suen-na 92
szu-tum-ta 92
szukur 92
tesz2-bi 92
ur-i7-da 92
-ra-@@ 91
GA2xEN 91
GAN2- 91
MASZ.EN.GAG 91
ZUM 91
a-ab-@@ 91
a-hi-ma 91
al-us2-sa 91
amar-amar 91
ba-da-an-@@ 91
ba-la-a 91
bara2-si-ga-ta 91
dingir-ga2-i3-sa6 91
ku6-da 91
kur-re 91
la-ma-za-tum 91
la2-sze3 91
le 91
ni-mu 91
nig2-en-na 91
nin-x-x 91
nir-@@ 91
se-ge4 91
si-NE-e 91
szar2-@@ 91
szim-@@ 91
szul-gi-zi-kalam-ma 91
ur2-nig2-du10 91
-a-ba 90
-kam-ma-am3 90
3- 90
LAK483 90
a-du-mu-ta 90
a-na-a 90
a1 90
ab-zu 90
ar-ga-num2 90
aszgab-me 90
ba-an-bala 90
ba-ta-e11-de3 90
bar-bar 90
da-a-a-ni 90
da-ti 90
diri-@@ 90
du10-ga-am3 90
dumu-zi-@@ 90
e2-ba 90
ebih 90
eme-gir2 90
er3- 90
erim2 90
gal-e 90
gal-gal-e-ne 90
gu-za-la2-me 90
ha-ra-ab-@@ 90
ku-um 90
ku3-gal2 90
kur-kur 90
lu2-ma2-gur8-ra 90
lugal-KA 90
ma-an-gu-ul 90
na-ab-ri-tum 90
nidba2 90
nin-hur-sag-ka 90
puzur4-szuba3 90
si-ig 90
sza3-da-nu-szar2 90
sza3-ga-ni 90
tum3-de3 90
tusz-@@ 90
u2-du- 90
u@@ 90
ur-gesz 90
za- 90
-ga2 89
KIB 89
KU- 89
a-ki-a 89
a-kur-gal 89
abgal 89
am-si 89
an-da-@@ 89
ar3-du2 89
asz2-gar3-sze3 89
azlag3 89
ba-an-da-@@ 89
ba-gub 89
ba-ka 89
de3-en 89
du6-ku3-sig17-ta 89
dur2-@@ 89
en-lil2-zi-sza3-gal2-ta 89
en-nu-sze3 89
er2-@@ 89
esza-da 89
ga2-nun-sze3 89
ga@@ 89
gesz-a 89
gesz3 89
i3-si 89
i3-szub- 89
i7-pa-e3-ta 89
ia3-ab-ra-ad 89
ka-sa6-sa6 89
libir-a 89
lugal-la 89
lugal-sza3-la2-ta 89
ma-ka 89
maszkim-me 89
me-en3 89
muszen-tur 89
na-ap-la-nu-um 89
na-ba-@@ 89
na-na-@@ 89
nagar-me 89
nin-tur 89
nu-banda3-me 89
sza3-gal-bi 89
uku2-nu-ti-ta 89
ur-sukkal-ta 89
utu-ge6 89
utu-gin7 89
x-du 89
zi-bi 89
RA 88
SIG7-@@ 88
a-hi-@@ 88
a-ra-@@ 88
ab-ba-ni 88
an-ne2-zu 88
ba-ra-an-@@ 88
ba-szi-@@ 88
dam-sze-lum 88
dim4 88
erin2-@@ 88
ga6 88
gir2-nun-ta 88
he2-eb-@@ 88
he2-na-@@ 88
i-bi2 88
i3-li2-ki-ib-ri2 88
ib2-ta-@@ 88
iri-sze3 88
ki-du10 88
ki-na 88
ki-uri-ke4 88
lu5 88
lum-@@ 88
mar-za 88
mu-da 88
mu-szi-@@ 88
nig2-du7-e 88
nin-agrig-zi 88
nin-bi 88
nin-szu-gi4-gi4 88
qu2-ra-ad-i3-li2 88
sa6-a-ga 88
ur-du6-ku3 88
ur2-ra-ni-sze3 88
ur4-de3 88
utu-bar-ra-ta 88
-du10 87
GAN2-ur-gu 87
ansze-gesz 87
bi2-gu7 87
bi2-in-du8 87
bi2-in-ra 87
da-a-ga-ta 87
e2-gissu 87
gaszam-me 87
gibil4 87
gir2-us2 87
gu2-gir 87
i3-szah2-bi 87
in-zu 87
iri-ul-ta 87
iti-de3 87
lugal-da 87
lum-du8 87
ma-x 87
masz- 87
mu-un- 87
nig2-eb 87
nin-bara2-da-ri2 87
nin-gir2-su-ka-ka 87
nin-gir2-su-me 87
pesz-bi 87
su-su-de3 87
sze-er-hu-num2 87
tak2-si-ru-um 87
tugx 87
usz-gid2-da-ta 87
utu-szi 87
x-a-@@ 87
-x-x 86
MUSZ3 86
NUN 86
a-bu-um 86
bi2 86
di-bi 86
du8-du8 86
dumu- 86
e-ne-sze3 86
e2-kas4-sze3 86
esz3-ta 86
gesz-gal 86
gu-gu 86
gu4-KU 86
gu4-kam 86
ha-szi-pa2-tal 86
hu-ru-mu 86
ib2- 86
id-@@ 86
kinda2 86
ku-e-la-ak 86
lugal-anzu2 86
lugal-szesz 86
na-bi- 86
na-mi-gur-re 86
nam-dam 86
nin-tesz2-mu 86
si-im-da 86
suen-i3-li2 86
sukkal-me-esz2 86
szara2-zi-da 86
szir3 86
szu-a-zi 86
u2-da-ur4-ra 86
uh 86
za3-bi 86
zi-de3-esz 86
zum 86
AN-ur2-sze3 85
BI-@@ 85
GISZ 85
KAL 85
USZ-ka-limmu2 85
a-bu3-du-du 85
a-lu5 85
a-ma-ru-kam 85
a2-ni-ta 85
ag2-ga2 85
ar3 85
ba-zi-ga 85
babbar2-bi 85
bad3-da 85
e-en 85
en-ku4 85
esz18-dar-il-szu 85
hal-bi 85
i3-in-@@ 85
in-na-la2 85
inim-ma-bi-me 85
lugal-ka-sze3 85
lugal-ni2-zu 85
ma-ma-@@ 85
ma2-da-ga 85
ma2-sze3 85
mar-tu-me 85
mu-bi-im 85
mu-lu 85
nam-szesz 85
nanna-i3-gi 85
nin-sa-du8 85
ri-ri 85
sa12-rig7 85
si-masz-ku-um 85
siki-ka 85
sipa- 85
siskur 85
szul-sza3-ga-na 85
szum2-za-ha-din 85
tir-ra 85
titab2 85
tu-ru-na 85
u4-tusz-a 85
ur5-@@ 85
zar 85
zu2-si-ka 85
zum-zum 85
-an-@@ 84
-gi-na 84
BAR 84
UL 84
a-li2-a-bi 84
a2-da-da 84
ba-ab-su-ub 84
ba-hun-ta 84
ba-la-t 84
bar- 84
bar-re 84
dingir-ra-ka 84
e-de3 84
e2-ur2-bi-du10-ta 84
en-bi 84
en-na-ta 84
en-nu-@@ 84
ga2-e 84
gesz-bar-e3-ta 84
gi-gid2 84
gilgames3 84
i-szim- 84
kuruszda-e 84
la2-i3 84
lam-@@ 84
lugal-iri-mu 84
lugal-nu-banda3 84
lunga-me 84
ma-mi-ta 84
na-a-na 84
na-ke4 84
nimgir-he2-du7 84
nin-ama-mu 84
nin-gir2-su2-ra 84
pa4-u2-e-sze3 84
su13 84
sukkal-di-de3 84
sze-kar-ra-gal2-la-ta 84
szi-ma-asz-gi5-ke4 84
szu2-luh 84
szutumx 84
ur-da-da 84
ur-dingir 84
x-gal 84
-ma-ka 83
KID 83
PIRIG.TUR 83
a-ba-al-la-ta 83
a-la-@@ 83
a-na-am3-DU 83
a-sza3-@@ 83
al-ak 83
ama-na 83
an-na-ta 83
ba-ab-dab5 83
dal-sze3 83
dan 83
dar-@@ 83
di3-ni-ik-tum 83
du10-gan-na 83
du11-ge-du7 83
dur2-ra 83
en-unu6 83
ge6-@@ 83
gub-ba-ni 83
gudu4-ta 83
guzza 83
i-ti- 83
i3-szah2-ta 83
kesz2-a 83
ki-x 83
lal3-@@ 83
li-bur 83
lugal-da-nu-me-a 83
me-lam2 83
munu4-gu7-sze3 83
na-ba 83
nin-gir2-su-da 83
sahar-@@ 83
se3-@@ 83
si4 83
siki-ka-me 83
suen-ki-ag2 83
sza3-dub 83
szu-bad 83
tim 83
tir-@@ 83
tul2-ta-pa3-da 83
u2-sze3-he2-du 83
u3-szub 83
u4-bi 83
ur-gu-la-mu 83
utu-ug3-e 83
-nita2 82
SAG 82
a-asz 82
a-da-tum 82
a2-na-na-ta 82
ar3-du2- 82
bi2-ra-a 82
da-ka 82
e2-gu-za-la2-me 82
e2-gurum2-e 82
engar-sze3 82
giri17-dab5-me 82
gu-da 82
ildag2 82
in-ba 82
in-ur3 82
kesz2-@@ 82
ki-tusz-da-sal4-la 82
kikken-ta 82
ku6-ta 82
lugal-a-ni-ir 82
ma-a 82
min-esz3-sze3 82
mu-ne-@@ 82
nu-musz-da-ta 82
peszx 82
pu3-@@ 82
si2-si2-nita2 82
sza3-asz-ru-um 82
szah2-NE-tur-munus 82
sze-duru5 82
szu-du3-a 82
szu-la-num2 82
uszurx 82
x-x-x-x 82
GIR2 81
HI-@@ 81
TUL2 81
a-za-@@ 81
ad- 81
al-la-palil2 81
an-ki 81
an-za-am 81
ba-ti-esz 81
e-da-@@ 81
e-ne-@@ 81
e2-masz-ta 81
ellag 81
esz8 81
gal-sze3 81
geme2-ki-siki-ka 81
geme2-nimgir 81
gu2-edin-na-sze3 81
gu3-@@ 81
gu4-da 81
gul-de3 81
gur3-ru 81
har-har-ra 81
i3-da-ga 81
i3-szub-ba- 81
ib2-la2 81
igi-ama-sze3 81
ki-ni 81
kiri6-sze3 81
la-ba-an-@@ 81
la-mu 81
lu2-bi-mu-ta 81
lu2-dab5-ba 81
lu2-hu-bu7 81
lu2-nam-tar-ra 81
lugal-ba-ra-ab-e3 81
me-te 81
mu-du8-e 81
mu-na-e3 81
nanna-kam-ta 81
nin-lu2-ti-ti 81
puzur4-er3-ra-ta 81
si-si 81
sila4-ga 81
sud3-da 81
sza3-nu-gal2 81
szara2-ga2 81
sze-il2-la-ta 81
szu-tum 81
szul-gi-ma-ti 81
szul-gi-si2-im-tum-ma 81
tu15 81
tum-al 81
ugula-1 81
ur-saga-ta 81
ARAD2-me 80
bu-u2-du 80
dam-gar3-ne-ta 80
dingir-ga2 80
du6-ku3-sig17-sze3 80
e-s 80
e3-a-ta 80
er3-ra-a 80
ga-ka 80
gal2-@@ 80
geme2-ba 80
gu10-sze3 80
har-@@ 80
i-me-er3-ra 80
i-ni-in-@@ 80
i-zu-a 80
i3-dub-ta 80
igi-sze3 80
in-na-an-@@ 80
in-na-an-du11 80
in-pa3-de3-esz 80
iszkur-sze3 80
ke4-ne-sze3 80
ki-ag2-ni 80
ki-en-gi-ra 80
lugal-i3-di3 80
ma-sab 80
ma2-ad-ga 80
masz-da5 80
mi-ni-ib2-@@ 80
mu-ra-@@ 80
ni-isz 80
nimgir-ki-ag2 80
nin-dar-a-ta 80
nu2-@@ 80
pa3-da-ta 80
sag-apin-me 80
sag-ga2-tuku-a 80
sig4-te-li 80
sipa-me 80
szitim-me 80
szu-ba-ti 80
u3-sur 80
un-sa6-ga 80
ur-re 80
uru18 80
-sza 79
AH 79
AK- 79
MUNUS 79
NE-NE-gar-ra 79
SZU.KAD4 79
a-ba-ki-ni 79
a-ha-@@ 79
ad2 79
amar-szuba2 79
ba-ab-ak 79
ba-ta-@@ 79
bilx 79
dah-hu-am3 79
dam-gal-nun 79
dumu-munus-a-ni 79
dur3-sze3 79
e2-kikken2-ta 79
gi- 79
gi-sze3 79
gu2-da 79
gu4-ra2 79
he2-na-ti 79
hu-mu-un-@@ 79
i3-sze3 79
igi-ni-sze3 79
iszib-e-ne 79
ke4-ne-ta 79
ki-gu2 79
ki-su7-ka 79
ku3-husz-a 79
lamma-lugal 79
li-ba-nu-uk-sza-ba-asz 79
lu2-inim-gi-na 79
lugal-mu-ba-zi-ge 79
nam-gala-sze3 79
nig2-u-nu-a 79
nin-a-na-ta 79
nin-ki-@@ 79
nin-u2-szim-e 79
nu-mu-gal2 79
pu2-@@ 79
su-tur 79
szar-ru-i3-li2 79
szara2-a-mu-ta 79
ti- 79
ur-e2-an-na-ta 79
-ak 78
-ka-ni 78
GIN2-bala 78
HA.A 78
UN 78
URUxESZ 78
a-a-lu2-du10 78
al-urx 78
amusz 78
an-na-bi2-du11 78
an-na-ka 78
an-ta-sur-ra 78
bar-tab 78
da-a-mu 78
e2-lugal 78
egi-zi 78
en-lil2-la2-@@ 78
esz2-gar3 78
geme2-munu4-ku3-ga 78
gesz-ka 78
gur4 78
hu-ha 78
hu-hu-ni 78
inim-ku3 78
isz-me-lum 78
ka-tab-ba 78
ka5-a-ta 78
kas3-pu-sza 78
kur-ta 78
la-ba 78
lu2-e2-@@ 78
lugal-kam 78
ma-szub-ba 78
mi- 78
min3-kam 78
mu-da-an-@@ 78
mu-na-ni-ib-gi4-gi4 78
nagar-me-esz2 78
nig2-buru14 78
nig2-mu-mu-kal-le 78
ninda-sze3 78
sa3-@@ 78
sag-sze3 78
sza-ad-da 78
szu-dim2-ma2 78
tug2-ge 78
u3- 78
ur4-@@ 78
usz-bar-ra-ke4-ne 78
uz-@@ 78
za3-ga 78
zadim-me-esz2 78
KU-gu-za-na 77
NIG2-@@ 77
a-ma-ru 77
a-u2-da-tur 77
ambar-@@ 77
an-sza-na 77
de2-a-sze3 77
e2-me-lam2-su3 77
ga-da 77
gar-sza-na-ka 77
gig-ga 77
gir16 77
gurusz-gin7-du 77
hi-li-a 77
i7-sal4-la 77
ib2 77
ka-me 77
kar-ke4 77
la-ma-ha-ar 77
la-ni-mu-ta 77
lugal-inim-du10-ga 77
lugal-sa6 77
masz-szu-gid2-gid2 77
masz2-da-ri-a 77
na-ru2-a-igi-du 77
nanna-zi-sza3-gal2 77
nig2-du10-ga 77
nig2-du11-ga-ni 77
nin-banda3 77
nusku-ta 77
sagdu-bi 77
szu-gu-ub 77
szu-i3-li2-ta 77
u-bar-@@ 77
u2-kal 77
u4-gin7 77
usz-bar-e-ne 77
x-sa6-ga 77
x-x-x-ta 77
LAK490 76
LU2 76
a-ab 76
a-gi4-um 76
a-zi-a 76
ab-ba-dingir 76
ad-da-a 76
arhusz 76
ba-ba6-i3-gi 76
ba-zal-sze3 76
da-mi-iq-i3-li2-szu 76
dur-@@ 76
e2-e-ki-ag2 76
e2-gal-kam 76
en-ga-ga 76
en-mur 76
ga-ga 76
ga2-a-kam 76
gal- 76
giri3-du3-a 76
hal-hal-la 76
i3-gara2 76
i3-szub-ba-gar-ra 76
im-sar 76
in-du3 76
lamma-sze3 76
lugal-ban3-da 76
lugal-tesz2-mu 76
ma2-da-ga-asz 76
mah-am3 76
mu-un-da-@@ 76
nar-me 76
nig2-U-nu-a 76
nig2-ba-saga 76
nig2-du10-ga-mu-ta 76
nig2-du7 76
nig2-nam 76
nin-a-ra-li 76
q@@ 76
ra-bi 76
ri- 76
sa2-e 76
sal4-la-sze3 76
sig4-bi 76
sig7-ga 76
siki-kur 76
szu-i2 76
szul-gi-ra-ka 76
tah-sza-tal-ta 76
te-te 76
u4-bi-a 76
ur-zu-ta 76
utu-kal 76
utu-mu-ta 76
zi-ta 76
zu-ba-ga 76
-AN 75
-e3 75
A.BU.HA.DU 75
GAN2-SZE3 75
KIN 75
a-a- 75
a-ba-ba 75
a-ba-gal-ta 75
a-bu3-szu-ni 75
a-zi 75
an-ne2-@@ 75
ba-al-li2 75
ba-ta-sa6-ge 75
dag-@@ 75
di-ni 75
e-dab5 75
e2-dim 75
e3-sze3 75
eme-@@ 75
en-x 75
er-ra 75
ga2- 75
gu4-da-re-a 75
gukkal-sze3 75
he2-em 75
hur 75
iszkur-nu-ri 75
it-ra-ak-i3-li2 75
ku3-gu-za 75
lu2-e2-kar-re 75
lugal-e2-mah 75
na-wi-ir-dingir 75
nam-ti-la 75
nin-girimx 75
pad 75
sag-e-ki-ag2 75
su2 75
sza-at-@@ 75
sza-at-e2-a 75
szara2-gin7 75
szu-gar-ra-ta 75
szu-sze3 75
u3-mu-un 75
ugula-bi 75
um-me 75
ur-e2-gal-ta 75
zi-x 75
zu- 75
NI-NI 74
UM 74
a-a-zu 74
a-bu-szu-ni 74
a-hu- 74
a-na-lu2 74
a2-zi-da-ta 74
ambar-sur-ra 74
asza5 74
be-li2-kal 74
bi-da 74
du8-ha 74
e2-u2-nam-ti 74
en-kisal-si 74
en-mu10-us2-sa2 74
gal-gal-@@ 74
gar-ra-bi 74
gesz-gi4-gal2-bi-im 74
gu4-apin 74
gur10-gur10 74
i-ti 74
i3-du10-nun-na 74
ki-bala 74
la2-la2 74
lu-lu-ba-ni 74
nam-en 74
nam-lu2-ulu3 74
nanna-ma-an-szum2 74
nin-arhusz-su3 74
nu-uru4 74
pesz2-tur-tur 74
ri-ba-ga-da 74
sa6-ga-@@ 74
si-a 74
sza3-TAR 74
szu-ti-a 74
szul-@@ 74
tu- 74
tul2-@@ 74
tur-ta 74
u18-@@ 74
ur-ba-ba 74
ur-gu-la-ta 74
ur-kal-la 74
uszumgal 74
utu-si-sa2 74
zu2-@@ 74
-NE 73
-ge 73
-ra-a 73
2-@@ 73
U-@@ 73
U2 73
a-al-la-mu 73
a-nun-na-ke4-ne 73
a-si-ma-num2 73
ad-da-kal-la-ta 73
ad-da-ri2 73
ama-zi-mu 73
amar-a-a-si-ta 73
ba-la-@@ 73
ba-sze3 73
bad3-sze3 73
dam-gar3-ne 73
dingir-an-dul3 73
dingir-mah 73
dumu-nun-szita 73
e2-na-lu-lu 73
en-en3-tar-zi 73
en-sig-nun 73
ga2-a-ra 73
ge6-bi 73
gu2-en-na 73
gu2-ne-sag 73
har-ra-an 73
har-tu- 73
i2-@@ 73
inim-ma-@@ 73
kar- 73
la-lum 73
lu2-iri-sag-ta 73
lugal-HAR 73
lugal-si-gar 73
mudx 73
munu4-sze3 73
nansze-da-nu-me-a 73
nar-e-ne 73
ni-x 73
nin-e-@@ 73
nin-gal-zu 73
nin-szubur-ama-mu 73
nina 73
nun-e 73
sag-asz 73
se-ge4-dam 73
sza-at-esz18-dar 73
sza3-si 73
szu-um 73
szunigin2-ba 73
szutum2 73
ur-gar 73
usz-bar-ra 73
za-gul 73
zalag-ga 73
zuh-a 73
-kam-ma-sze3 72
-ra-sze3 72
AB-KID 72
AN-x 72
LAK449 72
a-a-dingir-ta 72
a-bat5 72
ad-da-gi-na 72
ad-kup4-me-esz2 72
al-ar3-ra 72
ba-ba6-ku3-zu 72
balag-@@ 72
bi2-in-gar 72
buru5 72
da-gi-mu 72
dab-@@ 72
dingir-su-dan 72
du10-ge 72
dugud 72
e2-gu-za-la2 72
e2-munus-a 72
en-nam- 72
esz18-dar-im-ti 72
ga-ti-e-ta 72
gesztin-na 72
gi-x 72
i-din-e2-a 72
i3-da-mu 72
il2-la-ni 72
in-sa10 72
ki-ma 72
lu-ga-tum 72
lugal-ga2 72
mu-na-ni-du3 72
nanna-zi 72
ne-ta 72
nin-gir2-su-tesz2-mu 72
nin-gir2-su2-ka 72
nin-sza3-la2-tuku 72
nin-szubur-an-dul3 72
ninni8 72
nisaba-an-dul3 72
nu-uru4-me 72
numun-ta 72
pi-li-ha 72
pu2-si4-mu 72
puzur4-a-bi2 72
sa6- 72
sag-munus 72
sag3 72
sipa-ne 72
sza-at-bi-zi-il 72
szagan 72
szu4-gan 72
u3-ba-a 72
ur-e2-mah-e 72
ur-e2-musz3 72
ur-esz3-bar-ra 72
uri3 72
utu-ra 72
x-i3-li2 72
za3-gu2-la2 72
zu-ne 72
-ni-@@ 71
-x-a 71
LAGABx 71
USZ-@@ 71
a2-ta-szu-ta 71
ba-ku 71
ba-ra-e11-de3 71
bi2- 71
dam-a-ni 71
de6-@@ 71
didli-ne 71
du11-@@ 71
dub-dub-sze3 71
dumu-mu 71
e-la-nu-id 71
e2-gu4-sze3 71
en-lil2-la2-bi2-du11 71
ga-a-ta 71
ga2-ar 71
ge6- 71
gi-dah-ha-ta 71
gu-na-na 71
ha- 71
i-ir 71
i3-la-lum 71
i7-da-ka 71
id 71
igi-si4 71
im-ta 71
ka-ra 71
kalam-ma-ka 71
la-ma-har 71
lu2-ama-na 71
lu2-he2-gal2-ta 71
lu2-kal-ga 71
lugal-a-mu 71
mes-u4-ba 71
nin-iri-ni-sze3 71
nin-nig2-zu 71
nin-szubur-sze3 71
nin-tur-ab-ba 71
ra-am3 71
ra2 71
si-sa2-ta 71
sig7 71
sur-@@ 71
sza3-ga-na-kum 71
szar-@@ 71
szu-zi-an-na 71
ur-dingir-ra-ta 71
ur-temen-na 71
x-um 71
za-an-@@ 71
zi-de3 71
-x-sze3 70
GI.NA.TUM 70
HA-@@ 70
IG 70
a-ba-sa2 70
a-la-a 70
a-ra-zu 70
a2-la2 70
ab-ba-me 70
ba-ba-lum 70
ba-ba6-ra 70
ba-na 70
bulug 70
da-ri2 70
dal-ba-na 70
dam-gar3-sze3 70
du11-du11 70
dul 70
e2-duru5-gu-la 70
e2-he2-gal2 70
e2-lunga 70
en-mah 70
en-ne2 70
en-uszur3-re2 70
gal5-la2 70
gan- 70
gan-@@ 70
gi-gu3-na 70
gi4-gi4-da 70
gur8 70
ha-ma-zi2 70
i3-de6 70
i3-gen-na-a 70
ib2-ta-e3 70
il2-me 70
ki-usz2 70
kur-gi 70
li2-iq-tum 70
libir-me 70
lim 70
lugal-am-na-nu-um 70
lugal-ku3-zu-sze3 70
ma-ke4 70
muszen-sze3 70
na-we-er-dingir-ta 70
nanibgal 70
ni-im 70
ni2-ba 70
nin-si-sa2 70
nita-zi 70
sag-e-esz 70
su@@ 70
sza- 70
szabra-me 70
ti-ta 70
u18 70
u2-x 70
us2-sa-a 70
utu-bi 70
za-ha-ti 70
za3-bar 70
za7 70
ze2-ze2 70
zi-zi-@@ 70
KWU844 69
SZE.1 69
a-a-gu10 69
an-gin7 69
ba-ba-ni 69
ba-ra-ab-du8 69
bu3-lu5-lu5-ta 69
da-da-a-ta 69
da-gu-ta 69
du7-@@ 69
du@@ 69
dumu-asz 69
e2-amar 69
e2-dumu 69
elam-me 69
ga-am3-@@ 69
gesz-i3-sze3 69
gi-gi 69
gin3 69
gu-u2 69
gu4-gin7 69
gurusz-@@ 69
i3-im-gen-na-a 69
i3-nun-sze3 69
ib2-ba 69
idim-ta 69
in-da-a 69
iszkur-an-dul3 69
ka2-@@ 69
kin-ak 69
ku3-babbar-bi 69
ku3-la2 69
kur-ra-ka 69
kusz2 69
lu-lu-@@ 69
lu2-ma-ma 69
lu2-unu 69
lugal-ti-ra-asz2-sze3 69
mah-bi 69
mu-gu10 69
na-a-a 69
nar-nita2 69
nig2-luh 69
nin-a-zu-ta 69
nin-ma-da 69
nu-kiri6-me 69
pa2-@@ 69
puzur4-ga-ga 69
sa-am-su-i-lu-na 69
simug-me 69
sza3-DU 69
sza3-igi-na 69
szara2-ga2-la2 69
szu-gar 69
szul-gi-iri-mu-sze3 69
ta- 69
ur-e 69
ur-ra-ke4 69
ur-sag-pa-e3-ta 69
utu-du10 69
x-NE 69
x-x-da 69
x@@ 69
za-gaba 69
za3-mi-ri2-tum 69
5-@@ 68
PAD 68
a-ti 68
a-tum 68
ad-da- 68
al-nag4-ga2 68
amar-sag 68
ba-ba6-ama-mu 68
ba-zi-@@ 68
bu3 68
di4-di4-la 68
didli-sze3 68
du3-a-bi 68
e2-a-lu2-bi 68
e2-nam 68
e2-tur3-ta 68
e2-udu-niga-sze3 68
ebih2 68
ensi2-@@ 68
ga-ra 68
gesz-gid2 68
geszgal-si 68
gi4-gi4-@@ 68
gigir-sze3 68
giri3-ni-ta 68
gu4-gesz-sze3 68
gu7-e 68
ha-lu5-lu5-ta 68
he-@@ 68
i-mi- 68
im-ti-dam-ta 68
ki2-num 68
ma-an-hara4 68
ma2-bi 68
me-ni-szu-na 68
mu-gi4 68
ne2-@@ 68
nin-ur4-ra-sze3 68
nu-tuku-me 68
pa4-pa4- 68
pisan-dub 68
sanga-me 68
szara2-bi2-du11 68
szi-ma-asz-gi5-ta 68
szubur-tur 68
szul-pa-e3-ke4 68
til-la-bi-sze3 68
tum3-@@ 68
u2-sa 68
u3-bi 68
unu3-e-ne-ta 68
za-ba4-ba4 68
3-ta 67
DU-a 67
NI-gi4-ib2 67
a-am 67
a-tu-kal-la 67
an-ka 67
apin-la2-ta 67
asz-ne2-u18 67
ba-ba6- 67
ba-x-x 67
dab5-ba-ta 67
dab5-de3 67
du6-sa-bar-ra 67
dug-@@ 67
e-ta-gar 67
e2-hur-sag 67
e2-szitim 67
en-i3-na-kal 67
en-ur2-ku3-ge 67
ga6-ga6-de3 67
gal-tab-bu-um 67
gesz-e3-a 67
gesz-gi-@@ 67
gi-na-ta 67
ha-am-mu-ra-pi2 67
he2-du7 67
hul2-@@ 67
i3-li2-a 67
i@@ 67
kin2-na-i3-sa6 67
ku3-sze3 67
li-pi2-it-esz18-dar 67
lugal-gu3-de2-a 67
lugal-za3-e3 67
ma-num2-ki- 67
mah-sze3 67
mu2-@@ 67
nam-tar-ib2-gu-ul 67
nam-zi-tar-ra-ta 67
nin-gal-e 67
nin-ka-si 67
sa10-@@ 67
sig-ga 67
su-bu-de3 67
szu4-@@ 67
szu@@ 67
szuku-bi 67
tab-be-li2 67
tak4-a-ta 67
u2-gesz 67
u3-mu-@@ 67
ud 67
ur-nin 67
ur-saga-mu 67
us2-sa-du 67
wa-at-ra-at 67
-ga-@@ 66
-sag 66
3-ra 66
A.@@ 66
AB- 66
a-igi-du8 66
a-li2-@@ 66
a-ni-@@ 66
abzu-ta 66
an-za-am-da 66
apin-ta 66
az-am3 66
ba-DU 66
bi2-mu2-mu2 66
bu-ra 66
dingir-szesz-mu 66
du-szu-mu-um 66
dumu-dumu 66
dumu-kar-ra 66
e2-sza3-ga 66
gan-ezem 66
gar3-du 66
gesz-gi-na 66
gesztin-@@ 66
hi-lu-a 66
hu-mu-ra-ab-@@ 66
i-bi2-@@ 66
im-szi-@@ 66
ka-da 66
ka-us2 66
ka5-szu-um 66
ku3-nun 66
ku3-saga 66
la2-ia3-sze3 66
lugal-igi-husz-ta 66
lugal-ti-ra-asz2 66
lunga-ta 66
ma-ni-@@ 66
masz-ba 66
musz-bi-edin-na 66
na-ga-ab-tum-ma 66
ne-ne-a 66
ni-szu 66
nig2-dab5-ba 66
nin-a-zu-sze3 66
nin-ga2-bi2-du11 66
nin-ur4-ra-du6-na 66
pirig-gin7-du 66
sa2-a 66
sag-dub-ba-sze3 66
sipa-de3 66
suen-ma-lik 66
szar-ru-ru 66
szesz-szesz-mu 66
szu-ku6-ta 66
szu4-a 66
tag-@@ 66
ugu 66
ur-gi7-ra-ke4 66
us2-sa-@@ 66
za-e-me-en 66
za3-bar-bi 66
-e-ne 65
KU7 65
ZA 65
amar-bi 65
an-e 65
da-ke4 65
du6-ge6 65
e2-gal-ke4 65
e2-uz-ga-sze3 65
en-an-na-tum2 65
gab2-ra-ni 65
gu-ni-DU 65
ha-la-sza 65
i-szar- 65
i3-ku5 65
i3-na-szum2 65
ib2-ak 65
inanna-ur-sag 65
isz-me-a 65
kalam-ma-ke4 65
kid-@@ 65
ku- 65
ku6-sze3 65
lamma-ra 65
lu2-su4 65
lugal-mu10-us2-sa2 65
mah-e 65
me-bi 65
min-a-bi 65
nig2-si-sa2-e 65
nigin 65
nin-a2-gal 65
nin-me-@@ 65
nu-ra 65
sag-x 65
sal-@@ 65
sanga-@@ 65
sir3-da 65
suen-dingir-szu 65
sza-szu2-ru-um 65
sza3-ta 65
sze-kar-ra-gal2-la-sze3 65
til-@@ 65
tug2-mah 65
ur4-sza3-ta-lu 65
uri5-ma 65
-lum 64
GAN2-ansze 64
ah 64
ba-ab-IL2 64
ba-an-gi4 64
da-gi4-a 64
dabin-ta 64
dan-num2 64
dara3-masz 64
di-di 64
dub2-@@ 64
e2-zi-sza3-gal2 64
en-lil2-la2-zi 64
en-na-@@ 64
en-nam-szita- 64
erin2-sze3 64
ezem-mah-sze3 64
ga2-tum3-du10-ta 64
gesz-kin-ti-me 64
gi-da 64
gi-in 64
gu4-gaz 64
gu4-me 64
gub-@@ 64
he2-du-du 64
i3-na-na 64
i3-szum2-ma 64
igi-nim 64
ilar 64
iri-ni-sze3 64
isz-bi-er3-ra 64
kab2-ku5-bi 64
kaskal-la 64
ki-ag2-ga2-ni-ir 64
ki-gal 64
kisal-@@ 64
ku4-@@ 64
la-bi 64
li2-a 64
lu2-tur-tur-ra 64
lugal-dur2-du10-ta 64
lugal-lu2-ni 64
lugal-nig2-@@ 64
lugal-uszum-gal 64
ma2-gur8-@@ 64
ma2-lah4 64
mar-tu-i3-sa6 64
masz-a 64
nin-hi-li 64
nu-gu7-a 64
si-ta 64
su3-GAN2 64
suen-ka-sze3 64
szesz-gu10 64
szi-ba-la 64
szi-in-@@ 64
szu-pesz5-a 64
szub-@@ 64
tir-ta 64
u2-bi 64
u2-la-i3-li2-isz 64
um-ma-@@ 64
ur-ga2-gi4-a 64
x-ke4 64
ze2-en 64
zu-u3 64
-KA 63
-saga 63
KA-ni-zi 63
a-gi4-ta 63
a-nir 63
a2-gu-gu 63
an-gar3 63
apin-la2-sze3 63
ba-an-du11 63
ba-ba-mu 63
ba-sa6-ga-ta 63
bi- 63
bu3-ka-ka 63
bur2-@@ 63
dah-he-dam 63
dingir-a-zu 63
dingir-mu-ma-an-szum2 63
dingir-saga 63
e11-da 63
e3-ta 63
egir-@@ 63
gab2 63
gesz-e 63
gibil-@@ 63
gir16-da 63
gir4-u 63
gu-la-@@ 63
gu4-re 63
ha-la-@@ 63
ha-ni-ta 63
i3-gid2 63
i3-li2-ta 63
i3-ne-esz2 63
i3-til 63
igi-pesz2 63
inim-ma-dingir-ta 63
iq-bi2-dingir 63
isztaran-sze3 63
ka-szagan 63
kaskal-@@ 63
kir11-sze3 63
ku-ru-ub- 63
ku5-ra2-a 63
lugal-KU 63
lugal-e-ba-an-sa6-ta 63
lugal-e-ba-sa6 63
lugal-mudra5-ta 63
ma-ab-@@ 63
ma-asz 63
mes-lam-ta-e3 63
nam-ba-@@ 63
nam-lugal-i3-du10 63
ni-du10 63
nin-hur-sag-ke4 63
nin-hur-sag-lu2-ku3-nun-ta 63
nita-am6 63
pa-tar 63
puzur4-ha-mi 63
sa4-a 63
sikil-@@ 63
sud3-anzu 63
suen-kal 63
sza-lim-@@ 63
szah2-szaganx 63
sze-ba-e 63
szu-ni-@@ 63
szu2-a 63
szul-gi-a-bi2 63
szul-gi-si-sa2 63
ta-e3 63
tag-a 63
tiszpak 63
ugu-gu10 63
ur-ma-mi 63
us2-sa-ni 63
utu-a 63
x-mah 63
za-za 63
zi-gu5-um-ma 63
zi-ra 63
A.HA 62
DAG 62
HIxDISZ 62
a2-ki-ti-sze3 62
akszak 62
an-sza-an-na 62
asz3-gi5-ba-ni 62
at-@@ 62
ba-al-t 62
dal-@@ 62
dam-gal-nun-ka 62
du10-ga-ta 62
edin-@@ 62
ga2-ta 62
gag-gu-la2-sze3 62
gal-gin7 62
geszba2 62
gu10-ne 62
gu2-edin-na-ka 62
ha-an 62
he2-bi2-@@ 62
hu-ri2-um 62
ib2-ta-an-@@ 62
kar2-kar2-dam 62
ku3-ga-@@ 62
li-ba-an-asz-gu-bi 62
lu2-inim-ma-bi 62
lugal-mu-@@ 62
lugal-szu-mah 62
maszkim-me-esz2 62
mu-un-ga2-ga2 62
nin-PA 62
nin-kur-ra 62
nin-nig2-erim2-e 62
nin-ur4-ra-ka 62
nu-IL2 62
pa3-de3 62
sanga-ne 62
suen-ra 62
szitim-gal 62
tu-szum2 62
tuku-a 62
tum-@@ 62
u2-sag-sze3 62
u2-szim-e 62
ul4-ul4 62
um-sze3 62
ur-ki-siki-ka 62
ur-lugal-ta 62
ur5-gin7 62
uri 62
utu-he2-gal2 62
wa-mi-ri2 62
za-a 62
-nun 61
DI-@@ 61
KU@@ 61
a-gu-gu-ta 61
a-ma-a 61
a2-ta 61
ba-ba6-i3-sa6 61
dingir-szu-ba-ni 61
du10- 61
du3-a-ku5-me 61
dumu-sag 61
dumu-zi-me 61
e2-ansze 61
elam-e-ne 61
en-nun-ne2- 61
en-sza3-ga-na 61
erin-@@ 61
ga2-ga2-@@ 61
ga2-nu 61
gal-UN 61
gal-gal-me 61
gal2-bi 61
gu2-de3-na-sze3 61
gub-ba-a 61
gub-ba-sze3 61
i-din-@@ 61
i3-du10-ga 61
igi-zu 61
in-du8 61
in-nu-ha 61
inanna-kam 61
inanna-unu 61
ka-x 61
kiri6-gu-la 61
kur-ba 61
lugal-dam 61
lugal-mu-da-kusz2 61
lugal-u4-su3-sze3 61
lugal-za-e3 61
ma-an-gig 61
ma-nu-um-ki- 61
mu-tu 61
nam-lugal-bi 61
nam-nin-a-ni-du10 61
nam-nun-na 61
nanna-an-dul3 61
nig2-ka9-a 61
nigar-ki-du10 61
nin-e2-gal-igi-du 61
nin-uszur4 61
pesz2-igi-gun3 61
sa4 61
sig17 61
sud3-anzux 61
suen-il-szu 61
sza3-ga-du11-ga 61
szabra-@@ 61
szar-ru-@@ 61
szesz-ki-lu5-la 61
szu-se3-ga 61
tu-tu 61
u-bar-ta 61
u4- 61
u8-@@ 61
uku2-nu-ti-gu-la 61
ul-ma-si-tum 61
ur-e2-diri 61
x-NI 61
zabar-@@ 61
-in-@@ 60
-mu-@@ 60
-ra2 60
-sa6-ga 60
DUGx@@ 60
SZID-da 60
X 60
a@@ 60
ab-IL2 60
ad2-gul 60
az-@@ 60
ba-ab-dah 60
da-ra 60
dab5-ba-ne 60
dili-@@ 60
dug-bi 60
e-la 60
e2-szah2 60
en-lil2-ba-ni 60
erin2-tur-tur 60
ga-an-@@ 60
gan-na 60
gan2 60
gi-NE 60
gigir-re-ta 60
gin2-am3 60
gin7-@@ 60
gu2-udu 60
ha-ab-ru-sza 60
hu-ba-na 60
i-pi5-iq-er3-ra 60
i3-zi 60
ig-sze3 60
in-gub 60
ke3 60
ki-siki-me 60
kisal-la 60
ku6-a 60
kur2-@@ 60
lal3-la 60
lu2-dingir-ra-ke4 60
lu2-iri-mu 60
ma-sze3 60
munus-a2-nu-kusz2 60
nag-esir2 60
nam-zi 60
nanna-lu2-du10 60
nin-a-ni-sa6 60
nin-gir2-su-igi-du 60
nin-ki-ni 60
nin-ra-mu-gi4 60
nin-urta-ra 60
ninda-ka 60
nu-banda3-gu4-ke4 60
nu-la2 60
qa2-@@ 60
sag-kal 60
sila4-@@ 60
suen-me 60
szah2-ku3-gu7 60
szara2-szesz 60
szara2-zi 60
szu-du7 60
szu-i3-li2-szu 60
szu-kar2 60
szu-ra 60
szub-bu-de3 60
szudul4 60
szul-gi-iri-mu-ta 60
ti-x 60
tur-re-dam 60
um-ta 60
un-sa6-ga-ta 60
ur-ge6-par3 60
ur-me 60
ur-su4-su4 60
ur-sze-il2-la-ta 60
-tur 59
-u2 59
SAL 59
a-ab-ba-ka 59
a-bu-dingir 59
a-bu-um-i3-lum 59
a-gu-@@ 59
a-su 59
a-tu-@@ 59
a2-ki-ti-ta 59
ak-bi 59
ba-a-a-ti 59
bil2 59
bu- 59
dam-gar3-me 59
dam-ki-na 59
di-da 59
di-ku5-@@ 59
di-ku5-sze3 59
diri-am3 59
dub2 59
e-da 59
e2-gir-gi4-lu 59
e2-ki-ba-gar-ra 59
e2-nig2-gur11-ra 59
e2-sahar-ta 59
en-kusz2-u5 59
geme2-tur 59
gig-@@ 59
gu7-sze3 59
gub-ba-@@ 59
hi-li-@@ 59
hub2 59
hux 59
ib2-sa2 59
im-ma-si 59
kam-sal4-la-ta 59
kesz2-da 59
kin2-@@ 59
ku-u3 59
lu2-dingir-ra-ka 59
lugal-he2 59
lugal-szu-nir-e 59
mun-@@ 59
nanna-mu-dah 59
ni2-zu 59
ni@@ 59
nin-a2-zi-da-ta 59
nin-gal-@@ 59
nin-gir2-su-ka-i3-sa6 59
nin-nibru 59
nin9-gu10 59
nin9-mu 59
ninda-i3 59
pa-bil2-sag 59
pesz2-am3 59
qi2-@@ 59
su3-su3 59
su4-da 59
sud3-@@ 59
szu-me-me 59
szum-ma 59
tur-sze3 59
ug3-IL2-sze3 59
ukusz2 59
ummeda 59
ur-esz3 59
ur-ga2-da 59
ur-utu 59
us2-a-bi 59
usu 59
3-bi 58
DU-DU 58
ISZ.DU6.KID2 58
MASZ 58
a-gu10 58
a-li-@@ 58
a-sag 58
a2-pi5-li2 58
ad-da-gu-la 58
ama-bara2-si 58
ama-uszumgal-an-na 58
asz2-nun-na 58
ba-a-kesz2 58
ba-an-sag3 58
ba-gara2-ta 58
ba-si 58
ba-te 58
ba-usz2-ta 58
bil-ga 58
c. 58
dabin-bi 58
dagx 58
dah-hu-me 58
dar-a 58
di-dam 58
di-ku5-ne-sze3 58
du14 58
dug-gal 58
e2-lu2-ti 58
e2-udu-niga 58
e3-da 58
en-ra 58
en-sze3 58
ensix 58
esz2-dam 58
ga-ke4 58
gesz-sza3 58
gigir-@@ 58
gilgames2 58
gu-za-@@ 58
gu-za-na-ta 58
gu2-ansze 58
gu2-tul2 58
gu4-ra2-bi2-mu2-mu2-ta 58
ha-la-mu 58
he2 58
he2-na-sa6 58
i3-da-gal2 58
im-de6 58
ka-asz 58
ka-giri3-da 58
kab-@@ 58
ki-mun 58
ku3-x 58
li-li 58
lu2-gi-gun4 58
lu2-ma2 58
lu2-tur-tur-ta 58
lugal-a-ni-sa6 58
ma-am3 58
mar-da 58
mu-ba-al 58
mu-na-kux 58
mu13-mu13 58
mun-du 58
munu4-@@ 58
nig2-erim2 58
nin-e-ba-an-sa6 58
nu-di 58
numun-bi 58
palil2 58
puzur4-szu-ni 58
ra-bi2 58
sag-us2 58
sig4-te-la2-ni 58
siki-ud5-bi 58
suen-e-ri-ba-am 58
sza-at-ma-mi 58
sza3-gu4-ta 58
szah2-NE-tur 58
sze-er-@@ 58
szen-@@ 58
szesz-pa3-da 58
szi-ma-nu-um 58
szu-esz-dar-ta 58
tug2-sze3 58
tur-re 58
ur-igi-gal2 58
zabala6 58
zur-zur 58
LA 57
LAGAB-@@ 57
MI-@@ 57
NE-x 57
a-nu-um 57
a-nun- 57
a-ra2-mu 57
a-uri3 57
a-za-ba-ni 57
ab-ba-x 57
ag2-e 57
aga3-us2-e-ne 57
al-la-di-mu 57
amar-e 57
apin-na 57
ar-sza-ti-a 57
ba-an- 57
ba-an-x 57
ba-za-a 57
ba-zi-sze3 57
bar-ra-@@ 57
be 57
be6-@@ 57
bu3-u2-a 57
da-ga-mu 57
da-gi4 57
dingir-ma 57
du10-ga-@@ 57
du6-esz3 57
dul3 57
e-la-ak-szu-qir 57
e2-mar-za 57
e2-sag-kal-la 57
e3-li 57
edin-e-ki-ag2 57
en-u2-a-ta 57
engar-bi 57
epir 57
ga-du 57
gab2-us2-sze3 57
geme2-esz3-ku3-ga 57
gi-gara2 57
gi@@ 57
gidru 57
gizzal 57
gu-dim4-ba 57
hu-uh2 57
hu-un-ha-ab-ur 57
husz-@@ 57
i-ri-bu-um 57
i3-du3 57
i3-gub 57
kasz-saga 57
ku3-sig17-bi 57
kuara 57
la-a-@@ 57
libir-bi 57
lu2-e2-an-ka 57
lugal-nig2 57
ma-at 57
ma-ra-ab-@@ 57
ma2-gur8-re-ta 57
me-ki-gal2-ke4 57
mu-um 57
muszen-du3-me 57
na4-@@ 57
nam2-nun 57
ni-tum 57
nig2-nagar 57
nin-ku3-ga-ni 57
nirx 57
nu-dab5-ba 57
nu-ur2-i3-li2-ta 57
pa3-@@ 57
sa-hir-ra 57
si-in 57
sig-@@ 57
sila4-mu 57
sza-lim-a-hu-um 57
sza3-gu4-me-esz2 57
szakkan2-an-dul3 57
szar-ru-um 57
sze-ba-ta 57
szen-szu2 57
szi- 57
szu-du8-a-ni 57
szul-e2-du3-du3 57
tar-@@ 57
tum2-@@ 57
tum2-mu 57
u2-du-lu2-saga 57
u4-sze3 57
ug3-IL2-e-ne 57
uku2 57
um-mi 57
unug 57
ur-asar 57
ur-e11-e-ka 57
x-ki-@@ 57
x-x-mu 57
za3-szu2 57
-ba-@@ 56
-ta-am3 56
-za 56
ASZ-@@ 56
IL2-@@ 56
a-na-am3 56
ab-ba-sze3 56
ah-@@ 56
ba-szub 56
ba-za-mu 56
bu-la-lum 56
bu3-lu5 56
dingir-re-ne-ke4 56
du-a-ni 56
dub-bi 56
dub-me 56
e-la-szu 56
e2-a-ma-lik 56
e2-munus 56
e2-sag 56
er-@@ 56
er2-ra 56
erin2-na-ka 56
geme2-usz-gid2-da 56
geme2-zigum-ma 56
geszkim 56
gi-IL2 56
gir-ra 56
i-ku-@@ 56
i3-li2-be-li2 56
in-na-du11 56
ka-ka-@@ 56
ku-ku-@@ 56
la-la-@@ 56
lugal-ad-da 56
lul-@@ 56
ma-na-@@ 56
menx 56
mu-du-lum-sze3 56
mul-@@ 56
muszen-@@ 56
na8-na8 56
nagar-@@ 56
nanna-ke4 56
nar-ta 56
nig2-su3-a 56
nin-gir2-su-@@ 56
nin-lil2-@@ 56
nin-nam-ha-ni 56
nu-zu-@@ 56
pa3-da-mu 56
pa4-pa4 56
ra2-gaba-ta 56
si2-mu-dar 56
suh-gibil-du3-a 56
sur-sur-ra 56
sza-ru-um-ba-ni 56
sza3-dingir-ra 56
szu-nu 56
szul-pa-e3-ka 56
szul-pa-e3-sze3 56
tukul-@@ 56
u2-bil 56
ugu2-a-na 56
ur-bara2 56
utu2 56
x-sag 56
za-al-lum 56
zah3-@@ 56
zi-da-num2 56
zi3-kum 56
zu-um 56
-ab-ba 55
-ki-@@ 55
-ri 55
-tu 55
N14 55
NU 55
a-gu2-zi 55
a-ka-sahar 55
a-la-mu 55
a-li2 55
a-ma-@@ 55
a-na-hi-li2 55
a-ri2-bi 55
a2-da 55
a2-pi5-li2-a 55
ab-us2 55
addirx 55
ag2-e-dam 55
al-la-a 55
al-sze6-ga2 55
bahar2-me 55
bil2-@@ 55
bu-ta-nu-um 55
dah-@@ 55
dingir-sipa 55
diri-tum 55
du5-@@ 55
du6-ur3 55
en-mah-an-na 55
ga2-udu-ur4 55
hun-ga2-bi 55
hur-@@ 55
im-ma-ni-in-@@ 55
iri-sag-rig7 55
ka2-mah 55
kar-re 55
ki-ag2-ga2-ni-a 55
ki-gam-ma 55
ki-in 55
kikken-me 55
kin-gi4 55
ku6-@@ 55
kunga 55
kur-ra-@@ 55
kur2-ra 55
lu2-inim-nig2-sa6-ga 55
lugal-mu-ma-ag2-ta 55
lugal-nemurx 55
lugal-nig2-ni 55
lugal-pa-e3-ta 55
ma-lik 55
masz2-da3 55
mu-na-ab-be2 55
mu-ne-du8 55
mu-ru 55
mu-un-du3 55
nam-tar 55
nam-ugula 55
namma-ke4 55
nig2-gu3-de2-sze3 55
nimgir-abzu 55
nin-ab-ba-na 55
nin-he2-du7 55
nin-lu-sa6-sa6 55
nin9-ab-ba-na 55
sa6-ga-ta 55
sahar-ta 55
sakar 55
sig4-zi 55
sza-ra-@@ 55
sze-ga 55
szesz-kur-ra 55
szu-gu-du 55
szu-x- 55
szum2-gaz 55
u3-mu-un-@@ 55
ugnimx 55
ur-sze3 55
za-tum 55
za3-mu-ba-ni-us2 55
zal-la-a 55
ze2-eh-tur 55
ze2-na-a 55
-DU 54
2.@@ 54
GAN2-kam 54
GAN2-ur3 54
LAL2xTUG2 54
MUNUS- 54
a-ba-gal- 54
a-da-na-ah 54
a-ga-ga 54
a-ga-ti-a 54
a2-tuku 54
ad6-bi 54
al-naga3 54
ama-gu10 54
amar-ki 54
ansze-edin-na-nita2 54
azlag2-bi 54
b2 54
ba-ba6-GIR2 54
ba-ba6-igi-du 54
ba-dab5 54
bi2-za-za 54
bu3-u2-ga 54
c.1. 54
c.2. 54
de2-@@ 54
dingir-bu3-zi 54
dingir-szu 54
e11-@@ 54
e2-gibil4-le-tur 54
e2-nig2-ka 54
e2-zi-kalam-ma 54
egir-bi 54
en-lil2-ka 54
en-na-u4-mu 54
en-nun-ta 54
engur-ra 54
ensi2-ra 54
ga-ba 54
ga-gu10 54
ga-ti 54
gesz-asz-sze3 54
gesz-kin-ti-sze3 54
giri3-ne2-i3-sa6 54
giri3-ni-ba-dab5 54
giri3-ni-i3-sa6-sze3 54
gu-u2-gu-a-ta 54
gu-u2-mu 54
guru7-@@ 54
he2-em-mi-@@ 54
i-szar-a-hi 54
i-tur2-dingir 54
i3-du 54
i3-gal2-la 54
i3-gen-na 54
i3-gu7 54
igi-zu-bar-ra-ta 54
in-bul-bul 54
in-su 54
inim-ma-dingir-i3-zi 54
kal-la-ta 54
ki-tusz-lu2-ta 54
la-gi5-ip 54
lu- 54
lu2-es3-sa2 54
lu2-sa6-sa6 54
lu2-x-x-@@ 54
lugal-eb2-gu-ul 54
luh-@@ 54
ma-a-ti 54
ma-nu-um 54
ma-szum2 54
ma2-lah5-e-ne 54
mu-gi-in 54
mu-un-na-de2-e 54
munus-e 54
muru13-ta 54
na-ga-lu5 54
na-gu 54
ni2-e 54
nig2-bi 54
nin-da-nu-me-a 54
nin-gir2-su-ka-sze3 54
nin-gir2-su2 54
nin-gu2-gal 54
nin-su4-an-na 54
nin-tin-ug5-ga 54
nu-mu-da-@@ 54
pa5-@@ 54
sa10-sa10 54
sag-dingir-tuku 54
sag-du-bi 54
sag-gul 54
sar-da 54
siki-sze3 54
sila4-sze3 54
sipa-sze3 54
su-szim-a 54
sug 54
sza-x 54
sza3-gu2-ba 54
szara2-mu 54
szu-im-bi 54
ug 54
ur-esz3-ku3-ga-ta 54
ur-pa4-mu-ra 54
urasz 54
x-x-me 54
za-na-ti 54
GIR 53
LU2xESZ2 53
TI 53
ba-an-ne2 53
ba-an-ti-esz 53
ba-e 53
ba-szur2 53
ba-til 53
be-li2-a-ri-ik 53
da-me 53
e-sze3 53
e-ta-@@ 53
e2-amar-ra 53
e3-lu-num2 53
e@@ 53
en3-@@ 53
ensi2-ka-kam 53
esz3-e-ki-ag2 53
ga2-a 53
ga2-tum3-du10-me 53
geme2-kisal 53
gesz-da 53
gesz-sa6 53
gid2-@@ 53
gil-sa 53
gir-@@ 53
gudu4-me 53
gur10-gur10-de3 53
ha-an-@@ 53
ha-mu-@@ 53
i3-de2 53
i3-szub-ba-gal2-la 53
id-ni-in- 53
igi-bar-lu2-ti 53
im-gid2 53
is-@@ 53
ke4-@@ 53
ku3-nun-na 53
ku4-ra-ni 53
kur-bi-la-ak-ta 53
la-ka 53
lu2-ka 53
lu2-tur 53
lugal-e-@@ 53
ma-la2 53
ma-ma-a 53
ma-za-ti 53
me3-a 53
nam-x 53
nanna-mu 53
nar-sze3 53
nig2-ar3 53
nig2-ar3-ra-bi 53
nim-@@ 53
nin-gir2-su-ka-ke4 53
nin-lil2-le 53
nin-lu2-@@ 53
nin-nam2-mah 53
nu-gal2-la 53
nu-ub-ra 53
nu-zi 53
pesz-@@ 53
pisan-bi 53
ra-me 53
sal4-@@ 53
simug-ne 53
sipa-si-in 53
su-ub 53
sur-de3 53
sza@@ 53
szah2-NE-tur-nita2 53
sze-am3 53
szer7-da-ni 53
szir3-@@ 53
szita2 53
szu-i3-li2-su 53
szu-lu-lu 53
szu12 53
szum-@@ 53
tesz2-a 53
tir-ku3 53
u2-s 53
ugula-e2 53
ur-tar 53
ur-x-x-x 53
x-gi 53
x-la2 53
x-ni-@@ 53
-la2-a 52
-su 52
PA.@@ 52
TUKxUD 52
a-pi4-sal 52
a-szar2-ta 52
abzu-@@ 52
al-la-kam 52
an-za-gar3-sze3 52
ba-az-mu-um 52
ba-ni-li2 52
ba-zi-ge-ta 52
bi-bi 52
bi-x 52
bi2-ra 52
bi2-zu-a 52
da-bad3 52
dam-gar3-@@ 52
du6-sa-bar-ta 52
e2-kikken2-a 52
e2-szu-@@ 52
en-i3-li2 52
esz3-esz3-sze3 52
esza-bi 52
ga-me 52
ga-sza-an-@@ 52
giri3-ni-i3-dab5-ta 52
hun-ga2-ta 52
ibila 52
im-gur- 52
in-szi-in-sa10 52
kam-@@ 52
kiszi17-ta 52
ku-ru-ub-er3-ra 52
ku3-an 52
kun-sze3 52
kunga2-sze3 52
kusz-@@ 52
la2-ta 52
lu2-ku3-zu 52
lugal-a-@@ 52
mesz 52
mu-ne 52
musz-bi-an-na-ta 52
na-ru2-a-sze3 52
na-tum 52
nam-geme2-sze3 52
nin-e2-gal-e-si 52
nin-ha-ma-ti 52
nin-su-ta 52
nin-urta-ta 52
nin9-a-ni 52
nunuz-@@ 52
pesz2-asz 52
ra-kam 52
suh 52
sza-a 52
sza3-mu 52
szagan-kesz2 52
szara2-me 52
szennur 52
szu-e-li 52
szul-gi-he2-gal2 52
szul-gi-ra-ke4-ba-gub 52
tak4-@@ 52
te- 52
tu-ra-a 52
tul2-ta-ta 52
ub-bi2 52
ugu-@@ 52
ul-ta 52
ur-ge6-par4-ra 52
ur-ge6-par4-ta 52
x-nita2 52
x-ra-@@ 52
-kam-ma-ka 51
-li 51
6-@@ 51
AK 51
GIR3 51
KI@@ 51
NIG2-NAGAR 51
UR2xKAL 51
ZAG 51
a-a-ni 51
a-gug2-PI 51
a2-sze 51
aga-sag-kesz2 51
al-dar-a 51
ap-@@ 51
ar3-ar3 51
ba-ba6-a-zu 51
ba-dim2-ta 51
ba-ni-ib-@@ 51
ba-szim-e 51
bar-ba-zi-ga 51
bi-ir 51
buru14-ka-sze3 51
da-da-kal-la 51
dingir-szu-@@ 51
dumu-ni-me-esz2 51
e2-ki-@@ 51
e2-kikken-gibil-ta 51
e2-kuruszda-ta 51
e2-x- 51
en-nu-ta 51
er3-ra-an-dul3 51
ga-gazi 51
ga-na-na 51
ga2-ri-na 51
gab2-ra-me 51
gaba-ni 51
gag-bi 51
gal2-lu 51
gesz-rum 51
gesz-x 51
gu2-tar-bi 51
gur-nag 51
guru7-sze3 51
hendur-sag-ka 51
i3-in-kux 51
i3-li2-szu 51
i3-na 51
il2-il2 51
in-kux 51
ip-@@ 51
ir-du10-ga 51
ka3-li2 51
kalam-ma-na 51
karadin5 51
kas4-ke4-ne 51
ki-la2-tag-ga 51
ki-szum2-ma 51
kin-ga2 51
ku4-ra-ni-i3-sa6 51
kun-nagar 51
kusz2-u3 51
lu2-bi-@@ 51
lu2-da-ga 51
lu2-saga-ta 51
lu2-su-sin2 51
lugal-i-ti 51
lum-ma-ta 51
ma-al-@@ 51
me-sag3-nu-di 51
mu-da-ab-@@ 51
mu-ra-ka 51
nam-dux 51
nam-ha-ni-me 51
nam2-mah 51
nar-munus-me 51
nin-dub 51
nin-en-kusz2 51
nin-gi-na 51
nin-lil2-la2-sze3 51
nu-banda3-@@ 51
pisan-@@ 51
ri2-ba-a 51
sal-mah 51
suh-@@ 51
sumasz 51
sza3-tag 51
sze-kam 51
szen-da-la2 51
szesz-ama-na 51
szesz-tur-tur 51
szu-du8-a 51
szuba3-bi 51
szul-lu5 51
szum2-mu-da 51
ta-a-@@ 51
u18-ba-a 51
u2-du-@@ 51
u3-s 51
ub3 51
ug3-@@ 51
ur-e2-gal-edin-ka 51
x-gin7 51
x-ki 51
za-an-za-ni 51
za-bu-la 51
za-gin3-bi 51
za-nu-um 51
za3-ba 51
zi-gum2-sze3 51
zi-sza3-gal2 51
-a-ke4 50
-ama-mu 50
-du3 50
-ka-me 50
-x-da 50
3-a 50
AN-x-@@ 50
ARAD2-x 50
EDIN 50
IL2-me 50
KA-a 50
MAN 50
a2-ni 50
aga3-us2-sze3 50
amar-ku5-me 50
an-ki-da 50
ba-bi 50
ba-gen 50
buranun-na 50
da-an 50
da-gal2 50
di-ku5-mi-szar-ta 50
din 50
du6-ku3-sze3 50
e2-hul-a 50
en-ki-du10 50
en-ki-he2-gal2 50
engar-e-ne-sze3 50
er3-ra-qu2-ra-ad 50
esz18-dar-nu-id 50
ga-gen 50
ga-zu 50
gal-gal-e 50
galam 50
geme2-bur-sag 50
geme2-dingir-ra 50
gig-ga-am3 50
gin2-sze3 50
gu-u2-@@ 50
gub-bu 50
gum 50
ha-la-la 50
i-ta-e3-a-ta 50
i3-ga2-ga2 50
i3-ri2-na 50
i3-ti 50
im-x 50
in-nin 50
iri-ku3-ga 50
ka-a 50
kal-la-@@ 50
ki-bala-a 50
kikken2-ke4-ne 50
lu2-iri-@@ 50
lu2-kisal-me 50
lugal-ni 50
lugal-ni-mah 50
lugal-ur2-ra-ni-ta 50
lugal-uszur3-ta 50
lukur-kal-la 50
masz2-da3-gu7 50
me-ni 50
mi-szar 50
mu-tag 50
mur-@@ 50
na-ah-ba-tum 50
nam2 50
nansze-ama-mu 50
nig2-bun2-na 50
nin-ge6-par4 50
nin-inim-zi-da 50
nin-kar-ra-ak 50
nin-lu2-mu 50
nin-tur-tur 50
pa-bil-sag 50
re-esz 50
re2 50
sila3-gal 50
simug-ta 50
su- 50
su-la2 50
sza-i3-li2 50
sza-ra-ab-du 50
szabra-e2-ta 50
szara2-ka-sze3 50
szesz-ni 50
szu-dur-ul3 50
szu-e3-a 50
szu-x-@@ 50
szuku-sze3 50
ti-sze3 50
tur3-@@ 50
u3-de6 50
ur-e2-dam 50
ur-sag-e 50
uru@@ 50
uruda-bi 50
usz- 50
x-KA 50
zal-@@ 50
zu-zu-@@ 50
-x-na 49
ARAD- 49
ESZ 49
GAR-@@ 49
SZA3 49
URU 49
a-a-zi-mu 49
a-ab-ba-@@ 49
a-ba-dingir-mu-gin7 49
a-du-@@ 49
a-si-lu 49
a-za 49
ab-ba-na 49
ab-szi-gar 49
ab-x 49
abzu-ki-du10 49
ag-@@ 49
al-la-szar-ru-um 49
al-ta 49
alan-a-ni 49
amar-sze3 49
an-da-ga 49
ba-an-tuku-a 49
ba-pa3 49
ba-saga-ta 49
ba-su 49
bi2-da-ta 49
bi2-se3 49
bul5-bul5 49
da-nu-um 49
de2-e 49
de3-esz 49
du3-du3 49
dub-sar-bi 49
e-me 49
e2-amar-ra-ka 49
e2-gesztin 49
e2-ni 49
e2-sa6-ga 49
e2-usz-bar-me 49
en-lil2-la2-al-sa6-ta 49
en-ne 49
en-nu-me 49
ga-am3-du11 49
ga2-udu 49
gal-an-na 49
garza 49
ge6-ga 49
geme2-e2-@@ 49
geme2-e2-zi-da 49
gi4- 49
giri3-bi 49
gu2-na-ka 49
gud3 49
gur-a 49
gur-mah 49
ha-ha-sza4 49
he2-ni-@@ 49
hu-bu-ti-a 49
i-i 49
i-ku-me-szar 49
i3-bi2-la 49
i3-tuku 49
il2-la-@@ 49
in-sa6 49
inim-ma-me 49
ka-gu4-ku6-sag 49
kal-kal-la 49
kas4-sze3 49
ki-sal4-la-ta 49
ku3-ga-am3 49
ku5-ra 49
lamma-ke4 49
lu2-e2-mah-e 49
lu2-na-ru2-a 49
lu2-pa3 49
lu5-lu5-mu 49
lugal-e2-@@ 49
lugal-gu4-e-ta 49
lugal-iri-ni-sze3 49
lugal-mu-ma-an-ag2 49
masz2-nita 49
mu-dub 49
nar-zi 49
nig2-gur11-ta 49
nin-ensi2 49
nin-ga2-@@ 49
nin-gal-ta 49
nin-lil2-zi-mu 49
nin-nig2-@@ 49
nu-uru4-a 49
pirig-@@ 49
puzur4-szu 49
ru-ba-tum 49
si-im 49
suen-na-ra-am- 49
szagax 49
sze3-ta 49
szeg11 49
szita-@@ 49
szu-GIR2 49
szu-ba 49
u18-da-a 49
u18-di 49
u3-hu-in 49
ug3-IL2-bi 49
ul-la 49
unu2 49
ur-e11 49
ur-lu2 49
ur-lugal-ke4 49
ur2-ra-@@ 49
utu-illat 49
x-x-la 49
zi-le 49
-en 48
-esz 48
-re-gar-ra 48
A.TU 48
GAN2-gu-la 48
KA-NE-sze3 48
LUL 48
NE-NE-a 48
SAGxNI 48
SZID-ta 48
a-al-la 48
a-an-na-mu 48
a-bad-a 48
a-bu-da 48
a-bur2 48
a-lu-um 48
a-na-gin7 48
a-u2-da-gu-la 48
a2-u4-te-na 48
ab-bu-na 48
ad-da-ni 48
ak-sze3 48
al-la-di 48
al-mu 48
ambar-mah 48
ar- 48
asz-dar 48
aszgab-me-esz2 48
ba-ba6-nin-am3 48
bad3-ba 48
bar-da 48
bil 48
bu-ga 48
bu-sza-am 48
da-hi 48
e-bi 48
e-esz 48
e-na-@@ 48
e-ne-eg3 48
en-lil2-la2-ra 48
en-ne2-ma-ad 48
esz-bar 48
esz3-e 48
ga-na-@@ 48
gar-gar-a 48
ge26 48
geme2-tul2-sag 48
gi-zi-me 48
gibil-la 48
gu-x 48
gu2-ne 48
gu7-a-sze3 48
gudux 48
ha-an-du 48
ib-ni-@@ 48
igi-mu 48
im-babbar 48
in-na-an-la2 48
in-sag3-ga 48
in-szi-@@ 48
iri-mu 48
kasz-@@ 48
kesz2-re6-de3 48
ki-su7-ta 48
ki-sur-ra-ta 48
kin-nir 48
kiri6- 48
kisz-lam 48
ku3-dim2-ta 48
ku6-gu10 48
la2-me 48
lamma-me 48
lu2-ulu3 48
lugal-ildu3 48
lugal-pirig-banda3 48
lum-ta 48
lunga-ke4-ne 48
ma-nu-ka 48
ma2-la2 48
mu-DU 48
murgu2-ta 48
muszen-tur-tur 48
na-bi2-um 48
na-di 48
nanna-ma-ba-ta 48
ni-ir 48
nin-da 48
nin-igi 48
nin-szubur-ke4 48
nin-szubur-ra 48
nu-ur2-e2-a 48
pu-um 48
qum 48
ri-ga 48
ri-im 48
sa-gaz-ke4 48
sag-du3-ta 48
sahar- 48
si-ga-bi 48
sukkal-ta 48
sum 48
sze-AN 48
szul-gi-ha-si2-is 48
szum2-pu2-pu2 48
tibira-me-esz2 48
u2-sahar-ba 48
u3-a 48
u4-de3-nig2-saga 48
ur-an-ta-sur-ra 48
ur-szu-mah 48
za-na-a 48
za-ni 48
zi-gan 48
-ab 47
-da-ru 47
-ga-ke4 47
8-@@ 47
EZEN 47
LI 47
MUSZ2 47
SZA 47
ZI.SZE3 47
a-ab-ba-a 47
a-li-ah 47
a-ni-sze3 47
a2-la-la 47
abzu-a 47
asal 47
ba-ab-de6 47
ba-ba6-tuku 47
ba-ke4 47
ba-tum 47
ba-za-@@ 47
ba-zal-la 47
be2-su-ga2 47
da-ri2-sza 47
dagal-@@ 47
du-du-mu 47
du-um 47
e2-nig2-@@ 47
en-de3-en 47
en-zi 47
er3-e-eb 47
ga-ga2 47
ga-ra-@@ 47
ga2-nun-da 47
gal2-la-bi 47
gal2-la-ta 47
gar-ra-@@ 47
geme2-ga2-nun 47
gi4-am3 47
gir4-ta 47
gu10-ta 47
gu7-gu7 47
ha-ab-@@ 47
he2-me-@@ 47
i-na-@@ 47
i-re-eb 47
i-zi-@@ 47
i3-in-gal2 47
igi-nigin2 47
in-gar 47
in-na 47
it-@@ 47
iti-@@ 47
kak 47
kal-kal-ta 47
kas4-@@ 47
ki-gub 47
kur- 47
la2-e-de3 47
lagab-@@ 47
lu2-esz2-gid2 47
lu2-kal-la-sze3 47
lugal-gu4-si-su 47
lugal-igi-sa6 47
lugal-nam-mah-zu 47
lugal-sza3-@@ 47
ma-al-ga 47
ma-an-du11 47
ma2-dara3-ab-zu 47
mah-zu 47
mu-ni- 47
mu-un-da-an-@@ 47
mu-un-szi-@@ 47
na-be2-a 47
nam-me 47
nam-ti-esz3-ta 47
nig2-mu-me-en8 47
nimgir-di-ne 47
nin-mah 47
nir-ra 47
numun-@@ 47
puzur4-isz 47
sa@@ 47
sag-da-na-sze3 47
su8-@@ 47
suen-i-qi2-sza-am 47
sza3-hul2-la 47
sza3-kal-la 47
szara2-a2-zi-da 47
szesz-pa3 47
szu-nigin 47
tabx 47
tesz2-ba 47
til-la-ni 47
tur3-ra 47
u18-lu 47
u2-ka 47
ug-@@ 47
um-me-da 47
utua 47
x-KU 47
x-ba-@@ 47
x-ne 47
x-ti-@@ 47
za-x 47
zalag-@@ 47
-an-na 46
-gu-la 46
-ra-ne-sze3 46
DISZ-@@ 46
NUMUN 46
SA 46
a-ab-ba-bi 46
a-dab6 46
a-e3 46
a-gi 46
a-hu-a-qar 46
a-lal3 46
a-na-asz 46
a-ra2-@@ 46
a-suhur 46
a-sze-er 46
asznan-ta 46
ba-an-tum3 46
ba-na-a-ga2-ar 46
ba-nu2 46
ba-ra-e3 46
ba-usz2-a 46
bala-bala-e 46
dingir-re-e-ne-ka 46
du6-gesz-i3-ka 46
e-na-ta-gar 46
e2-gal-e 46
e2-nu-si 46
e2-te-na-ta 46
en-nun-ne2 46
gam-@@ 46
gar-am6 46
geme2-ganun 46
gesz-nu2 46
giri3-ni-sze3 46
gur4-da 46
gur8-gur8 46
ha-la-ba 46
he2-lah5 46
hun-ga2-e-ne 46
i3-DU 46
i3-ak-ke4 46
i3-erin 46
i3-lum-@@ 46
ib2-ku5 46
ka-tar-ni 46
ki-a-@@ 46
la2-de3 46
lil2-la2 46
lipisz 46
lu2-bala-sa6 46
lu2-bi-ne 46
lugal-gub-ba-ni 46
lugal-me-du10-ga-ta 46
mar-tu-sa6-ga 46
mu-un-zu 46
nam2-@@ 46
nansze-ma-an-szum2 46
ni-me 46
nin-si-gar 46
nin-zi-iri-na 46
nu-na-@@ 46
nun- 46
pu3-um-wa-qar 46
ra-ab-@@ 46
ra-x 46
sza3-tuku5 46
szakkan6 46
szara2-ki-ag2-ta 46
sze-x 46
szeg9 46
sziti-ma 46
szu-i3-li2-a 46
szu-mah-ta 46
szudulx 46
szuku-@@ 46
ta-tu3-ri 46
tur-tur-a 46
u2-ta 46
u2-u2-ta 46
u3-da 46
u5-a 46
ugu2-@@ 46
ugula-sze3 46
ur-gu2-@@ 46
ur-nim 46
wa-wa-ti 46
x-na-@@ 46
za-zi 46
zabar3 46
zi-da-ah-ri 46
zi3-ba 46
-bi-@@ 45
-ga-sze3 45
-un-@@ 45
GAN2-da 45
IL2-sze3 45
RI-@@ 45
a-bat5-ta 45
a-bil-a-ti 45
a-ga-am3 45
a-gub-ba-na 45
a-ha-ma-ti 45
a-num2 45
a-zi-@@ 45
ab-tum 45
aga3-us2-ta 45
ar-bi2-lum 45
azlag2-me-esz2 45
ba-a-de6 45
ba-an-dabx 45
ba-ba6-kam 45
ba-tuku-a 45
ba-zi-zi 45
bil-@@ 45
dab5-ba-@@ 45
dabin-sze3 45
dam-gar3-ra 45
dih2 45
dili2 45
dingir-a-su2-ta 45
dingir-e2 45
du2-@@ 45
du3-e 45
du6-mu-ru-la 45
dub-sar-@@ 45
e-su-dar 45
e2-duru5-ka 45
e2-sukkal-me 45
e2-ur2 45
engur 45
erisz2 45
esz3-esz3-kam 45
ezem-me-ki-gal2-sze3 45
ga-a-mu 45
ga2-da 45
gaba-tab-bi 45
gal-gal-sze3 45
gal2-la-sze3 45
gid2-da-bi 45
gid2-da-sze3 45
giri3-lugal-iti-da 45
gudu4-@@ 45
gur-TUL2 45
he2-ma-@@ 45
i3-ni-gi4 45
i7-sze3 45
im-mi-in-us2 45
in-ak 45
inim-zu 45
ka2-dingir-ra 45
kalam-@@ 45
kalam-e 45
ki-da 45
ki-gu4 45
ki-mah 45
kun-du3 45
limmu2 45
lu2-i-zi-in-er3-ra 45
lu2-kur-re2-bi2-gi4 45
lu2-mu 45
lugal-ku3-ga 45
ma-asz2-tum 45
mar-uru5 45
me-en-kar2-ta 45
me-tesz2 45
min3-esz3-ta 45
n-gal2 45
nag-a 45
nanna-x 45
nansze-gar-ra 45
nansze-kam-ta 45
ni-ba 45
nig2-mu 45
nig2-x- 45
nin-eb2-gu-ul 45
nin-szesz 45
nu-mu-kux 45
nusku-ke4 45
ri-mi-dingir 45
saga-sze3 45
sagi-ne 45
su-su-@@ 45
suen-illat 45
suen-ma-gir 45
szah2-@@ 45
szar-ru-um- 45
szara2-muru13 45
sze-da 45
sze-er-gu-bi 45
szid-bi 45
ta2-ki-dingir 45
te-ze2-en6-ma-ma 45
tug2-du8-me 45
tur-tur-@@ 45
u2-szim 45
ud-du-ur 45
ur-a2 45
ur-dam-ta 45
ur-sag-utu 45
ur-su 45
us2-sa-ta 45
usz-sa6-ga 45
utu-bi2-du11 45
utu-ug3-e-sze3 45
x-gal2 45
x-tum 45
zah2 45
zalag-ga-ni 45
ze2-ba 45
zi-na 45
-pa-e3 44
-usz 44
ARAD2-u3 44
HU-@@ 44
KA-KA 44
KUR 44
LAGABxX 44
UR2xA 44
a-na- 44
a-nag 44
ad-da-da 44
al-li2-ga 44
apin-du10 44
ba-a-du3 44
bar-ra-ta 44
be6-dam 44
bi-me-en 44
bi2-gur 44
bu-ku-szum 44
bur-sag-ta 44
buru14-ka 44
da-da-a-ni 44
dab5-be2 44
dingir-ta 44
du-du-@@ 44
e-lu-@@ 44
e-sa-dur2-ra 44
e2-a-me 44
e2-anzu2 44
e2-da-na-sze3 44
e2-e-ba-ab-du7 44
e2-lu2 44
e3-ne-bi 44
el-@@ 44
er3-eb 44
gaba- 44
gal2-la-am6 44
gam 44
gaz-@@ 44
geme2-sukkal 44
gesztu-@@ 44
giri3-gen-na 44
giri3-ni-@@ 44
gu-za-la2-sze3 44
gu2-de3-na-ta 44
ha-ba-lu5-ge2-ta 44
ha-ba-zi-in 44
ha-ma-ab-@@ 44
ha-ma-an-@@ 44
har-sze3 44
hu-da-ti 44
i-ku-num2 44
i-zi 44
i3-bi2-@@ 44
i3-gesz-sze3 44
igi-bi-sze3 44
igi-zi-bar-ra-ta 44
im-ma-ab-@@ 44
in-dab5 44
iszib-@@ 44
ka-na 44
kasz-de2-a-sze3 44
kid2 44
la-me 44
lam-re6 44
lu2-ezem 44
lugal-gu3-de2 44
lugal-inim-gi-na-ke4 44
lugal-iri-na 44
ma-al 44
ma-an-isz-ti-su 44
ma-na-na 44
ma2-gin2-me 44
ma2-lah5-sze3 44
me-da 44
me-husz-gal-an-ki-ka-ni 44
me-luh-ha-ta 44
mu-du 44
mu-na-ag2 44
munu4-bi 44
musz3-@@ 44
nanna-ra 44
ne- 44
ne-en 44
ne-esz 44
nin-u3-kul-e-ki-ag2 44
ninda-ba 44
pa4-ti-um 44
ra2-gaba-me 44
sa-gar-ra-am3 44
sa-gid2-da-am3 44
si-NE-e-ta 44
si@@ 44
sila3-@@ 44
su-si-ig 44
suhusz-bi 44
sukkal-sze3 44
szum2-bi 44
temen-@@ 44
tug2-du8-a 44
u3-ba 44
u3-mu-e-@@ 44
ul-sze3 44
ur-am3-ma-ta 44
ur-li-ta 44
ur-mes-e 44
ur-pu2 44
us2-sa2 44
uszur3-ra-sa6 44
x-x-na 44
-babbar 43
-da-ni 43
-ri-@@ 43
-sar 43
-ta-@@ 43
3-sze3 43
9-@@ 43
BUR 43
DU-bi 43
GAN2-gu4-gesz 43
HI-la2-a 43
IN 43
KAK 43
PAP-@@ 43
U@@ 43
a-a-du10-ga 43
a-bu3-@@ 43
a-ge6 43
a-i3-li2 43
a-ta2-kal2-szum 43
a-ti-da 43
ag2-ga2-ni 43
ansze-apin 43
ba-du 43
ba-ga 43
ba-ra-tur 43
ba-ra-zal-ta 43
ba-x- 43
be2-ne 43
da-a-gi4-ta 43
dadag-ga 43
dam-a-mu 43
dingir-zu 43
du11-du11-a 43
e2-a-sze3 43
e2-i3-gara2-su3 43
e2-ki-ba 43
e2-sag-@@ 43
en-nu-ug3 43
er 43
er3-ra-nu-ib 43
esz-a 43
esz18-dar-dingir-szu 43
ezem-munu4-gu7 43
ga2-kam 43
gal-nimgir 43
gala-ta 43
gar3-du-ne-sze3 43
geme2-ge6-par4 43
geme2-x 43
gesz-me 43
gesztin-da 43
gigir-ke4 43
giri3-na 43
gu-nigin2-na 43
gu4-apin-na 43
gu4-re6 43
gu4-si-sa2 43
gub-be2 43
gur-sze3 43
gurum2-ta 43
gurun 43
ha-ba-mu 43
ha-um 43
hu-bi2-dam 43
i-bi2-zu 43
i3-im-gen-na 43
ia-@@ 43
imin 43
in-tak4 43
iszkur-ra 43
kaskal-bi 43
kesz2-de3 43
ki-ur2-i3-du10 43
ku-li-@@ 43
kusz2-@@ 43
l- 43
la-ke4 43
la2-bi 43
lu5-zi 43
lugal-edin 43
lugal-me-@@ 43
lugal-me-du10-ga 43
lugal-szuba3 43
lugal-x-x-x 43
lum-ma-@@ 43
ma-an 43
ma-an- 43
ma-an-gi 43
ma-tum 43
me-zu 43
mu-dah 43
mu2-am3 43
mud3 43
na-an-na 43
na-ga-ab-tum-sze3 43
nam-ti-@@ 43
ni-ib-@@ 43
ni2-te-na 43
nig2-gi-na 43
nig2-siskur2 43
nin-da-lagasz 43
nin-e2-gal-@@ 43
nin-sag-e 43
nin-szubur-ka 43
nu-gig 43
nu-sag 43
sag-da-na-ta 43
sahar-u2-u2-ka 43
sila3-am3 43
su3-he2-bi 43
sza3-gar 43
sza3-nin-ga2-ta 43
sze-ba-bi 43
sze-gin2-bi 43
sze12 43
szen-dili2 43
szika 43
tesz2-@@ 43
ud-@@ 43
ug3-bi 43
unu3-de3 43
ur-du6-@@ 43
ur-e2-babbar 43
ur3-sze3 43
usz-bar-ke4-ne 43
utu-mu-kusz2 43
x-ti 43
x-x-NI 43
za-gin3-@@ 43
za3-mi2-zu 43
zi-ir 43
zi-ni 43
-e-@@ 42
-gu 42
-ka-i3-sa6 42
-ka-ra 42
2-bi 42
A.EDIN 42
DAR 42
MUNUS-@@ 42
NI-x 42
PA- 42
PIRIG 42
SZESZ 42
a-IL2 42
a-an-@@ 42
a-an-na-ti 42
a-ba-szesz-mu-gin7 42
a-da- 42
a-hi 42
a-ku-@@ 42
a-kun-kum2 42
a-la 42
a-mur-dingir-ta 42
a-si4 42
a2-dam 42
a2-si 42
ab-ba-gu-la-ta 42
ab-be2 42
amar-suen 42
ambar-ra 42
an-na-kam 42
an-ta-@@ 42
ansze-kam 42
ar-sza-ti-a- 42
ba-a-du8 42
ba-ab-du8-ta 42
ba-an-na-@@ 42
ba-an-tak4 42
ba-gara2-sze3 42
babila-ma 42
bara2-ga 42
bi2-in-gi4 42
bi2-ti-ti 42
da-da-sze3 42
de6-a-am6 42
de6-a-me 42
dim3-@@ 42
dingir-a2-dah 42
dingir-a2-li2-ik 42
du10-ge-esz 42
du11-ge-@@ 42
du2 42
du3-a-ta 42
dumu-nu-banda3 42
e-ba 42
e-da-num2-gu-la 42
e-ge 42
e-ra-ne 42
e-x 42
e2-gu4-ta 42
e2-mah-ta 42
e2-nig2-IL2 42
e2-tur3-ra 42
e3-ka 42
en-ga6-ga6 42
ezem-x 42
ga-gu7 42
gal2-la-@@ 42
galam-ma 42
gam-ma 42
ge2 42
geme2-dumu-ni-sze3 42
geme2-uru11 42
gid2-da-ta 42
gin7-nam 42
ginx 42
gisz-@@ 42
gu-nu 42
gu7-ta 42
hi-li-abzu-ta 42
hu-hu-nu-ru 42
i-da-@@ 42
i3-diri 42
i3-gu7-e 42
i3-id-gur2 42
i3-li2-ki-ib-ri 42
i3-li2-uz-ra-ni-ta 42
i3-lum-ma 42
i3-szub-ba-@@ 42
idigna-da 42
idigna-ka 42
im-a 42
im-e-tak4-a 42
im-ma-gub 42
inanna-tesz2 42
inim-ma- 42
ka-sahar-sze3 42
ka2-dingir 42
ka3-@@ 42
ki-mu11 42
kikken2-@@ 42
kunga2-me 42
kusz3-ta-bi 42
lagab-ba 42
lagar 42
lahtan2-bi 42
lu-um 42
lu2-dab5 42
lu2-du-du 42
lu2-e2-gu-la 42
lugal-agrig-zi 42
lugal-e2 42
lugal-gesz 42
lugal-gu2-du8-a 42
lugal-pirig 42
lugal-ra-gaba 42
lugal-sa6-ga-ta 42
lugal-sukkal-ta 42
mu-me 42
mug-@@ 42
muru2 42
nag4-ga2-de3 42
nam-dub-sar-ra 42
ni2-bi-a 42
nig2-bara2 42
nig2-gal 42
nimgir-ra-kam 42
nin-a-su 42
nin-al-sa6 42
nin-me-kal-la 42
nin-munus-zi 42
nin-sun2-sze3 42
nu-banda3-gu4-ke4-ne 42
nu-ri 42
pa5-enku 42
puzur4-i3-li2-ta 42
ra-gin7 42
rig7 42
sa2-du11-me 42
sag-nita2 42
se2-er-dum 42
silim-@@ 42
sipa-ne-ta 42
su-ga-bi 42
suh5-ha 42
szakkan2-@@ 42
szer3-ra2 42
szer7-gu 42
sziti 42
szu-a-ba 42
szu-palil2 42
szu-sza-la2 42
szul-pa-e3-@@ 42
til-la-ni-sze3 42
tir-ba-bil2-la 42
tul2-du 42
u2-ta2 42
u2-um 42
ud5-me 42
ugu4-bala 42
ur4-a 42
uszum 42
za-ha-@@ 42
zah3-me 42
ze2-ba-am3 42
zi-ti-a 42
zi3-GAM 42
-bi2-@@ 41
E2.BALAG 41
GAN2-ba 41
GIN2-@@ 41
ISZ-@@ 41
KISZ 41
RU-@@ 41
a-ha-ti 41
a-ki-@@ 41
a-mur-@@ 41
a-za-ru-um-da-gi 41
a-zu5 41
a2-da-bar 41
alan-@@ 41
ama-gan 41
an-ne2-ba-du7-ta 41
an-za-@@ 41
ba-an-gi-in 41
ba-tak4 41
banszur-@@ 41
banszur-ra 41
be-li2-a-zu-ta 41
be2-tag 41
bil3-ga-mes 41
bugin 41
dal-muszen 41
di3-@@ 41
e2-dam 41
e2-sahar 41
er3-ra-ba-ni-ta 41
ga-lam 41
ga2-ga2-ne 41
ga2-sze3 41
gaba-gal2 41
gaba-szu-gar 41
gar-ta 41
gesz-ur3-@@ 41
gigir-ka 41
gir13-tab 41
giri17-@@ 41
gu3-zi-de2-a 41
gu4-gur 41
gub-ba-bi 41
ha-lum 41
i3-la-la 41
igi-du8-a 41
igi-lam-lam 41
in-be6-e-esz2 41
in-dab-ba 41
in-gar-ra 41
in-nu-da 41
in-tuku 41
ir-nun 41
iz-@@ 41
ki-ag2-ne-ne 41
ki-tusz-@@ 41
kikken2-a 41
kiszib3-ta 41
ku3-ga-ta 41
ku3-sig17-sze3 41
ku5-de3 41
la-gi 41
la-ha 41
la-x 41
lu2-gi-@@ 41
lu2-ku3-nun-ta 41
lugal-en-nu 41
lugal-iri-da-ta 41
lugal-ka-ta 41
lugal-ku3-@@ 41
lugal-nimgir 41
lugal-siskur2-re 41
ma-ti 41
me-ki-gal2-e 41
mu@@ 41
munus-sa6 41
na-ag2-@@ 41
na-gab2-tum-me 41
nam-ga-ru-um 41
nam-ha-ru-um 41
nam-lugal-@@ 41
nanna-gin7 41
nig2-gesztu 41
nig2-gig-ga 41
nig2-se3-ga 41
nin-ga2-ta 41
nin-ib2-ta-e3 41
nin-iri-da-kusz2 41
nin-ki-sza-ra 41
nin-me-a 41
nin-urta-@@ 41
nin10-nu-du3-ta 41
nu-mu-de6 41
nu-ta-zi 41
nun-ka 41
re-a 41
re-ne 41
ri-tum 41
ru- 41
sa3 41
sag3-ge 41
si-ga-sze3 41
su3-ra2-sze3 41
su3-u4 41
suen-ki-ag2- 41
sza3-igi-sa6-sa6 41
sza3-la2-su3 41
szah2-NE-tur-nita2-gesz-gi 41
sze-kar-ra- 41
szex 41
szibir 41
szu-gu-@@ 41
szu-ma-@@ 41
tam 41
ti-bala 41
til-a 41
u-bar- 41
u2-ta-mi-szar-ra-am-ta 41
u3-szub-ba-gar 41
u4-da-ka 41
u4-nu2-a 41
u6-@@ 41
ud5-@@ 41
udug 41
ur-balag-ga2 41
ur-gesz-@@ 41
ur-lum-ma 41
ur-pu2-mun-na 41
ur-szar-ru-gin7 41
ur-zabala 41
zal-le 41
zi-ga-bi 41
zi-ga-sze3 41
zi-ge 41
zi-me 41
-ki-ag2 40
-ku5 40
-x-ga 40
-x-x-@@ 40
5- 40
A2 40
AL 40
ARAD2-lugal 40
KAR2 40
KU-x 40
PU3 40
U2-@@ 40
a-ab-ba-ni-ta 40
a-al-@@ 40
a-ki-lu5-la 40
a-li2-mu 40
a-na-asz-am3 40
a-na-me-a-bi 40
a-ne-ne 40
a-pi4-sal4-la 40
a2-bi2-la-ti 40
a2-dara3 40
ab-ba-ke4 40
ama-nesag-e 40
ama-ni-ba-an-sa6 40
an-ne2- 40
ar-ha 40
ar3-@@ 40
asz-ne2-u18-ta 40
ba-ba6-da-nir-gal2 40
ba-ba6-lu2-sa6-ga 40
bad3-bi 40
bala-bala 40
be2-a 40
bi2-tum 40
bur-sag-me 40
da-a-ni 40
da-mu-@@ 40
dan-@@ 40
de2-de2 40
dib-@@ 40
dingir-bi 40
dingir-pu3-zi 40
dingir-ra-@@ 40
du-du-sze3 40
du10-sze3 40
du6-du6 40
dul5 40
dumu-nita-ni 40
dun-@@ 40
durx 40
e-gal2 40
e2-kisz-nu-gal2 40
e2-nun 40
eme5 40
engur-@@ 40
gaba-na 40
gala-me 40
gidim 40
gu10-usz 40
gur4-ra 40
ha-ma-gu7-e 40
he2-dab5-e 40
he2-dab5-ta 40
hi-li2 40
hu-zi-ri 40
i-la-@@ 40
i-lu-@@ 40
i3-gar 40
i7-bi 40
ib2-be2 40
igi-zu-sze3 40
in-gid2 40
iq-@@ 40
iszib-mah 40
ka-giri3 40
ka-lu 40
kab-ta 40
kikken2-na 40
kiszib3-@@ 40
ku-li-mu 40
ku@@ 40
kum4-ma 40
la2- 40
li-bi2-in-@@ 40
li2-ta 40
lu2-si4 40
lugal-igi-@@ 40
lugal-ki-tusz-du10 40
lugal-zi 40
lugal-zu 40
lumx 40
ma-sa2 40
ma-zu 40
mar-tu-ne 40
masz-da3-ku3-gu7 40
mu-gi-ne2-esz 40
mu-na-an-szum2 40
mu-un-gar 40
munus-am3 40
na-ag2 40
nam-mah-zu 40
nam-ra-asz 40
ni2-te-@@ 40
nig2-buru14-sze3 40
nig2-ezem 40
nig2-gur11-@@ 40
nig2-kiri6 40
nig2-sa10-am3-bi 40
nin-ab-gu 40
nin-sukkal 40
nusku-ra 40
pi5-sza-ah-dingir 40
sa10-bi 40
sag3-@@ 40
sal4-la-ka 40
se3-ge 40
si-na 40
si-sa2-@@ 40
si2-@@ 40
sig-ta 40
sirara6-he2-gal2 40
su6 40
sud3-da-zi 40
suen-sze-mi 40
sza3-ga-@@ 40
sza3-ga2 40
sza3-gu10 40
sza3-ne-sza4 40
sze-en 40
szi@@ 40
ti-la-@@ 40
tu-ga-asz 40
u-nu-a 40
u2-ba 40
u3-gun3 40
u4-ma-ni-gar 40
u4-sakar-sze3 40
ug5-ga 40
ur-mes-sze3 40
ur-ni@@ 40
ur-zigum-ma-ta 40
ur2- 40
ur4-ur4 40
us2-e 40
x-dingir-ra 40
x-ga-@@ 40
x-ga2 40
x-si 40
x-x-bi 40
za-a-a 40
za-ni-a 40
-KU 39
-a-du10-ga 39
-gi4 39
1. 39
GA2x 39
GA@@ 39
GAL 39
HAR@@ 39
KA@@ 39
KUM-tusz-sze3 39
LAGABxHA 39
LAK2@@ 39
NAGAR 39
SAR@@ 39
TIR 39
TUG2-@@ 39
U.@@ 39
a-ba-sa6 39
a-bu-um-ma 39
a-ma-nu 39
a-me-en 39
a-ri2-lum 39
a-sza3-ba 39
a-za-bu-um 39
a2-u2-u2 39
ad-mu-a 39
aga3-@@ 39
ak-ba-zum 39
al-pa3 39
amar-abzu 39
an-ne2-gar 39
apin-la2-a 39
ba-NE 39
ba-ba-ti-a 39
ba-ba6-e3-a 39
ba-na-ti 39
ba-ni-gi-in 39
ba-zah3 39
ba-zah3-sze3 39
ba@@ 39
bar-sze3 39
bu-ba-ti 39
bur-gul 39
da-ab-@@ 39
da-du-mu-ta 39
dab5-@@ 39
dag-ga 39
di4-di4-la2 39
dingir-e-ne 39
du-lum-i3-du10 39
du5-ta 39
du6-asz 39
du8-a-sze3 39
e-li-@@ 39
e2-a- 39
e2-a-ni-sze3 39
e2-dub-ba-a 39
e2-ku3 39
e2-pa-e3 39
e2-ur3-ra 39
e3-e3-e-de3 39
en-ki-tesz2-mu 39
en-ne2-@@ 39
en-szu 39
engar-gesz-i3 39
er2-kal-la 39
erisz-dingir 39
esz3-ta-szu-sa6-ga 39
ga-an-sur-ra 39
ga-ma-ar-da 39
ga2-nun-mah-ta 39
ga2-ra-ta 39
gada-mah 39
gala-@@ 39
geme2-eb-gal 39
geme2-nin-banda3 39
gesz-gi-gal 39
gi-gur5 39
gi-me 39
gi-na-@@ 39
gi4-a-@@ 39
gin2-@@ 39
gir13 39
gir4-sze-sa 39
gu-la-ka 39
gu-ti-um 39
gub-be2-en 39
gub-bu-@@ 39
gul-bu 39
gur4-@@ 39
i-di3-esz18-dar 39
i-la-ak-szu-qir 39
i-li2- 39
i-ni-@@ 39
i-ti-zu 39
i3-dun-dun 39
i3-im-@@ 39
i3-su 39
i3-szub-@@ 39
i7-lu2-ru-gu2 39
im-bi-a-ba 39
in-de2-a 39
iz-bu-um 39
ka-la-la-ta 39
ka-us2-sa2-sze3 39
ka3-ma-am-tum 39
kab2-@@ 39
kid7-a 39
kiri6-ke4-ne-ta 39
ku-du3 39
ku5-da-a 39
ku5-ru-de3 39
kur-kur-re 39
kur-ra-a2-gal2 39
kur-ti-lum 39
la-a-a-sze3 39
la-ga 39
la2-am3 39
la2-mah-ka 39
lu2-har-sa-ra 39
lu2-sze3 39
lugal-bara2-ge-si 39
lugal-me-me3-a 39
lugal-sila 39
lugal-unu 39
ma-an-gi4 39
ma-dul10 39
ma2-da 39
ma2-da-ga-sze3 39
ma2-da-la2 39
ma2-gan-na 39
masz-da 39
masz-li2-um 39
masz-masz-e-ne 39
me-en-@@ 39
mi-da-a 39
mu-e-szi-@@ 39
mu-na-ni-@@ 39
mu-ni-ib2-@@ 39
mu-sa6-ge 39
mu-sza-sze3 39
mu4 39
mun-ta 39
musz-bi 39
n-@@ 39
na-ah-szum-bala 39
na-ru2-a-mah- 39
nam-mah-@@ 39
nanna-ma-szum2 39
nansze-i3-zu 39
nar-gal 39
ni-ib2-@@ 39
ni-um 39
nig2-se11-se11 39
nigin-@@ 39
nin-da-mu-da-gal2 39
nin-gesz-@@ 39
nin-imma3 39
nin-me-esz3-ta 39
nin-szubur-@@ 39
ninda-gal 39
nun-ne2 39
pap-@@ 39
pi 39
pil3 39
ra-ba-tum 39
sa6-ga-mu 39
sagi-mah 39
si-mu-@@ 39
si-sa2-bi 39
sila4-nita 39
su-x 39
suen-dan 39
suen-ga-szi-id 39
sza-an 39
sza4-@@ 39
szab 39
szi-im-@@ 39
szi-ma-@@ 39
szu-a-@@ 39
szu-na-gar3 39
szuku-e 39
szul-gi-pirig 39
tar-re-@@ 39
tu@@ 39
tur-tur-bi 39
u3-tu-@@ 39
u4-ne-nig2-sa6-ga 39
ub-lu2-pa3-da 39
unux 39
ur-du10-nun-na 39
ur2-dingir 39
ur5-re 39
usz-bar-bi 39
usz2-@@ 39
uzu-ur2 39
wi-@@ 39
x-tur 39
za-a-num2 39
zi-da-@@ 39
zi3-gu-ta 39
-gal2-sze3 38
-gar 38
-in 38
-ka@@ 38
-lugal 38
-ni-du10 38
-x-me 38
GAN2-am3 38
SIG7-a-me 38
SU@@ 38
USZ-ni-tum 38
a-an-na 38
a-bi2- 38
a-bu3-ni 38
a-da-gal 38
a-dar-tun2 38
a-de2-a 38
a-gal-zi 38
a-hu-a-ti 38
a-ku-a 38
a-mu-an-ne2 38
a-szu-@@ 38
a-tu-e 38
a2-bi2-@@ 38
ag 38
ag2-ga2-@@ 38
al-sze6 38
am-ra 38
ama-bara2 38
amar-szuba3-ta 38
an-gu-gu 38
ba-gi4 38
ba-lu5-lu5 38
ba-ra-ab-@@ 38
ba-sze6 38
bar-ra-me 38
bar-ta-gal2-la 38
be-li2-dan 38
bi3 38
bil3-@@ 38
da-ni-ta 38
di@@ 38
dim-@@ 38
du-du-ha-ma-ti 38
du10-i3-li2-ta 38
du10-ta 38
du12-du12 38
du6-da 38
duh-@@ 38
dumu-gi7-me 38
dumu-zi-de3 38
e-lum-ma-e 38
e2-duru5-ne-ne-sze3 38
egir6 38
en-en 38
en-en-e-ne 38
en-na-sze3 38
en-num2-i3-li2 38
en-u2-mi-li2 38
ensi 38
erin2-ta 38
ezem-mah-ta 38
ga-ga-@@ 38
ga-ra-ab-du11 38
ga6-ga6 38
gab2-dan6 38
gamurx 38
gar-sze3 38
gesz-zi 38
gi6 38
gu2-ra 38
gu2-tar-ta 38
gu4-1 38
gur-am3 38
gurum2-e 38
ha-ar-@@ 38
he2-mi-@@ 38
hu-nu 38
hu-nu-nu-ur 38
hul2-le 38
i-bi2-dingir 38
i3-ir-a 38
igi-lugal-sze3 38
im-a-ni 38
in-de6 38
in-pa3-de3 38
in-sa10-a 38
iri-da 38
ka-ka-a 38
ka-la-a 38
kar-ra-ta 38
kar2-@@ 38
ki-ag2-@@ 38
ki-ni-@@ 38
ki-sal4-la-ka 38
li-i3-si-in 38
lu2-an-na 38
lu2-du10 38
lu2-sun2-zi-da 38
lugal-a2-mah 38
lugal-da-@@ 38
lugal-i3-zu 38
lugal-mas-su2-ta 38
ma-al-ku 38
ma-bi 38
ma2-da-ga-ta 38
masz-kan2-szar-ru-um 38
me-x 38
mes-an-du 38
mu-de6-a 38
mu-ri-@@ 38
na-ha-ru-um 38
nam-szita 38
nansze-ba-ni 38
nig2-sur 38
nigar-@@ 38
nin-da-nir-gal2 38
nin-ka-@@ 38
nin-nag-su 38
nisaba-ke4 38
nu-nu 38
nu-ub-gar 38
nun-sze3 38
qu2-@@ 38
ra2-@@ 38
ri-ri-ga-sze3 38
sa12-ti-um 38
sa6-da 38
sangax 38
su-ga-sze3 38
suen-ke4-gar 38
sun2 38
sun5-na 38
sza2 38
sze-IL2 38
szesz-mu 38
szu-ga2 38
szu-na-@@ 38
szul-gi-wa-qar-ta 38
tah 38
tigi 38
tuku-tuku 38
tum-ma-al-sze3 38
tusz-a-sze3 38
u4-1 38
um- 38
ur-me-me-ka 38
ur-sag-bi 38
ur-tul2-mah 38
ur5-sa6-sa6 38
x-x-ba 38
zi-ti-an 38
zi2-@@ 38
zu-la-lum 38
zubi 38
-ab-@@ 37
-hu 37
-ma-ke4-ne 37
-nam 37
-x-ra 37
2-a 37
AN-KI 37
ARAD-zu 37
ARAD2-zu-ni 37
KASKAL 37
KI.@@ 37
KU-sze3 37
LAK6@@ 37
LU-@@ 37
NAGA 37
SZAGAN 37
a-ad-da-mu 37
a-da-min3 37
a-ga-a 37
a-ne-@@ 37
a-sza3-ga-sze3 37
a2-kal-le 37
ab-ak 37
ab2-sza3-ge 37
al-u2-sa 37
allax 37
am3-ma-@@ 37
amar-ku3 37
ar-ma-tum 37
b@@ 37
ba-an-gub 37
ba-gara2-zi-mu 37
ba-gu-um 37
ba-gu7 37
ba-ra-du8 37
ba-ra-zi 37
ba-ta-e3 37
ba-usz2-usz2 37
bahar3-sze3 37
ban3-da 37
bi2-in-ak 37
bi2-ni-tum 37
bi2-szu4 37
bil4-ga-mes 37
buranun 37
da-gan-sze3 37
dam- 37
dara3-abzu 37
dingir-id-ni-ig 37
dingir-re-ne-sze3 37
diri-me 37
du-dam 37
du10-ga-bi 37
du11-ga-zu 37
e-ga 37
e-sze 37
e2-mah-@@ 37
e2-mete 37
e2-x-x 37
elam-sze3 37
en-lil2-a2-mah 37
en-nam 37
engar-ne 37
esir2-ra 37
ezina2 37
ga-gin7 37
gab2-la2 37
ge26-@@ 37
ge6-a 37
geme2-ga2-da 37
gi-zi-sze3 37
gir2-nun-ne2 37
giri2 37
giri3-zu 37
gu2-u3-lu 37
gu2-za 37
gu4-ra2-bi2-mu2-a 37
gur10-@@ 37
gur8-@@ 37
har-da-hi 37
hu-un-nu-um 37
ibila-a-ni 37
ik-@@ 37
im-ti-@@ 37
in-ni-@@ 37
it 37
ka-tar-@@ 37
kam-ma 37
ke4-esz 37
ki-ur3 37
kiri6-ka 37
kiszi17-@@ 37
kul-@@ 37
kur-sza-num2 37
lamma-ama-mu 37
lu-ta 37
lu2-gir-gi4-lu 37
lu2-igi-@@ 37
lu2-na-nam 37
lu2-sukud-ra2 37
lu2-sza-lim-e 37
lugal-an-ku3-ge 37
lugal-im-@@ 37
lugal-iri-@@ 37
lugal-u2-szim 37
lugal-u3-ma 37
lugal-uszumgal-ta 37
ma-la-@@ 37
ma-ma-um-mi 37
marduk 37
mas-su 37
me-a-bi 37
me-te-@@ 37
mi2-@@ 37
mu-na-du11 37
mu-tir 37
na-ba-sa6-sze3 37
nam-gu10 37
nam-tar-@@ 37
ni-bu3-ul 37
nig2-na-sze3 37
nig2-saga 37
nin-da-da 37
nin-ik-s 37
nin-mu-ma-an-szum2 37
nin-sa6-ga 37
nin-tesz2 37
nin-tigix 37
nin-ur4-ra-ama-mu 37
nita-@@ 37
pa3-da-@@ 37
pi-za-za 37
puzur4-ma-am3 37
sa-ra 37
sa2-sa2 37
sa6-ga-zu 37
sagi-gal 37
sar-ra-@@ 37
si-mu-ur4-ru 37
su-ub-@@ 37
su13-@@ 37
su3-e 37
su4-an-ka 37
sumur 37
sur3-dim3 37
sza3-da-ta 37
szabra-ne-ta 37
szah2-tur 37
szakkan-ta 37
szar-ru-um-@@ 37
szarx 37
sze-kar-gal2 37
szu-mu 37
szu-mu-@@ 37
szusz3-@@ 37
tar-ra-@@ 37
tu-da-@@ 37
tu-li2-id- 37
tug2-ba-sze3 37
tusz-a-ba 37
u3-gig 37
ubur 37
udu-a 37
udu-da 37
ur-en3 37
ur-sipa-da 37
utu-szita 37
x-szu 37
za-la 37
za-ri2-qum 37
zabala5 37
zi-ga-ta 37
ziz2-ba 37
ziz2-numun 37
-du10-ga 36
-ku6 36
-ra-ni 36
GA2-@@ 36
GAB 36
GAN2-lu2- 36
GU 36
HAR-da 36
HIxASZ 36
IM-@@ 36
ITI 36
KISAL 36
LIL 36
USZ.ANSZE 36
a-a-u4-su3-sze3 36
a-al-la-mu-ta 36
a-ar-@@ 36
a-ba-ne-gin7 36
a-bu- 36
a-da-ga-ta 36
a-gesz-gir5 36
a-gesztin-na-ta 36
a-li2-ni-su2 36
a-pi-@@ 36
a-ri-@@ 36
a-si 36
a-szi-@@ 36
a-tu5 36
a2-dingir-ga2 36
a2-ge6-il2-la 36
a2-sun2 36
abzu-ke4 36
agar4-a 36
al-la-sa6-ga 36
am-ma 36
am3-ma-a 36
am3-mi-@@ 36
ambar-sur-ra-ta 36
asz-hal-lum 36
asz-im2-babbar 36
asznan-@@ 36
b1 36
ba-HI 36
ba-ab-du7-u3 36
ba-ba-al 36
ba-ba-an-sze-en6 36
ba-da 36
ba-gara2-ka-ni 36
ba-gi 36
ba-ti-a 36
bi-tum 36
bi2-sza-hi-dingir 36
bur2-ta 36
da-ba-a 36
da-gan-na 36
da-hi-@@ 36
de5-de5 36
dingir-ba-an 36
dingir-en-nu 36
dingir-li-li2 36
dingir-lu2-sa6 36
dirig 36
disz-@@ 36
du-la-bi 36
du-mu 36
du11-ga-mu 36
du6-a 36
du6-an-na 36
du8-sze3 36
du8-ta 36
dub-sar-sze3 36
duh-um 36
dulx 36
e-da-gal2 36
e-lak-ra 36
e-ne-ta-gar 36
e-re-@@ 36
e2-a-lu-bi 36
e2-da-na-ta 36
e2-dar-ra 36
e2-duru5-ta 36
e2-mah-e 36
e2-muhaldim-kam 36
e2-nirx 36
e3-a-@@ 36
en-engar 36
en-ki-ra 36
en-lil2-x 36
en-me-@@ 36
en-um-mi-i3-li2 36
en-ze2-en 36
ensi2-ka-ke4 36
esz3-ir-nun 36
ga-mu-@@ 36
gal2-sze3 36
gala-e-ne 36
geme2-i7-edin-na 36
gesz-a-nag 36
gesz-i3-bi 36
gi4-ni-mu 36
gi4-ta 36
gid2-me 36
gu2-an-ka 36
gu2-u3-mu-ta 36
gu3-de2 36
gub-ba-ta 36
gub-bu-de3 36
gur10-sze3 36
gurum2-bi 36
ha-ad 36
har-szu-bi-um 36
he2-du 36
he2-em-ma-@@ 36
he2-me 36
hu-ra 36
i-ku-nu-um 36
i-szar-ra-hi 36
i-tu-ri-a 36
i-tu-tu-a-ta 36
i3-da-@@ 36
i3-li2-kal 36
i3-na-ab 36
ia3-@@ 36
ia3-a-ba-ra-ad 36
ib2-gi-in 36
id-ni-id 36
idigna-ta 36
il-la 36
im-ma-ta 36
im-mi-ib2-@@ 36
in-na-pa3 36
in-u9-u9 36
inanna-ka-sze3 36
inanna-me 36
ka-kesz2 36
kar-ra-sze3 36
ki-TAG-bi 36
ki-gal-la 36
ki-inim 36
ku3-dingir-ra 36
ku3-ga-ka-ni 36
ku5-da-ta 36
kum-@@ 36
kurun2 36
kuruszda-e-ne 36
la2-mah-gu-la 36
lahtan 36
lamma-iri-na 36
lu2-bala-@@ 36
lu2-du 36
lu2-du10-ga-mu 36
lu2-giri17-zal-sze3 36
lu2-iri-bar-ra 36
lu2-szu-ga-lam-ma 36
lu2-tu-ni-um 36
lu2-ur- 36
lugal-e-i3-zu 36
lugal-ka-@@ 36
lugal-me-e3 36
lugal-nu-banda3-ta 36
lugal-uszur4-ta 36
lugal-za3-ge-si-ta 36
ma-a-@@ 36
ma-tug2 36
ma2-an-na 36
ma2-dara4-ab-zu 36
mar- 36
me-en-kar2-sze3 36
mi-tum 36
mu-a-kam 36
mu-hul-sze3 36
muszen-du3-e-ne 36
nag-esir2-ta 36
nam-enku 36
nam-tur 36
nanna-dalla-ta 36
nansze-ra 36
nig2-gal2-la-ta 36
nig2-lam2- 36
nig2-mu10-us2-sa 36
nigin2-@@ 36
nin-dar-a-me 36
nin-e2-gal-ka 36
nin-ga2-i3-gi 36
nin-gir2-su2-ka-ke4 36
nin-nisi 36
nin-siskur2-e 36
nin-urta-ke4 36
nin-zi 36
nin9-tur-tur 36
nu-ti 36
nu-ur2-esz-dar 36
pesz-ga 36
qu2-ru-ud-sa3 36
ra-asz 36
ri-ib-@@ 36
ri-szi-in 36
sa-hi-ra 36
sag-bi-sze3 36
sag-nin-e-zu 36
se3-ga-bi 36
si-im-@@ 36
si4-@@ 36
sila4-bi 36
sza-na 36
sza3-la2-tum 36
sza3-tam-e-ne 36
sze-karx 36
szesz-kal-la-sze3 36
szesz-szesz-ta 36
szi-ni-ta2-a 36
szu7 36
ta-ta 36
ta2-din-esz18-dar-sze3 36
tab-be2-de3 36
tu-ki-in-PA-mi-ig-ri-sza 36
tu-ru-@@ 36
tu7-sze3 36
tum3-da 36
u2-IL2-me 36
u2-da-@@ 36
u3-mu-ne2-ne2 36
u3-ru-de3 36
ud5-da 36
ug5-@@ 36
ur-e2-musz 36
urx 36
usz-bar-e-ne-sze3 36
usz-bar-tur 36
utu-a-bi 36
x-sa6 36
x-x-um 36
za-an-nu-um 36
zi-sze3 36
zu-bu 36
-ti-@@ 35
3-e 35
AB-KID-KID 35
AD 35
AN-x- 35
AN-x-x 35
KA-ku3 35
KA-x- 35
LAK3@@ 35
UD@@ 35
a-a-iri-mu 35
a-an-na-a 35
a-kal-la-sze3 35
a-ki-gal 35
a-sa6 35
a-wi-@@ 35
ad@@ 35
aga-@@ 35
agrig-ge 35
ak-ta 35
ama-nig2-du10 35
amar-kuara 35
an-x 35
asz@@ 35
ba-ba-sze 35
ba-usz2-sze3 35
bad-@@ 35
bal 35
bur-szu-ma 35
da-mu-sze3 35
da@@ 35
dib-ba 35
dim2-ma-bi 35
dingir-ki-ma-at 35
dingir-su-ba-ni 35
dingir-su-kal 35
du-du-ka 35
du7-du7-dam 35
dub-ba-ni 35
dul9 35
e-lu-usz-du10 35
e-ma-@@ 35
e2-du-du 35
e2-gar8 35
e2-gi-sig-ga 35
e2-me-esz 35
e2-x-@@ 35
eden-si 35
egi-zi-mah 35
elam-@@ 35
elam-e-ne-ta 35
en-lil2-ke4 35
en8-bi 35
ga-ni-@@ 35
ga2-ga2-da 35
gar-gar-@@ 35
gesz-tug2-ga 35
gesztin-had2 35
gesztux 35
gid2-da-me 35
giri3-sze3 35
gu2-sze3 35
gu7-bi 35
ha-ar-szum 35
he2-am3 35
hu-mu-ni-@@ 35
hu-uh2-hu-nu-ri 35
hu-um-@@ 35
i-mi-@@ 35
i-ti-mu 35
i-za-ri2-iq 35
i3-a 35
i3-ib2-gal2 35
i3-li2-asz-ra-ni-ta 35
i3-li2-isz-@@ 35
i3-li2-x 35
i3-mi-@@ 35
i3-szub-ba-gar-ta 35
ib- 35
im-ba 35
im-si 35
iri-ka-ka 35
iri-zu 35
kad4 35
ki-ka 35
ki-nu2-@@ 35
kikken-@@ 35
kur2-kur2-ra 35
kur2-sze3 35
kusz-bi-sze3 35
la-ga-ma-al 35
li-lum 35
limmu-ba 35
lu2-e2 35
lu2-lum-ma 35
lugal-nam-gu2-su3 35
ma-na-am3 35
ma-x- 35
masz2-bi-sze3 35
me-nigar-ta 35
mes-e2-zi-da 35
mu-la-ha-a 35
mu-na-ni-in-@@ 35
mu-ni-gi4 35
mu-ru-@@ 35
mu-un-gal2 35
mu-un-ne-@@ 35
mur7 35
n-na 35
na-ah-@@ 35
na-zu 35
nam-ARAD2-sze3 35
nam-ba-an-@@ 35
nam-mah-sze3 35
nam-mi-@@ 35
nanna-szesz 35
nig2-du3 35
nig2-du5-du3 35
nig2-gur11-ra 35
nigin2-nigin2 35
nin-amasz-zi 35
nin-dar-a-sze3 35
nin-en-@@ 35
nin-i-ti 35
nin-ug2 35
nin-uri5 35
nu-dab-ba-me 35
nu-dab-ba-ta 35
nu-mu-na-@@ 35
nu-ur2-a-a 35
pa@@ 35
pap 35
pi@@ 35
pu2- 35
rig7-@@ 35
rin2 35
si-U-NU 35
sipa-inim-gi-na 35
suen-a-bi2 35
suen-na-da 35
sza-ar-i3-li2 35
szah2-gur4-nita2 35
szara2-mu-tum2-ta 35
szesz-gu-la 35
szu-esz4-dar 35
szu-ga-lam-ma 35
szu-ku-@@ 35
szu-nu-nu 35
szu-ru-a 35
szuba 35
szul-gi-dan 35
szul-gi-x 35
szul-sza3-ga 35
szum2-ma-@@ 35
ta-x 35
tilla3 35
u18-ru 35
u3-na-@@ 35
u3-na-de3-tah 35
u4-ga-ni 35
udu- 35
ug7 35
ur-am3 35
ur-lu2-gu-la 35
ur-ti-ra-asz2 35
uru2-gu10 35
us2- 35
za-ar-@@ 35
za-mu 35
za-na-@@ 35
zi3-KA 35
zu2-si-sze3 35
-al 34
-esz18-dar 34
-na-ta 34
-x-la 34
7-@@ 34
AN.@@ 34
ARAD2-dingir-ra 34
BIL2.GA.MES 34
DU-x 34
DUL3 34
EN-@@ 34
GUR 34
KA-du 34
PAP.NAGAR 34
URxMIN 34
a-da-x 34
a-hu-ti 34
a-hu-wa-qar-ta 34
a-kum2 34
a-ta2-na-ah 34
a-zu-@@ 34
a2-dam-bi 34
a2-li2-id 34
aga3-zi 34
alamusz 34
ama-zu 34
amasz-a 34
an-ne2-si 34
an-ta-mu-zu 34
apin-du8 34
ba-a-hul 34
ba-ad-da-ri2-ta 34
ba-ne-gi-in 34
ba-ni-ib2-@@ 34
ba-sag3 34
ba-ti-@@ 34
babbar-bi 34
bahar2-@@ 34
bara2-sze3 34
be6 34
da-x- 34
da-zu-ne 34
di-da-mu-ne 34
dim3 34
dingir- 34
du-ri2-sze3 34
du-u2-@@ 34
du8-bi 34
dumu-gu10 34
dumu-ni-ir 34
dumu-ni-ra 34
e-li- 34
e2-gu4-ka 34
e2-lunga3 34
e2-sag-da-na-sze3 34
e2-zi-@@ 34
e2-zu 34
egir4 34
en-gal-du-du-ta 34
er3-ra- 34
esz2-la2 34
esz3-ki-du10 34
ga-ab-@@ 34
ga-tum 34
gal-le-esz 34
gar-ra-am3 34
ge-de3 34
gen-na-@@ 34
gesz-i3-ka-sze3 34
gesz-ra 34
gi4-x 34
gu-ub- 34
gu-za-a 34
gu2-u3-gu2 34
gu3-de2-a-sze3 34
gur-re 34
gurusz-gin7-du-sze3 34
ha-a 34
he2-x 34
hi-li-bi 34
hu-ba-@@ 34
hu-la-ni 34
hu-ru-@@ 34
hur-sag-@@ 34
i-di-@@ 34
i-ni-in-gar-ra-a 34
i3-ag2-e 34
i3-li2-ra-bi2 34
i3-li2-sze3 34
igi-ba 34
ik-s 34
im-ma- 34
in-da-an-@@ 34
in-na-ba-a 34
in-ne-@@ 34
ka-lal3 34
ka5-mu 34
kalam-ma-sze3 34
kar2-kar2-de3 34
kinda 34
kisz-@@ 34
kiszib3-ba-ta 34
la-al-ku-da 34
lah5-@@ 34
lu2-dingir 34
lu2-igi-ma-sze3 34
lu2-inim-ma-bi-me-esz2 34
lu2-iri 34
lu2-sa6-@@ 34
lugal-a2-@@ 34
lugal-dub-sar 34
lugal-inim-gi-na-ka 34
lugal-kesz3 34
lugal-usz-sux 34
lum-ma-mu 34
lum-sze3 34
m-@@ 34
ma-nu-@@ 34
ma-ra 34
ma-za 34
ma2-du3 34
mah-a-ni 34
mar-tu-saga 34
masz2-sze3 34
me-dim2 34
mu-ra-an-@@ 34
mu-un-du8 34
mu10 34
na-ki-ni 34
na-na-ta 34
na-ni-@@ 34
na-ti 34
nam-sipa 34
nanna-gu2-gal 34
ni-zi 34
ni2-gu10 34
nin-a-ni-ir 34
nin-da-@@ 34
nin-gesz-zi-da-me 34
nin-hur-sag-sze3 34
nin-masz-e 34
nin-sun2-@@ 34
nir-an-da-gal2 34
nu-de2 34
num2-@@ 34
pu3 34
ra-am 34
ri-isz 34
sa-ha 34
sa6-ga-ni 34
sag-ge6-ga 34
si-sze3 34
si-um 34
sipa-de3-ne-ta 34
sukud-bi 34
szakir3 34
sze@@ 34
szer7-@@ 34
szesz-a-ne-ne 34
szu-gi 34
szu-gi4-ta 34
szu2-szu2 34
szubur-@@ 34
tag-ge 34
u2-da-ta 34
u3-ma-ni-sze3 34
u4-a 34
u4-da-ta 34
ug3-IL2-e 34
ur-gin7 34
ur-i7 34
ur-i7-de3-na 34
ur2-mah 34
ur@@ 34
uru2-@@ 34
utu-ki-ag2 34
utu-ma-an-szum2 34
x-LUM 34
x-a-ni 34
x-la-@@ 34
zalag 34
zar3-tab-ba 34
zi-a 34
zi3-da-ta 34
-bi-ta 33
-du-@@ 33
-kam-@@ 33
-na-bi 33
-na-ka 33
-ne-@@ 33
-szu 33
-x-mu 33
4-a 33
6-sze3 33
AB@@ 33
AK-utu 33
ANSZE 33
ARAD2-hu-la-ta 33
BAD@@ 33
DI-a 33
DIM 33
DISZx2U 33
GA2x@@ 33
GAN2-masz-sze3 33
HI-la2-de3 33
HUB2 33
ISZ-su 33
MES 33
NI-a 33
NI@@ 33
NUNUZ.KISIM5x 33
PA-DU 33
SZID-bi 33
UD.@@ 33
a-da-ab 33
a-esztub 33
a-ga-tum 33
a-ga2 33
a-hu-um-ma 33
a-ru-a-me 33
a2-si-lu 33
a2-x 33
al-dab5-ba 33
al-til 33
amar-szuba2-ta 33
amasz-@@ 33
an-ki-a 33
azlag2-ke4-ne 33
ba-a-la2 33
ba-ab-x 33
ba-an-du8 33
ba-ba6-i3-du10 33
ba-de2 33
ba-il2 33
bad3-iri-na 33
bala-de3 33
bar-bar-li2-a 33
bar-su-ga-bi 33
bara2- 33
bu3-u2-@@ 33
da-a-da-ta 33
da-gan-@@ 33
da-ri2-@@ 33
da-zu 33
dab5-ba-a 33
dan-ni-a 33
de5 33
di-ku5-mi-szar 33
dili-ni 33
din-@@ 33
du-da 33
du-du-li2 33
du-ka 33
du10-uk-si-um 33
du11-ga-AN 33
du11-mu-na-ab 33
du3-a-sze3 33
du5-ba 33
du6-szuba3 33
dub-mu 33
dumu-zi-urua 33
e-gar 33
e-la- 33
e-lu-usz-da-gan 33
e-na-szid 33
e-ne-ra 33
e2-da-@@ 33
e2-duru5-gu-la-ta 33
e2-kin-ga2 33
e2-ku6-nu-gu7 33
e2-kur-@@ 33
e2-kur-ra-hi-li-bi 33
e2-nam-@@ 33
e2-nam-du-du 33
e2-zi-mu-ta 33
eb2-@@ 33
edin-ta 33
egir-ra 33
en-du8-du-sze3 33
en-lil2-la2-me-en 33
en-ni-ma-ad 33
en-u2-mi-i3-li2 33
en-um-esz18-dar 33
en@@ 33
ensi2-ka-me 33
erin-KU-sze3 33
erin-KU-sze3-ta 33
erin-da-ta 33
ga-mu-ra-ab-@@ 33
ga-sa6-ga 33
ga2-ka-nam-he2-ti 33
gab2-durunx 33
gaba-x 33
ganun-@@ 33
geme2-e2-kar-re 33
geme2-x- 33
gesz-gi-a 33
gesz-sa6-sa6 33
gesztu2-@@ 33
gi6-@@ 33
gim 33
girim2-ta 33
gu-a 33
gu-gu-tum 33
gu-sze3 33
gu-za-nita 33
gurusz-a 33
ha-da 33
hal-la 33
hu-ti 33
hu-x 33
hu@@ 33
hub2-@@ 33
i-gi-bu-ni-ta 33
i-tu-a 33
i3-lam-ma 33
i3-me-a-sze3 33
i3-si-in-na 33
i7-a-bi-du10 33
ib-szi-na-at 33
ib2-du3 33
ig-alim-sze3 33
igi-ne-ne-sze3 33
igi-ni-@@ 33
igi-nin-sze3 33
igi-su4-su4 33
imgaga3-bi 33
inanna-ka-ta 33
inanna-me-en 33
iri-ga2 33
isztaran-@@ 33
ka-a-du 33
ka-gal2-la 33
ka-sahar 33
ka-sahar-ta 33
kalam-he2-na-gi-ta 33
kam-sal4-la-sze3 33
kasz-de2-de2 33
kin-gal 33
kin2-na 33
kiri6-a 33
ku-ru-@@ 33
kun-ta 33
la-ma-@@ 33
lal3-e 33
lal3-ha 33
lil2-e 33
lu2-a-@@ 33
lu2-isin2 33
lu2-zi 33
lugal-ba-gara2 33
lugal-dab6-ba-an 33
lugal-dingir 33
lugal-gaba-ta 33
lugal-i3-nun 33
lugal-iri 33
lugal-ni2-te-na 33
lugal-ti 33
ma-lik-illat 33
mangaga-sze3 33
mar-hu-ni 33
mar-tu-munus 33
maszkim-@@ 33
me3-@@ 33
mu-da-gal2 33
mu-ni-gin7-du10 33
musz-ak 33
na-mu-un-@@ 33
na@@ 33
nam-szita-mu-bi2-du11 33
nansze-i3-dab5 33
ne@@ 33
nig2-ar3-ra-sze3 33
nig2-du7-pa-e3-ta 33
nig2-gid2 33
nig2-gu7-a-me 33
nig2-iti-da 33
niga-ta 33
nimgir-gal 33
nin-gal-sze3 33
nin-gesz-zi-da-ke4 33
nin-gin7-a-ba-gin7 33
nin-gublaga 33
nin-hur-sag-@@ 33
nin-ki-la2-a 33
nin-ra-giri17-zal 33
nin9-ka-sa6 33
nita2-@@ 33
nu-da-@@ 33
nu-gi4-gi4-de3 33
nu-ra-@@ 33
nu-saga 33
nu-tuku-@@ 33
pi2-@@ 33
puzur4-isz-@@ 33
ri-ba-@@ 33
ru-ta 33
sa- 33
sa6-sa6-ta 33
saga-@@ 33
si-ig-@@ 33
sig15-kam 33
sila3-banda3 33
su-gur 33
suen-ra-ki-ag2-an-na 33
sukkal-di-ne 33
sza-sze3 33
sza3-te 33
sza3-x 33
szah2-sze3 33
szara2-anzu2 33
szara2-igi-du 33
sze-en6 33
szen-sze3 33
szen-szen-na 33
szu-bur2-ra 33
szu-ga-@@ 33
szuba3-nun 33
szul-gi-da-nir-gal2 33
szul-gi-mi-szar-ta 33
szul-gi-pa-li2-il 33
szum2-mu-@@ 33
szunigin-ba 33
ti-ru 33
tug2-sa-gi4-a 33
tum2-tum2-mu 33
u-bar-ni-a 33
u3-szub-ba 33
u3-um-@@ 33
u4-buru14-sze3 33
ug7-ug7-ga-am3 33
ukken-na 33
um-ma-mu 33
ur-e-@@ 33
ur-e2-ninnu-sze3 33
ur-e2-nun-gal 33
ur-esz2-dam-ta 33
ur-igi 33
ur-mes-@@ 33
ur-szusz3- 33
ur5-ra-ka-sze3 33
ur5-ta 33
wa-wa 33
x-li 33
x-ma-@@ 33
za3-ta 33
ze2-da 33
zi-re 33
zi-ri2-gum2 33
zi-zi-i 33
zu-ga-li2 33
zu-gin7 33
zu2-lum-sze3 33
-A 32
-la-@@ 32
-na-sze3 32
3-da 32
EN@@ 32
HAR-tu- 32
LUGAL 32
MU-@@ 32
SAL-@@ 32
a-a-ta 32
a-bil-@@ 32
a-gar5 32
a-hu-i3-lum 32
a-ru 32
a-wi-li2 32
a2-nu-kusz2 32
a2-sze3 32
a3-@@ 32
ad-kup4-ta 32
ag-ga 32
ag-ga-ga 32
aga3-us2-@@ 32
al-hul 32
ambar-tur 32
ansze-mah2 32
ba-ab-du7 32
ba-ab-gar 32
ba-ab-si 32
ba-al-la-ta 32
ba-ba6-i3-@@ 32
ba-er 32
ba-me 32
ba-na-ha-la 32
be2-esz 32
bi-ir-@@ 32
bi2-in-gub 32
da-a-da-ga 32
da-gin7 32
da-kam 32
dingir-al-sa6 32
dirig-@@ 32
du10-ga-me 32
du3-x 32
du5-sal 32
du8-e 32
dum 32
e2-ab-sza3-ga 32
e2-lu2-@@ 32
e2-mu 32
e2-nin 32
e3-x 32
edakuax 32
en-lil2-unken-a 32
en-u4-da-na 32
engar-re-ne 32
enkux 32
ga-a-a 32
ga-da-bi 32
ga2-ka 32
ga2-nun-mah 32
gar-ra-a 32
geme2-e11-e 32
gesz-gi-banda3 32
gesz@@ 32
gesztu2-ga 32
gibil-a 32
gin2-ta-am3 32
gu-du-@@ 32
gu-za-sze3 32
gu@@ 32
gud3-bi-sze3 32
gur-da 32
he2-eb2-@@ 32
hu-hu-@@ 32
hu-pi5-tam2 32
hul-bi 32
hul2-la-da 32
hul3-la 32
i3-du8-ta 32
i3-li2-a-hi 32
i3-li2-sa6 32
i3-ra 32
i7-mud 32
i7-ta 32
igi-nim-sze3 32
im-nun 32
im-ta-an-@@ 32
in-na-an-ba 32
in-x 32
is 32
isz- 32
ka-guru7-ke4 32
ka@@ 32
ki-za 32
ku5-da-mu-ta 32
ku5-ra2-@@ 32
kukku2 32
kur-bi- 32
la2-a-sze3 32
lag 32
li- 32
li-li-@@ 32
li-ta 32
lu2-an-ne2 32
lu2-mar-za 32
lu2-ur4-sza3-ga-ke4 32
lugal-ab-ba-ta 32
lugal-inim-du10 32
lugal-kal-ga 32
lugal-ki-@@ 32
lugal-surx 32
lunga-sze3 32
m- 32
mah-di 32
mar-gid2-da 32
me-lam2-@@ 32
me@@ 32
mu-na 32
mu-tum-dingir 32
mu-un-x 32
na-bi2-@@ 32
ne-a 32
ne-be6-er-na-di3-a-tim 32
ne-e 32
ne-ka 32
nig2-gur11-ra-ni 32
nig2-lam 32
nig2-sal-la 32
nig2-szu-@@ 32
nin-bad3 32
nin-e-zu 32
nin-ta 32
nin-ur2-ni 32
nin-ur4-ra-da 32
nu-u@@ 32
nx 32
pa-bi 32
pesz2-@@ 32
qa2-qa2-da-nu-um 32
ri-sze3 32
sa6-mu 32
sa6-sa6-ga-ta 32
sagi-ta 32
sahar-ra-ka 32
sanga-GAR 32
sar-sze3 32
si-ig-ra-asz2 32
si-x 32
si2-im-tum 32
su8-ba 32
sud3-a2-mah 32
sullimx 32
sza3-la2 32
sza3-ze2 32
szagina-@@ 32
szah2-gur4-munus 32
sze-er-zi 32
sze3-am3 32
szer7-da- 32
szu-ku6-@@ 32
szu-na-mu-gi4-ta 32
szu-szum2-ma-ta 32
szul-gi-ra-ke4 32
ta2-din-@@ 32
tab-ba-@@ 32
tah-@@ 32
tug2- 32
tum-e 32
u2-sal-la 32
u3-sar 32
u3-sur-@@ 32
ub5 32
ukken 32
unu3-de3-ne 32
ur-a-a-mu 32
ur-du6-ku3-ta 32
ur-sa6-ga-sze3 32
usz-zi 32
x-x-i3-li2 32
x-x-tum 32
za-gin7 32
zal-la-asz 32
zi-qur2-i3-li2 32
ziz2-a 32
zu-zu-a 32
-ba-an-da-ra-ah 31
-bu-@@ 31
-kam-ka 31
-lil2 31
-mes 31
-na-ke4 31
2-sze3 31
ARAD2-e-ne 31
DU@@ 31
GA2xX 31
GAM 31
GUG2.MUNU4 31
HI-a-bar-ra-ta 31
KAx@@ 31
KU-bi 31
KU-dim2 31
KU-ta 31
LAGAB@@ 31
LAK244 31
LAK384 31
ME-@@ 31
NI2 31
PA@@ 31
RU-lugal-me 31
TAB 31
TAG@@ 31
TUM-@@ 31
UN-@@ 31
UR2 31
a-am3 31
a-bu-bu 31
a-hu-um-@@ 31
a-hux 31
a-sza3-da 31
a-za-za 31
a2-gu 31
ab-ba-ka 31
ab-ta 31
ab-ta-@@ 31
ad-da-na 31
aga3-us2-ne 31
al-lu-mu 31
al-ur5-ra 31
amar-szuba 31
an-na-he-gal2 31
ansze-bi 31
ba-a-sze3 31
ba-ab- 31
ba-al-i3-li2 31
ba-am3 31
ba-an-na-szum2 31
ba-asz 31
ba-ba6-dingir-mu 31
ba-na-a-gar 31
ba-ne-@@ 31
ba-x-@@ 31
bi-la-@@ 31
bi-me 31
bi2-du3 31
bil4-@@ 31
bu-ga-num2 31
dab5-me 31
danna 31
du8-x 31
dur2-gar 31
e-ni-@@ 31
e2-amar-ka 31
e2-ba-an-ta 31
e2-e-@@ 31
e2-mah-ki-bi 31
e2-me 31
eme-gi-ra 31
en-du8-du-ka 31
en-gi 31
en-te 31
er3-mu 31
eren 31
erim2-@@ 31
ga2-ni 31
ga2-nun-@@ 31
gada-@@ 31
gal-zu-@@ 31
gal2- 31
gar-re-esz 31
gesz-gar-ra-asz 31
gesz-i3-ta 31
gi-du3 31
gi-sig 31
gid2-a 31
gil-@@ 31
gir2-a 31
gu-ul 31
gu-um 31
gu-za-la2-e-ne 31
gu2-ni 31
gu4-ka 31
gun3-@@ 31
gur-lugal 31
ha-ba-ab-szum2-mu 31
ha-ba-an-@@ 31
ha-ma-ti-ta 31
ha-na-@@ 31
he2-en-zu 31
hu-mu-ra-@@ 31
i-ri-@@ 31
i3-gi 31
i3-li2-a-lum 31
i3-li2-asz2-ra-ni 31
i3-li2-isz-ti-kal2 31
i3-li2-mi-ti 31
i3-su3 31
ig-mu-lum 31
im-ma-da-an-@@ 31
in-nin9 31
in-za-mu 31
isztaran-ke4 31
iti6 31
izi-@@ 31
k@@ 31
ka-ge 31
ka-ma-ri2-ta 31
ki-na-@@ 31
kin-a 31
ku-ba-tum-sze3 31
ku3-dim2-sze3 31
kur-bi 31
kusz-kusz 31
la-li2 31
la-te-ni-isz 31
la-za-wi-ta 31
lam-sag 31
li-bur-@@ 31
li@@ 31
lil2 31
lu2-du10-@@ 31
lu2-e2-sukud-ra2 31
lu2-gi-na-sze3 31
lu2-igi 31
lu2-ki-@@ 31
lu2-me 31
lu@@ 31
lugal-gu2-gal-ta 31
lugal-kal-la 31
lugal-ma2-gur8-re-sze3 31
lugal-me3-a 31
lugal-sag 31
lukur-@@ 31
lukur-gal 31
m@@ 31
ma-ma-ta 31
ma-ti-li2 31
ma2-gu-la 31
masz-ku3-gu7-ta 31
masz-um 31
masz2- 31
masz2-ansze 31
me-e2-gal-ta 31
me-sze3 31
mu-da-e 31
mu-un 31
mu10-us2 31
munu4-si-e3 31
n-am3 31
naga4 31
ni-da 31
ni-ga 31
ni-tam-ma 31
nig2-na-me 31
nig2-sa10-@@ 31
nig2-sa10-bi3 31
nig2-si-sa2-a 31
nimgir-si 31
nin-ad-da 31
nin-bara2-ge 31
nin-e-ne 31
nin-igi-zi-bar-ra 31
nin-im-ma 31
nin-ma-a-gub 31
nin-tu-ra 31
ninda-na 31
nu-banda3-gu4-sze3 31
nu-gi4 31
nu-um-ga2-ga2-a 31
num 31
nun-na-ta 31
nun-ta 31
pu2-sig4 31
pu3- 31
q-@@ 31
ra-ah 31
ra-ak 31
ra-bi2-@@ 31
re6 31
sa4-@@ 31
sa6-ta 31
sag-ga2-@@ 31
sar-bi 31
sig7-@@ 31
sikil-e 31
sukkal-a-ni 31
sza-at-esz18-dar-ta 31
szar2-da 31
szara2-i3-sa6-ta 31
sze-er 31
sze-ni 31
szi-ha-lum 31
szu-ad-mu 31
szu-bu-la 31
szu-da-da-ta 31
szu-ni-sze3 31
szu-sa6 31
szu-ti-ru-um 31
szudu3 31
szul-gi-dingir-mu 31
szum2-de3 31
szum2-ma-ta 31
tak2-szi-ru-um 31
ti-di 31
tir-me 31
tug2-gin7 31
tum-ma-@@ 31
tum-ma-al-la 31
u-bar-ni 31
u2-ar-tum 31
u2-szim-ma 31
u3-ma-@@ 31
udu-x 31
ul3-la 31
um-mi- 31
ur-bar-ra 31
ur-e2-mah-ke4 31
ur-gu2-la2 31
ur-ma-an 31
ur-tir 31
ur2-bi 31
uruda-@@ 31
usz-bi 31
uszur3 31
utu-lu2-sa6-ga 31
wa-qar 31
x-du10-ga 31
x-gi-@@ 31
za-a-kam 31
ze-@@ 31
ze2-na-na 31
zi-li 31
zi-x-x 31
zi3-sze3 31
-da- 30
-gesz 30
-im 30
-kam-ma-am6 30
-lu 30
-ru 30
5-ta 30
ARAD2-e2-gal 30
ARAD2-re-eb 30
BAD-e 30
BU-@@ 30
DUB-@@ 30
EDIN.A.LAL 30
GAM-GAM 30
GIM 30
KA-gu 30
KA-x-x 30
KASZ4 30
LAK5@@ 30
ME- 30
NE-DU-KU 30
NUxU 30
PI-a 30
SAR-@@ 30
SIG7-tur 30
SU-@@ 30
SZID-ka 30
SZIMxKUSZU2 30
TAR@@ 30
UR@@ 30
USZ@@ 30
USZxSA 30
ZI.LAGAB 30
ZU.SAR 30
a-a-dingir-mu 30
a-a-ki-lu5-la 30
a-bu 30
a-da-da 30
a-hu-dingir 30
a-ki-uru16 30
a-li2-tum 30
a-nigin2 30
a-si-@@ 30
a-ti-@@ 30
a-tu-ma-ma 30
a-zi-na 30
a.1. 30
a2-an-@@ 30
ab-sin2-na 30
al-la- 30
al-la-x 30
al-lu-ha-ru-um 30
al-x 30
am3-ma-ta 30
amar-tur3 30
amasz-a-na 30
an-ne2-ta 30
an-ni 30
apin-ki-du10 30
aq-ba-ni 30
ar-mu-na-gub 30
asal2-ta 30
asz-ta 30
ba-a-da 30
ba-a-x 30
ba-an-ba-ra 30
ba-an-szub 30
ba-at 30
ba-da-lah-lah 30
ba-dim2-sze3 30
ba-e-de3-@@ 30
ba-szi-in-@@ 30
ba-ti-ti 30
baharx 30
bala- 30
bar-si-nig2-la2 30
be-li2-szar 30
bi2-in- 30
bi2-la-la 30
bi@@ 30
bir 30
bu-la-@@ 30
bu3- 30
bu3-da 30
buru4 30
da-ak-si 30
da-da-ga-sze3 30
da-du-@@ 30
da-re-a 30
dab5-dab5 30
dam-mu 30
dara4-abzu 30
di-ni-@@ 30
di4-di4 30
didli-ne-ta 30
dim3-tur 30
du-de3 30
du-szu 30
du10-du10-ga 30
du3-ta 30
du6-7 30
du6-sa-bar 30
dul4 30
dumu-zi-abzu 30
dur2-ga2 30
e-ra 30
e2-gibil4 30
e2-nig2 30
e2-zi-pa-e3 30
e3- 30
e3-am3 30
e3-e3 30
eb2-gu-ul 30
el 30
en-lil2-i3-sa6 30
en-szu-gi4-gi4 30
en-ta 30
en-za-ra 30
enku-ta 30
er2-na 30
er3-dam 30
esz-a-bi 30
esz18-dar-al-szu 30
esz2-mah 30
ga-ga-a 30
ga-lum 30
ga-ri-dingir 30
ga2-ra-@@ 30
gal-gal-bi 30
gazi-bi 30
ge6-zal 30
geme2-gu2-en-na 30
gesz-du3-a 30
gesz-ur3-bi 30
gesztin-an-na-@@ 30
gi-la2 30
giri3-i3-sa6 30
gu-ta 30
gu2-ka 30
gukkal-me 30
gul-e 30
gun3-gun3 30
gur-sal4-la 30
gur3 30
ha-asz 30
he2-dab5-ba 30
hul-gal2 30
hur-sag-sze3-mah 30
i-mu-na-si 30
i-tu-@@ 30
i-zu-sa-bar 30
i3-li2-s 30
i3-li2-tab-ba 30
i3-ni-@@ 30
i3-ra2-ra2-a 30
i3-tuku-am6 30
i3-za3-ga 30
ib-ni-ib 30
ib2-ba-du3 30
il-szu-qur-ad 30
ildag4 30
im-mi-ib-@@ 30
imgaga 30
in-ga-@@ 30
in-uru4 30
inim-gi 30
ip-szu-ta 30
iri-bar-ra 30
ka-gir-ra 30
ka-gu4 30
ka-ku3-ga-ni 30
kasz-ninda 30
kasz4 30
ki-gub-me 30
ki-mu-ra 30
ki-su7-ra-ka 30
kikken-sze3 30
kin2-szu-se3-ga 30
ku3-babbar-ta 30
kunga2-nita2-gesz 30
la-ni-@@ 30
la-ni-ta 30
lu-lu-bu-na 30
lu2-HAR 30
lu2-bad3 30
lu2-da 30
lu2-du-mu 30
lu2-gar 30
lu2-gi-gun4-na 30
lu2-gid2 30
lu2-kasz 30
lu2-ki-inim-ma 30
lu2-ma2-gan-na 30
lu2-zabala 30
lugal-bi-ir 30
lugal-du10 30
lugal-gu2-tuku 30
lugal-ke4-ne 30
lugal-kux 30
lugal-mar-tu 30
lul-la 30
ma-ad-li2-um 30
ma-an-sa6-sa6 30
ma-nu-IL2 30
ma-ti-i3-li2 30
me-e2-zi-ta 30
me-lem4 30
me-ni-da 30
mu-ul-lil2 30
mu-un-szub 30
mun-gazi-ta 30
mun-mun 30
munu4-mu2-me 30
muru13-ka 30
na-ma-@@ 30
na-mu-ta 30
na-ru2-a-@@ 30
nam-ARAD2 30
nam-DU 30
nam-szesz-a 30
ne-gi-bu-um 30
ne3-@@ 30
ni2-tuku 30
nig2-ki-@@ 30
nig2-pa3-da 30
nig2-sa10-ma-sze3 30
nin-en3-tar-mu 30
nin-ku3-nun 30
nin-lil2-tum-im-ti 30
nin-nig2-ni-sze3 30
nin-tur3-ga 30
nin-x-ta 30
nu-gi4-gi4-da 30
nu-x-@@ 30
pi5-sza-hi-dingir 30
qur-da-szu 30
re-de3 30
sa-am-sa-tum 30
sa-hir-ra-me-esz2 30
sa2-sa2-@@ 30
sag-e3 30
sag-narx 30
sag-nig2-gur11 30
sahar-sur-ra 30
sal4-la-ke4 30
siki-ba-sze3 30
simug-sze3 30
su-bir4 30
su4-sar 30
suhusz-gi-in 30
sz@@ 30
sza-lim 30
sza3-ge-@@ 30
sza3-gub 30
szagina-ta 30
szar2-ra-@@ 30
szara2-i3-zu-ta 30
sze-ga2 30
sze-ka 30
sze-kar 30
szeg9-@@ 30
szid-@@ 30
szilam 30
szu-kab-ta2-sze3 30
szu-nir-@@ 30
szu-tur 30
szu-zu-ga2-ra-ta 30
szu4-dul5 30
ta-e3-a 30
ta@@ 30
temen-bi 30
tesz2-bi-na-nam 30
ti-la-a 30
ti-le 30
tu-li-id- 30
tul2-ta-@@ 30
tur-ra-me 30
u2-e 30
u2-sze3 30
u2-szim- 30
u3-dag-ga-ta 30
u3-zu-nu-ru-um 30
u4-sakar-gu-la 30
ub-lu2-pa3-da-ta 30
udu-gin7 30
ug3-ga2 30
un-du-ur 30
unu3-@@ 30
ur-bi 30
ur-du6-ku3-ga-ta 30
ur-dub 30
ur-dub-@@ 30
ur-me-me-ke4 30
ur-ra-ni 30
ur-sa6-ga-mu-ta 30
ur-zikum-ma 30
ur3-e-ba-ab-du7 30
ur3-ta 30
usz-bar-ke4-ne-ta 30
uszum-@@ 30
utu-me 30
utu-me-lam2 30
utu-saga-ta 30
x-a-ta 30
x-bu-@@ 30
x-du3 30
x-x-ka 30
za-lum 30
za-ri-iq 30
za3-ge 30
zabar-dab5-sze3 30
ze2-e-ze2 30
zi-mu-@@ 30
-a-ta 29
-banda3 29
-ke4-ne-sze3 29
-ru-um 29
-ur-sag 29
-x-ni 29
10 29
2-da 29
G@@ 29
GISZ-@@ 29
KU-KU 29
NE-ta 29
SZE@@ 29
ZI.A 29
a-a-ti 29
a-ga-ti 29
a-ga2-@@ 29
a-gi4-gi4 29
a-lu-@@ 29
a-mu-@@ 29
a-ni-ta 29
a-ra-ab-@@ 29
a-ru-um 29
a-sza3-ga-ke4 29
a2-ba 29
ab@@ 29
ad-da-be-li2 29
ak-dam 29
al-tar-ra 29
am3-sza4 29
ama-gu-la 29
ama-sa6-ga 29
ama5 29
asz7-gi4 29
ba-ab-du8-sze3 29
ba-ne 29
ba-ra- 29
bahar2-ra 29
banszur-ra-kam 29
bar-x 29
bi2-du8-am3 29
bi2-ri 29
bi2-sa2 29
bulug3-@@ 29
d@@ 29
da-mi-iq-tum 29
da-ri2-sze3 29
de3-a 29
di-ta 29
dingir-i3-zu 29
dingir-ku-ru-ub 29
dingir-su-@@ 29
dingir-szu-ra-bi2 29
du-u2-mu 29
du3-du3-@@ 29
du5-mu-@@ 29
du5-mu-u5-zu 29
du6-la 29
du8-du8-a 29
e-dam 29
e-esz2 29
e-si 29
e-sir2-@@ 29
e2-lugal-ka 29
e2-munus-sze3 29
e3-a-sze3 29
en-me-er-kar2 29
en-um-i3-li2-ta 29
er11-ra 29
er3 29
eresz-dingir 29
esz2-giri17 29
ezem-an-na-sze3 29
ga-li 29
gal-ka 29
gaz-de3 29
gaz-sze3 29
ge-esz 29
ge-ta 29
geme2-e2-dam 29
gissu-sze3 29
gu4-a 29
gug2-sze3 29
ha-bi2-@@ 29
ha-lam 29
ha-mu-na-ab-szum2-mu 29
ha-zi-@@ 29
he2-bar-re 29
hu-mu-ni-in-@@ 29
i-di3-mu 29
i3-dib-be2 29
i3-li2-a-num2 29
igi-a 29
igi-husz 29
igi-na 29
il@@ 29
in-na- 29
ina 29
iri-bar-e 29
iri-me 29
isz-ku-un-e2-a 29
isz-me-dingir-ta 29
ka-izi-sze3 29
kas4-e 29
kasz-kam 29
ki-szar2-ra 29
ki-tusz-akkil-li2-ni 29
kiszi17-sze3 29
ku-e-la-ak-ta 29
ku3-ga2 29
ku3-gin7 29
kur-ga2-ra 29
la-ga-@@ 29
la-kam 29
lam-ri 29
lib 29
lu2-aga 29
lu2-da-@@ 29
lu2-gesz-@@ 29
lu2-inim-ma-@@ 29
lu2-ku3-nun 29
lu5- 29
lugal-edin-na 29
lugal-giri17-zal 29
lugal-inim-@@ 29
lugal-nam-iri-na 29
lugal-nig2-bara4-du10 29
lugal-szu-da-ri2 29
lul-da 29
ma-ar-hu-ni 29
mar-tu-@@ 29
masz-kan2-@@ 29
mesz3 29
mu-na-ni-kux 29
muhaldim-e-ne 29
munus-gil-sa 29
nam-ba-e-@@ 29
nam2-nun-ka-ta 29
nanna-ma-an-ba 29
nig2-dim2-ma 29
nig2-gur11-kur-ra 29
nig2-sa10-ma-ni 29
nin-edin-ne2 29
nin-gaba-ri-nu-tuku 29
nin-hi-li-@@ 29
nin-ig-ga 29
nin-ki 29
nu-me-en 29
nu-si 29
nu-ub-ta-@@ 29
nu-ur3 29
qur-@@ 29
re-en 29
re2-@@ 29
rib-ba-ra 29
sa2-pa 29
sa6-ga-sze3 29
sag-e 29
sag-ga2-na 29
si-ge 29
si-il-@@ 29
si-ri 29
su-ga-ta 29
su-ub-ba 29
su6-mu2 29
sug4-@@ 29
suh-gibil-du3-a-ta 29
suluhu2 29
sumun-sumun 29
sumun2 29
sza-ru-um 29
sza3-gu2 29
szandana-ke4-ne-ta 29
szara2-ba-an-sa6 29
sze-eb 29
sze-gesz-i3-sze3 29
sze-sag11 29
szed@@ 29
szegx 29
szesz-a-mu 29
szesz-e-a-na-ak 29
szinig-da 29
szu-da 29
szu-ri2 29
szu-ur2-@@ 29
szul-gi-ka 29
szul-gi-ra-@@ 29
szum2-e 29
te-ge26-@@ 29
ti-e 29
tu-tu-@@ 29
u4-du8-a-bi 29
ud5-da-ke4-ne-ta 29
ulu3-@@ 29
umbinx 29
unu6-gal 29
ur-a-@@ 29
ur-da 29
ur-engar 29
ur-gal 29
ur-nig2-@@ 29
ur3-de3 29
usz-bar-@@ 29
uzu-@@ 29
x-DU 29
x-kal-@@ 29
x-ma-ma 29
x-ne-@@ 29
x-sar 29
x-x-NE 29
xX 29
z@@ 29
zabar-ra 29
zi3-gu-bi 29
zid2 29
-hul 28
-munus 28
-tuku 28
-us2 28
-x-kam 28
12 28
ARAD2-e-eb 28
ARAD2-ra 28
ASZ@@ 28
BULUG3 28
DIN.TIR 28
GAN2-gu4-suhub2 28
GAR.PA.TE.SI 28
KA-sa6 28
LAK0@@ 28
NE-da-num2 28
NINDA2x@@ 28
R@@ 28
SZIM-@@ 28
URU@@ 28
URUx@@ 28
a-NI-NI 28
a-a-ha-ma-ti 28
a-ab- 28
a-am6 28
a-dingir-mu 28
a-ka-@@ 28
a-pi2-ak 28
a-sza3-e 28
a-ul4-gal 28
a-wa-an 28
a-x-a 28
a2-gal2 28
a2-ni-a2 28
a2-zu 28
ab-ba-ke4-ne 28
ab-ba-tur 28
adkin 28
aga3-us2-e 28
akszak2 28
al-la-sze3 28
am-ri2-ma 28
am3-ta 28
ama-x 28
an-ki-@@ 28
an-na-ag2-ga2-ni 28
apin-e 28
asz8-gi4-@@ 28
ba-al-la-a 28
ba-tum3 28
babilax 28
bad3- 28
bala-bala-@@ 28
bar-us2 28
bi2-gar 28
bi2-gu7-a 28
da-da-ni-sze3 28
dab6 28
dam-zu 28
dara3-@@ 28
dim2-e 28
dingir-bad3 28
dingir-ik-sur2 28
dingir-mu-da 28
dingir-mu-dah 28
du10-us2-sze3 28
du11- 28
du8-a-bi 28
du8-a-ta 28
dub- 28
dub-dub-de3 28
dub-sar-e 28
dub-si-ga 28
dumu-munus-@@ 28
e-ne-gar 28
e2-da-na-ka 28
e2-kur-re 28
e2-usz-bar-ta 28
e2-za 28
egir-ba 28
en-gal-mah-an-na 28
en-lil2-la 28
en-lil2-la2-al-sa6 28
en-u2 28
en-ubur-zi-an-na 28
erin-na 28
gal2-ta 28
ge-na 28
ge-ne 28
ge6-par4-@@ 28
geme2-dub-la2 28
geme2-kasz-SZIM 28
gi-nu-@@ 28
gi4-bi 28
gi4-gi4-a 28
gu2-gil 28
gu2-x 28
ha-za-num2-sze3 28
har-ra-an-na 28
he2-en-na-@@ 28
hu-bu-@@ 28
hu-nu-um 28
husz-am3 28
i-pi2-iq-esz18-dar 28
i-si-isz 28
i3-la-@@ 28
i3-szub-ba-ga2-ra-ta 28
i3-szub-gal2-la 28
ia3 28
ib2-de6 28
igi-zu-@@ 28
im-ma-ni-@@ 28
in-ne-szi-sa10 28
in-nu-@@ 28
in-ta 28
inanna-da-gal-di 28
iri- 28
iri-sa12-rigx 28
iri-sag 28
ka-al 28
ka5-@@ 28
kadra 28
kal-kal-@@ 28
kas4-me-esz2 28
kasz-sze3 28
ki-na-na 28
ki-sikil-@@ 28
kig2 28
kin-gur-ra 28
ku6-e 28
la-am3 28
la-gi-@@ 28
la2-a-bi 28
lah4 28
lu2-KU 28
lu2-ba-a 28
lu2-du10-mu 28
lu2-gir2-nun-ta 28
lu2-me-@@ 28
lu2-ni 28
lu2-ta 28
lu5-lu5-@@ 28
lugal-dur9 28
lugal-gesz-@@ 28
lugal-gi-na 28
lugal-ibila 28
lugal-nir-gal2-ta 28
lugal-u4-da 28
lugal-uri3 28
m-ma 28
ma-a-ra 28
ma-sim 28
mah-ka 28
me-ta 28
mi-sir2 28
mu-e-ni-@@ 28
mu-un-na-ab-@@ 28
mu-zu-da 28
na-hi-@@ 28
na-kam 28
na-na-mu 28
na-ni-pa2-tal 28
na-ru2 28
na-zi 28
nab 28
nam-szub 28
nam-tar-ra 28
namma-ka 28
nansze-mu-tu 28
ne-kam 28
nesag-ga2 28
ni2-te-a-ni 28
nig2-ka 28
nig2-lagar-e-ta 28
nin-du10-ga 28
nin-gesz-zi-da-sze3 28
nin-gir2-su2-ke4 28
nin-in-si-na 28
nin-lil2-sze3 28
nin-pa-e3 28
nin-ra-@@ 28
nin-szer7-zi 28
nin-urta-ka 28
numun-na 28
qar-@@ 28
ra-am-@@ 28
ru-um-@@ 28
sa-ga 28
sa-sa 28
sa2-sa2-a 28
sa6-ga-bi 28
sa6-sze3 28
si-la 28
sila-@@ 28
sila-si-ig 28
sipa-iri-da-kusz2 28
su-ta 28
su3-su3-@@ 28
suen-gu10 28
suh-gibil 28
sza3-gu4-ke4 28
szabra-e-ne 28
szabra-ka 28
szara2-pa3-da 28
sze-ba-me 28
sze-gesz 28
sze-gin2-sze3 28
sze-gin3 28
sze-kar-gal2-la-ta 28
szu-ak 28
szu-gu10 28
szu-mi-@@ 28
szu-sal-la 28
szu-ti 28
szul-gi-al-mah 28
szul-pa-e3-szesz 28
szunigin-bi 28
ta-an-@@ 28
ta-sze3 28
ta2-hi-sze-en 28
tesz2-mu 28
ti-la-sze3 28
ti@@ 28
tu-ra-@@ 28
tukur2 28
tur-ra-@@ 28
u3-gul 28
u3-ku-ru-um 28
u3-ku5 28
u3-ne 28
ugula-me 28
ur-ama-na-ta 28
ur-dub-la2-mah 28
ur-esz3-@@ 28
ur-ge6-par4-ke4 28
ur-mah-e 28
ur3-ra-ka 28
utu-da 28
utu-lagasz 28
utu-x 28
x-he2-gal2 28
x-x-ni 28
x-za 28
za-pa-ag2 28
zahx 28
zi-ga-@@ 28
zi-gum2-ma-sze3 28
zi-mu-ta 28
zu-ke4 28
zu-x 28
-a2-nu-kusz2 27
-an 27
-ba-ni-ta 27
-du10-kux 27
-e2-a 27
-ga-ta 27
-ginx 27
-kal-@@ 27
-kam-sze3 27
-ma-ta 27
-ra-ni-i3-sa6 27
-x-bi 27
DIM2 27
DUG 27
GAN2-gu4-bi 27
IGI.@@ 27
IL2-ta 27
KU.GUL 27
LAK175 27
LAK526 27
MUNUS-U8 27
NAM 27
PA.MUNUS.HUB2.DU 27
PAP@@ 27
SI@@ 27
SUD 27
UMBINxUDU 27
a-a-ki-lu5 27
a-du10-ga 27
a-gal 27
a-gu- 27
a-gu-a-ni 27
a-ha-an-ni-szu 27
a-hu-ni-sze3 27
a-igi-du8-me 27
a-ki-ma 27
a-li 27
a-li-a 27
a-li2-szu-ni 27
a-ra2-nu2 27
a-s 27
a-sag-du3-du-ta 27
a-u2-da-ta 27
a-zu-ne 27
a.2. 27
a2-an-gal 27
a2-bi2- 27
a2-dar 27
a2-gu2-zi-ga 27
ab-ba-iri-ta 27
ab-ba-sa6-ga-sze3 27
ab2-gesz 27
ad-da-na-bi-ir 27
ad-da-sa6-ga 27
ad-mu 27
agar4-nigin2-sze3 27
ak- 27
al-gaz 27
al-la-sza-ru-um 27
am-mi-di-ta-na 27
am3- 27
ama-szu-hal-bi 27
an-dul3-@@ 27
an-edin-na 27
ar-gi5-num2 27
asz3-gi5-@@ 27
ba-a-gar-ra 27
ba-a-zi 27
ba-ab-kesz2 27
ba-ba6-gin7 27
ba-ba6-ig-ga-su3 27
ba-dim2-ma 27
ba-ra-an-zi-ga-a 27
ba-ra-zal-la 27
ba-zu 27
bala-ka 27
ban-dim2 27
bar-gal2-bi 27
bar-ra-ka 27
be2-en 27
bi-ne 27
bi2-in-ra-a 27
bu-ga-a 27
bu3-ka-a 27
bulugx 27
bur2-ra 27
da-da-mu-ta 27
da-di-a 27
da-gu-na 27
da-sal4 27
dam-szi-lum 27
dar-e 27
de2-a-ni 27
dingir-mi-di3 27
dingir-mu-ta2-bil2 27
dingir-palil2 27
dingir-ta-a-a-ar 27
du-du-gu-la 27
du6-mun 27
dul4-la 27
dumu-gu4-gur-me 27
dumu-x 27
dun4 27
dur2-bur3 27
e-na-la2 27
e11-de3-@@ 27
e2-esz2 27
e2-gu10 27
e2-ki-ag2 27
e2-kikken-@@ 27
e2-li2 27
e2-nun-@@ 27
e2-szah2-da 27
e2-ur3-bi 27
elam-e 27
eme-erin2-bi 27
en-na-ka 27
ensi2-bi 27
er2-su3-a 27
er3-ra-kal 27
er3-ra-nu-da 27
er3-re-eb-ta 27
er3-ri-ib 27
erin2-da 27
es3-sa2 27
esz-dar-@@ 27
ga-IL2-ta 27
ga-nu-um 27
gab2-us2-me 27
gag-si-sa2 27
geme2-a-tu5-a 27
geme2-ur4-sza3-ga 27
gen-na-ne-ne 27
gesz-szu 27
gesz2-da 27
gesztin-me 27
gesztu-mu 27
gesztu2-ga-ni 27
gi-ir 27
gi-ne2-de3 27
gi18 27
gibil4-le-ta 27
gid2-ta 27
gig-ta 27
gigir-me 27
gin2-la2 27
gissu-bi 27
gu-u2-u2 27
gu2-TAR 27
gu2-edin-na-@@ 27
gu2-tar-la2 27
gu4-sar 27
gu4-si-@@ 27
gub-ba-ni-du10 27
gub3-temen-na-ta 27
gul-gul-@@ 27
gur-e 27
gur-gur 27
gur-ru 27
gur-si-ta 27
gurdub-sze3 27
guru7-da 27
ha-an-du-u2 27
ha-an-za-ab-tum 27
ha-ar-szi-tum 27
ha-sze3 27
hal-li2-li2 27
har-ra-@@ 27
he2-su3-e 27
hu-ba6-ba6 27
hu-la 27
hu-ni 27
hu-uh2-ri 27
hu-um-sze3 27
hu-un-sa6-mu 27
i-bi2-lu-lu 27
i-di3-a-bu-um 27
i-mi-dingir 27
i3-li2-a-@@ 27
i3-li2-an-dul3-ta 27
i3-li2-me-ti 27
i3-li2-szi-na-at 27
i3-pa3-ta 27
ig-alim-me 27
ig-dab 27
igi-mu-an-sze3-gal2 27
igi-nigin2-me 27
igi-saga 27
ik 27
im-da-an-@@ 27
im-ta-e3 27
immax 27
in-nigin2 27
inanna-ur-pa4-pa4 27
inim-ma-bi 27
ir3 27
ir3- 27
iri-ni-sze3-kusz2 27
iri-zi 27
iszkur-ra-kam 27
ka-gal-lum 27
ka5- 27
kab2-ku5-ta 27
kesz2-e-de3 27
kesz2-ra2-@@ 27
ki-zi 27
kikken-na-ke4 27
ku-bu-@@ 27
ku-ti 27
ku3-ga-ke4 27
ku4-ku4-@@ 27
kum2 27
la-al-@@ 27
la-lu5-u2 27
la-ma-sa3-tum 27
la-ma-sza 27
la-tum 27
lal3-ta 27
lamma-di-de3 27
li-bur-ni-asz 27
li-sza-num2 27
lu-ba 27
lu2-KA- 27
lu2-ab-ba 27
lu2-bala 27
lu2-e2-an-na 27
lu2-erim2-e 27
lu2-gesz-ba-re 27
lu2-geszkim-zi-da 27
lu2-nab3 27
lu2-nig2-@@ 27
lu2-sza-lim-ta 27
lu2-tir 27
lu2-usz-gi-na-sze3 27
lu5-u2-lu5 27
lugal-aga3-zi 27
lugal-amar-@@ 27
lugal-an-na-ab-tum2-ta 27
lugal-anzu 27
lugal-bara2 27
lugal-da5-ba-an 27
lugal-dam-ta 27
lugal-engar-zi 27
lugal-i3-sa6-ta 27
lugal-ig-gal 27
lugal-lagasz 27
lugal-nig2-sa6-ga 27
lugal-nita-zi 27
lugal-szu-@@ 27
lugal-ti-@@ 27
lugal-x-x-@@ 27
lugal-za3-@@ 27
m 27
ma-an-isz-di2-su 27
ma-an-szum2-na-ta 27
ma-hi-li 27
ma-lik-illat-su2 27
ma-ma-sze3 27
ma-num2 27
ma-ra-an-szum2 27
ma2-gur8-mah- 27
ma2-lah5-@@ 27
mah-gal 27
maszkim-bi-im 27
me-na 27
me3-ka 27
me3-sze3 27
mes-an-du-lu2-sa6-ga 27
mu-na-sa4 27
mu-sur 27
mu-tum2 27
mu-u@@ 27
mu-un-e3 27
mu-un-na-an-@@ 27
mu10-us2-bi 27
mu10-us2-sa2 27
na-an- 27
na-ap-@@ 27
nagar-pa-e3-ta 27
nam-he2 27
nam-zu 27
ni-kam 27
nig2-ab 27
nig2-ki-zah2 27
nig2-me-gar 27
nigar-ki-du10-ta 27
nin-a-zi-mu2-a 27
nin-an-du 27
nin-balag 27
nin-dalla 27
nin-di-ku5 27
nin-dingir-ra-sze3 27
nin-dingir-ra-ta 27
nin-gir2-su-gin7 27
nin-gubalag-ta 27
nin-hur-sag-ta 27
nin-igi-du 27
nin-kilim 27
nin-lu2-gi-na 27
nin-pu2-mun-na 27
nin-sun2-ta 27
nu-bala 27
nu-banda3-me-esz2 27
nu-gar-ra 27
nu-kur2-ru 27
nu-kusz2-u3 27
nu-musz-da-an-dul3 27
nu-nam-nir 27
pa- 27
pirig3-an-dul3 27
pu 27
puzur4-zu 27
qu2-ra-@@ 27
r-ra-@@ 27
ra-ra-dam 27
rab3 27
rex 27
ri-im-i3-li2 27
ri@@ 27
s@@ 27
sag-du-@@ 27
sag-ge6 27
sag-gu4-sze3 27
sag-tuku 27
sag3-de3 27
siki-ba-ta 27
simug-@@ 27
simug-e-ne 27
sir2-@@ 27
su4-su4 27
su6-@@ 27
su7-ra 27
suen-ke4-ne-sze3 27
suen-na-s 27
suen-x 27
suhur-@@ 27
sun4 27
sz 27
sza-il-tum 27
sza-ra-hu-um 27
szagina-e-ne-sze3 27
szagina-sze3 27
szar-ru-gin7 27
szar2-ra-ab-du-ne 27
szembi 27
szesz-a-@@ 27
szesz-e 27
szesz-x 27
szi-ib2-@@ 27
szu-bu-la-ta 27
szu-ka 27
szu-la2 27
szu-ni-a 27
szu-numun-ka 27
szu-numun-na-ta 27
szuku-ra-ke4-ne 27
szul-lul 27
szum2-mu-usz 27
tab-ba-bi 27
ti-ni 27
ti-ni-@@ 27
ti-um-ma 27
til-lu-ub2 27
tu-um 27
tug2-e 27
u-bar-e2-a 27
u-bar-ri-a 27
u2-e-li 27
u2-tul2 27
u3-dag-ga-sze3 27
u3-de3 27
u4-bi-ta 27
u4-de3-nig2-saga-ta 27
u4-nu2-a-ka-ni 27
u4-zal-la 27
uga 27
ugula-kam 27
ul4 27
um-ma-gi-na 27
umbin-@@ 27
ur-du6-hi-li-ba 27
ur-dun-sze3 27
ur-ezem 27
ur-gu2-de3-na-ta 27
ur-i7-@@ 27
ur-ki-la2-a 27
ur-ku3-@@ 27
ur-kun-ta 27
ur-lu2-lal3 27
ur-sa6-@@ 27
ur-sipa 27
ur3-re-ba-du7-ta 27
uszur 27
utu-igi-du 27
utu-silim-mu 27
x-ab-ba 27
x-gu 27
x-x-ga 27
x-x-ra 27
za-li2-a 27
za-ri2-bi 27
zal-la-sze3 27
ze2-eb 27
zi-gu 27
zi-in-@@ 27
zu-zu-tum 27
zu2-si-ta 27
zubud 27
-a-ka 26
-gal2-la 26
-sze3-ta 26
-x-NE 26
-x-e 26
0@@ 26
12-@@ 26
4-e 26
4@@ 26
AB2.SZA3.GI 26
ARAD2-du10 26
BAL 26
DUR2 26
E2-@@ 26
ERIN2 26
GAN-@@ 26
GIR@@ 26
GISZ.TUG2 26
GUR8 26
HUL 26
I@@ 26
KA-lugal-da-zi 26
KU-a 26
LAL 26
LU@@ 26
MUG 26
SZ@@ 26
SZID@@ 26
TU@@ 26
TUR-@@ 26
USZ-ta 26
a-a-mu-ta 26
a-ad-da-@@ 26
a-bi- 26
a-gar-ka 26
a-gi4-a 26
a-gu-za 26
a-ki-szah2 26
a-lal3-ta 26
a-li2-ni-szu 26
a-ma 26
a-mu-ta 26
a-pil- 26
a-ra2-bi 26
a-ta-@@ 26
a-tal 26
a-tu-me 26
a2-asz-gar 26
abba2 26
abzu-mud 26
ak-da 26
ambar-ta 26
an-na-bi2-kusz2 26
an-ne2-mu 26
an-za3-sze3 26
ansze-lah5 26
ansze-nita2-gesz 26
ar2-@@ 26
asz-LAGAB 26
aszgi2 26
asznan-ama-mu 26
ba-ba- 26
ba-ba-ti-sze3 26
ba-ba6-ki-sza-ra 26
ba-kam 26
babbar2-sze3 26
bad3-du3-a 26
bal-@@ 26
bar-ra-e11-de3 26
bara2-zi 26
bi-mu 26
bi-ra 26
bi2-du10-ga 26
bir-@@ 26
bu-lu-lu 26
bu-um-sze3 26
da-ak 26
da-bad3-da 26
da-ri 26
da-ri-@@ 26
dar-da 26
dingir-ba-ni-ta 26
dingir-ra-sze3 26
dingir-re 26
du-du-bi 26
du11-ga-am3 26
du3-a-ba 26
du3-u3-de3 26
du8-du8-@@ 26
dumu-dumu-ne 26
dumu-ne-ne 26
dur2-ru 26
e-du-a 26
e-lu-lu 26
e-pe-esz 26
e-zu 26
e2-a-kal 26
e2-an-na-tum2-me 26
e2-an-ne2 26
e2-sikil 26
e2-zi-sahar-ta 26
en-da-gal-di 26
en-x- 26
er2-du8-gal 26
erasure 26
esir2-@@ 26
esz3-nun-na 26
g2-@@ 26
ga-esz-sze3 26
ga-ri 26
gagia2 26
gal-an-zu 26
gal-x 26
gal2-la-a 26
gar3-ne-ne 26
ge4-@@ 26
ge@@ 26
geme2-ki-siki 26
geme2-sa6-ga 26
gen-@@ 26
gesz-gal-gal 26
gi-gur 26
gi-ra 26
gi4-a-me 26
gidri-@@ 26
gir2-nun-na 26
gir2-su-ki-du10 26
gu-lu5-lu5 26
gu2-en 26
gu2-u3-@@ 26
gu4-ke4 26
gu5-li 26
gug2-@@ 26
gur11-gur11-ra-a 26
gur5-@@ 26
he2-em-me 26
he2-em-szi-@@ 26
he2-em-ta-@@ 26
i-di3-i3-lum 26
i-gi4-ru-mah 26
i-su2-a-ri-ik 26
i-tur2- 26
i-x 26
i3-ba-@@ 26
i3-li2-sa-tu 26
i3-se3 26
ib-si-na-at 26
il2-e 26
il2-il2-i 26
im-ma-na-@@ 26
im-ta-e3-esz2 26
in-na-ab-@@ 26
inim-zi-da 26
ip-qu2- 26
ir3-@@ 26
isz-me-@@ 26
ka-sa6-ga 26
kal-bi 26
kam-asz 26
kasz@@ 26
ki-a-nag-sze3 26
ki-ag2-e 26
ki-gam-ma-ka 26
ki-masz2 26
ki-sur-ra-sze3 26
ki-ti 26
ku3-ba 26
ku3-babbar-am3 26
ku3-sig17-ta 26
ku4-ra-@@ 26
kun@@ 26
kur-ka 26
kurun 26
la-ti 26
la2-x 26
lil2-@@ 26
lu-u@@ 26
lu-x 26
lu2-an-@@ 26
lu2-dingir-ra-me 26
lu2-e2-gibil 26
lu2-ge6-par4 26
lu2-inim-ma-me 26
lugal-a 26
lugal-an-@@ 26
lugal-e2-e-si 26
lugal-ezem-@@ 26
lugal-gu4-mah 26
lugal-i3-@@ 26
lugal-inim- 26
lugal-nesag 26
lugal-pirig-tur 26
lul-gu 26
lunga-@@ 26
lunga-ka 26
ma-ab 26
ma-an-ne2 26
ma-u2 26
ma2-e 26
ma2-lah5-ne 26
marad2 26
masz-kam 26
masz-ta 26
me-te-asz 26
mi-ni-in-ga 26
mu-dab5 26
mu-de6-sza-a 26
mu-ke4 26
mu-na-ab 26
mu-na-szum2 26
mu-un-du3-a 26
mu-usz 26
mu-x-x 26
munus-sa6-ga 26
muszen-da 26
na-am-tu-ra 26
na-am3-@@ 26
na-an-na-@@ 26
na-e 26
na-ga 26
na-ga-@@ 26
nam-erim2-@@ 26
nam-he2-a 26
nam-iri-na-sze3 26
nam-mi-in-@@ 26
nam-tar-re 26
nam-ur-sag-ga2 26
nanna-a2-dah 26
nar-nita2-me 26
ne-ne-@@ 26
nesag-e 26
nig2-diri-sze3 26
nig2-ga2-ni 26
nig2-x-x 26
nin-ad2-gal 26
nin-bara2-ge-si 26
nin-e2-unu 26
nin-iri-@@ 26
nin-mug-ta 26
nin-sza3-@@ 26
nin-zu-ta 26
ninda-IL2 26
nu-ba-a 26
nu-de6 26
nu-mu-ni-in-@@ 26
nu-ur2 26
pa-bilx 26
pirig-am3 26
qu2-ra-du 26
ra-mu 26
re-ta 26
sa-gaz-sze3 26
sag-da 26
sag-erim2 26
sar-re 26
sig-sze3 26
siki2 26
sila4-tur 26
sir2-ra 26
siskur2-@@ 26
su3-GAN2-ta 26
su3-ga 26
sud3- 26
sza-asz-@@ 26
sza-na-@@ 26
szar2-re 26
sze-na 26
sze-sag11-ku5-a 26
sze-zi-bi2-tum 26
szi-a 26
szir-@@ 26
szu-bu3-ul-tum 26
szu-du 26
szu-szu 26
szu-zu-@@ 26
szul-gi-ku3-zu 26
ta2-di3-@@ 26
ta2-ni2-a 26
tal2-tal2 26
te-s 26
ti-im-@@ 26
ti-in 26
tu4 26
tum-me 26
tun3 26
u2-sag 26
u4-hi-in 26
ug5 26
ukken-@@ 26
ul-li2-a-ta 26
un-gi4 26
ur-gu-@@ 26
ur-ki-es3 26
ur-me-@@ 26
ur-sa6- 26
ur-sag-ku5-ta 26
ur3-a 26
ur3-ra-ta 26
utu-i3-kusz2 26
we-@@ 26
x-ab-@@ 26
x-de3 26
x-me-en 26
za-a-@@ 26
za-an 26
za-ti 26
za3-sze3 26
zabalax 26
zadim-@@ 26
zal-e 26
zi-ba-tum 26
zi-dah-ru-um 26
zi-gal2 26
zi3-ka 26
ziz2-numun-bi 26
zu-usz 26
zu5 26
-bar 25
-dingir-ra 25
-ezem 25
-ke4-ne-ta 25
-la-ta 25
-lil2-la2 25
-sza3 25
-x-ka 25
-zi-@@ 25
11 25
A@@ 25
AN-AN 25
ARAD2-sze3 25
ASZ2 25
DI-x 25
DIB 25
HA@@ 25
HAR-ta 25
HIxASZ2 25
IGI- 25
IM.MI 25
KWU354 25
LAGAB-a 25
NE@@ 25
SI-A-um 25
SZE.NUN.SZE3.BU 25
UR4 25
a-NE 25
a-ak 25
a-ba-szu-na 25
a-bi2-x 25
a-gu-du-ta 25
a-hu-a-sze3 25
a-hu-ni-szu 25
a-lum-@@ 25
a-na-sze3 25
a-ru12-da 25
a-si-ri 25
a-sze-er-zu 25
a-szesz 25
a-tu-ra 25
a-u3-a 25
a2-bi2-lum-ta 25
a2-i3-li2 25
a2-lu5 25
a3 25
ab-ba-ab-ba 25
ab-ba-gi-na-sze3 25
abul-@@ 25
ad-KID 25
ag2-da 25
ag2-gu10 25
agar4-nigin2-ta 25
ama-bi-a-ra2-nu2 25
ama-e2-mah-e 25
ama-kalam-ma 25
amar-gu4 25
amar-su4 25
asz10-ne2 25
ba-ab-du8-a 25
ba-an-ga2-ar 25
ba-an-us2 25
ba-ba6-ka-me 25
ba-de6-a 25
ba-ir 25
ba-ri2-ga-bi 25
be-li2-li2 25
be2-e 25
bi2-du11-@@ 25
bi2-x 25
bu-bu-@@ 25
bu-um-@@ 25
bu3-u2-du-ta 25
bur2-e 25
dab5-ba-gin7 25
dab5-be2-esz 25
dab5-ta 25
dida2 25
dingir-a-@@ 25
dingir-ur-sag 25
du3- 25
du6-kar-sag 25
du6-ra 25
dul-@@ 25
dumu-zi-da-ke4 25
e-ne-szum2 25
e2-e-ba-du7 25
e2-ganba-ka-ta 25
e2-ki-be2-gi4 25
e2-kikken-sze3 25
e2-kikken2-sze3 25
e2-me-@@ 25
e3-a-gin7 25
e3-e 25
edin-sze3 25
eme@@ 25
en-lil2-la2-kam 25
en-ni-na-dan 25
en3-na-mu-tar 25
engar-e-ne-ta 25
er3-e-bu-um 25
er3-ra-ta 25
esz3- 25
esz3-gi 25
ga-a-ni 25
ga-ba-@@ 25
ga-nam 25
ga-rasz 25
ga2-gi4-a 25
ganun-mah 25
gar-ra-sze3 25
gar-ra-zu 25
geme2-usz-bar 25
gen-na-a 25
gesz-gi4-gal2 25
gesz-kin-ti-a 25
gesz-ur3-sze3 25
gi-rin 25
gibil-me 25
gin2-bi 25
giri@@ 25
gisal 25
gu-du-du-sze3 25
gu-ru-@@ 25
gu2-a 25
gu2-ab-ba-sze3 25
gu2-ne-ne-a 25
gu2-zi 25
gu2-zu 25
gu4-lah6 25
ha-ba-ba 25
ha-na-ab-szum2-mu 25
ha-ni-isz 25
ha-ra 25
he2-ma-zi-zi 25
he2-ni-in-@@ 25
he2-zu-am3 25
hi-ba-ri2-tum 25
hu-um-ma 25
hur-sag-ga2-ke4 25
i3-gaz 25
i3-li2-x-x 25
i3-zu-ta 25
i7- 25
ib-ni-e2-a 25
igi-bar 25
igi-du-@@ 25
igi-mar 25
igi-sa6-ga 25
igi-x-gal2 25
im-sag3 25
inanna-ka-ke4 25
inim-ni-zi 25
ir-da 25
iri-na-ka 25
k-@@ 25
ka-ma-ri2-sze3 25
ka-u2-ka 25
kab2-ku5-ra2 25
kasz-de2 25
ki-la2-@@ 25
kig2-@@ 25
kin-kin 25
kisal-me 25
kiszib 25
ku-ni 25
ku3-nun-ta 25
ku3-sig17-ga 25
ku4-re 25
kun-bi 25
kur-kur-ra-ka 25
kur-ra-igi-gal2 25
la-asz 25
lamma-ka 25
li-a 25
lu2-da-da 25
lu2-ga-a 25
lu2-gesztin 25
lu2-ku3-ga-ni 25
lu2-kukku2 25
lu2-nimgir-ta 25
lu2-zu 25
lugal-da-ba-an 25
lugal-e2-ni-sze3 25
lugal-gu2-@@ 25
lugal-ki 25
lugal-mah 25
lugal-sza3-da 25
m-bi 25
ma-an-szum2-e 25
ma-du10-ga 25
ma-gi4 25
ma-nu-bi 25
ma2-gur8-ra-ka 25
mah-gin7 25
mar-tu-ne-sze3 25
me-er 25
mu-na-ra-@@ 25
mu-ne2-dim2 25
mu-ri-iq 25
mu-sza-@@ 25
mu-tum2-mu-a 25
mu-x-@@ 25
muru13-@@ 25
mussa 25
n2-na 25
na-di3-tum 25
na-du10 25
na-ra 25
na-ra-am-@@ 25
nam-en-na-sze3 25
nam-erim2-e 25
nam-erim2-ma 25
nam-mi-in-gub 25
nam@@ 25
narx 25
nergal-@@ 25
nig2-gu7-@@ 25
nig2-nam-ma 25
nig2-tuku 25
nin-e 25
nin-ka-ga2-inim-bi 25
nin-mu-ma-da-ag2 25
nin-nu-kar2-kar2 25
nin-si-gar-edin-na 25
nin-ti-ug5-ga 25
nin-ur4-ra-me 25
nita2-me 25
nu-mu-e-@@ 25
nu-nam-nir-ra 25
nu-ta 25
nun-gal-ka 25
puzur4-a-@@ 25
r-@@ 25
ra-ad 25
ra-an 25
ri2-ik 25
sa-dur2 25
sa6-x 25
sag-apin-ke4 25
sag-ki-@@ 25
sagi-@@ 25
si-me 25
sipa-an-ne2 25
su-bu 25
suen-me-en 25
suh@@ 25
sumun-@@ 25
sur2-du3 25
sza-lum 25
sza2-@@ 25
szakkan-na 25
szakkan-sze3 25
szar2-szar2 25
sze-kar-ra-@@ 25
sze-sa 25
szesz-ba 25
szidim 25
szinig-@@ 25
szitax 25
szu-bu-@@ 25
szu-da-@@ 25
szu-du8 25
szu-gid2-da 25
szu-i-me 25
szu-kal 25
szu-nu-@@ 25
szu-szi 25
szu-tag 25
szu-zu-sze3 25
szud3-de3 25
szum2- 25
ta-la-a 25
tal 25
tu6 25
tuku-am3 25
tur- 25
u2-mu 25
u2-na-ap-sze-en 25
u3-mu-ni-@@ 25
udu-ka 25
uk@@ 25
umbisag 25
umusz 25
ur-bara2-@@ 25
ur-bi-lum 25
ur-ki-gu-la-ta 25
ur-lugal-DU 25
ur-na 25
ur5-ra-kam 25
us2-sa-ba 25
uszumgal-@@ 25
x-an-@@ 25
x-du-du 25
x-me-@@ 25
x-za-@@ 25
za-ab-@@ 25
za-ab-sza-la 25
za-ak-i3-li2 25
za-sze3 25
zah3-a 25
zi-da-ke4 25
zi-da-ta 25
zi-ga-a 25
zi-u4-su3-ra2 25
zi3- 25
zu-ka 25
zu-me 25
-bi-sze3 24
-da-ta 24
-dab5 24
-du-ta 24
-gi-@@ 24
-me-en 24
-nu-@@ 24
-re-@@ 24
-t 24
-u2-@@ 24
-x-um 24
-zi-ge 24
6- 24
6-a 24
AB2 24
B@@ 24
BAD3 24
GAN2-zi 24
GISZ.PAP.BIL 24
GU4.KU 24
GUM 24
HA-munus 24
KA.@@ 24
KWU543 24
KWU634 24
KWU777 24
KWU7@@ 24
LAL.TUG2 24
MU@@ 24
N@@ 24
NE-a 24
NIG2.MUNUS.LAL.SAG 24
NU11 24
NUNUZ 24
TAR-@@ 24
TE@@ 24
a-ba-am3 24
a-bat5-e 24
a-bi2-a-ni 24
a-bi2-a-ta 24
a-diri 24
a-egir 24
a-gu-x 24
a-ha-tum 24
a-hi-ma-ta 24
a-ma-at 24
a-sza 24
a-tesz2-mu 24
a-tu-sze3 24
a-wa-@@ 24
a-zi-mu2-a 24
a2-i3-li2-ta 24
a2-lu5-lu5 24
a2-mah 24
a2-sikil 24
ab-ba-saga-ta 24
ad-du 24
ak@@ 24
alal 24
am-i3-li2 24
am-ma-mu 24
ama-IL2 24
ama-tesz2-mu 24
amar-pesz 24
an-gu-gu-ta 24
an-hi-ir 24
an-ku3-ge 24
an-ra 24
an-ta-gal2 24
an-ur2 24
an-za-gar3-ta 24
apin-a 24
ar-pa2-tal 24
ar-wa-tum 24
ar3-ra-sze3 24
azlag2-sze3 24
ba-BAD 24
ba-a-e3 24
ba-a-gi4 24
ba-ab 24
ba-ab-du2 24
ba-ab-tum2-ma-ta 24
ba-ad 24
ba-ak-@@ 24
ba-an-na-gi-in 24
ba-az-mu-um-ta 24
ba-ba-az 24
ba-ba6-iri-mu 24
ba-ba6-sza3-an-na-ke4-ba-du10 24
ba-du10 24
ba-ga-a 24
ba-gara2-@@ 24
ba-hun-@@ 24
ba-mu-ta 24
ba-ni-dab5 24
babbar2-ra 24
bala-a-ke4 24
bappir3-bi 24
bar-ra-ni 24
bara2-bara2 24
be-li2- 24
be-li2-du10-ta 24
be2-s 24
bi-in-@@ 24
bi-ze2-ze2 24
bi2-ib 24
bi2-za 24
bil2-la 24
bir5 24
bur3-@@ 24
d-@@ 24
da-ga-@@ 24
da-ga-na 24
da-zi 24
dal-ha-ni 24
de2-a-asz 24
de2-de3 24
dingir-mu-@@ 24
disz-a 24
du-du-a 24
du-un 24
du10-ga-mu-ta 24
du11-ga-ab 24
du11-ga-ni-zi-ta 24
du3-a-@@ 24
du6-gesz-i3 24
dub-sar-e-ne 24
dub-szen 24
duh-ge6 24
dul9-la 24
e-bu-gesz-pi-al 24
e-ka 24
e-ki-ag2 24
e-ne-ne 24
e-sze3-sa10 24
e2-an-na-@@ 24
e2-ansze-ka 24
e2-da-hul2-la 24
e2-dam-si 24
e2-du3-a 24
e2-gaszam 24
e2-i7-lu2-ru 24
e2-iti 24
e2-kesz3 24
e2-kiszib3 24
e2-munus-ta 24
e2-sa-ra-du10-ta 24
e2-tur 24
e2-udu-@@ 24
e2-udu-me 24
e2-usz-bar-ra 24
eb2-dab5 24
eme-gi-ra-me 24
en-lil2-e 24
en-lil2-la2-i3-sa6-ta 24
en-ne2-ma 24
en3-du 24
en3-sze3 24
ensi2-gal-ta 24
er3-e-eb-ta 24
er3-re-@@ 24
erin-na-bi 24
esir2-had2 24
esz-am3-ta 24
esz2-gid2 24
esz3-ta-gur-ra 24
esz5-@@ 24
ga-esz-sza 24
ga-mu-ra-de6 24
ga-sza-an 24
ga-za-@@ 24
ga2-la-am3 24
ga2-nun-mah-ka 24
gakkul 24
gal-dam-gar3 24
gal5-la2-@@ 24
galga 24
gan2-@@ 24
geme2-kar-zi-da 24
gesz-hur-@@ 24
gesz-i3-da 24
gesz-kin-ti-ka 24
gi-sal-la 24
gi-szid 24
gibil-ka 24
gid2-dam 24
gir2-gir2 24
gir2-su2 24
gir5-gir5 24
gu-me 24
gu-za-munus 24
gu4-e-us2 24
gu4-nu2 24
gug-bi 24
gum2 24
gur4-ra-sze3 24
gur5 24
gur@@ 24
h@@ 24
ha-la-ti 24
ha-mar-ma-szum 24
he2-em-mi-ib-@@ 24
he2-gal2-@@ 24
he2-ni-ib-@@ 24
hi-de3 24
hu-ri2-in 24
hun-e-de3 24
husz-a-bi 24
i-di3-er3-ra-ta 24
i3-da6-da6 24
i3-ga 24
i3-gesz-ka-sze3 24
i3-ib2-du8-a 24
i3-kal-la-sze3 24
i3-li2-sukkal 24
i3-tusz 24
ib2-ba-al 24
igi-nun-bi-sze3 24
il-szu-qu2-ra-ad 24
im-a-ni-ta 24
im-la2 24
im-szi-lu 24
im-ti 24
im-ur3-ra 24
in-bi 24
in-hun 24
in-na-ni-de2-a 24
inim-inim-ma 24
inim-inim-ma-sze3 24
inim-nu-um-ga2-ga2-a 24
isz-me-e2-a 24
itix 24
ka-ma-ri2-ka 24
ka-sahar-ra 24
ka-tar-ta 24
ka-u2-@@ 24
kar-ra-ka 24
kesz2-ra 24
ki-an-na 24
ki-es3 24
ki-is-mar 24
ki-sag 24
ki-sal4-la 24
ki-sur 24
ki-ur3-@@ 24
ki-ur3-ra 24
ki-ur5-sa6 24
kikken2-ne 24
ku-ga-num2 24
ku-ku-a 24
ku-ru-ub-@@ 24
ku3-bar-tam 24
ku3-sig17-banda3 24
ku5-da-sze3 24
la-a-la-a 24
la-a-sze3 24
lamma-re-silim-mu 24
li-ik-du-ni 24
li9-si4-@@ 24
li9-si4-na-ta 24
lu-bi 24
lu2-a 24
lu2-ba-ta 24
lu2-du11-ga 24
lu2-e2-gal 24
lu2-ge6-an-na 24
lu2-ki-inim-ma-me 24
lu2-mah-sze3 24
lu2-ni-@@ 24
lu2-u2-szim-e 24
lu3-lu3 24
lugal-TAR 24
lugal-ezem-sze3 24
lugal-ke4-ne-sze3 24
lugal-nesag-@@ 24
lugal-ra-mu-gi4 24
lugal-sza3-ga 24
lugal-ur 24
ma-ad-ga 24
ma-asz-@@ 24
ma-ti-@@ 24
ma-x-x 24
ma2-gin2-ta 24
ma2-lah5-ta 24
ma2-sa6-sa6 24
ma2-u4-zal-la-sze3 24
ma@@ 24
mah-ni 24
masz-da-ri-a 24
me-an-ne2-si 24
me-dim2-bi 24
mer-@@ 24
mi@@ 24
mu-ba 24
mu-lah5 24
mu-na-da-dab-e 24
mu-ne-du3-ta 24
mu-ri2-iq-ti-i3-di3-ni-im 24
mu-sar-ra-ba 24
mu-szu-du8-ta 24
mu10-@@ 24
mur-gu4-sze3 24
muszen-na-sze3 24
na-nu-um 24
nam-dam-sze3 24
nam-geme2- 24
nam-ha-ni-sze3 24
nam-lu2-ni 24
nam-ra-@@ 24
nam-tag 24
ne-mur 24
ne-ti-ti 24
ni-ib 24
ni-sa6 24
nig2-ar3-ra-me 24
nig2-buru14-da 24
nig2-dim2-dim2-ma 24
nig2-gur11-sze3 24
nig2-munus-la2-sag 24
nig2-sa10-ma-ka 24
nig2-si 24
nig2-szu-tak4-a 24
niga-bi 24
nigin9 24
nim-sze3 24
nin-ama 24
nin-dingir-e 24
nin-e-an-su 24
nin-e2-gal-la 24
nin-gir2-su-ka-ta 24
nin-kar-@@ 24
nin-lil2-he2-em-ti 24
nin-lil2-ta 24
nin-mu-ba-zi-ge 24
nin-szubur-me 24
nin-ur4 24
nin9-szesz-a-na 24
nin9-tur-tur-ra 24
nir-in-da-gal2 24
nisi-ga 24
nu-gar 24
nu-gid2 24
nu-gid2-da 24
nu-ni-du8-a 24
nu-szum2-ma 24
nu-tag 24
nu-usz-@@ 24
num2-sze3 24
p@@ 24
pa5-sir2-ra 24
pesz@@ 24
pirig-ga2 24
pirig3 24
puzur4-me-a 24
puzur4-ra-bi2 24
ra-tum 24
ra2-gaba-sze3 24
ri-i@@ 24
ri-ri-@@ 24
ru-ba-ti 24
ru-usz 24
ru2-a 24
sa-bu-um-ta 24
sag-apin-ke4-ne 24
sag-apin-ra 24
sag-mu-ab-tuku 24
se 24
se12-a 24
si-bi 24
si4-lum 24
sig7-ga-gin7 24
simug-ne-ta 24
sipa-ra 24
su-din 24
su-sin2 24
su3-da 24
su3-he 24
suen-an-dul3 24
suen-ke4-ga2-ra 24
sur-sur-me 24
sza-mu-un-@@ 24
sza-ri2 24
sza3-bi-a 24
sza3-dub-ba 24
sza3-mu-zu 24
szabra-e-ne-ta 24
szabra-ke4 24
szar-ru-a 24
szar2-ur3-ra 24
sze-le-eb 24
sze-le2-pu-um 24
sze-lu2-gum 24
sze-sag-ku5-sze3 24
szem3 24
szesz-ki-na 24
szesz-na 24
szesz4 24
szi-la-ma-si2 24
szu-a-a 24
szu-ma 24
szu-ma-me-tum 24
szu-me-me-ta 24
szu-nigin2-bi 24
szu-suen 24
szu-szakir 24
szu-tab 24
szu2-usz 24
szub-be2 24
szukur-ra 24
szul-ga2-a-ad 24
szul-gi-a2-kalam-ma 24
szul-gi-u2-nam-ti 24
szul-gi-wa-qar 24
szul-pa-e3-an-dul3 24
ta2-di3-esz18-dar 24
tab-ba-i3-li2 24
te-ge26 24
temen-na 24
ti-a-am6 24
tir-sze3 24
tu-ga 24
tu-tu-ub 24
tug2-ga-sze3 24
tug2-sa-gi4-am3 24
tum-al-ta 24
tur-tur-me 24
u2-szi-an 24
u3-duh-hu-um 24
u3-ki-ta 24
u3-ru-a 24
u4-sakar-me 24
u4-tusz-a-ke4 24
u5-sim 24
u8-sila4-ki-ag2 24
u8-udu-a 24
uk-@@ 24
um-dingir 24
ur-ab-ba-saga-ta 24
ur-abul 24
ur-da-ga 24
ur-e-kur2-ra 24
ur-e2-an-na-ka 24
ur-e2-ku3-ga 24
ur-e2-si-a 24
ur-esz3-du10-nun 24
ur-ki-ama 24
ur-mes-ra 24
ur-rum 24
ur-szem5-ku3-ga 24
ur-szu-ga-lam-ma-sze3 24
ur-szu-kal-la 24
ur-x-x-ta 24
ur2-in-dah 24
ur3- 24
ur5-sa6-mu 24
urix 24
uru 24
uru16 24
us2-sa-sze3 24
usz-bar-ka 24
usz-bar-me-esz2 24
usz-gi 24
usz@@ 24
utu-a2-dah 24
utu-e3-ta 24
utu-ik-sur2 24
utu-pa-e3 24
utu-pa3-da 24
utul2-tur 24
x-gi-na 24
x-gu10 24
x-u2-@@ 24
za-la-@@ 24
za3-1 24
za3-hi-li-bi 24
zal-la-@@ 24
ze-ra 24
zi-gum2-e 24
zi-gum2-ma-ke4 24
zi-la 24
zi-ti-ma 24
zi-zi-da 24
zi@@ 24
ziz2-sze3 24
ziz2-ta 24
-ba-a 23
-bala 23
-du-du 23
-gur 23
-ka-kam 23
-kam-ma-bi 23
-ni-sze3 23
-sa 23
-sze3-@@ 23
1@@ 23
6@@ 23
AK-@@ 23
AN@@ 23
DU8 23
GAR@@ 23
GESZ.@@ 23
H@@ 23
IL2-de3 23
KAM 23
KI-@@ 23
KUSZU2 23
LAK173 23
NE-GI-bar 23
SI-A 23
SUR.GU 23
SZE.@@ 23
SZIM-tusz-sze3 23
SZU-@@ 23
UMBINxLU 23
UR2xHA 23
a-bi2-a-bi-ih 23
a-bi2-ma-ma 23
a-gar3-@@ 23
a-hu-ba-ni 23
a-ne-da 23
a-ni-ir 23
a2-na-@@ 23
a2-pi5-la-tum 23
ab-us2-a 23
al-la-num2 23
am-am 23
ama-bi 23
amar-x 23
an-dab6-si 23
ansze-ka 23
asz- 23
azlag2-@@ 23
ba-NI 23
ba-a-gub 23
ba-an-ku5 23
ba-ba6-he2-gal2 23
ba-du7 23
ba-li 23
ba-ni-in-gar 23
ba-ri 23
ba-za7 23
bad-ra2 23
bar-bi-da 23
be-la-at-@@ 23
bi2-i-e3 23
bi2-in-la2 23
bi2-sze-a 23
bi2-zu 23
bur2-bi 23
buru5-@@ 23
da-a-da-ni 23
da-ak-@@ 23
da-la2 23
dam-sze3 23
de-@@ 23
de2- 23
de3- 23
dehi 23
dim-gal 23
dingir-ga2-bi2-du11 23
dingir-na-da 23
dingir-sze3 23
du10-ga-sze3 23
dub-sar-gu4 23
dugud-da 23
dumu-na-sze3 23
dur2-gar-ni 23
e-gar-ra 23
e-la-la 23
e-ri-@@ 23
e-te-al-pu3- 23
e2-babbar 23
e2-gal-la-sze3 23
e2-la-lumx 23
e2-me-lam2 23
e2-nun-ne2 23
e2-ur2-@@ 23
eb2 23
en-ki-du10-ra 23
en-nam-i3-li2 23
en-nun-@@ 23
engar-kam 23
erased 23
erim2-e 23
erin2-na-@@ 23
esz@@ 23
ezem-me-ki-gal2-ta 23
ga-a-@@ 23
ga-an-ku4 23
ga-ar 23
ga-asz 23
ga-mu-ra-tum2 23
ga-ni-ta 23
ga-za-mu 23
ga2-tum3-du10-@@ 23
gal-di 23
gal-kam 23
gala-e 23
gala-sze3 23
gan2-ne2 23
ganba 23
gara2-@@ 23
ge6-par4-ki-du10 23
geme2-x-@@ 23
gen-ne2 23
gesz-bu10 23
gesztin-an-na-ke4 23
gi-gun4-na 23
gi-na-ab-tum 23
gibil4-ta 23
gigir2-@@ 23
gir-ra-sze3 23
gir4-@@ 23
gu-ka 23
gu-la-me 23
gu-un-gu-nu-um 23
gu2-edin 23
gu2-ne-sag-me 23
gu4-de3 23
gub-ba-asz 23
gug-@@ 23
ha-ar 23
ha-bu-ri-tum 23
ha-szi-@@ 23
hab2-ba 23
he2-da-an-nu2 23
he2-em-szi-ak 23
he2-me-am3 23
hi-a-bi 23
hun-ga2-@@ 23
hur-sag-gin7 23
i-ta-@@ 23
i3-di3-@@ 23
i3-dim2 23
i3-gi-in 23
i3-gi4 23
i3-sa10 23
i3-se12 23
i3-szi-@@ 23
ib2-szi-in-@@ 23
igi-gal2-@@ 23
im-ta-an-e3 23
im-tum 23
in-na-sa6-ga 23
inim-ma-sze3 23
inim-zi 23
ip-qu2-@@ 23
iri-bar-@@ 23
iri-ni-ba-ag2 23
iri@@ 23
isi@@ 23
isz-me-a-ni 23
ka-ka-na 23
ka-la-la 23
kab2-ku5-a 23
kar-ra-du 23
kar2-kar2 23
kas@@ 23
kesz2-ra2-a 23
ki-ag2-ga2 23
ki-li2-li2 23
ki-sur-@@ 23
ki-zah3 23
ki-zu 23
ki@@ 23
kingal 23
kiri6-ke4 23
kisz-er 23
ku4-re-en 23
la-ah 23
la-at 23
la-az 23
li-ba-nu-ug-sza-ba-asz 23
lu2-a2-zi-da 23
lu2-ba-li2-it 23
lu2-du10-ga-sze3 23
lu2-gu4 23
lu2-ur-sag-pa-e3 23
lu2-x-x-x 23
lu2-zabala4 23
lu5-u2-mu 23
lugal-ezem-e 23
lugal-ku3- 23
lugal-uszur3-ra 23
lugal-zimbir 23
ma-an-na 23
ma-ni-sze3 23
ma-ra-ni-in-@@ 23
ma2-DUN3 23
ma2-gu2 23
mah-me-en 23
masz2-ta 23
mes-ki-gal-la 23
mu-na-ni-tag 23
mu-ra-an-szum2 23
mu-ri-iq-ti-id-nim 23
mu-ti 23
munu3 23
munu4-ba 23
muszen-me 23
n- 23
na-mu-@@ 23
na-ne-ne 23
na8-na8-@@ 23
nam-bi-sze3 23
nam-gal 23
nam-gala 23
nam-gurusz 23
nam-lu2-inim-ma-sze3 23
nam-szita-mu 23
ni-gin7 23
ni2-a-ni 23
nig2-zi-gal2 23
nin-an-ne2-si 23
nin-gesz-sza3-ga 23
nin-kur 23
nin-nam-@@ 23
nin-unu 23
nin-zi-@@ 23
ninda-si 23
nu-banda3-gu4-ka 23
nu-dab-ta 23
nu-dim2-mud 23
nu-mu-ni-@@ 23
nu-ni-@@ 23
nu-sze-ga 23
nu-tuku-ta 23
nun-gal-sze3 23
nun-na-ka 23
nundum 23
puzur4-da-gan-na 23
puzur4-dingir 23
r 23
ra-ra-de3 23
ru-da 23
sa-sze3 23
sa2-du11-e 23
sag-gal2-la 23
sag-ka 23
sar-a 23
si-gar-@@ 23
su-he2-bi 23
su11-ka3-li2 23
suen-nu-ri 23
suen-si-sa2 23
suh3 23
sza-ga-ru 23
sza-la 23
szar-ru-um-i3-li2-ta 23
szar3-@@ 23
szara2-i3-@@ 23
szen-szen 23
szer7 23
szir-ga 23
szu-asz3 23
szu-ba-@@ 23
szu-gi4-me 23
szu-na-ni 23
szu-za 23
szuba2 23
szul-gi-si-sa2-ta 23
szul-la 23
ta-a 23
ta2-din- 23
tam-@@ 23
te-a 23
te-a-ni 23
ti-ga-AN 23
tug2-us2 23
tukul-a 23
tukum 23
tukumx 23
u2-bil3-la 23
u3-mu-un-zu 23
u4-iri-na 23
u4-ta 23
um@@ 23
ummax 23
unu3-de3-ne-ta 23
ur-amasz-a 23
ur-ba-ba-ta 23
ur-ki-dagal-ta 23
ur-ku3-ga 23
ur-x-x-@@ 23
ur3-re 23
urum2 23
us2-ni 23
usu-@@ 23
usz-bar-re 23
utu-lu2-mu 23
utu-szu2-sze3 23
wa-da-ru-um 23
x-a-x 23
x-ba-ni 23
x-du-@@ 23
x-en 23
x-la-a 23
x-sa 23
x-saga 23
za-ga 23
za3-mu-@@ 23
za@@ 23
zi-mu-dar 23
zi3-ka-sze3 23
zu-ni 23
zu-ru-uh2 23
-bar-ra 22
-du-a 22
-du11-ga 22
-e2 22
-re2-ki-ag2 22
-sze 22
-szi-@@ 22
-ta-sze3 22
-x-zu 22
5-e 22
6-ta 22
7-sze3 22
A.MUSZ3 22
ARAD2-er3-ra 22
ARAD@@ 22
BI@@ 22
DU3 22
E@@ 22
GA2xHA 22
GAN@@ 22
GAR3 22
GU2 22
IG@@ 22
IM@@ 22
NE-NE-@@ 22
NE-sze3 22
NUN.LAGAR 22
SILA4 22
SZE3-ba-an 22
SZE3.@@ 22
SZESZ-KI-na 22
UD- 22
UD-x 22
URUDU 22
a-li2-ni 22
a-pil-@@ 22
a-ri 22
a2-an-du-ru-ta 22
a2-dah-@@ 22
a2-du-du 22
a2-suh 22
a2-x-x 22
ab-ba-ti 22
ab-ba-x-x 22
agrig-da 22
ak-esz 22
ak-ka 22
al-dab5-ba-ne 22
al-tusz 22
al-zi 22
alan-ba 22
alan-na 22
ama-na-sze3 22
an-ak 22
an-na-gu10 22
an-ne 22
an-ne2-ga2-ra 22
ana 22
ansze-me 22
ansze-ta 22
asar-lu-hi 22
asila 22
asz-im2-babbar-e 22
asz-im2-babbar-re 22
asz-ur4 22
asza5-ga 22
ba-ab-du-sza 22
ba-an-kesz2 22
ba-ba-ti-ta 22
ba-ba6-ke4-ne 22
ba-du11 22
ba-ga-ga 22
ba-gar-ra 22
ba-gin7 22
ba-hi 22
ba-hul-a-sze3 22
ba-na-an-zi 22
ba-na-szum2 22
ba-ni-gar 22
ba-re 22
babbar-ra 22
bar-bar-re 22
bara3-@@ 22
bi3-@@ 22
bu3-bu3-@@ 22
bur2-dam 22
buru14-@@ 22
da-a-x 22
da-bad3-ta 22
da-da- 22
da-gal 22
dab5-be2-en 22
dadag 22
dan6 22
de2-a-@@ 22
di-ni-ib-@@ 22
di3 22
dingir-ra-bi2-ta 22
dingir-re-@@ 22
dingir-su2-ra-bi2 22
du-du- 22
du10-ga-ke4 22
du6-gub3-temen-na 22
dub-ba-@@ 22
dub-ba-ka 22
dub-kam 22
dub-sar-ne 22
dun-dun 22
e-ne-er 22
e2-bappir2-me 22
e2-diri 22
e2-gil-sa 22
e2-igi-@@ 22
e2-lu2-lagar 22
e2-masz-@@ 22
e2-nam-ti-e 22
e2-nig2-bi 22
e2-ninnu-a 22
e2-sar 22
e2-ta-@@ 22
e2-u4-@@ 22
e2-uz-ga-asz 22
e3-a-ni 22
eb-ta 22
egir-ra-@@ 22
em-@@ 22
en-du10 22
en-du8-du-a 22
en-lil2-mas-su2 22
en-te-en 22
er3-ra-szum 22
esirx 22
esz18-dar-al-su 22
esz2-dam-ta 22
ezem-me-gi8-gal2 22
g-GIR2 22
ga-am3-mi-@@ 22
ga-ba-de3-u5 22
ga-bi2-ib-gub 22
ga-ti-le 22
ga-za 22
ga2-ga2-a 22
gal-la-a 22
galam-@@ 22
gam-gam-@@ 22
gar-gar-ra 22
gar-ra-ba 22
gaz-a 22
ge-en6 22
ge26-e-me-en 22
ge6-ge6 22
geme2-esz2-dam 22
gesz-bi-gesz-e-gar-ra 22
gesz-gar-ra-sze3 22
gi-gi-@@ 22
gi-ne 22
gi16-@@ 22
gi4-za7 22
gigir-e 22
gilim 22
gir5-@@ 22
giri3-da 22
girim2 22
gu4-gal2 22
gu4-ra-bi2-mu2-mu2 22
gu4-ra2-bi2-mu2-mu2-sze3 22
gu4-si-su-sze3 22
gu5-li-@@ 22
gun3-gun3-@@ 22
guru3 22
ha-ba- 22
ha-ba-ab-@@ 22
ha-ba-ba-tum 22
ha-bu-ra 22
ha-ia3-@@ 22
ha-lu-ub2-ta 22
ha-x 22
had2-sze3 22
hal-li2-ta 22
he2-e 22
he2-en-da-@@ 22
he2-na-ab-@@ 22
he2-sa6-mu 22
hi-ir 22
hur-sag-ta 22
i-a 22
i-bi-@@ 22
i-gi4-ha-lum 22
i-in-@@ 22
i-zu-a-ri2-ik 22
i2 22
i3-du8-sze3 22
i3-gal2-am3 22
i3-me-am3 22
i3-si-@@ 22
ib2-szesz4 22
ib2-tuku 22
ig-alim-ra 22
igi-x 22
im-gid2-da 22
im-ku3-ge 22
im-szi-du-a 22
in-na-szum2-ma 22
in-nu-ri 22
in-tud2-de3-en 22
ix 22
ka-dug 22
kad@@ 22
kam-ta 22
kaskal-e 22
kesz2-bi 22
ki-gu-me 22
ki-in-@@ 22
ki-ri-ib-ul-me 22
ki-szesz 22
ki-uri-a 22
kikken-da 22
kiri6-bi 22
ku-ru-ub-e2-a 22
ku3-babbar2-ra 22
ku3-ga-me 22
la-ni-bu 22
li-la 22
li-pi2-it-esz4-tar2 22
libir-ta 22
line 22
lu2-dingir-@@ 22
lu2-geme2-zi-da 22
lu2-lu2 22
lu2-mah-ta 22
lu2-na-@@ 22
lu2-ti- 22
lu2-zar3-ra 22
lugal-KA-@@ 22
lugal-a2 22
lugal-me-na 22
lugal-musz-husz 22
lugal-sa12-du5 22
lugal-sa6-i3-zu 22
m-e 22
ma-gig 22
ma-ma-tum 22
ma-mu 22
ma-ni-in-@@ 22
mar-tu-kam 22
masz-kan2-szabra 22
me-mah-nu-sa2 22
min-a-ba 22
min-am3 22
mir-@@ 22
mu-du3-sze3 22
mu-gar 22
mu-il2 22
mu-na- 22
mu-ni-in-du11 22
mu-szi-bar 22
mu-szu-@@ 22
mu-us2-sa-a-bi 22
mu-zu-a 22
mur@@ 22
n2 22
nag-ku5 22
nam-bi 22
nam-lu2 22
nemurx 22
ni-e 22
ni-ka 22
nig2-ba-bi 22
nig2-gesz-tag-ga 22
nig2-gi-na-zu 22
nig2-mu-@@ 22
nig2-su-a 22
nigin-na 22
nigin2-ta 22
nigin8 22
nimgir-esz3-a-tum2 22
nin-e2-i3-gara2 22
nin-e2-nirx 22
nin-gil-sa 22
nin-mu-su-da 22
nin-mu-uszur4-mu 22
nin-pirig-banda3 22
nin-sumun2-ka 22
nin-tu-@@ 22
nin9-ku-li 22
nu-ar3-a 22
nu-me 22
nu-mu-un-da-@@ 22
nu-te-@@ 22
nu-un-uru4 22
nu-x-x 22
nun-na-@@ 22
pa3-da-zu 22
ra-an-@@ 22
ra-na 22
re-e 22
ru-dam 22
s-@@ 22
sa-tu 22
sa10-ni 22
sag-dili 22
sag-dub-ba 22
sag-nig2-gur11-@@ 22
sag8 22
si-il 22
si-ke4 22
si-mu-ur4 22
si-ni 22
si-sa2-sze3 22
si-si-@@ 22
si3-@@ 22
siki-da 22
sipa-lagasz 22
su-su-ga 22
su3-de3 22
suen-a-a 22
suen-he2-gal2 22
suen-ka-ta 22
suen-mi-gir- 22
suen-mu-ba-li2-it 22
sug4-ga 22
sukud-@@ 22
sur3-@@ 22
sur3-ra 22
sza-ta 22
sza13-dub-ba-sze3 22
szaga-a 22
szah2-NE-tur-munus-gesz-gi 22
szakir 22
sze-kar-@@ 22
sze-li-bu-um 22
szi-a-a 22
szir 22
szu-me 22
szu-na-a 22
szu-ur-@@ 22
szub-bu-@@ 22
szul-gi-re 22
szul-me 22
szul-pa-e3-a 22
t-@@ 22
ta2 22
tag-tag 22
tak4-tak4 22
te-am3 22
tir-da 22
tum-bi 22
tum2-mu-un-ze2-en 22
tusz-a-zu 22
u2-ki-numun 22
u2-lum 22
u2-na-ab-sze-en 22
u2-szu 22
u3-szub-@@ 22
u6-e 22
um-e 22
umun2 22
ur-bi2-@@ 22
ur-dun-@@ 22
ur-gu2 22
ur-iszkur 22
ur-sa6-ga-ke4 22
ur-szu-ga-lam-ma-ke4 22
ur5-bi 22
ur5-zi-bi2 22
uri3-@@ 22
uru11-@@ 22
uru4-@@ 22
us2-ta 22
uszur4-@@ 22
utu-iri-na 22
ux 22
uz-na-nam 22
wu-@@ 22
x-asz 22
x-bu 22
x-e2 22
x-us2 22
xU 22
za-ba-ba 22
za-ta 22
zabala2 22
zar-re-esz 22
ze2-er 22
zi-da-ka 22
zu2-lum-@@ 22
-a-gal 21
-a2-dah 21
-ba-ta 21
-bi-im 21
-esz2 21
-he2-gal2 21
-na-a 21
-nigin6 21
-nu 21
-szum2 21
-x-ba 21
0 21
10-@@ 21
2-ta 21
3-na 21
3x@@ 21
ARAD2-e-ne-sze3 21
ARAD2-e2 21
ASZ-UR4 21
GAN2-sze3 21
GAR.@@ 21
GESZ.PAP.BIL 21
GISZGAL 21
GUL 21
HA-ku3-ga 21
KA-a-bi 21
KA-bi 21
KA-zi 21
LAGABx@@ 21
LAK777 21
LAL2 21
NE-la2 21
NE-ri 21
NIN 21
NU@@ 21
PA-x 21
PAP.GESZ.BIL 21
PI- 21
UL@@ 21
URU-KA-gi-na- 21
ZA7 21
ZUM-e2-lunga 21
a-NE-@@ 21
a-a-ga 21
a-bad 21
a-bala-a 21
a-bi-si2-im-ti 21
a-bil-lum-ma 21
a-bu-a 21
a-bu-t 21
a-bu-um-ba-qar 21
a-da-ru-um 21
a-dar-szen 21
a-e-@@ 21
a-gar-bi 21
a-gesztin-ta 21
a-hu-ba-qar-ta 21
a-li2-a-bi2 21
a-na-gu-gu 21
a-pi-la-sza 21
a-pi-lum-ma 21
a-ri-du-bu-uk 21
a-szi-an-ta 21
a-szu 21
a2-alim 21
a2-bi2-i3-li2 21
a2-bi2-la-@@ 21
a2-ga-ga 21
a2-gal2-nu-tuku 21
a2-la-la-ta 21
a2-pi-la-sza 21
a2-pi5-lum 21
a2-u2-mu 21
a3-bu-um 21
ab-e3-zi-ga 21
ab-u2-@@ 21
ad-kup4-sze3 21
al-du10 21
al-du10-ga 21
al-ga-um 21
am-am-da-du3 21
ama-ni-@@ 21
ama-ra 21
ama5-@@ 21
amar-KID-nun 21
amar-ka5-a 21
an-da-tuku 21
an-na-la2 21
an-na-ra 21
an-sza-an-na-me 21
aq-@@ 21
ar-bi2-tum 21
ar-szi-ih 21
ar-szi2-ah 21
ar-za-na-sze3 21
ar3-de3 21
asznan-zi-mu 21
azlag2-ke4 21
ba-a-sa6-ga 21
ba-ab-ti-a 21
ba-ak-ke4 21
ba-an-la2 21
ba-ba6-ig-gal 21
ba-ba6-na 21
ba-ba6-ta-lu2 21
ba-du-du 21
ba-e-a-e11 21
ba-gen-na 21
ba-sa10 21
ba-szi-ku5 21
ba-zi-mu 21
bad3-du3-a-ta 21
bar-ra-ke4 21
bar-si-@@ 21
bar-zu 21
be-la-at-er3-ra-ba-an 21
be-la-at-suh-ne-er 21
be-la-at-suh-nir 21
be2-ra 21
bi-gin7 21
bi2-ak 21
bi2-du8-a 21
bi2-in-sa2 21
bi2-pa3 21
bil2-ta 21
bu-ru-uq-ta 21
bu-tum 21
bu-zu 21
bu3-bu3-da 21
bu3-la-mu 21
bu3-za-ni 21
bulug4-ga 21
c.3. 21
da-ad-da 21
da-gi4-a-ta 21
da-gi4-mu 21
da-la-a 21
da-ze2-ta 21
dab-ba-ta 21
dab-be2 21
dab5-ba-ke4-ne 21
dab5-dab5-de3 21
dah- 21
dam-gar3-gal 21
dam-na 21
de6-a-sze3 21
dib-be2 21
dingir-e-ri-isz 21
dingir-ki-in 21
dingir-ma-ta 21
diri-ga-sze3 21
dirix 21
du10-bi 21
du5-mu 21
du6-lugal-pa-e3 21
du8-me 21
dub-la2-mah-sze3 21
dumu-nita-a-ni 21
dur10-tab-ba 21
dur2-bi-sze3 21
dur2-ru-ne-esz 21
dusu2-munus-mah2 21
e-li 21
e-lu-a 21
e-lum-@@ 21
e-ta-e3 21
e-zi-tum 21
e2-NI-bi 21
e2-an-na-ka 21
e2-an-na-ke4 21
e2-ba-ha-a 21
e2-gal-a 21
e2-gaszam-e-ne 21
e2-gurum2 21
e2-husz 21
e2-kin-a 21
e2-nig2-gur11 21
edin-na-@@ 21
en-lu2 21
en-nun-e-ki-ag2 21
en-u2-@@ 21
en-u2-u2 21
en-unu2-gal 21
en6 21
erim2-ma 21
es3-sa2-ab-du 21
esz-dar 21
esz18-dar-i3-li2 21
esz18-dar-ta 21
esz3-didli 21
g- 21
g-gal-ta 21
g@@ 21
ga-a-ga 21
ga-da-@@ 21
ga-ga-ar-tum 21
ga6-@@ 21
gab2-sar 21
gaba-bi 21
gal-a 21
gal-gal-a-ni 21
gal2-a 21
gal2-la-ba 21
gar-ra-ni 21
gar3-mud 21
ge-da 21
ge-esz2 21
ge6-ta 21
geme2-e2-gibil 21
geme2-ge6-par4-ra 21
geme2-ki-ku3-ga 21
geme2-li 21
geme2-me 21
geme2-x-x 21
gen-na-ke4-ne 21
gen-na-me-esz2 21
gesz-a-ra2 21
gesz-i3-ka-da 21
gesz-sza3-ki-du10 21
gesztin-an-na-lugal 21
gi-gun4 21
gi7-@@ 21
gid2-gid2 21
gidlam 21
gin@@ 21
gir-sze6 21
gir2-rin 21
gir2-su-ta 21
gir2-ur2-ra 21
gissu-na-ni-du10 21
gu-da-a 21
gu-da-da 21
gu-lum 21
gu-u9 21
gu-za- 21
gu2-ab 21
gu2-isz-har-ra2 21
gu4-nu2-a-ta 21
gu5-@@ 21
gu7- 21
gud3-bi-ta 21
gukkal-@@ 21
guru@@ 21
h 21
ha-ab-ru-sze-er 21
ha-an-ti 21
ha-ba-lu5-ge 21
ha-bu-ri2-tum 21
ha-ha 21
ha-ha-@@ 21
ha-la-um 21
ha-ru 21
hal-mu-tum2 21
he 21
he2-na-ti-ta 21
hi-x 21
hu-da 21
hu-hu 21
hu-la-la 21
hu-za 21
i-di3-na-bu-um 21
i-din-a-bu-um 21
i-in-ma-ma 21
i-na-ah-dingir 21
i-ti-dingir 21
i-ti-rum 21
i3-ak-@@ 21
i3-ib2-du10-du10 21
i3-lah5 21
i3-li-@@ 21
i3-pa3-sze3 21
i3-tu-da 21
i3-u-nu 21
i7-lugal 21
ib2-bi2-nu-usz 21
ib2-da-gal2 21
ib2-szi-@@ 21
ib2-ta-e3-a 21
ib2-us2-sa 21
igi-an-sze3 21
igi-e2-mah-sze3-ta 21
igi-gal2-ta 21
igi-tab 21
igi-u8-udu-a 21
im-me-@@ 21
im-ta-e11 21
in-na-du11-ga 21
in-sze3 21
inanna-ama-mu 21
inanna-dingir-mu 21
inim-sa6-sa6 21
ip-ti-dingir 21
iri-x 21
ka-a-sze3 21
ka-ga-lum 21
ka-guru7-me 21
ka-la2-ka 21
ka3-as-pu-sza 21
ka5 21
kab2-ku 21
ki-ag2-ra 21
ki-gar 21
ki-gub-ni 21
ki-ib-ra-tim 21
ki-ke4 21
ki-la-bi 21
ki-siki-ka 21
ki-tag-bi 21
ki-tusz-lu2-sze3 21
kikken-na-ka 21
kin-gi4-@@ 21
kin-gi4-a-sze3 21
kin2-da 21
kiri6-e-ne 21
ku-bi 21
ku-du-du-u2 21
ku3-an-ka 21
ku3-babbar-a 21
ku3-ga-sze3 21
ku4-ku4-de3 21
kum-dur2 21
kur-ra-ta 21
kur6-nig2-du10 21
kusz-a 21
kusz3-numun 21
kusz7 21
la-al-la 21
la-al-la-a 21
la-al-u2-a 21
la-he-dam 21
la-mu-sza 21
la-num2 21
la-zu 21
le-um-ma 21
li-ia 21
lu-lu-a 21
lu-u2 21
lu-ub2-@@ 21
lu2-bara2 21
lu2-e2-gibil4-le 21
lu2-gi-di-da 21
lu2-i3-zu-ta 21
lu2-kur2 21
lu2-ni-mu-zu 21
lu2-saga-pa-da-du 21
lu2-tilla3 21
lu2-u5 21
lugal-KU-ta 21
lugal-ab-ba-iri 21
lugal-an-na-tum2-ta 21
lugal-bad3-iri-na 21
lugal-dalla-ta 21
lugal-dub-la2-ta 21
lugal-erin2-ta 21
lugal-ga2-ke4 21
lugal-he2-gal2-sze3 21
lugal-me-gal-gal 21
lugal-nam-@@ 21
lugal-nig2-nesag-e 21
lugal-pa-@@ 21
lugal-si4 21
lugal-siki 21
lugal-szu-gi4-gi4 21
lugal-szuba3-zi 21
lum-lum 21
m2 21
ma-al-ku-um 21
ma-al-kum-sze3 21
ma-an-x 21
ma-gu-ul 21
ma3-@@ 21
mar-hu-sza 21
masz-gal 21
masz-x 21
masz2-gal-@@ 21
me-am3 21
me-e3 21
me-ki-@@ 21
me-nigin3-ta 21
mes-ta 21
mes@@ 21
mi-it-har 21
mir 21
mu-da-ri2 21
mu-du11-ge-du7 21
mu-du2 21
mu-na-an-dim2 21
mu-na-gub 21
mu-na-x 21
mu-ne-du11 21
mu-ni-i3-mah 21
mu-ni-uri3 21
mu-ra-ab-@@ 21
mu-ri 21
mu-ri-iq-ti-@@ 21
mu-ul-lil2-le 21
mu-un-ba-al 21
mu-un-ba-al-e 21
mu-un-da-ab-@@ 21
mu-un-na-ni-ib-gi4-gi4 21
mu-zi 21
mu11-mu11 21
mud-@@ 21
musz-bi-an-na-sze3 21
musz-husz 21
n-na-@@ 21
na-du3-a-mah 21
na-gab2 21
na-lum 21
nam-erim2-ta 21
nam-tar-ra-@@ 21
nam-ur-sag 21
namma-sze3 21
nanna-ba-an-zi-ge 21
nanna-ba-zi-ge 21
nanna-e2-tur3 21
nanna-gu2-gal-sze3 21
nanna-he2-gal2 21
nanna-i3-sa6-ta 21
nanna-in-pa3 21
ni-ba-ba 21
ni-ni 21
nig2-da-ga 21
nig2-gu3-de2-a 21
nig2-sur-bi 21
nig2-szur2 21
nig2-u4-@@ 21
nimgir-es3-sa2 21
nimgir-ti-ti 21
nin-a-sze3 21
nin-amasz-zi-ta 21
nin-e-bar-ga2 21
nin-eb-tum 21
nin-gir2-su-ka-ra 21
nin-gu-la 21
nin-hur-sag-ga2-ke4 21
nin-hur-sag-ga2-sze3 21
nin-kar2 21
nin-lil2-la2-@@ 21
nin-masz 21
nin-siskur2-re 21
nin-su4-a 21
nin-x-x-@@ 21
ninda2-@@ 21
nisaba-an-dul3-ta 21
nita-kal-ga 21
nita@@ 21
nu-ba-an 21
nu-banda3-ne 21
nu-mu-na-ab-be2 21
nu-ru-usz-e-li2 21
nu-szu2 21
nu-tuku-a 21
nu-tur 21
nu-ub-gi4-gi4-da 21
nu-ur2-su 21
num2-ma 21
nun-gal-ra 21
nunuz-kad2 21
nunuz-kad4 21
pa3-da-a 21
pa4- 21
pe-@@ 21
pesz5 21
puzur4-szu-u2-da 21
r@@ 21
ra-zu 21
ra2-gaba-@@ 21
re7-@@ 21
ri-ri-ga-a-sze3 21
ri-ta 21
ru2 21
ru@@ 21
sa10-ma-ni 21
sa2-bi2 21
sag-asz-bi 21
sag-du7 21
sag-kal-la 21
sanga2 21
sar-sar 21
ses@@ 21
si-ga-@@ 21
si-ma- 21
si-mu-rum 21
si-tum 21
si2-mi-tum 21
sig15-bi 21
sila3-bi 21
sipa-iri-na 21
sir2 21
su-ga-ni-a 21
su3-ra2-ag2 21
suen-ga2-ra 21
suen-i-din-nam 21
suh-gibil-du3-a-sze3 21
suhusz-@@ 21
sukux 21
sza-am-@@ 21
sza-an-gu 21
sza-nu-um 21
sza-ru-@@ 21
sza-um-i3-li2 21
sza13-dub-ba-ke4 21
sza3-asz-szu2-ru-um 21
sza3-da-nu-szar 21
sza3-du10-sze3 21
sza3-gi4-dab6 21
sza3-sahar-ra-ka 21
szagina-me 21
szakkan-la2 21
szandana-ke4-ne 21
szar-ta 21
sze-ba-a 21
sze-gin7 21
sze-li-ta 21
sze-li2-bu-um 21
sze-sag11-a 21
sze-ur5-ra 21
szeg9-bar-sze3 21
szen-gam-e 21
szer3 21
szi-bu-uz-ri 21
szi-ib-@@ 21
szi-im-da-@@ 21
szi-lu5-lu5 21
szi-nu-ri 21
szita-ab-ba 21
szitim-@@ 21
szu-bar-ra 21
szu-gi4-sze3 21
szu-il2-tum 21
szu-ku8-bu-um-ma 21
szu-na-da 21
szu-nir-um 21
szu-ur3 21
szud3-@@ 21
szul-du11-ge-du7 21
szul-gi-ke4 21
t@@ 21
ta-lu2 21
tar-tar-re-de3 21
tasz3-ni-tum 21
te-ta 21
te3 21
tesz2-tesz2 21
ti-ru-um 21
ti-sa2 21
tir-ba-bil3-la 21
tir-ka 21
tu3-di3-da 21
tu5 21
tu5-@@ 21
tug2-mug 21
tuku5-tuku5-de3 21
tul2-ta-sze3 21
tum12 21
u2-a2-na 21
u3-la2 21
u3-lu-lu 21
u3-ma 21
u3-ri-ga 21
u3-sur-ra 21
ud5-de3-nu-us2 21
udu-me 21
udu-mu 21
udu-na-sze3 21
ug3-IL2-@@ 21
ugnim-@@ 21
uku2-@@ 21
unu-@@ 21
unu-ga 21
ur-ab-ba-sa6-ga 21
ur-e2-dub 21
ur-en-gal-du-du-ta 21
ur-ganun 21
ur-gesz-ta 21
ur-gi7-munus 21
ur-ki-dagal 21
ur-ki-ku3-ga 21
ur-ki-siki 21
ur-ki-um 21
ur-kisz 21
ur-ku 21
ur-pa4-@@ 21
ur-sag-ub 21
ur-sukkal-@@ 21
ur-szar2-ur3-ra 21
ur-ta 21
uri@@ 21
us2-sa-a-@@ 21
us2-sa-a-bi-sze3 21
usz-ki-du10 21
utu-ba-e3-ta 21
utu-ug3-e-ta 21
utuwa 21
x-ak 21
x-ri 21
za-a-ga 21
za-gin3-sze3 21
za-num2 21
za3-esz2-la2 21
ze2-ba-ni-da 21
zi-gi4 21
zi-gu10 21
zi-kalam-ma 21
zi-na-ma 21
zi3-IL2-me 21
ziz2-@@ 21
ziz2-ba-na 21
zu-am3 21
zu-ga 21
zu@@ 21
zuh-a-sze3 21
-a-zu 20
-ama 20
-be2 20
-e-ki-ag2 20
-ga-nir-gal2 20
-kam-ta 20
-nanna 20
-ni-ta 20
-ra-ka 20
-sig 20
-tar 20
-wa-wa 20
.DU 20
11-@@ 20
5-sze3 20
7-a 20
7@@ 20
8-sze3 20
ALAN 20
ARAD2-da-@@ 20
BU@@ 20
DA-@@ 20
DU-a-asz 20
GAZ 20
GIG 20
HAR- 20
HAR-ra 20
IR 20
KA-ni 20
LAK218 20
LAK492 20
LAM 20
NE.@@ 20
NUN-@@ 20
SAL-USZ 20
SUKUD 20
SUM 20
SZE.NAM2 20
SZESZ-@@ 20
SZID-@@ 20
SZU-A 20
TAR-ta 20
TUR@@ 20
UD-UD 20
a-a-na 20
a-al-la-@@ 20
a-an 20
a-da-mu 20
a-gesztin-@@ 20
a-li2-du10 20
a-lu-lu 20
a-lu2-du10 20
a-mi-ir- 20
a-na-zu 20
a-ra-zu-a 20
a2-ge6 20
a2-ge6-@@ 20
a2-wi-@@ 20
ab-ta-e3 20
ab-us2-sa 20
al-gul-la 20
am-gin7 20
ama-mu-@@ 20
ama-ra-zu 20
amar-ra-sze3 20
an-dul3-sze3 20
an-ta-he2-gal2 20
apin-la2-@@ 20
apin-me 20
as 20
asz3-gi5-illat-su2 20
azlag4 20
b-@@ 20
ba-a-a-mu 20
ba-ab-du3 20
ba-an-si-si 20
ba-an-tum2-mu 20
ba-an-zuh 20
ba-ba6-ka-ke4 20
ba-ba6-x 20
ba-da-ab-@@ 20
ba-gu-gu 20
ba-lah5 20
ba-ni-ta 20
ba-qar 20
babi@@ 20
bad-da 20
bad3-i3-li2 20
bahar4 20
bala-a-@@ 20
bar-ga2 20
bar-me 20
bar-ra-sze3 20
be2-bad 20
bi-na-@@ 20
bi2-a 20
bi2-in-esz 20
bi2-la2 20
bi2-za-a 20
bil2-ga 20
bu-ku-@@ 20
bu3-za-a 20
bu@@ 20
da-a-a-ta 20
da-asz 20
da-lu5 20
da-mu-a-zu 20
da13-da13 20
dag-hi-a 20
dagal-e-de3 20
dara3-munus 20
de5-ga 20
di-ne 20
di-sze3 20
di-x 20
didli-@@ 20
dim2-dim2 20
dingir-ga2-@@ 20
dingir-ma-@@ 20
dingir-szu-i-bi-szu 20
du-u2-a-ni 20
du10-du10 20
du11-ga-sze3 20
du8-am3 20
dub-x 20
dub2-bu 20
dub2-dub2 20
dumu-ni-sze3 20
dumu-zi3 20
e-dab6-sag3 20
e-e 20
e-lum 20
e-ma-de6 20
e-me-@@ 20
e-tag 20
e2-balag-me 20
e2-engur-ra 20
e2-gu4-@@ 20
e2-igi-e2-e 20
e2-kiszib3-ka 20
e2-mah-da 20
e2-ni-sze3 20
e2-nu-ru 20
e2-sza3-ga-me 20
e3-a-asz 20
e3-a-ba-ni 20
eb-gal-ta 20
eden-na 20
en-dag-ga 20
en-um-e2-a 20
enuru 20
epir2 20
eri@@ 20
erin-da-ni 20
erx 20
esz18-dar- 20
esz3-a 20
esz3-me 20
eszgiri2 20
ezem-an-na-ta 20
ga-ga-mu 20
ga-nu11 20
ga-sur-ra 20
ga-x- 20
ga2-nam-ma 20
ga2-x 20
gab2-kas4-da 20
gab2-ra-ni-me 20
gag-ta 20
gal-a-ni 20
gal-me 20
gan-e2 20
gar@@ 20
ge4 20
geme2-bara2 20
geme2-e2-unu 20
gesz-ba 20
gesz-hur-bi 20
gi-zi-@@ 20
gi4-a-asz 20
gid2-da-ne-sze3 20
gid@@ 20
gig-numun-bi 20
gir2- 20
gu-u2-gu-@@ 20
gu-ul-@@ 20
gu2-ba-kam 20
gu2-ba-me 20
gu4-gesz-du3 20
gub-ba-me-esz2 20
gud3-ba 20
gul-gul-e 20
gurum2-@@ 20
ha-ta 20
ha-tum 20
had2-ta 20
haszhur-had2 20
he2-i-i 20
he2-mu-e-@@ 20
hu-li2-@@ 20
hu-mu-na-ab-@@ 20
hu-nu-ri 20
hu-ur-@@ 20
hul2-la-@@ 20
i-gu-num2 20
i-su2-a-ri2-ik 20
i-szar-ki- 20
i-szum 20
i3-ba-e-ne 20
i3-in-bar 20
i3-li2-a-zu 20
i3-li2-en-nam 20
i3-nun-ta 20
i3-szub-ga2-ra-ta 20
i3-x-@@ 20
ia3-a-ma-di3-um 20
ig-bi 20
igi-e2-mah 20
im-da-da 20
in-ni- 20
in-zu-a 20
iri-az 20
iri-lal3 20
it-ma 20
ka-guru7-sze3 20
ka2-na 20
kab2-kul2 20
kal-ga-@@ 20
kal-ta 20
kaskal-a 20
ke4-esz2 20
ki-ak 20
ki-gin7 20
ki-gu 20
ki-gub-ba 20
ki-i3-li2 20
ki-im 20
ki-sur-ra-ka 20
kir11-@@ 20
kiszi16 20
ku-da-@@ 20
ku10-ku10 20
ku3-am3 20
ku3-ga-na 20
ku4-ra-ne-sze3 20
ku7-ku7-da 20
kur-gal 20
kusz-sze3 20
l2-@@ 20
la-gi-ip-ta 20
la2-ne 20
le-esz 20
li-bi2-@@ 20
li9-si4-ka 20
li9-si4-ra 20
lu2-erim2 20
lu2-i5-mar-sa6-ga 20
lu2-inim-@@ 20
lu2-ka-@@ 20
lu2-ki-inim-ma-bi-me 20
lu2-lugal 20
lu2-nig2-lagar-e 20
lu2-szuku-ra-ke4-ne-sze3 20
lugal-a-a 20
lugal-ab-ba-mu 20
lugal-e2- 20
lugal-e2-gid2-e 20
lugal-enku 20
lugal-kur 20
lugal-mar2-da 20
lunga3-me 20
ma-a-kam 20
ma-an-szum2-@@ 20
ma-dar 20
ma-du10 20
ma-mu2-da 20
ma-na-kam 20
ma-nu-um-@@ 20
ma-s 20
ma2-gid2-da 20
ma2-la2-@@ 20
ma2-lah5-ra 20
mah-me 20
mar-za-ke4-ne 20
marduk-@@ 20
masz-masz-e 20
masz-sze3 20
me-esz3 20
me-nigar 20
me-ra 20
mes-nig2-lul-le 20
mes-sanga-unu 20
mi-ri2-za-bi 20
mu-e-da-@@ 20
mu-ka 20
mu-u3 20
mu-un-gi4 20
musz-a 20
musz@@ 20
na-ab-du11 20
na-am3 20
na-ni-mu 20
nam-bi2-@@ 20
nam-en-bi 20
nam-lugal-sze3 20
nam-mu-@@ 20
nam-nir-gal2 20
nam-tag-@@ 20
ne-ne-sze3 20
ni-bi 20
nig2-a2-zi 20
nig2-e3-a 20
nim-ma 20
nin-a-gu2-zi 20
nin-ama-na 20
nin-dar-@@ 20
nin-e-ki-ag2 20
nin-esz2-dam-me-ki-ag2 20
nin-kar-ak 20
nin-kas4-il2-il2 20
nin-lil2-la2-ka 20
nin-mu-igi-mu 20
nin-sza3-ge-pa3-da 20
nin-ukken-ne2 20
nu-banda3-kam 20
nu-dim2-mud-e 20
nu-gi-in 20
nu-i3-da-ta 20
nu-id 20
nu-ri-@@ 20
nu-tuku-gin7 20
nu-un-zu 20
nu@@ 20
numun2 20
nun-gal-@@ 20
pa-bil3-@@ 20
pa-bilx-ga 20
pa3-de3-en 20
pad-da 20
pe-ru-ru-ti 20
pesz10 20
pi-i 20
pisan-ga2 20
pu-szu-ki-in 20
puzur4-la-ba 20
puzur4-x-x 20
ra-asz2 20
ra-ma-asz 20
ri-ib-hu-ti 20
ri2- 20
rig@@ 20
ru-ru 20
ru-um-sze3 20
sa10-am3-bi 20
sa12-du5-sze3 20
sa6-sa6-@@ 20
sag-da-na-ka 20
sag-ku5-ta 20
sag-nig2-gur11-ra-ta 20
sag-zi 20
sag-zu 20
saga-us2 20
sanga-NIG2 20
sanga-sze3 20
si-bi2 20
si-ig-ga 20
sig@@ 20
siskur2-ra-sze3 20
su-ga2 20
su-um 20
suen-al-su 20
suen-re-me-ni 20
suen-ri-ba-am 20
sza-ni-@@ 20
sza3-ge-dab6 20
sza3-ki-bi 20
sza3-za 20
szara2-ur-sag 20
sze-gub-ba 20
szesz-szesz-@@ 20
szi-ni-@@ 20
szu-gar-@@ 20
szu-ku6-e-ne 20
szu-ku8-bu-um-ta 20
szu-pesz5-e 20
szu4-sag 20
szud3 20
szul-gi-e 20
szum2-ma-ab 20
ta-ab-@@ 20
tag-ga-da 20
tar-re-de3 20
ti-sza- 20
til-e 20
tir- 20
tu-ni 20
tug2-asz 20
tug2-ba13 20
tuku-a-sze3 20
tukul-la 20
tum-ma-al-ta 20
tur-ra-ta 20
u2-nin9 20
u3-mu-un-ra 20
u3-mun 20
udu-sze3-sze-a- 20
uh2-@@ 20
uku2-nu-ti-sze3 20
ul4-@@ 20
ummu3-sze3 20
un-tar 20
unu3-kam 20
unu6-@@ 20
unu@@ 20
ur-KA-na-ra 20
ur-bil3 20
ur-e2-nun-na-ta 20
ur-esz3-bar 20
ur-ge6-par4-sze3 20
ur-gu2- 20
ur-pu6-sag 20
ur-tur-sze3 20
ur2-re 20
uszur3-gin7-du10 20
uz@@ 20
x-HI 20
x-ba-x 20
x-inim-gi-na 20
x-mu-@@ 20
x-ri-@@ 20
x-sza-@@ 20
x-x-x- 20
za-dim2 20
zalag-ga-@@ 20
zalag2 20
zi-da-ni 20
zi2-a 20
zi3-ba-ba 20
zi3-gu-sze3 20
zi3-x 20
zu-u2-zu 20
-a-mu 19
-a-x 19
-am 19
-di 19
-er3-ra 19
-hi-li 19
-ka- 19
-ka-@@ 19
-kar 19
-x-gal 19
-x-i3-li2 19
-x-x-x 19
2@@ 19
3@@ 19
4-na 19
ARAD2-ni 19
BAD-@@ 19
DI- 19
DI-utu 19
DINGIR 19
DU-me 19
DU6 19
DUN 19
E2x@@ 19
EN-x-ta 19
EZENx@@ 19
GAN2-ur-gu-ta 19
GU@@ 19
KA-x-@@ 19
KUSZU2.MUSZ3 19
KWU4@@ 19
LAK7@@ 19
M@@ 19
NAM@@ 19
NIR 19
NUN.@@ 19
PU3.KA 19
S@@ 19
SAG-@@ 19
SAGxHA 19
SILA3 19
SZAR2xDISZ 19
TAK4 19
UG 19
a-am6-ma 19
a-ba-a-ge6-i3-gi4-gi4 19
a-ba-da-@@ 19
a-ba-nin-gin7 19
a-dar 19
a-du10 19
a-ga- 19
a-gil-sa 19
a-hu 19
a-husz 19
a-mi-@@ 19
a-mu-a 19
a-na-na 19
a-nu-@@ 19
a-ra-bi 19
a-ra-li 19
a-sa6-ga 19
a-sza3-ga-ka 19
a-tu-gu-la 19
a2-bi2-la 19
a2-dah 19
ab-ba-du-du 19
ab-ba-kal-la-sze3 19
abula 19
ag2-e-da 19
ak-am3 19
al-gar 19
al-la-ke4 19
al-lu-@@ 19
al-tum 19
ala@@ 19
am-gal 19
ama-ha-ma-ti 19
ama-lal3-ab-zu 19
amar-a-a-@@ 19
an-dul@@ 19
an-na-gin7 19
an-ne2-a 19
an-sza-na-ke4 19
an-sza3-ta 19
ar-szi 19
asz2-tum 19
az-mu 19
azlag2-e 19
azlag3-me 19
azlag7 19
ba-a-ga-a 19
ba-an-szi-@@ 19
ba-ba6-gin7-a-ba-sa6 19
ba-ba6-tesz2-mu 19
ba-ni- 19
ba-ra-zu 19
ba-ri2-@@ 19
ba-usz2-@@ 19
ba-zi-gu-la 19
bahar3-@@ 19
bal-e 19
bar-ra-e11-e 19
be2-e-ne 19
bi2-lum 19
bu-la-mu 19
bu-za 19
bu-zi-na 19
bul-@@ 19
bul5 19
d. 19
da-a-a-sze3 19
da-am3 19
da-ki 19
da-ne 19
da-ni-@@ 19
da-tum 19
da-zi-gi4-na 19
dadag-@@ 19
de3-na 19
di4-di4-@@ 19
dili-gin7 19
dim2-me-de3 19
dingir-ra-mu 19
du-du-x 19
du-uk 19
du11-ga-a 19
du3-sze3 19
du6-lugal-@@ 19
dub-sze3 19
dug-ru 19
dugud-@@ 19
dul9-de3 19
dumu-KA 19
dur2-sze3 19
dusu2-@@ 19
e-da-nam 19
e-la-ak-@@ 19
e-ne-ka 19
e-sar 19
e-ze2-@@ 19
e-zu-i3-li2 19
e2-amar-ra-sze3 19
e2-bappir3 19
e2-bar 19
e2-dur-an-ki-ka-ni 19
e2-duru5-en-na-ta 19
e2-engar 19
e2-esz3 19
e2-kam 19
e2-li-li 19
e2-unu 19
e3-esz 19
egir-a 19
en-an-na-tum2-me 19
en-lil2-al-sa6 19
en-lil2-la2-an-dab5 19
en-lil2-la2-dingir-zu 19
en-mete-na-ke4 19
engiz 19
er3-re-bu-um 19
esir4 19
esz3-ta-@@ 19
ezem-da 19
ezem-ma-sze3 19
ezem-szul-gi 19
ezen 19
g-ga 19
ga-an-na-@@ 19
ga2-ba 19
ga2-ra-sze3 19
ga2-tum3-du10-sze3 19
gaba-ri-@@ 19
gal-la-ta 19
ganun-ta 19
ge-ne2 19
ge6-par4-sze3 19
geme2-mu 19
geme2-zu 19
gesz-e3 19
geszimmar-bi 19
gesztin-sze3 19
gesztu2-zu 19
gi-apin 19
gi-apin-ku5-a 19
gi-na-a 19
gi-nu-na 19
gi16-sa 19
gibil-bi 19
gid2- 19
gid2-i 19
gir4-bil 19
giri3-ni-sa6 19
gu2-la2-a 19
gu2-tuku 19
gu3-zi 19
gu7-gu7-@@ 19
gub-a 19
gub3 19
gug4-sze 19
gug4-sze3 19
gur-da-a 19
gur-ra-bi 19
gur21 19
gur3-@@ 19
guru7-bi 19
gurusz-am3 19
gurusz-e-ne 19
gurusz-min 19
gurusz-ta 19
ha-ba-zi-@@ 19
ha-du-du 19
ha-ia3-sze3 19
ha-la-ta 19
ha-za 19
hal-hal-@@ 19
haszhur-duru5 19
he-gal2-gu-la 19
he2-bi2-ib-@@ 19
he2-du7-@@ 19
hi-li-zu 19
hu-hu-ri 19
hu-ma-ti 19
hu-u@@ 19
hun-@@ 19
hun-ga2-am3 19
hur-ru-um 19
i-szar-li-bur 19
i-zu-@@ 19
i3-du8-@@ 19
i3-li 19
i3-li2-e-ri-ba-am 19
i3-ne-@@ 19
i3-szah2-ka 19
i3-szum2-@@ 19
ib2-du11 19
ib2-us2 19
ib2-us2-a 19
ibila-ni 19
igi-dar 19
igi-hur-sag-ga2 19
igi-sa6 19
igi-si4-si4 19
ih-@@ 19
im-ma-an-dab5 19
im-ma-da-@@ 19
im-ma-ra-@@ 19
im-sar-@@ 19
imin-@@ 19
in-dab5-ba 19
in-na-ak-a 19
in-tu-@@ 19
in-tuku-am3 19
iri-bi 19
iri-ki 19
isz-ti-@@ 19
iszkur- 19
ka-asz-@@ 19
ka-hal 19
ka-zu 19
ka2- 19
ka2-sur-ra 19
kar-ka 19
ke4-e-ne 19
ki-a@@ 19
ki-an 19
ki-du10-@@ 19
ki-ib-@@ 19
ki-ir-@@ 19
ki-kal 19
ki-ni-mu-zu 19
ki-siki-ka-me 19
ki-tusz-bi 19
ki-x-sze3 19
kin-sze3 19
kiszib3-ba-sze3 19
ku3-dim2-@@ 19
ku3-sig17-@@ 19
ku5-sze3 19
ku6-ba 19
ku6-ni 19
kug-@@ 19
kur-mu-gam 19
kuruszda-@@ 19
kuruszda-me 19
la-ba-an-tuku 19
la-ba-na-@@ 19
la2-NI 19
la2-ia3-bi 19
li-bur-ni-asz2 19
lu2-GIN2 19
lu2-ad 19
lu2-bala- 19
lu2-dub-la2 19
lu2-ga2 19
lu2-iri-sag-ga2 19
lu2-kal- 19
lu2-kal-la-ka 19
lu2-kur2-ra 19
lu2-ma2-@@ 19
lu2-ma2-gur8-@@ 19
lu2-nam-tar-ra-ta 19
lu2-sirara6 19
lu2-ulu3-um 19
lugal-a2-zi-da-sze3 19
lugal-al 19
lugal-dumu-zi 19
lugal-e2-mah-e-sze3 19
lugal-e2-mah-ta 19
lugal-e2-x 19
lugal-i3-ti 19
lugal-ku3 19
lugal-lu2-du10 19
lugal-ma2-gur8 19
lugal-me-lam2-@@ 19
lugal-nam-tar-re-ta 19
lugal-szu 19
lugal-za3-ge 19
lugal-zi-sza3-gal2 19
luh-a 19
m-sze3 19
ma-an-sa6 19
ma-ar 19
ma-ma-kesz2 19
ma-mi-sze3 19
ma-na-a 19
ma-sar 19
mah-kam 19
mar-sa-ke4-ne 19
masz2-e-pa3-da 19
maszkim-sze3 19
me-an-ne2-du10 19
me-er-@@ 19
me-te-gal2 19
men-@@ 19
mes-an-du-ka 19
mi-na-@@ 19
mi-szi-me 19
mi2-us2-sa2 19
min-na-ni 19
mu-ak-ke4 19
mu-du3-ta 19
mu-e 19
mu-ne-x 19
mu-ni-na-ga-me 19
mu-szid 19
mu-un-il2 19
mu-us2-sa 19
muru@@ 19
mx 19
na-an-gub 19
na-an-ni-@@ 19
na-ba-sa2-ta 19
na-ba-x 19
na-gen 19
na-mi-ri2-lum 19
na-ri 19
na-ru2-a-bi 19
na-sa6-ga 19
na-szu 19
na-we-er 19
nag- 19
nagar-sza3-ga 19
nagga-bi 19
nam-ba-e-de3-@@ 19
nam-lu2-@@ 19
nam-sze3 19
nansze-kal 19
ne-x 19
nerah-@@ 19
ni-ke4 19
ni10-ni10 19
nig2-ba-e 19
nig2-bara3 19
nig2-erim2-@@ 19
nig2-erim2-e 19
nig2-ki-zah3-sze3 19
nig2-sag 19
nig2-si4 19
nig2-tuku-@@ 19
nig2-u2-@@ 19
nigin8-@@ 19
nim-gin7 19
nimgir-mah 19
nin-GIR2 19
nin-a-ba 19
nin-dingir- 19
nin-du11-ga-ni 19
nin-e-ba-zi-ge 19
nin-gu2-@@ 19
nin-i3-kusz2 19
nin-igi-tab-mu 19
nin-iri-ni-sze3-nu-kar2-kar2 19
nin-ma-de6 19
nin-mah-e 19
nin-nig2-u-mu 19
nin-pa3-da 19
nin-ur-sag 19
nin-zi-mu 19
nir-ra-@@ 19
nirah 19
nu-dab5-ba-me 19
nu-hi-@@ 19
nu-mu-un-na-@@ 19
nu-u3-gi4-gi4-da 19
nu-zu-a 19
nu2-nu2 19
pa-e3-@@ 19
pa2-dan 19
pa3-da-me 19
pa5-bi 19
pe-ru-ru 19
pirig-gin7 19
r-ta 19
r2 19
ra-bi-@@ 19
ra-ni-ta 19
re- 19
ri-gi4-bi2-lu2 19
ri-ib 19
ri-x 19
rig7-ga 19
ru-de3 19
ru-ma 19
sa-a-@@ 19
sa10-ma 19
sa6-sa6-ge 19
sag-il2 19
sag11 19
sahar-sze3 19
sal-le 19
se3-ge5-@@ 19
sig-nim 19
sig4-sze3 19
siki-ba-a 19
sila3-ta-bi 19
sipa-iri-ne2-ki-ag2 19
su-hu-sa6 19
su11-ka3-li 19
suen-na-@@ 19
suen-x- 19
sug2-@@ 19
suh3-a 19
sukkal-e 19
sukkal-mah-bi 19
sukkal-mah-da 19
sun2-@@ 19
sza3-da-nu-@@ 19
sza3-ge-pa3-da 19
sza3-ra 19
szandana-me 19
szara2-ba-zi-ge-ta 19
sze-duru5-sze3 19
sze-gesz-i3-ka 19
szeg12-bi 19
szeg@@ 19
szesz-an-edin-na 19
szu-al-la 19
szu-du-du 19
szu-gur-ra 19
szu-ku6-e 19
szu-ni-tum 19
szu-sa6-ga 19
szuba3-@@ 19
szuku-ra-@@ 19
szul-gi-da-an-ga-da 19
szul-gi-kal 19
szum2-ma-a 19
tal2-@@ 19
ti-ga-num2 19
ti-gi4-mu 19
tibi@@ 19
tilla2 19
tur-tur-sze3 19
u2-ga-a 19
u2-na-ab-sze3 19
u2-sza-@@ 19
u2-sza-ri2 19
u2-szim-gin7 19
u3-bi2-in-@@ 19
u3-luh 19
u3-mu-un-e 19
u4-ta-u18-lu 19
ubur-@@ 19
udu-nita2-gal 19
ugu-na 19
ugula-gesz2-da-me 19
ul-e 19
ul-tum 19
ul4-la-bi 19
ulutim2 19
unu6 19
ur-AB 19
ur-an-dul3 19
ur-du@@ 19
ur-e2-an-na-ke4 19
ur-e2-gibil 19
ur-gu-ka 19
ur-igi-ma-sze3 19
ur-ki-mah 19
ur-ku3-nun-na-ka 19
ur-lugal-banda3 19
ur-mes-ka 19
ur-ni 19
ur-sag-ra 19
ur-suh 19
ur-tum-al-ke4 19
ur-tur-ra 19
ur3-ra-@@ 19
ur3-ra-sze3 19
ur5-ra-@@ 19
utu-ik-szur2 19
utul2-@@ 19
uzu-bi 19
x-NE-@@ 19
x-an-na 19
x-bi-@@ 19
x-gar 19
x-na-x 19
za-ba-@@ 19
za-ri2 19
za-za-@@ 19
za3-bi-sze3 19
za3-mu-ta 19
zabar-sze3 19
zal-le-@@ 19
ze2-bi 19
ze2-lu-usz- 19
zi-dim2 19
zi-ga-asz 19
zi-la-la 19
zi-mu-an-da-gal2 19
zu-la-la 19
-a-a 18
-bu 18
-da-a 18
-da-me 18
-esz3 18
-ga-ka 18
-ga-ni 18
-gesz-sze3 18
-ha-szi 18
-me-esz 18
-mi-@@ 18
-nir 18
-ra-gal2-la 18
.... 18
3.@@ 18
4- 18
5-a 18
5@@ 18
A-DU 18
AN-zi-gi4-NI-gi4 18
AN.AN 18
ARAD-@@ 18
ARAD2-de3 18
ARAD2-e2-a 18
BU.NUN.SZE.SZE3 18
DU-sze3 18
DUB@@ 18
EN.@@ 18
ENGUR 18
GAN2-gu4-kam 18
GAN2-ur3-ra 18
GAN2-zi-ta 18
GESZ 18
GISZ.@@ 18
HI- 18
HI-a-bar-ra 18
IL2-a 18
KA-us2-sa2-sze3 18
KA-zi-da 18
KISIM5xIR 18
MUSZxGAD 18
NI-KU 18
PA-ta 18
PA-x- 18
PAD@@ 18
SAGx@@ 18
SIG7-a-ne 18
SILA3-@@ 18
SU6 18
SUR-gu-nun 18
SZE-@@ 18
SZU@@ 18
UB 18
UR-ta 18
UR2xKID2 18
UR2xUD 18
a-DU-ni-bi 18
a-NE-nu 18
a-a-zi-mu-ta 18
a-ab-ba-a-ta 18
a-ba-a-@@ 18
a-ba-at 18
a-ba-gal-ka 18
a-ba-i3-se3-ge 18
a-ba-ni 18
a-bi-za 18
a-bi2-li2 18
a-bi2-si2-im-@@ 18
a-bu-ma 18
a-bu-um-sze3 18
a-da-bi 18
a-du-a 18
a-gub-ba-ka 18
a-hu-a-@@ 18
a-hu-ma-a 18
a-hu-u-ni 18
a-iti-6 18
a-ki-a-ni 18
a-kiszi17-gal 18
a-kun-kum2-ta 18
a-la-ni-tum 18
a-la-tum 18
a-la2-bi 18
a-li2-um-mi 18
a-musz 18
a-na-hi-li 18
a-na-x 18
a-ne-nin-am3 18
a-nun-ke4-ne 18
a-pa-e3 18
a-pi-la-num2 18
a-ra-ab-ba 18
a2-alim-mah 18
a2-dingir-ga2-ta 18
a2-du 18
a2-sun2-ta 18
ab-ba-ni-ir 18
ad-da-sze3 18
ad-ta 18
ag2-zu 18
aktumx 18
al-la-gi-na 18
al-lu5 18
al-pesz5-a 18
alam 18
alan-da 18
ama-ki-lu5-la 18
ama-tir 18
ama-ur4-sza3-ge 18
amar-a-a 18
amar-e2-gibil 18
amar-re 18
an-bar7-@@ 18
an-dab5 18
an-ha 18
an-na-a 18
an-na-ke4-zu 18
an-ne2-ti 18
an-sza-@@ 18
an-zu 18
ansze-da 18
ansze-edin-na-munus 18
apin-gu4 18
ar-gi4-bi2-lu 18
ar-sza-na-ta 18
arad 18
aszgab-@@ 18
aszgab-sze3 18
ba-NE-a 18
ba-a- 18
ba-a-gi 18
ba-a-gin7 18
ba-ab-ba-e 18
ba-an-gi 18
ba-asz2-ti 18
ba-ba-munu4 18
ba-ba-ra 18
ba-ba-ta 18
ba-ba6-ba-zi-ge 18
ba-ba6-eb2-@@ 18
ba-ba6-eb2-gu-ul-ta 18
ba-ba6-lu2-sa6 18
ba-ba@@ 18
ba-gi-na-tum 18
ba-gub-ba 18
ba-na-a-gub 18
ba-na-na 18
ba-ni-lum 18
ba-nu-um 18
ba-ra-ab-ga2-ga2 18
ba-ra-an-dab5 18
ba-su-a-ba 18
ba-ta-ab-e3 18
ba-u3 18
ba-zum 18
babbar2-@@ 18
bad-du3 18
bad3-tibira 18
bad3-tibirx 18
bar-mu2 18
bar-si-gal 18
bi-ri-@@ 18
bi2-du11-mu 18
bi2-ga 18
bi2-in-gar-ra 18
bi2-za-ti 18
bil2-lum 18
bil@@ 18
bu-la-li2 18
bu-zu-zu 18
bu3-a 18
bu3-du-@@ 18
bu3-ka-na-a 18
bur-du8-a 18
bur2-a 18
bur2-re 18
da-da-ha-ma-ti 18
da-gan-kal 18
da-gi-ta 18
da-ku-@@ 18
da-lu 18
da-ur4-ra 18
da-x-x 18
da5-@@ 18
dab5-bi 18
dab6-@@ 18
dabin-KA 18
dag-ge 18
dag-gesz-bar 18
dal-la 18
dala2 18
dam-gal-nun-@@ 18
dam-ta 18
dar-ra-@@ 18
de3-ne 18
di-da-@@ 18
di-ku5-ta 18
dingir-ba 18
dingir-dingir-su 18
dingir-lu-ba-ni 18
dingir-lu2-mah 18
dingir-ma-su 18
du-du-gu 18
du10-du10-@@ 18
du10-e 18
du10-gan-ta 18
du11-ga-gu10 18
du11-ga-he2-sa6 18
du2-ta 18
du5-rum 18
du6-ge6-ta 18
du6-lugal-u5-a 18
du6-sahar-ra 18
du7-du7-@@ 18
du8-a-ni 18
du8-da 18
dub-ba-a 18
dub-sar-ra 18
dumu-gi7-ra 18
dumu-kam 18
dumu-ur-e11-e 18
dumu-zu 18
dungu 18
dusu-kam 18
dusu2-nita2-gesz 18
e-gin7 18
e-la-ga 18
e-na-szum2-ma-a 18
e-ne-ta 18
e-su-dar-sze3 18
e-szu-@@ 18
e-ta-szub 18
e-ur3 18
e-zi-du 18
e11-e-sze3 18
e2-a-i3-li2-ta 18
e2-agrig-sze3 18
e2-amasz 18
e2-ba-an-bi 18
e2-babbar-ra 18
e2-diri-ki-du10 18
e2-gibil4-le-ka 18
e2-gibil4-ta 18
e2-gissu-ta 18
e2-gu3-nun 18
e2-gu3-nun-di 18
e2-hi-li-i3-du3 18
e2-ka 18
e2-ki-ur5-sa6 18
e2-kur-ta 18
e2-masz-ka 18
e2-muru13 18
e2-ninda-gesz-asz-sze3 18
e2-pirig-gal 18
e2-sag-il-la 18
e2-sag-te-na-sze3 18
e2-zu-zu-tum 18
e3-e3-da 18
elam-da 18
eme-gi-ra-ke4-ne-ta 18
en-da 18
en-e-ki-ag2 18
en-kur-ra-a-ra2-nu2 18
en-lil 18
en-lil2-i-zu 18
en-lil2-i3-zu 18
en-mah-gal-an 18
en-mur-bi 18
en-nam-szita4- 18
en-nam-ti 18
en-nam-zu5-sze3 18
en-ne2-lu-ta 18
en-nun-gal- 18
en-nun-sze3 18
en-um 18
ensi2-ka-ka 18
es3-a-ab-du 18
esir2-a 18
esz18-dar-da-la-tum 18
esz18-dar-tu-kul2-ti 18
ezem-sze-gu7 18
g-sze3 18
ga-a-u2 18
ga-ga-ra 18
ga-ti-@@ 18
gal-gu10 18
gal-lam 18
gal-ukken 18
gal2-u3 18
gam-gam-a-bi 18
gan-gan-@@ 18
gan-gir2 18
gar3-i3-li2 18
gara@@ 18
gaszam-sze3 18
ge-esz-am3 18
ge6-edin- 18
ge6-par3 18
geme2-ki-@@ 18
geme2-sa2-du11 18
geme2-sila-luh 18
gesz-bi-gesz-e-gar-ra-ta 18
gesz-gar 18
gesz-kin 18
gesz-kun 18
geszimmar-du3-a-ta 18
geszkim-ti 18
gi-ba-ba 18
gin2-e 18
gin2-me 18
gir-gi4-lu 18
gir-um 18
giri3-se3-ga-ba 18
giri3-x 18
gu-za-la2-@@ 18
gu-za-na-sze3 18
gu10-gin7 18
gu2-de3-na-ka 18
gu2-erim2-gal2 18
gu2-gur5-nita2 18
gu4-ku-ru-bi 18
gu4-suhub2-ta 18
gub-ba-am6 18
gub-ba-ne 18
gubalag 18
gudu4-e 18
gur-ra-me 18
gur-ra-sze3 18
gurusz-gin7-du-a 18
gurusz-gin7-du-ka 18
guzza-ni-ta 18
h-@@ 18
ha-ba-an-zi-zi 18
ha-har-ra-na 18
ha-szi 18
ha-szi-ti-um 18
ha-za-@@ 18
ha-za-num2-e 18
hal-hal 18
haszhur-sze3 18
he-gal 18
he2-ab-@@ 18
he2-em-da-@@ 18
he2-en-gal2 18
he2-na-lah5 18
hendur-sag-sze3 18
hi-a-ta 18
hu-du-du 18
hu-li-bar-me 18
hu-lu-lu 18
hu-mu- 18
hu-nu-nu-ur-ta 18
hu-x- 18
hul-gal2-e 18
i-da-ra-ki-i3-li2 18
i-di3-li2-a 18
i-din-er3-ra-ta 18
i-gi-@@ 18
i-la-ak-nu-id-ta 18
i-li2-@@ 18
i-mi-ni- 18
i-sar-pa2-dan 18
i-szar-pa2-dan-ta 18
i-szu-@@ 18
i-ta2-ra-ak-i3-li2 18
i-x-x 18
i-za-@@ 18
i-za-az-me-szar 18
i-zi-in-er3-ra 18
i3-bu3-ul 18
i3-dab 18
i3-du-du 18
i3-dub-@@ 18
i3-e3 18
i3-gesz-@@ 18
i3-ku6-bi 18
i3-re-sza-a 18
i3-szub-gar-ra 18
i3-szum2-ma-ka 18
i3-tuku5-tuku5 18
i3-za-num2 18
i7-sal4-la-ta 18
ia3-ab-ru 18
ib2-da-@@ 18
ib2-il2 18
ib2-tab 18
id-ni-im 18
ig-alim-ka 18
igi-in-sa6-sa6 18
igi-ni-ta 18
igi-sa6-sa6-ta 18
il-ma-su 18
il2-il2-@@ 18
im-da-la2 18
im@@ 18
in-gi4 18
in-hun-ga2 18
in-na-na 18
in-pa3-da 18
in-pa3-esz2 18
inanna-zi-mu 18
inim-gal2-la 18
isz-du11-ge-gin7 18
isz-du11-gin7 18
isz-me-li9 18
iti-sze3 18
izi-la2-a 18
ka-gu4-ku6-sag-ta 18
ka-ka-ta 18
ka-la2-a 18
ka-mun 18
ka-sa6-ta 18
kab-ta2 18
kal-la-a 18
kalam-he2-na-gi 18
kar-zi 18
kar-zi-da-ta 18
karadin5-bi 18
ki-ag2-ta 18
ki-du-ni 18
ki-gar-ra 18
ki-hul 18
ki-nu-@@ 18
ki-rib-ba 18
ki-sa2-@@ 18
ki-surx 18
ki-x-x 18
kid7 18
kikken2-ke4 18
kilib-ba 18
kilib3 18
kin-e 18
kin-ki-bur-ra 18
kin2-gi4-a 18
kiri@@ 18
kisal-la2 18
kisig2 18
kisz-a-bi2-tusz 18
ku-da-szum 18
ku-ru-mu 18
ku-ul-ti 18
ku3-babbar-@@ 18
ku8-ba-tum 18
kun-zi-da-a 18
kur-ku 18
kur-ku-du3-bi 18
kur-kur-re2 18
kur-za-tum 18
kur2-re 18
kurunx 18
kusz-ta 18
la-ba-szum2-e 18
la-na-ab 18
la@@ 18
lamma-x 18
li-bur-si2-im-ti 18
li-ni 18
li2- 18
li9-si4-na-ka 18
libir-ra 18
limmu5-ba-ke4 18
lu2-al-du10-ga 18
lu2-an-dul3 18
lu2-ba-gara2-ta 18
lu2-bappir 18
lu2-dumu-gi7 18
lu2-e2- 18
lu2-eb-ta 18
lu2-hun-ga2 18
lu2-i5-gar-sa6-ga 18
lu2-inim-nig2-sa6-ga-ta 18
lu2-iri-ki 18
lu2-iti-da 18
lu2-ma2-gur8 18
lu2-nig2- 18
lu2-szu-@@ 18
lu2-szu-gal 18
lu2-ti 18
lu2-u4-sakar-me 18
lu2-ur3 18
lu2-uszur2-@@ 18
lu2-x-ta 18
lu5-la 18
lu5-ta 18
lugal-GIR2 18
lugal-a2-na 18
lugal-bi-gin7-du 18
lugal-e-mah-e 18
lugal-engar-ta 18
lugal-ga2-i3-gi 18
lugal-gu10-ra 18
lugal-inim-gi 18
lugal-kas4-e 18
lugal-kisal-e-si 18
lugal-kisal-ta 18
lugal-la-@@ 18
lugal-mu-i3-zu 18
lugal-ra-ni 18
lugal-ti-ra-asz2-ta 18
lugal-za3-ge-si-sze3 18
lunga-ke4 18
ma-an-gara2 18
ma-an-hi-li 18
ma-la-LUM 18
ma-ma-ni 18
ma-mi-hi-li-su3 18
ma-sa2-tum 18
ma2-dab5 18
ma2-gid2-me 18
ma2-gur8-ra-sze3 18
ma2-x 18
mar2-@@ 18
masz-da-re-a-sze3 18
masz-da3-@@ 18
me-gal2 18
me-lam2-bi 18
me-lem4-@@ 18
me-ni-ku3 18
me-sa6 18
mi-da-nu-um 18
mi-in-@@ 18
mi-la-szu 18
mi-na-ni 18
mu-dun 18
mu-na-da-@@ 18
mu-na-gi 18
mu-ni-in-la2 18
mu-sar-ra 18
mu-u3-@@ 18
mu-un-dab5 18
mu-un-de3-@@ 18
mu-un-na-du3 18
mu-un-szi-ib-@@ 18
mu-x- 18
mul-mul 18
munu4-mu2-ta 18
munus-ama 18
mur7-@@ 18
murub4 18
musz-gir2 18
na-ab 18
na-me-a 18
na-ru2-a-kam 18
nagar-ra 18
nam-erim2-sze3 18
nam-geme2-@@ 18
nam-lugal-a-ni-du10 18
nam-mu-un-@@ 18
nam-nun-@@ 18
nam-nun-sze3 18
nam-ta-an-e3 18
nanna-ka-sze3 18
nanna-lugal 18
nanna-me 18
nanna-uri3 18
nansze-i3-sa6 18
nar- 18
ni-du-am3 18
ni-mu-ta 18
ni-na-mu 18
ni2-te-ni 18
nig2-IL2 18
nig2-dab5-ba-me 18
nig2-gid2-a 18
nig2-ka9-e 18
nig2-lah 18
nig2-nam-@@ 18
nig2-sa10-ma-kam 18
nig2-sal-la2-sag 18
niga-me 18
nimgir-me-mah 18
nin-ak- 18
nin-am3 18
nin-ba-tuku-szem5-du10-gal 18
nin-bar-ra 18
nin-dingir-mu 18
nin-e2-ku3-ta 18
nin-gir2-su-gu2-gal 18
nin-ig-gal 18
nin-il@@ 18
nin-kar-re 18
nin-me-du10-ga 18
nin-mu-da-nu-me-a 18
nin-mu-i3-zu 18
nin-mu-ma-@@ 18
nin-mu-ma-ag2 18
nin-mug-@@ 18
nin-nigin6 18
nin-ra 18
nin-szesz-da 18
nin-tu-ka 18
nin-tu-re 18
nin-tur-@@ 18
nin-uszurx 18
nin-x-x-x 18
nin9-he2-li2-a 18
ninda-GISZ-ASZ 18
ninda-da 18
nisaba-ka 18
nitah 18
nu-da 18
nu-dabx 18
nu-du11 18
nu-hi-dingir-ta 18
nu-hi-il 18
nu-ku5 18
nu-ma-@@ 18
nu-ri2-li2 18
nu-u3-da-@@ 18
nu-ub-tuku-a-sze3 18
nu-ur2-da-ad 18
nu-ur2-ia 18
num2-ta 18
nun-bi 18
pa-szim-e 18
pa2-pa2-sza 18
pe-ru-ru-tum 18
pesz-murgu2-bi 18
pi-ze2-ze2 18
pirig-husz 18
pu2-szu-i-ne-ta 18
r-ra 18
ra-ka-sze3 18
[...]
