the 32810
of 27758
1 9315
and 7590
for 6778
to 6345
a 5683
2 5292
in 5215
king 4728
he 4538
3 4244
is 4187
its 3822
was 3711
his 3693
The 3641
from 3564
sila3 2969
gur 2813
your 2784
it 2688
year 2619
not 2567
son 2534
with 2521
at 2488
I 2481
5 2449
shekels 2407
you 2386
ban2 2363
barig 2272
that 2244
who 2238
my 2158
month 2114
barley 2074
4 2053
are 1985
sheep 1946
12 1940
her 1928
total 1921
him 1759
has 1748
be 1744
Enlil 1722
by 1702
field 1644
Ur 1628
each 1563
temple 1488
day 1475
one 1427
house 1384
destroyed 1370
on 1349
man 1267
servant 1267
like 1261
built 1182
Basketoftablets 1164
as 1163
city 1147
did 1144
out 1117
silver 1107
6 1098
scribe 1096
me 1089
days 1080
shall 1077
their 1068
oil 1067
bread 1063
seal 1055
were 1051
under 1047
area 1011
had 1008
beer 990
oxen 982
He 961
male 936
great 922
For 911
female 904
surface 900
they 877
strong 874
bur3 869
made 857
iku 854
will 852
have 833
grainfed 813
Inanna 802
place 794
up 780
here 774
four 771
In 766
which 765
into 754
this 754
ee3 753
mana 753
ruler 750
workdays 746
laborers 738
may 716
Ningirsu 712
life 712
via 710
7 708
an 705
land 687
Suen 686
labor 681
years 649
people 645
Laga 639
8 636
13 635
An 620
foreman 620
there 616
Nanna 613
time 607
n 598
wool 598
been 592
lamb 592
My 582
governor 578
When 557
onions 555
set 554
alkaliplant 551
corners 548
she 540
May 533
them 529
no 526
when 521
am 511
brought 510
heart 505
down 501
good 499
all 495
sar 493
heaven 492
ox 487
To 483
Enki 480
beloved 478
14 475
mighty 474
sealed 474
lord 469
15 466
name 462
should 455
less 453
lands 451
mountain 447
account 445
per 443
after 442
23 441
They 438
god 438
water 437
chief 432
Its 430
She 429
Umma 428
whose 427
goats 424
It 423
lady 419
manager 417
If 416
gods 412
ninda 412
master 411
ulgi 411
storm 407
away 401
You 398
Utu 397
laborer 396
head 391
bundles 388
9 385
11 383
erected 382
holy 382
royal 381
Sumer 379
goat 374
flour 370
canal 368
Gudea 363
booked 361
received 354
fish 353
delivery 351
grains 351
shepherd 350
earth 349
fine 348
or 345
Your 343
children 343
shekel 340
barge 338
before 336
does 336
over 335
barleyfed 334
order 331
shrine 331
being 329
mother 329
old 329
A 328
household 325
let 325
make 325
Festival 322
bull 321
hand 315
billy 314
grain 314
wall 314
Eridu 308
At 307
ruled 305
Uruk 303
mistress 301
IbbiSuen 300
wife 296
pure 295
Like 292
upon 292
bala 291
reed 291
father 289
Nane 285
rations 284
do 281
offerings 280
16 276
Nippur 276
boat 276
took 276
where 276
Ninlil 273
UrNamma 273
lambs 272
palace 271
world 271
together 268
towards 268
daughter 265
uSuen 263
AmarSuen 260
carried 260
fate 259
Girsu 258
ara 258
18 256
given 256
fashioned 255
suckling 255
tablet 252
woman 251
deficit 250
Harvest 248
throne 247
lament 245
young 245
cattle 244
if 243
Akkad 242
work 241
words 237
kingship 236
House 234
Dumuzi 231
but 231
documents 231
following 231
installed 230
divine 229
quality 229
what 229
put 228
As 227
off 227
against 226
gate 226
Baba 224
cubits 223
ie 223
men 223
quarters 223
own 222
child 221
regular 217
After 216
long 216
rams 215
having 214
cows 213
His 212
accounts 212
lines 208
powers 208
Land 206
stationed 206
person 205
lapis 204
ate 203
cut 202
Abbasaga 201
Kima 201
accepted 201
sheepfold 201
butter 200
months 199
word 196
food 195
among 192
ground 190
those 190
brother 189
go 189
56 188
hero 188
From 187
length 187
abundance 186
priest 186
slaughtered 186
dedicated 185
chosen 184
Ekur 183
statue 183
Who 182
Urbilum 181
hired 181
Lu@@ 180
abandoned 180
about 180
cheese 180
gave 180
offering 180
Nisaba 179
bring 179
established 179
supreme 179
tree 179
side 178
emmer 177
One 176
so 176
Eninnu 175
returned 174
wind 174
And 173
placed 173
Great 172
fields 172
That 171
raised 171
workers 171
34 170
whom 170
mina 168
overseer 168
A@@ 167
Abzu 167
Ur@@ 167
foreign 167
said 166
seed 166
stone 166
kid 165
mouth 165
plowman 165
s 165
struck 165
tanned 165
hands 164
makes 164
passed 164
labortroops 163
talents 163
enemy 162
filled 162
queen 162
sila 162
small 162
tablets 162
ban 161
receive 161
Ludingira 160
Urnigar 160
because 160
give 160
hides 159
seized 159
went 159
bird 158
birth 157
want 157
E@@ 156
bitter 156
would 156
UrNane 155
en 155
measure 155
speak 155
battle 154
garment 154
3rd 153
back 153
ewes 153
UrBaba 152
ones 151
take 151
conquered 150
lazuli 150
say 150
wild 150
2nd 149
Nin@@ 149
can 149
indeed 149
could 148
sweet 148
Year 147
official 147
cow 146
large 146
true 145
Lugal@@ 144
Lukalla 143
Ningal 143
O 143
festival 143
grassfed 143
left 142
standard 142
On 140
UrLamma 140
high 140
administrator 139
sacred 139
come 138
slave 138
debit 137
workman 137
25 136
cannot 136
Urgigir 135
behalf 135
hoe 135
messenger 135
named 135
stand 135
troops 135
calf 134
know 134
re@@ 134
24 133
Anyone 133
Eannatum 133
copper 133
netherworld 133
various 133
inspections 132
Because 131
river 131
warrior 131
e@@ 130
entered 130
himself 130
might 130
mountains 130
underworld 130
hide 129
kak 129
Holy 128
restored 128
foundation 127
rites 127
taken 127
Ninurta 126
Temple 126
feet 126
weapon 126
born 125
command 125
22 124
snake 124
standing 124
How 123
along 123
vessel 123
in@@ 122
Upon 121
a@@ 121
empty 121
nether 121
sister 121
un@@ 121
volumesar 121
wood 121
youth 121
So 120
came 120
fodder 120
nanny 120
Alas 119
aura 119
t@@ 119
21 118
period 118
charge 117
donated 117
eyes 117
grow 117
door 116
feast 116
going 116
praise 116
priestess 116
lion 115
ma@@ 115
Ninazu 114
big 114
dates 114
gift 114
personal 114
t 114
textile 114
36 113
Akalla 113
spouse 113
strength 113
dug 112
ration 112
see 112
This 111
beautiful 111
ewe 111
s@@ 111
Total 110
bound 110
how 110
plow 110
sat 110
stood 110
then 110
weapons 110
distant 109
longtablets 109
midst 109
Eanna 108
Lord 108
also 108
range 108
subtotal 108
cast 107
cupbearer 107
li@@ 107
means 107
never 107
Anuna 106
Enmetena 106
metal 106
punted 106
return 106
wisdom 106
17 105
I@@ 105
dwelling 105
face 105
flood 105
plant 105
seven 105
crown 104
d@@ 104
evil 104
joy 104
things 104
worker 104
country 103
grade 103
therefore 103
62 102
Atu 102
ekalla 102
enforcer 102
many 102
LuNingirsu 101
buck 101
enter 101
goddess 101
justice 101
neck 101
show 101
u@@ 101
weavers 101
Month 100
Urara 100
Urulpae 100
column 100
kids 100
kings 100
only 100
open 100
removed 100
tears 100
City 99
Enanatum 99
Luara 99
created 99
unuri 99
By 98
With 98
acworker 98
bed 98
dais 98
done 98
en@@ 98
fattailed 98
hair 98
thing 98
within 98
Amorite 97
Do 97
S@@ 97
according 97
another 97
pay 97
reeds 97
two 97
worktroops 97
Larsa 96
completed 96
known 96
piled 96
right 96
ting 96
turned 96
u 96
4th 95
Simanum 95
er 95
9th 94
Apisal 94
Father 94
Nibru 94
bulls 94
c@@ 94
covered 94
e 94
forth 94
lamentation 94
through 94
King 93
Therefore 93
Urmes 93
bank 93
la@@ 93
orchard 93
our 93
saw 93
spread 93
ti@@ 93
ts 93
white 93
Gilgamesh 92
arum 92
d 92
donkey 92
night 92
presented 92
reservoir 92
therefrom 92
thus 92
apart 91
cosmic 91
milk 91
minas 91
sa@@ 91
sky 91
Ninmar 90
What 90
brings 90
bundle 90
harvest 90
kirugu 90
l 90
living 90
new 90
provider 90
shepherds 90
sons 90
Elam 89
called 89
fire 89
front 89
present 89
second 89
spoke 89
Did 88
birds 88
decreed 88
superintendent 88
Euphrates 87
Guabba 87
clay 87
debits 87
es 87
reign 87
ted 87
x 87
Lagash 86
fed 86
gold 86
power 86
precious 86
prince 86
ram 86
Enunugal 85
Luduga 85
ceased 85
longer 85
must 85
well 85
Sn 84
calves 84
cities 84
dust 84
dwell 84
eye 84
looked 84
na 84
responsible 84
ri@@ 84
y 84
yourself 84
aru 83
da 83
document 83
extra 83
little 83
meat 83
mu 83
stones 83
very 83
way 83
RmSn 82
acted 82
cedar 82
lifted 82
poured 82
single 82
squared 82
times 82
wort 82
Their 81
accept 81
blackheaded 81
destroy 81
says 81
something 81
tendon 81
Anan 80
Barley 80
credits 80
fattener 80
full 80
ly 80
nation 80
ro@@ 80
used 80
black 79
enpriestess 79
heifer 79
i@@ 79
m@@ 79
territory 79
But 78
UrNungal 78
Urim 78
ar@@ 78
enpriest 78
ever 78
involved 78
jug 78
na@@ 78
plain 78
45 77
brick 77
broad 77
build 77
de@@ 77
leather 77
stele 77
Her 76
Isin 76
Ninursag 76
basket 76
caulked 76
fleece 76
mature 76
protective 76
suitable 76
top 76
universe 76
wheat 76
6th 75
Ikur 75
No 75
Uree 75
breezes 75
dog 75
ds 75
everything 75
frontier 75
gal 75
knife 75
most 75
quay 75
us 75
27 74
57 74
Lugalinimgina 74
Mountain 74
date 74
killed 74
loaves 74
residence 74
sheaves 74
soil 74
speaking 74
split 74
street 74
width 74
Lisi 73
bitterly 73
carcasses 73
changed 73
rejoice 73
sent 73
ulgiirimu 73
without 73
y@@ 73
Simurum 72
U@@ 72
attention 72
delivered 72
end 72
for@@ 72
founded 72
haunt 72
houses 72
laid 72
now 72
o@@ 72
other 72
plans 72
shining 72
B@@ 71
Dada 71
Thus 71
dead 71
di@@ 71
dig 71
le@@ 71
ling 71
pass 71
sesame 71
silo 71
storehouse 71
surpassing 71
these 71
Let 70
Tigris 70
arakam 70
du 70
fitting 70
highpriestess 70
lay 70
raise 70
south 70
48 69
Ekinugal 69
LuUtu 69
around 69
bricks 69
courtyard 69
du@@ 69
ers 69
fallen 69
first 69
garments 69
ge@@ 69
onto 69
path 69
saying 69
until 69
ARADmu 68
Intaea 68
Ningezida 68
behind 68
case 68
m 68
mu@@ 68
rushes 68
ta@@ 68
threshing 68
turn 68
we 68
33 67
35 67
above 67
arms 67
bronze 67
dedicate 67
ea@@ 67
eat 67
ga@@ 67
grass 67
heaps 67
k 67
planted 67
sea 67
trees 67
tum 67
um 67
ARAD 66
Agade 66
become 66
caused 66
defeated 66
foot 66
found 66
harrowing 66
ma 66
making 66
outside 66
p@@ 66
porters 66
prayer 66
to@@ 66
too 66
volume 66
En@@ 65
Ke 65
Lugalitida 65
chair 65
eating 65
ed 65
faithfully 65
finished 65
plowmen 65
ra@@ 65
ring 65
twoyear 65
26 64
Gatumdu 64
Sealed 64
Zabali 64
assembly 64
bowl 64
building 64
creature 64
heads 64
horns 64
inside 64
more 64
uea 64
1st 63
Ki 63
LuNanna 63
baked 63
bitumen 63
boundary 63
ded 63
died 63
fattened 63
furrows 63
ge 63
general 63
grand 63
hoed 63
lu 63
pa@@ 63
possessions 63
te@@ 63
7th 62
GuniDU 62
ImeDagan 62
Simurrum 62
UrSuen 62
abzu 62
b@@ 62
be@@ 62
damaged 62
exalted 62
f@@ 62
fit 62
inspection 62
itself 62
l@@ 62
sun 62
waterway 62
28 61
Adab 61
Ba@@ 61
Ebabbar 61
any 61
determined 61
firm 61
floor 61
me@@ 61
ni 61
personnel 61
ra 61
storage 61
temples 61
19 60
Enmagalana 60
Kish 60
al@@ 60
both 60
brickwork 60
daily 60
ding 60
estate 60
fullgrown 60
instead 60
porter 60
powerful 60
property 60
righteous 60
zu 60
3@@ 59
Inimara 59
con@@ 59
greatly 59
mind 59
places 59
sh@@ 59
2@@ 58
32 58
Akurgal 58
Enlils 58
Geme@@ 58
Karzida 58
ari 58
destiny 58
er@@ 58
fall 58
furious 58
garlic 58
rejoicing 58
table 58
weight 58
Lugalurub 57
Ninubur 57
Nunamnir 57
Ursaga 57
alkali 57
anyone 57
deity 57
diworker 57
grown 57
la 57
lu@@ 57
mi@@ 57
monthly 57
owner 57
plants 57
school 57
seen 57
sit 57
someone 57
sort 57
ur@@ 57
wooden 57
42 56
Akitu 56
There 56
baskets 56
bear 56
became 56
bow 56
deer 56
fell 56
fi@@ 56
fresh 56
heavens 56
irrigation 56
kind 56
li 56
nu@@ 56
peaflour 56
pi@@ 56
red 56
sing 56
volumeshekels 56
All 55
Ayakalla 55
Come 55
D@@ 55
Lady 55
Of 55
URUKAgina 55
able 55
again 55
approached 55
counsel 55
curse 55
da@@ 55
demons 55
depot 55
establish 55
ki@@ 55
part 55
prayers 55
repaid 55
ruin 55
sleep 55
syrup 55
walls 55
weaving 55
8th 54
Babylon 54
Na@@ 54
Nalu 54
Namani 54
Tummal 54
boats 54
cattlepen 54
der 54
ga 54
gazelles 54
horn 54
liver 54
of@@ 54
po@@ 54
praised 54
rain 54
spirit 54
spoken 54
supervisor 54
workmen 54
38 53
Alla 53
LuNinubur 53
accountant 53
dried 53
ex@@ 53
extispicy 53
forever 53
grew 53
knows 53
n@@ 53
offered 53
outer 53
pro@@ 53
si@@ 53
tion 53
wailed 53
Duga 52
Lugalezem 52
allure 52
border 52
bran 52
dab 52
es@@ 52
farmer 52
gazelle 52
hoeing 52
k@@ 52
mace 52
mo@@ 52
net 52
site 52
song 52
wages 52
Nigin 51
Nintur 51
Ninursaga 51
Sargon 51
alas 51
alone 51
arm 51
art 51
ba@@ 51
chest 51
countries 51
drum 51
even 51
fly 51
lie 51
lit 51
minister 51
radiance 51
tails 51
talent 51
th@@ 51
wise 51
yet 51
5th 50
administrators 50
ala 50
army 50
base 50
coming 50
cry 50
detriment 50
elapsed 50
harbor 50
herder 50
hold 50
inner 50
line 50
look 50
mine 50
ne@@ 50
ru@@ 50
scepter 50
se@@ 50
slaves 50
stomach 50
su 50
wine 50
workday 50
Gududu 49
Nanna@@ 49
Sniddinam 49
Why 49
ancient 49
blood 49
body 49
common 49
far 49
fear 49
foundations 49
free 49
gone 49
held 49
herself 49
horizon 49
just 49
leeks 49
lo@@ 49
mill 49
no@@ 49
princely 49
unloaded 49
womb 49
Bazi 48
Dudu 48
Hari 48
La@@ 48
LuBaba 48
Martu 48
PuzriDagan 48
Those 48
UrLisi 48
bi@@ 48
ca@@ 48
ces 48
dis@@ 48
fates 48
gi@@ 48
imakian 48
kitchen 48
lamma 48
light 48
loan 48
ning 48
prisoners 48
properly 48
scribal 48
sick 48
sin 48
stands 48
themselves 48
treated 48
ulgiayamu 48
Abbagina 47
Gazelle 47
In@@ 47
Now 47
Property 47
bolt 47
boxwood 47
bright 47
deliveries 47
evening 47
facility 47
heavy 47
led 47
loaded 47
lofty 47
nest 47
runners 47
running 47
salt 47
tail 47
wept 47
21st 46
4@@ 46
Ama@@ 46
Gate 46
Irisagrig 46
Lugalkuzu 46
Ninura 46
Sowing 46
adorned 46
branches 46
bucks 46
doe 46
dream 46
ed@@ 46
equivalent 46
foremost 46
g@@ 46
harvested 46
inscription 46
lard 46
lordship 46
loves 46
middle 46
numerous 46
plowoxen 46
priests 46
so@@ 46
surplus 46
w@@ 46
64 45
Akk 45
Kuda 45
Lugalemae 45
Mekigal 45
Mound 45
Ni@@ 45
Then 45
as@@ 45
bi 45
des 45
destruction 45
exchange 45
fearsomeness 45
greatness 45
hirelings 45
milling 45
p 45
perfect 45
pleasant 45
sed 45
tu@@ 45
tur@@ 45
ya 45
31 44
Aga 44
Oval 44
UrNingirsu 44
Urkununa 44
anything 44
ball 44
cook 44
cries 44
do@@ 44
donkeys 44
har@@ 44
live 44
managers 44
measured 44
nominated 44
ordered 44
pirig 44
sp@@ 44
straw 44
sukkalma 44
sunlight 44
terrace 44
29 43
55 43
Canal 43
Flight 43
Ki@@ 43
M@@ 43
Sum 43
ba 43
depth 43
drink 43
gu@@ 43
happy 43
judge 43
lives 43
loved 43
lum 43
mans 43
orders 43
ornament 43
over@@ 43
plot 43
rise 43
shade 43
tions 43
transported 43
trustworthy 43
ulMUxPA 43
x@@ 43
5@@ 42
Abbasagas 42
Ema 42
G@@ 42
Gutium 42
Ninegal 42
Nudimmud 42
Su@@ 42
an@@ 42
bearing 42
chambers 42
crushed 42
deep 42
dining 42
ditches 42
ea 42
fathers 42
friend 42
lap 42
married 42
measuring 42
nose 42
office 42
r 42
sa 42
sail 42
sha@@ 42
singer 42
such 42
surveyor 42
te 42
upper 42
walked 42
wide 42
yoke 42
47 41
LipitItar 41
Lugaluur 41
Therefrom 41
bearers 41
breast 41
brewer 41
bur@@ 41
carp 41
citizens 41
decorated 41
descended 41
drums 41
duty 41
galla 41
heir 41
husband 41
inanna 41
instructions 41
jugs 41
juniper 41
levees 41
newborns 41
once 41
opened 41
ous 41
potash 41
produce 41
r@@ 41
resplendent 41
risen 41
staff 41
su@@ 41
therefroms 41
tore 41
type 41
urti 41
weeps 41
96 40
Ayakala 40
Before 40
F@@ 40
Ipae 40
LuSuen 40
Nabasa 40
T@@ 40
cubit 40
equid 40
fare 40
fill 40
gardener 40
gi 40
goods 40
ing 40
interest 40
le 40
matter 40
meal 40
minus 40
much 40
ni@@ 40
nubanda 40
peg 40
pig 40
proper 40
res@@ 40
tra@@ 40
vessels 40
zi 40
Bricks 39
Du@@ 39
Enkidu 39
Ka@@ 39
Kas 39
L@@ 39
Lugina 39
Lugirizal 39
Nasa 39
Shulgi 39
Tira 39
altogether 39
ap@@ 39
b 39
cross 39
decision 39
drinking 39
eani 39
fa@@ 39
fertile 39
flesh 39
ged 39
ha@@ 39
installation 39
mounds 39
noble 39
palm 39
poplar 39
provisions 39
pu@@ 39
rebel 39
released 39
ses 39
sitting 39
speaks 39
steward 39
though 39
voice 39
weeping 39
72 38
Antasura 38
Bluallim 38
Da@@ 38
Ikalla 38
Mari 38
Namma 38
New 38
P@@ 38
bore 38
captured 38
change 38
cowherd 38
faithful 38
gifts 38
hall 38
malt 38
near 38
reached 38
ri 38
sheephides 38
songs 38
southern 38
toward 38
ugid 38
wa@@ 38
why 38
woods 38
61 37
Dadaga 37
Egalesi 37
Ezina 37
Inab 37
Lugalzagesi 37
N@@ 37
Pigletfeast 37
Prince 37
Together 37
UrDumuzida 37
Where 37
advice 37
alter 37
barges 37
clean 37
em@@ 37
fierce 37
gar 37
groan 37
head@@ 37
heaped 37
herdsmen 37
hostile 37
hung 37
interestbearing 37
livestock 37
measures 37
mourning 37
oath 37
ons 37
prepared 37
rich 37
serve 37
service 37
tigi 37
transferred 37
truly 37
vi@@ 37
12th 36
AmarSuena 36
Dont 36
Ku@@ 36
Lu 36
Lugalkugani 36
Lugalmagure 36
Lugalniglagare 36
Mother 36
Nannamaba 36
allowed 36
arabdu 36
banks 36
ce@@ 36
chariot 36
chose 36
ck 36
diminished 36
find 36
fishermen 36
gipar 36
groats 36
lies 36
num 36
or@@ 36
perform 36
performed 36
played 36
plots 36
plundered 36
release 36
rum 36
sag 36
share 36
statues 36
three 36
ti 36
ty 36
war 36
43 35
Agu 35
An@@ 35
Be 35
Dingira 35
Gula 35
Gursar 35
K@@ 35
Lugalazida 35
Nasilim 35
Uramma 35
acacia 35
ara@@ 35
at@@ 35
banquet 35
container 35
determine 35
favorable 35
five 35
gathered 35
half 35
intelligence 35
it@@ 35
kisiki 35
ls 35
ment 35
on@@ 35
pe@@ 35
regarding 35
response 35
rising 35
sets 35
tes 35
trade 35
ulgi@@ 35
um@@ 35
uttered 35
write 35
54 34
66 34
Adda 34
Alulu 34
C@@ 34
Hero 34
Li@@ 34
Ninsun 34
Urnig 34
Z@@ 34
animals 34
bales 34
bedchamber 34
during 34
giving 34
gra@@ 34
ined 34
kill 34
laments 34
lead 34
les 34
locust 34
lords 34
mes 34
moulds 34
nail 34
ritual 34
saga 34
sanctuary 34
scattered 34
ta 34
threshed 34
treasure 34
tur 34
ver@@ 34
waters 34
ARADNanna 33
Bagara 33
EPA 33
Guedina 33
Kulaba 33
Ma@@ 33
Ukunuti 33
UrMami 33
beads 33
coriander 33
cultic 33
defiled 33
elder 33
entering 33
gegigal 33
ghee 33
gu 33
herdsman 33
honey 33
imposed 33
ked 33
lets 33
levee 33
manner 33
ms 33
ne 33
oven 33
platform 33
reduced 33
restore 33
scribes 33
ter@@ 33
unceasing 33
uprooted 33
vizier 33
28th 32
53 32
Agi 32
Dilmun 32
Erekigal 32
Huwawa 32
Igi@@ 32
Kiur 32
Kugani 32
Lugalnesage 32
UrEe 32
Urub 32
act 32
altered 32
bani 32
beard 32
bent 32
broken 32
carrying 32
cleansing 32
constant 32
continually 32
corpse 32
corve 32
cursed 32
diorite 32
dragon 32
est 32
fat 32
gal@@ 32
garden 32
goes 32
growing 32
il 32
interior 32
jar 32
ku 32
leave 32
man@@ 32
necks 32
nindaba 32
orchards 32
out@@ 32
prebend 32
ps 32
pulses 32
re 32
remove 32
rose 32
satisfied 32
speech 32
sumac 32
unto 32
weaver 32
14th 31
18th 31
Deficit 31
GANma 31
H@@ 31
Kazallu 31
Kinunir 31
NurSuen 31
Utu@@ 31
W@@ 31
Wall 31
Zanr 31
ama@@ 31
approach 31
aworker 31
bara 31
break 31
calendar 31
confirmed 31
control 31
copies 31
cover 31
decisions 31
destructive 31
dogs 31
dropped 31
enters 31
fo@@ 31
fodderreed 31
forest 31
fruit 31
happiness 31
hu@@ 31
instruction 31
instrument 31
ir@@ 31
levy 31
limbs 31
messengers 31
nigdaboffering 31
pen 31
persons 31
pleasing 31
possessing 31
rear 31
silent 31
soup 31
speckled 31
straight 31
takes 31
tall 31
terror 31
wi@@ 31
with@@ 31
27th 30
44 30
52 30
Adumu 30
Daaga 30
Eengura 30
Endingirmu 30
Gilgame 30
Hammurapi 30
IbbiSn 30
Il@@ 30
Lugalnirgal 30
Ninsumun 30
Oh 30
Samsuiluna 30
Umani 30
UrEnlila 30
Uru 30
ala@@ 30
am@@ 30
bookedouts 30
bu@@ 30
citizen 30
constructed 30
dabin 30
demon 30
devastated 30
directed 30
ent 30
features 30
fla@@ 30
formed 30
functionary 30
gigigal 30
guard 30
heifers 30
highpriest 30
holds 30
keep 30
ks 30
lukur 30
manifest 30
native 30
por@@ 30
pre@@ 30
production 30
remainder 30
sacrifice 30
sc@@ 30
seated 30
secure 30
sh 30
shed 30
shine 30
shing 30
shipyard 30
smith 30
st@@ 30
status 30
sworn 30
th 30
thick 30
totals 30
uzga 30
uzgahouse 30
ve 30
while 30
women 30
yokes 30
zi@@ 30
15th 29
1th 29
29th 29
37 29
39 29
51 29
68 29
Iri@@ 29
Lusaga 29
Magan 29
Nininimgina 29
Ninki 29
Thunderbird 29
ab@@ 29
ac@@ 29
already 29
axe 29
bo@@ 29
care 29
cease 29
co@@ 29
covers 29
cowherds 29
cream 29
cumin 29
daylight 29
eaten 29
el@@ 29
escape 29
f 29
fied 29
force 29
future 29
horned 29
incipit 29
introduces 29
judgments 29
longfleeced 29
mat 29
road 29
salted 29
scratched 29
seize 29
shout 29
snakes 29
soldiers 29
udug 29
v@@ 29
ved 29
13@@ 28
Babati 28
Erra 28
GemeNarua 28
Lubalasaga 28
Puzur@@ 28
Regarding 28
Si@@ 28
akuge 28
bestowed 28
ble 28
bum 28
bur 28
ches 28
claim 28
commands 28
compassion 28
consumed 28
cried 28
dam 28
ear 28
erase 28
evildoer 28
follow 28
foremen 28
fox 28
gives 28
golden 28
gur@@ 28
heroism 28
im@@ 28
lustration 28
mixed 28
ns 28
repeat 28
roots 28
seeking 28
shepherdship 28
siskur 28
swore 28
tiny 28
torn 28
town 28
turtle 28
ulpae 28
ur 28
ve@@ 28
wellbeing 28
whole 28
1@@ 27
26th 27
Aimbabbar 27
Inimanizi 27
Lama 27
Latur 27
Lugalsaga 27
Me@@ 27
Possessor 27
We 27
White 27
anger 27
axes 27
bone 27
brothers 27
carnelian 27
carry 27
che@@ 27
clad 27
de 27
death 27
ekala 27
exist 27
fe@@ 27
forehead 27
guduofficiant 27
gypsum 27
il@@ 27
inof 27
ke 27
lost 27
marsh 27
merchant 27
mud 27
muriqtidnim 27
nor 27
nothing 27
older 27
paid 27
performing 27
plucked 27
rebellious 27
rest 27
ruins 27
se 27
seeds 27
spent 27
sweetened 27
taking 27
thrown 27
tly 27
uru@@ 27
verdant 27
zabardab 27
12@@ 26
13th 26
16th 26
Anzu 26
Au@@ 26
EAbitumen 26
Etarsirsir 26
Man 26
Nig@@ 26
Sirara 26
Susa 26
UrEninnu 26
ca 26
caught 26
chamber 26
ci@@ 26
ct 26
debts 26
decree 26
die 26
dro@@ 26
excavated 26
festivals 26
ghost 26
giguna 26
granary 26
h@@ 26
headplowmen 26
ho@@ 26
learned 26
lled 26
market 26
mound 26
multiplied 26
ned 26
ness 26
nir2 26
par@@ 26
play 26
plough 26
ploughman 26
q@@ 26
quarrel 26
rate 26
rite 26
roof 26
ry 26
sake 26
seat 26
sixty 26
soldier 26
sta@@ 26
steppe 26
submit 26
takers 26
than 26
tri@@ 26
ul@@ 26
willow 26
ying 26
18@@ 25
24th 25
73 25
Abbamu 25
Adalal 25
Bara@@ 25
Ekinual 25
GoldMound 25
Gu@@ 25
Guedena 25
Nagabtum 25
Nergal 25
Ningirsus 25
Ninkasi 25
Nu@@ 25
Pa@@ 25
Saying 25
True 25
UrUtu 25
ad@@ 25
aloud 25
ar 25
awe 25
bar@@ 25
below 25
bitterness 25
bundled 25
carpenter 25
castingnet 25
cause 25
ce 25
com@@ 25
combat 25
completely 25
decided 25
declared 25
demolished 25
destroys 25
ditch 25
em 25
figure 25
floated 25
former 25
fully 25
gaze 25
green 25
handle 25
he@@ 25
hips 25
hisher 25
jenny 25
joyful 25
ka 25
king@@ 25
lapislazuli 25
moon 25
namely 25
nesag 25
nth 25
paue 25
pot 25
precinct 25
rebuilt 25
rider 25
roads 25
rope 25
serves 25
serving 25
ships 25
six 25
spice 25
stick 25
strange 25
superior 25
ten 25
ter 25
tongue 25
utterance 25
violence 25
warehouse 25
weak 25
z@@ 25
17th 24
58 24
74 24
7@@ 24
Dead 24
Eridug 24
Heart 24
Id@@ 24
KA@@ 24
Lugalgigire 24
Lullubum 24
Marai 24
Sn@@ 24
Son 24
UrNingezida 24
Urlugal 24
WaradSn 24
Watch 24
Will 24
animal 24
ans 24
arrow 24
authoritative 24
bind 24
bought 24
bra@@ 24
brewery 24
ceremony 24
containers 24
cord 24
corporate 24
creatures 24
cro@@ 24
cu@@ 24
cutter 24
decrees 24
deficits 24
deprived 24
double 24
due 24
dumugi 24
edge 24
edubaa 24
famous 24
flow 24
gh@@ 24
hi@@ 24
hit 24
ins 24
insect 24
kausa 24
ke@@ 24
lim@@ 24
linen 24
loss 24
marshes 24
nig@@ 24
nt 24
nu 24
o 24
pole 24
reaches 24
rent 24
resident 24
resin 24
restitutions 24
roaring 24
send 24
settlements 24
shouted 24
smashed 24
smitten 24
sought 24
spa@@ 24
task 24
term 24
tor@@ 24
tracts 24
tribute 24
truth 24
uri@@ 24
w 24
wells 24
whether 24
written 24
11@@ 23
17@@ 23
63 23
6@@ 23
Ada@@ 23
Be@@ 23
Field 23
Flash 23
Gazellefeast 23
Gemedardu 23
Haya 23
IbiErra 23
Igalim 23
Itar 23
Lubanda 23
Mes@@ 23
Nindara 23
Ninhursag 23
Piglet 23
Stele 23
adult 23
age 23
agent 23
agents 23
agreeable 23
banda 23
bowed 23
c 23
cella 23
east 23
fled 23
fold 23
followed 23
forgotten 23
gifted 23
ging 23
grasped 23
hearts 23
heavenly 23
helper 23
incantation 23
ir 23
irrigated 23
knees 23
leader 23
leveled 23
magnificent 23
marvel 23
mold 23
morning 23
myself 23
obeisances 23
poor 23
possessed 23
prayed 23
prison 23
remaining 23
rode 23
room 23
shake 23
steles 23
sti@@ 23
strings 23
tied 23
timber 23
told 23
unfamiliar 23
units 23
western 23
ys 23
25th 22
49 22
83 22
85 22
95 22
Asalluhi 22
Edam 22
Festivalofulgi 22
Giapinkua 22
Grand 22
Inscription 22
Lamma 22
Mama 22
Nina@@ 22
Princely 22
Say 22
Since 22
Sippar 22
Two 22
UrItaran 22
Urukagina 22
Water 22
Which 22
Woe 22
adds 22
afterwards 22
ana 22
angry 22
aromatic 22
beam 22
builder 22
captain 22
cared 22
crying 22
dabinflour 22
debt 22
eaflour 22
eats 22
feed 22
fence 22
firstborn 22
flying 22
ger 22
heroes 22
himher 22
hunger 22
inheritance 22
judgment 22
junior 22
kequids 22
knee 22
lin@@ 22
listens 22
luxuriant 22
ly@@ 22
lying 22
mah 22
nannies 22
pens 22
plenty 22
ploughmen 22
queenship 22
rejoiced 22
replaced 22
rival 22
ruined 22
rulers 22
shiny 22
since 22
strike 22
sub@@ 22
sum 22
sur@@ 22
taboo 22
third 22
unidentified 22
uumgal 22
watch 22
wave 22
waves 22
weep 22
yours 22
23rd 21
255 21
3th 21
Abbakala 21
Adu 21
Akia 21
Auni 21
Basa 21
Dugamu 21
Ealubi 21
Even 21
Extra 21
Gemebarasiga 21
Gi@@ 21
Irikug 21
Itaran 21
Ium 21
Kamari 21
Kinir 21
KuNanna 21
Levee 21
Lugalegal 21
Nigarkidu 21
Ninnudu 21
R@@ 21
Ri@@ 21
Sea 21
Unug 21
Ure@@ 21
Urtur 21
Urugalama 21
Zabalam 21
aga 21
answered 21
balag 21
bathed 21
bordering 21
builders 21
canals 21
ced 21
ch@@ 21
choose 21
cking 21
commanded 21
cords 21
diminish 21
drove 21
ec@@ 21
eternal 21
every 21
exvoto 21
fixed 21
flourish 21
frowned 21
ges 21
greatest 21
harp 21
herd 21
i 21
intellect 21
judges 21
ka@@ 21
kal 21
kidu 21
kissed 21
lated 21
leatherworker 21
lions 21
mar@@ 21
mouths 21
nin@@ 21
palms 21
per@@ 21
physician 21
pin 21
plowing 21
pour 21
pouring 21
previous 21
pur@@ 21
replying 21
ru 21
run 21
short 21
shoulder 21
singers 21
siskuroffering 21
smite 21
space 21
ster 21
subordinate 21
swear 21
tavern 21
teeming 21
thief 21
tremble 21
uruppak 21
wailing 21
water@@ 21
ways 21
wear 21
wing 21
witnesses 21
yellow 21
147 20
195 20
46 20
Adda@@ 20
Am@@ 20
Among 20
Anunna 20
Aua 20
E 20
Enlila 20
Ga@@ 20
Gae 20
Ge@@ 20
Go@@ 20
Heaven 20
Hurti 20
Kudurmabuk 20
Lubimu 20
Lulubu 20
Lumma 20
Marduk 20
Numuda 20
Paue 20
Puzri@@ 20
Shrine 20
UrEma 20
UrNin@@ 20
Ura@@ 20
Urlumma 20
Was 20
Zabala 20
Zi@@ 20
abandon 20
ax 20
bar 20
brackish 20
breath 20
breeding 20
brickbuilt 20
campaign 20
canopy 20
charms 20
cla@@ 20
clods 20
complex 20
confused 20
conveyances 20
convoy 20
corpses 20
dirt 20
distress 20
divinity 20
dont 20
dra@@ 20
drew 20
dubdub 20
eldest 20
ence 20
endursag 20
fifty 20
flowing 20
g 20
get 20
haunted 20
humanity 20
important 20
inspector 20
intake 20
libation 20
lightning 20
liquor 20
low 20
mb@@ 20
meadows 20
moonlight 20
mouse 20
neglected 20
ng 20
noise 20
pped 20
priestesses 20
qu@@ 20
raisins 20
ran 20
region 20
remote 20
revealed 20
separated 20
shield 20
si 20
silence 20
skin 20
smote 20
spring 20
stars 20
stern 20
still 20
swept 20
therein 20
thin 20
threw 20
tin 20
tool 20
troop 20
uErra 20
udu 20
we@@ 20
winnowed 20
worthy 20
yellowed 20
za@@ 20
144 19
2th 19
Abbau 19
Abi@@ 19
Baba@@ 19
Bida 19
Di@@ 19
Eana 19
Ganzer 19
Gemeganun 19
Gibil 19
Give 19
Good 19
Has 19
Housemonth6 19
Il 19
Kuara 19
Luaya 19
Lugalbanda 19
Lugalmumag 19
Lugalu@@ 19
Luma 19
Mar@@ 19
Marhai 19
Nine@@ 19
Ro@@ 19
Towards 19
UrIkur 19
UrZababa 19
While 19
anathema 19
apples 19
appropriate 19
arose 19
arrived 19
arsi 19
bara@@ 19
barber 19
breeder 19
bri@@ 19
bringing 19
carrier 19
ch 19
choice 19
churn 19
ck@@ 19
clothed 19
companion 19
complete 19
counted 19
cultivated 19
dark 19
darkness 19
day@@ 19
deities 19
destroying 19
dike 19
dikes 19
dressed 19
egial 19
embrace 19
everlasting 19
exercise 19
experienced 19
fame 19
finish 19
firmly 19
forget 19
form 19
frightened 19
fro@@ 19
gala 19
gara 19
gina 19
gir@@ 19
growth 19
headgur 19
herders 19
human 19
humble 19
id@@ 19
implements 19
instruments 19
issue 19
knew 19
lea@@ 19
ler 19
lot 19
lugal@@ 19
maid 19
mal@@ 19
manhood 19
marry 19
message 19
mortar 19
moved 19
nindan 19
number 19
nuna 19
op@@ 19
oxenmanager 19
ped 19
piles 19
pla@@ 19
pouches 19
provided 19
quiver 19
rage 19
rises 19
rush 19
seek 19
seizes 19
served 19
setting 19
ship 19
sig 19
sigflour 19
singing 19
sparkling 19
spend 19
square 19
st 19
stall 19
stormwind 19
stra@@ 19
stretched 19
stro@@ 19
supporter 19
team 19
terrible 19
the@@ 19
thicket 19
tower 19
trunk 19
ttered 19
tumuli 19
ty@@ 19
ulgiil 19
unsealed 19
value 19
ving 19
watercourse 19
worked 19
workshop 19
xes 19
zida 19
11th 18
77 18
84 18
Aba@@ 18
Ac@@ 18
Agugu 18
Amar@@ 18
Ana@@ 18
Ar@@ 18
Chosen 18
Dadumu 18
Dilimbabbar 18
Dumuziabzu 18
Ili@@ 18
Into 18
LuInanna 18
Lugal 18
Lugalmelam 18
Malt 18
Namhani 18
Nril 18
Re@@ 18
River 18
Sta@@ 18
UrIgalim 18
acts 18
ally 18
approaches 18
assigned 18
aware 18
beaten 18
beginning 18
bend 18
bison 18
bro@@ 18
call 18
cha@@ 18
corresponding 18
courrier 18
craft 18
dagger 18
ders 18
district 18
doorman 18
drunk 18
early 18
ensi 18
entire 18
equalranking 18
equids 18
exhausted 18
extended 18
fallow 18
flax 18
flown 18
ful 18
funerary 18
gan 18
generals 18
grain@@ 18
gro@@ 18
grows 18
handed 18
holding 18
home 18
house@@ 18
ia@@ 18
incantations 18
insulted 18
kes 18
ku@@ 18
ladyship 18
lahar 18
legal 18
lips 18
main 18
mallet 18
mercy 18
neglect 18
nun 18
ou@@ 18
ously 18
overturned 18
pae 18
pegs 18
perfectly 18
plan@@ 18
pregnant 18
previously 18
procedure 18
promise 18
purification 18
purified 18
reared 18
regularly 18
resplendently 18
satisfy 18
smallshekels 18
spear 18
standardized 18
state 18
station 18
stay 18
strai@@ 18
striking 18
sts 18
subjugator 18
tation 18
tch 18
tem@@ 18
thusly 18
touch 18
touched 18
trembled 18
trusted 18
ura 18
use 18
utterances 18
vagina 18
ver 18
wagon 18
watered 18
weighed 18
well@@ 18
winds 18
wo@@ 18
ws 18
16@@ 17
184 17
41 17
71 17
Adad 17
Amarayasi 17
Bi@@ 17
Dukra 17
Gan@@ 17
Having 17
Inim@@ 17
Life 17
Lugalsiskure 17
Meslamtaea 17
Nagsu 17
NaneGIRgal 17
Nini@@ 17
Ninisina 17
People 17
Ra@@ 17
Silver 17
Sumerian 17
Supreme 17
Ubi 17
UrUrbartab 17
Whatever 17
Zulum 17
ada 17
add 17
aga@@ 17
alongside 17
answers 17
ant 17
appea@@ 17
archivist 17
assignment 17
attached 17
august 17
authority 17
bad 17
beats 17
bedroom 17
booty 17
box 17
buy 17
carcass 17
carpenters 17
cat@@ 17
cing 17
constantly 17
conver@@ 17
cooling 17
corner 17
covering 17
cri@@ 17
crossed 17
disorder 17
driven 17
egar 17
else 17
ensi@@ 17
equal 17
ering 17
esaga 17
freed 17
gates 17
gizi 17
gladdens 17
got 17
granted 17
grasp 17
holders 17
hook 17
initiate 17
inspected 17
ipar 17
law 17
liar 17
lift 17
looks 17
mated 17
men@@ 17
midnight 17
nig2diri 17
nights 17
oh 17
ordinary 17
ore 17
overturn 17
overwhelmed 17
pe 17
peoples 17
possessor 17
pounded 17
presence 17
reach 17
reedbed 17
ren@@ 17
rented 17
repeatedly 17
replace 17
retrieve 17
reveal 17
roar 17
rod 17
semolina 17
settled 17
shines 17
skins 17
solidify 17
sound 17
steps 17
sukkal 17
tax 17
ten@@ 17
thigh 17
treasury 17
tter 17
uni@@ 17
us@@ 17
vat 17
war@@ 17
wearing 17
wn 17
you@@ 17
14@@ 16
19@@ 16
67 16
ABbread 16
AbaEnlilgin 16
Alla@@ 16
Amnanum 16
Arali 16
Aratta 16
Badtibira 16
Day 16
Eanatum 16
Ebla 16
Enlil@@ 16
Erra@@ 16
Getinana 16
Go 16
Gungunum 16
Haba@@ 16
HillockofUrbartab 16
Igalima 16
Ilbani 16
LuUru 16
Lugala@@ 16
Mi@@ 16
Ningublaga 16
Ninilduma 16
Nuska 16
Oxenboot 16
Partial 16
Whose 16
Wise 16
Within 16
Zuzu 16
abgal 16
air 16
als 16
ama 16
arrows 16
aside 16
assistants 16
atam 16
ated 16
attentive 16
aya 16
beams 16
beat 16
belongs 16
bla@@ 16
brown 16
ched 16
city@@ 16
colorful 16
comes 16
cool 16
craved 16
darkened 16
dent 16
dered 16
dida 16
different 16
distressed 16
divisions 16
dly 16
double@@ 16
dri@@ 16
ear@@ 16
earth@@ 16
effect 16
endowed 16
ents 16
envoy 16
escaped 16
exhaust 16
extends 16
fulfilled 16
goodness 16
guardian 16
hangs 16
headed 16
height 16
help 16
homeland 16
idiot 16
idle 16
ing@@ 16
lambhides 16
load 16
lodged 16
malevolent 16
marriage 16
military 16
mothers 16
multiply 16
next 16
offspring 16
omens 16
pine 16
pleasure 16
pri@@ 16
produced 16
prostitute 16
provide 16
she@@ 16
shorn 16
sign 16
splendor 16
steadfast 16
stranger 16
stripped 16
sustains 16
tar 16
teeth 16
tering 16
ther 16
tion@@ 16
today 16
treasures 16
tted 16
tum@@ 16
up@@ 16
warriors 16
widow 16
winter 16
432 15
75 15
98 15
ARAD@@ 15
Ad@@ 15
Adudu 15
Biduga 15
Bring 15
Dagan 15
Damgalnuna 15
Divine 15
Dunnum 15
Enkis 15
Er@@ 15
Esar 15
ImeDagn 15
LuZabala 15
Lugalkigenedudu 15
Ma 15
Nigurum 15
Ninagala 15
Nindanirgal 15
Ningizida 15
NrAdad 15
Over 15
Shuruppak 15
Snkid 15
Subir 15
Ta@@ 15
UrDamu 15
UrEanna 15
UrNisaba 15
Uru@@ 15
Would 15
abundant 15
acquire 15
added 15
afflicted 15
all@@ 15
allow 15
always 15
arazu 15
available 15
ban@@ 15
begot 15
bel@@ 15
blade 15
board 15
bond 15
boxes 15
bu 15
butcher 15
cantor 15
chain 15
chi@@ 15
cleaned 15
clever 15
coated 15
colleagues 15
concerning 15
constructing 15
contents 15
copy 15
cour@@ 15
cting 15
cult 15
daba 15
daises 15
defeat 15
determines 15
dingir 15
disappear 15
distributed 15
doors 15
dough 15
doves 15
drawn 15
eggs 15
emblems 15
eme@@ 15
enemies 15
enship 15
equipped 15
exploit 15
eye@@ 15
ezibtum 15
fashion 15
fatherinlaw 15
fore 15
fuller 15
furrow 15
gin 15
hand@@ 15
harrow 15
hazin 15
hea@@ 15
heed 15
hur@@ 15
id 15
ils 15
issued 15
j@@ 15
kalla 15
kisikiNinazu 15
knowledge 15
labor@@ 15
lan@@ 15
land@@ 15
ll 15
loaf 15
long@@ 15
lower 15
mer@@ 15
mere 15
midday 15
mur@@ 15
musician 15
nigdab 15
object 15
ofin 15
oned 15
opening 15
ox@@ 15
parapet 15
pastry 15
pigeon 15
pipe 15
planks 15
ple@@ 15
possession 15
pp@@ 15
prepare 15
punting 15
raises 15
ranges 15
rea@@ 15
rejoices 15
replied 15
requisitioners 15
reveres 15
roasted 15
rulership 15
sanctuaries 15
sceptre 15
scorpion 15
sheepfolds 15
shes 15
shouting 15
silt 15
sla@@ 15
sleeping 15
star 15
stolen 15
stylus 15
subject 15
sun@@ 15
tal 15
taxes 15
ters 15
thrones 15
ths 15
tive 15
tor 15
triumph 15
trust 15
tu 15
uMama 15
ud@@ 15
va@@ 15
village 15
wage 15
wail 15
walking 15
wet 15
whatever 15
younger 15
zed 15
zu@@ 15
165 14
288 14
65 14
79 14
87 14
8@@ 14
Abba@@ 14
Abu 14
Adaga 14
Albanidu 14
Along 14
AmarSuenarakiag 14
Big@@ 14
Co@@ 14
Drehem 14
Elamites 14
Enmagal 14
Enunna 14
Headed 14
Hillockofacacia 14
Kal@@ 14
Lusaizu 14
Matur 14
Nalus 14
NaramSin 14
NaramSuen 14
Possessing 14
Pro@@ 14
Sa@@ 14
Subartu 14
Th@@ 14
Tower 14
U 14
Ubar 14
UrDumuzi 14
UrEnki 14
UrEnlil 14
UrNanna 14
UrNingal 14
Urgepar 14
V@@ 14
Za@@ 14
aba@@ 14
acting 14
afterward 14
agreement 14
amu@@ 14
andul 14
appearance 14
apple 14
attacking 14
attractiveness 14
averaged 14
bag 14
bed@@ 14
blessing 14
blue 14
calfgazelle 14
capacity 14
captive 14
cases 14
charcoal 14
cks 14
claws 14
clo@@ 14
complaint 14
cor@@ 14
counting 14
course 14
cra@@ 14
cracks 14
der@@ 14
descendant 14
destinies 14
disease 14
domestic 14
draw 14
dum 14
either 14
elluDagan 14
emblem 14
ep@@ 14
era@@ 14
eredigir 14
eri@@ 14
est@@ 14
evildoers 14
excavating 14
fastened 14
fattening 14
faultless 14
feel 14
figs 14
filling 14
flashing 14
flow@@ 14
fullers 14
gather 14
governors 14
great@@ 14
greater 14
gs 14
gudu@@ 14
halflabor 14
helpers 14
highways 14
hip 14
iliu 14
impetuous 14
int@@ 14
jackasses 14
jars 14
jennies 14
kno@@ 14
kohl 14
lation 14
len@@ 14
limit 14
located 14
lon@@ 14
lulu 14
marked 14
med 14
mongoose 14
mood 14
mountain@@ 14
ng@@ 14
nugig 14
obligation 14
obliterated 14
opponent 14
ors 14
oun@@ 14
parasite 14
pectoral 14
piglet 14
pond 14
preeminent 14
priesthood 14
princeliness 14
princes 14
princeship 14
princess 14
proclaim 14
profoundly 14
raising 14
reason 14
red@@ 14
reddish 14
refuge 14
regions 14
resound 14
resting 14
scent 14
shi@@ 14
sickness 14
silos 14
slaughtering 14
smash 14
smoke 14
snatched 14
soandso 14
source 14
spirits 14
stallion 14
stores 14
submitted 14
supplications 14
surrounded 14
sustenance 14
tea@@ 14
tear 14
tel@@ 14
tell 14
textiles 14
thers 14
ts@@ 14
turban 14
ubi 14
ul 14
ulagana 14
under@@ 14
unknown 14
utters 14
vo@@ 14
wea@@ 14
wears 14
wicked 14
wings 14
wish 14
witness 14
working 14
workingfortifying 14
1343 13
141 13
216 13
22nd 13
292 13
765 13
92 13
Amarkii 13
Amauumgalana 13
Ara@@ 13
Auwer 13
Bazige 13
Big 13
Bird 13
Black 13
Bu@@ 13
Eki 13
Enmahgalana 13
Erekigala 13
Evil 13
Exalted 13
FestivalofAn 13
Geme 13
Gememunukuga 13
Gemeulgi 13
Great@@ 13
Greatstele 13
IddinDagan 13
Kar@@ 13
LuEnlila 13
LugalEmae 13
Lugalala 13
Lugali@@ 13
Lugula 13
Mardu 13
Namtar 13
Ninkuzu 13
Ninmah 13
Sagub 13
Shining 13
Sin 13
UrE@@ 13
UrNintu 13
Urabba 13
Womans 13
abba 13
actively 13
additional 13
admi@@ 13
amounts 13
arable 13
artfully 13
atta@@ 13
attributes 13
aur@@ 13
aweinspiring 13
back@@ 13
bea@@ 13
beside 13
big@@ 13
boatmen 13
borders 13
burning 13
cabin 13
car@@ 13
caressed 13
chan@@ 13
changes 13
chick 13
chickpeas 13
churning 13
citys 13
compare 13
consi@@ 13
consignments 13
consume 13
dea@@ 13
decreeing 13
delight 13
descend 13
desire 13
dish 13
diworkers 13
door@@ 13
drinks 13
dwells 13
eagle 13
emerged 13
ended 13
enjoy 13
ered 13
et 13
existed 13
fil@@ 13
fisherman 13
friendly 13
fruits 13
gri@@ 13
grind 13
halub 13
hanging 13
heard 13
her@@ 13
herbs 13
highland 13
honor 13
however 13
huge 13
humbly 13
iib 13
iled 13
ili 13
ilum 13
imaki 13
inquired 13
inundated 13
irs 13
jo@@ 13
kar 13
kor 13
lam 13
lasting 13
lavishly 13
leopard 13
lik 13
lim 13
loads 13
looking 13
loose 13
low@@ 13
loyal 13
maker 13
marker 13
masons 13
matters 13
midwife 13
millstone 13
mis@@ 13
molds 13
myriad 13
nails 13
nal 13
nan@@ 13
neither 13
nes@@ 13
nim 13
ob@@ 13
obedient 13
officiant 13
omen 13
one@@ 13
opens 13
pack 13
pasture 13
paws 13
perfume 13
pickaxe 13
pile 13
piloting 13
pl 13
proved 13
prow 13
pted 13
ral 13
read 13
regu@@ 13
resounded 13
ribs 13
ride 13
ripped 13
rough 13
sag@@ 13
sage 13
sailing 13
sanctum 13
sea@@ 13
seeding 13
sight 13
silenced 13
sion 13
sixties 13
skippers 13
snare 13
splitting 13
spot 13
spreading 13
spreads 13
star@@ 13
statement 13
ste@@ 13
streets 13
string 13
stu@@ 13
suited 13
supplication 13
sweet@@ 13
sweetly 13
tal@@ 13
tamarisk 13
teacher 13
ted@@ 13
tent 13
thick@@ 13
tial 13
tiara 13
touching 13
transfer 13
trap 13
twice 13
ua 13
ub 13
utterly 13
ves 13
waterskin 13
wickedness 13
wolf 13
womens 13
workforce 13
works 13
worktroopers 13
185 12
193 12
198 12
91 12
Aabba 12
Abu@@ 12
Akak 12
Au 12
Belarik 12
Beloved 12
BigStele 12
Both 12
Bur@@ 12
Copy 12
Daagi 12
Damu 12
De@@ 12
Despite 12
Door 12
Ea 12
Earth 12
Egalma 12
Elamite 12
Enmen@@ 12
Enul 12
Ex@@ 12
FestivalofNinazu 12
GemeEanna 12
Gipar 12
Gir@@ 12
Grain 12
Greatbarge 12
Halankug 12
IM 12
Inanna@@ 12
Itrilum 12
Keekug 12
LuNinmar 12
Lugalebansa 12
Lullubu 12
Maga@@ 12
Magure 12
Make 12
Nammahni 12
Nin 12
Nina 12
Ninsadu 12
Ninsisa 12
Ninur@@ 12
Nungal 12
Nur@@ 12
Nusku 12
PA@@ 12
Persia 12
Seal 12
TarmUram 12
Ti@@ 12
TramDagan 12
Ubifeast 12
UrGebare 12
Uraya 12
Urdardu 12
Urru 12
Usa@@ 12
Wor@@ 12
acc@@ 12
advise 12
afterbirth 12
ag@@ 12
ak@@ 12
allotted 12
angu 12
appeared 12
appointed 12
araamu 12
asking 12
az@@ 12
bags 12
bailiff 12
bearer 12
bears 12
benefit 12
betrothal 12
binding 12
blind 12
blocked 12
braiding 12
broadly 12
brow 12
calm 12
carriers 12
carries 12
cauldron 12
cea@@ 12
cious 12
clean@@ 12
cleansed 12
clear 12
collected 12
confronted 12
create 12
cub 12
daga 12
demon@@ 12
den 12
desert 12
designation 12
discuss 12
docks 12
dua 12
dwellings 12
ears 12
eas 12
eds 12
emerge 12
encouragement 12
esi 12
ess 12
exercises 12
exists 12
extent 12
falcon 12
favored 12
felt 12
fisheries 12
fleeing 12
flo@@ 12
flooded 12
footstool 12
forced 12
fork 12
friends 12
gna@@ 12
go@@ 12
greeting 12
gu2e3 12
hair@@ 12
hang 12
herald 12
himthem 12
hy@@ 12
igi 12
ima@@ 12
imbued 12
ina@@ 12
insults 12
inter@@ 12
is@@ 12
kept 12
kiag 12
kug 12
labortroop 12
lam@@ 12
lamenting 12
late 12
learn 12
lings 12
lling 12
loosened 12
maiden 12
mana@@ 12
mash 12
mes@@ 12
mil 12
mil@@ 12
move 12
naga 12
nd 12
nda@@ 12
ner 12
nets 12
news 12
nie 12
oak 12
objects 12
ol@@ 12
oo@@ 12
openhands 12
overflowing 12
pas@@ 12
passing 12
patrimonial 12
perfected 12
perished 12
picked 12
pivot 12
plan 12
plowed 12
potbellied 12
pots 12
purifies 12
puts 12
ran@@ 12
rates 12
reaching 12
receiving 12
recieve 12
reputation 12
res 12
respect 12
respectful 12
ress 12
restrain 12
riverbank 12
rodent 12
sal 12
shiver 12
sickles 12
sin@@ 12
sits 12
spec@@ 12
spelt 12
spending 12
spo@@ 12
stretches 12
stri@@ 12
stupor 12
sumaccheese 12
swee@@ 12
tar@@ 12
tary 12
thirty 12
thro@@ 12
throat 12
touches 12
towardson 12
treat 12
ture 12
two@@ 12
ulaga 12
understanding 12
ursaggalama 12
vegetable 12
whip 12
wolves 12
worth 12
wrote 12
186 11
19th 11
633 11
76 11
86 11
Ab@@ 11
Absimt 11
Ahu@@ 11
Audagula 11
Beli@@ 11
Bigfestival 11
Draw 11
Dublama 11
Duganizi 11
Eaar 11
Ebgal 11
Ebih 11
Emu 11
Ena@@ 11
Esikil 11
Fattening 11
FestivalofMekigal 11
Fi@@ 11
Garana 11
GemeLamma 11
Giriniisa 11
GreatFestival 11
GreatStele 11
Gurzan 11
Ha@@ 11
Hi@@ 11
Him 11
Ilu@@ 11
Intaeas 11
Ip@@ 11
Ir@@ 11
Is 11
Isimud 11
Iturungal 11
Iwouldlive 11
Kindazi 11
Kisiga 11
Lamma@@ 11
Longtablet 11
Luga@@ 11
Lugalurani 11
Lulal 11
Luulgira 11
Mani 11
Me 11
NENEgar 11
NI@@ 11
Nanaya 11
Nannakam 11
Nim@@ 11
Ninmueigimu 11
Nintu 11
Oxen 11
Per@@ 11
Puauz 11
Quay 11
Set 11
Shepherd 11
Sin@@ 11
UrEnunna 11
UrNigar 11
UrNinmar 11
Ura 11
Young 11
Zababa 11
Zu@@ 11
abu@@ 11
accused 11
across 11
affixed 11
alabaster 11
alliya 11
ance 11
answering 11
ar2 11
arrears 11
arrowhead 11
bake 11
beauty 11
begotten 11
bit 11
bits 11
boots 11
bor@@ 11
broke 11
buildings 11
burned 11
by@@ 11
cake 11
chased 11
cked 11
cloth 11
clothes 11
cloud 11
cold 11
committed 11
construction 11
cooked 11
correctly 11
count 11
court 11
cowpen 11
creation 11
cress 11
crus@@ 11
dan@@ 11
danna 11
daughters 11
dder 11
deeds 11
deli@@ 11
departed 11
descendants 11
design 11
designations 11
desired 11
destined 11
disappearance 11
disc@@ 11
dispersed 11
domain 11
drag 11
drag@@ 11
driver 11
eli 11
ely 11
enough 11
ens 11
ere@@ 11
exchanged 11
extremely 11
fated 11
favourable 11
fea@@ 11
fearsome 11
ff 11
fic@@ 11
fies 11
fin@@ 11
flame 11
flat@@ 11
flattened 11
flee 11
flu@@ 11
foreigners 11
fortresses 11
fromby 11
ft 11
galana 11
galanna 11
gar@@ 11
gig 11
gir 11
gle@@ 11
governorgeneral 11
gratified 11
grave 11
guar@@ 11
gullalabor 11
gut 11
ha 11
hailstones 11
happily 11
healthy 11
hegoats 11
highlands 11
hin@@ 11
how@@ 11
imagian 11
immune 11
implement 11
impure 11
increased 11
ingredient 11
ini@@ 11
inquire 11
interrupt 11
invoked 11
ist 11
itstheir 11
kalam 11
kalama 11
ki 11
kindly 11
kisikiofNinazu 11
knowing 11
kur 11
kur@@ 11
lagar 11
ld 11
linens 11
locusts 11
loom 11
lyre 11
mankind 11
marsa 11
material 11
mea 11
mi 11
mid@@ 11
mix 11
mon@@ 11
mug 11
multitudes 11
musicians 11
myyour 11
nam 11
nam@@ 11
nana 11
nas 11
nded 11
officials 11
operate 11
ordinances 11
otter 11
outs 11
oxen@@ 11
painful 11
passes 11
paths 11
payment 11
pickaxing 11
pis 11
pit 11
placing 11
plains 11
pli@@ 11
police 11
pouch 11
praises 11
price 11
proceed 11
prolonged 11
proud 11
pulled 11
rable 11
raven 11
reed@@ 11
reigned 11
renders 11
renovated 11
rested 11
reverent 11
rightful 11
roamed 11
roof@@ 11
row 11
rule 11
sacrilege 11
sadd@@ 11
season 11
secured 11
sel@@ 11
senior 11
seri@@ 11
shadow 11
shocks 11
shovel 11
shrines 11
sobbing 11
spi@@ 11
stepped 11
sticks 11
storeroom 11
structure 11
substance 11
sucking 11
supremacy 11
swallow 11
talk 11
terrified 11
ties 11
tory 11
travel 11
traversed 11
tre@@ 11
troubled 11
try 11
uIdim 11
uSin 11
uba 11
ud 11
ursag 11
uti@@ 11
uz@@ 11
van@@ 11
vering 11
vers 11
vic@@ 11
ward 11
wat@@ 11
watery 11
wed 11
weighty 11
west 11
whi@@ 11
window 11
wintertime 11
wrought 11
yielded 11
zes 11
123 10
125 10
126 10
145 10
164 10
168 10
199 10
1troop 10
232 10
243 10
94 10
99 10
9@@ 10
AN@@ 10
AR 10
Abba 10
Abisimti 10
Addamu 10
Against 10
Agrunkug 10
Aian 10
Akala 10
Al@@ 10
Alu 10
Anu@@ 10
Audatur 10
Basaga 10
Bigstele 10
Dais 10
Duranki 10
Eabani 10
Eania 10
Egalmah 10
Emu@@ 10
Enamtila 10
Enamzu 10
Endudu 10
Enin@@ 10
Enlilbani 10
Enlilship 10
Enmebaragesi 10
Errabani 10
Etemenniguru 10
Eumea 10
Eurbidu 10
Faithfully 10
First 10
Firstfruits 10
Fitting 10
Forever 10
Furious 10
Guzana 10
Have 10
Ho@@ 10
Huwawamade 10
Ikur@@ 10
Ilumbani 10
Imsag 10
Karar 10
Kian 10
Kinira 10
Lama@@ 10
LuGirizal 10
LuGudea 10
Lugalemu 10
Lumma@@ 10
Man@@ 10
Manum 10
Manume 10
Mesanepada 10
Mesilim 10
Muru 10
Nam@@ 10
Namninani 10
Nannas 10
Nanni 10
Nar@@ 10
Neti 10
Nimgir@@ 10
Ninginabadim 10
Ninhursaga 10
Ninmu 10
Ninubur@@ 10
Noses 10
Nothing 10
NurAdad 10
Pabilu 10
Plain 10
PuzurMama 10
ShuSuen 10
Sutium 10
Sweet 10
Ugurtur 10
Umu 10
Up 10
UrEbabbar 10
UrNamnunka 10
UrNingubalag 10
Urabzu 10
Urakkan 10
Uri@@ 10
Urkisal 10
Urlamma 10
Urna@@ 10
Urnin@@ 10
Ursilaluh 10
UruBaba 10
Urur 10
Utamiarram 10
Uu 10
Vineyard 10
Winter 10
Zamu 10
absence 10
acworkers 10
af@@ 10
agrun 10
algar 10
alien 10
alike 10
alluring 10
amazi 10
amu 10
ancestors 10
answer 10
arrumbani 10
asked 10
aurochs 10
bare 10
barrage 10
basin 10
battering 10
beating 10
beerpouring 10
bel 10
best 10
biggovernor 10
boast 10
boatbuilder 10
bottom 10
breach 10
breads 10
bridal 10
bunch 10
bundel 10
bush 10
captivity 10
carcases 10
cated 10
ciously 10
cles 10
cloisters 10
close 10
clu@@ 10
coloured 10
compelled 10
composite 10
concern 10
coun@@ 10
counts 10
crea@@ 10
crime 10
crook 10
crou@@ 10
crushing 10
cunning 10
cutting 10
dar@@ 10
dawn 10
destroy@@ 10
diarrhea 10
dignity 10
dislodged 10
dispatched 10
distribution 10
divi@@ 10
divide 10
dness 10
doing 10
donkey@@ 10
down@@ 10
dur 10
dur@@ 10
ef 10
el 10
eli@@ 10
ently 10
establishing 10
eternity 10
exce@@ 10
exiled 10
exuberance 10
face@@ 10
fashions 10
fatbreads 10
fatteners 10
fight 10
filthy 10
finely 10
fist 10
fli@@ 10
floodstorm 10
flowed 10
foo@@ 10
fore@@ 10
fra@@ 10
fri@@ 10
fted 10
fu@@ 10
fulness 10
furthermore 10
fury 10
gated 10
gem 10
genius 10
ght@@ 10
gindu 10
glory 10
grandly 10
greenery 10
grievous 10
gudupriest 10
gurdub 10
h 10
hallsanctum 10
handwriting 10
hated 10
hills 10
hoof 10
hosue 10
hurting 10
hybrid 10
ia 10
ig@@ 10
igigal 10
illuminate 10
implored 10
included 10
inf@@ 10
instructed 10
insurgent 10
intestines 10
ita@@ 10
jack 10
joyously 10
kid@@ 10
kiss 10
kuga 10
kugani 10
lain 10
leaves 10
lgi 10
lioness 10
lip 10
lor@@ 10
lowland 10
lumber 10
lunches 10
marvelsee 10
ming 10
mitum 10
mn 10
mooring 10
mountainnetherworld 10
names 10
natum 10
nce 10
nighttime 10
nil 10
nir@@ 10
noises 10
north 10
northern 10
noserope 10
occupies 10
opensticks 10
orphan 10
outlying 10
oval 10
ow 10
pa 10
para@@ 10
parcel 10
peri@@ 10
phantom 10
pin@@ 10
plaque 10
playing 10
plentiful 10
plow@@ 10
pon@@ 10
population 10
pounds 10
praising 10
pressed 10
promised 10
propitious 10
provides 10
pt 10
pu 10
punched 10
qui@@ 10
realised 10
really 10
reiterated 10
replacement 10
responsibility 10
reverse 10
robber 10
rs 10
runner 10
saga@@ 10
sagkal 10
sandals 10
scatter 10
scri@@ 10
seedcubits 10
sem@@ 10
shaking 10
shook 10
shoulders 10
silver@@ 10
silversmith 10
sle@@ 10
some 10
son@@ 10
soo@@ 10
spea@@ 10
standards 10
step 10
stop 10
stored 10
storm@@ 10
storms 10
submission 10
sung 10
surely 10
suspiciously 10
territories 10
ther@@ 10
thir@@ 10
thornbushes 10
thoughts 10
thrashing 10
towpaths 10
travel@@ 10
traveled 10
trea@@ 10
tried 10
tten 10
ubur 10
ulgimuda 10
ulu@@ 10
uni 10
use@@ 10
uses 10
using 10
utter 10
verified 10
virgin 10
walk 10
weeds 10
weigh 10
weir 10
wind@@ 10
wonderful 10
worried 10
yed 10
yield 10
yo@@ 10
za 10
ze@@ 10
112 9
128 9
166 9
242 9
265 9
276 9
35@@ 9
59 9
65@@ 9
7746 9
89 9
Aanepada 9
Ababi 9
About 9
According 9
Addaillat 9
Again 9
Akiti 9
AmarSin 9
AmarSuentum 9
Amurru 9
Anahili 9
Apil@@ 9
Auda 9
Bau 9
Belatsuner 9
Car@@ 9
DaUmma 9
Dadaya 9
Dadu 9
Dam@@ 9
Danniya 9
Dumuzi@@ 9
During 9
Edarilu 9
Emudkura 9
Emutbala 9
Enter 9
Enunugalana 9
Eu@@ 9
Euzga 9
Evildoers 9
FestivalofBaba 9
For@@ 9
GIR@@ 9
GemeNinubur 9
GiriBabaidab 9
Gutar 9
Guza@@ 9
Hill 9
Hillockofplantoil 9
Iar@@ 9
Inannas 9
Incantation 9
Iribare 9
J@@ 9
Kitchen 9
KuNinura 9
Lala 9
LuNarua 9
LuUnu 9
Lualim 9
Luazida 9
Lugaldubla 9
Lugale@@ 9
Lugalgirizal 9
Lugalgue 9
Lugalkisalsi 9
Lugalnir 9
Lugalpae 9
Luugina 9
Maguena 9
Magula 9
Mam@@ 9
Monthly 9
Moreover 9
Namzitara 9
Nan@@ 9
NinIsina 9
Ninazimua 9
Nine 9
Ningirim 9
Out@@ 9
Pabilsag 9
Place 9
Pu@@ 9
Pure 9
Ruler 9
Sand 9
Sea@@ 9
Sniqam 9
Sohn 9
Speak 9
Summer 9
Szara 9
Tab@@ 9
Throne 9
Tirigan 9
UgIL 9
Ukkene 9
UrGigir 9
UrNanibgal 9
Urdun 9
Urendursag 9
Urgu@@ 9
Utamiaram 9
WaradSin 9
Watarum 9
accepting 9
accomplished 9
accumulated 9
activity 9
affairs 9
afraid 9
agasilig 9
agrig 9
ak 9
akkan 9
al 9
alienated 9
allo@@ 9
alum 9
aninga 9
annihi@@ 9
annoyed 9
anointed 9
arauma 9
assignments 9
atamofficials 9
ats 9
attach 9
attended 9
aven@@ 9
awesome 9
bab@@ 9
barbed 9
bari@@ 9
battleaxe 9
began 9
bigcheese 9
bil@@ 9
blo@@ 9
boasted 9
border@@ 9
borne 9
boy 9
breaking 9
breath@@ 9
bunches 9
calender 9
cantors 9
capital 9
caress 9
castrate 9
cations 9
cereal 9
chase 9
cherished 9
chopped 9
cket 9
clouds 9
compe@@ 9
contem@@ 9
contest 9
cooled 9
countryside 9
cts 9
cy 9
cypress 9
dama 9
dding 9
decides 9
deciding 9
deliver 9
deputy 9
des@@ 9
destoyed 9
din@@ 9
div@@ 9
diverse 9
dled 9
downstream 9
duck 9
dumubaBAD 9
dy 9
dying 9
ease 9
ecstatic 9
ee 9
efface 9
egkuraga 9
elders 9
ele@@ 9
endless 9
ene 9
engendered 9
enraged 9
eradicated 9
ests 9
executes 9
exer@@ 9
exhaus@@ 9
ext@@ 9
ezem 9
factory 9
falsely 9
feature 9
ff@@ 9
fills 9
fingernails 9
firstfruits 9
flooding 9
forces 9
fort 9
furiously 9
fy 9
gan@@ 9
gardeners 9
gate@@ 9
gatekeeper 9
gebur 9
ger@@ 9
gers 9
gets 9
glowing 9
gracious 9
grapes 9
gui@@ 9
harvesttime 9
hat 9
heap 9
heirs 9
hiding 9
holder 9
honour 9
horses 9
hu 9
hurts 9
ibi@@ 9
igi@@ 9
iling 9
imagi 9
iner 9
initiated 9
inspectors 9
iri@@ 9
irrevocable 9
ita 9
itting 9
jester 9
journey 9
joyous 9
kabta 9
kaid 9
kala 9
keeps 9
ken 9
kers 9
key 9
kin@@ 9
kun@@ 9
kura 9
lable 9
lacerated 9
lamenters 9
largegoat 9
larsa 9
last 9
laughing 9
learning 9
liba@@ 9
lip@@ 9
list 9
llu@@ 9
location 9
longlasting 9
love 9
lowed 9
lubi 9
lullaby 9
lunch 9
mae 9
manacles 9
manuwood 9
maturity 9
mer 9
millworkers 9
mit@@ 9
mouflon 9
mud@@ 9
multi@@ 9
nate 9
neck@@ 9
nevertheless 9
none 9
noses 9
notindeed 9
nua 9
nursemaid 9
ofa@@ 9
onager 9
ora@@ 9
oracle 9
orchardists 9
ound@@ 9
outwaterway 9
ow@@ 9
oxhide 9
pel@@ 9
pigs 9
ping 9
placated 9
play@@ 9
ple 9
pleased 9
plen@@ 9
plunders 9
porridge 9
pose 9
pounding 9
power@@ 9
pres@@ 9
pronounced 9
proudly 9
provi@@ 9
punishment 9
purifier 9
putting 9
quickly 9
raban 9
radi@@ 9
rebuild 9
recorder 9
reedmats 9
refined 9
rela@@ 9
relaxation 9
relaxing 9
reliable 9
remission 9
remit 9
repay 9
requisitioner 9
returning 9
returns 9
rib 9
rides 9
rin@@ 9
rob 9
rosettes 9
royalty 9
sack 9
sanctified 9
school@@ 9
scratching 9
self@@ 9
sen@@ 9
settle 9
settlement 9
shri@@ 9
sides 9
sing@@ 9
size 9
ski@@ 9
smeared 9
soli@@ 9
sor@@ 9
sow 9
sprout 9
stillborn 9
stin@@ 9
sto@@ 9
streng@@ 9
strikes 9
struc@@ 9
sunrise 9
surpass 9
sustain 9
swamp 9
sweetwort 9
tallow 9
tan@@ 9
there@@ 9
thicke@@ 9
thorn 9
throwsticks 9
tin@@ 9
tools 9
tooth 9
tou@@ 9
trampled 9
trans@@ 9
trembling 9
truthfully 9
tting 9
tually 9
twin 9
ug@@ 9
unrefined 9
uplands 9
valued 9
ven 9
verdict 9
violently 9
wake 9
ward@@ 9
wards 9
weigh@@ 9
wetnurse 9
widows 9
wishes 9
wives 9
womans 9
word@@ 9
wore 9
worker@@ 9
writing 9
xed 9
xen 9
yal@@ 9
youth@@ 9
ze 9
zenith 9
135 8
142 8
197 8
238 8
425 8
442 8
648 8
69 8
81 8
912 8
93 8
ARADara 8
Aa 8
AbagalEnlil 8
Abani@@ 8
Adgarkidug 8
Agu@@ 8
Akkadian 8
Aktu 8
Ala@@ 8
Alamu 8
Although 8
Anaili 8
Annual 8
Annuntum 8
Ans 8
Api@@ 8
Aruru 8
Asag 8
Awan 8
Baamu 8
Bar@@ 8
Baranamtara 8
Barge 8
Birurtura 8
Bri@@ 8
BurSin 8
Burmama 8
Con@@ 8
Crescent 8
Daily 8
Daya@@ 8
Dayya 8
Dingi@@ 8
Dingirma 8
Duil 8
Dumuzid 8
Eating 8
Enanatuma 8
Enli@@ 8
Ennu@@ 8
Ezida 8
Ezimu 8
Fore@@ 8
GANgufields 8
Gar@@ 8
Gatumdug 8
GemeAmarSuen 8
Gemeeila 8
Getinanas 8
God 8
Gudena 8
Her@@ 8
IddinErra 8
Im@@ 8
Inim 8
InimInanna 8
Intae 8
Is@@ 8
KIAN 8
Kalamu 8
Kas@@ 8
Kiritab 8
KuBaba 8
Kuli 8
Kutha 8
Lamah 8
Lanimu 8
LuAbu 8
LuEnki 8
LuGebare 8
LugalKuzu 8
Lugalbi 8
Lugalnamma 8
Lugalnemur 8
Lugalukkene 8
Luigisasa 8
Lukala 8
Luutu 8
Mami 8
Men 8
Mighty 8
Moun@@ 8
Mu@@ 8
Mubiana 8
Nana 8
Nannazi 8
Naramil 8
Ne@@ 8
NigBaba 8
Niggurani 8
Nigtuku 8
NinDaLagash 8
Nindar 8
Nineizu 8
Ninhur@@ 8
Nininsina 8
Ninkiara 8
Ninkilim 8
Ninkununa 8
Ninmagure 8
Ninu@@ 8
Ninul 8
Nr@@ 8
NrAdda 8
Ordeal 8
Overseer 8
Powers 8
PuzrishDagan 8
Puzuril 8
Responsible 8
Rushes 8
Should 8
Sini@@ 8
Smaller 8
Snbalssuiqbi 8
Taiatal 8
Ugnim 8
UrBagara 8
UrMama 8
UrNinsu 8
Urbartab 8
Ursukkal 8
Urua 8
Urzu 8
Utamia@@ 8
Way 8
Wea@@ 8
Y@@ 8
Zaba@@ 8
Ziquril 8
abra 8
accomplish 8
adjacent 8
advised 8
adze 8
afternoon 8
aggressively 8
agina 8
ago 8
agricultural 8
akalwood 8
allotments 8
aming 8
antly 8
anxious 8
appropri@@ 8
arahuma 8
argument 8
arm@@ 8
aro@@ 8
aromati@@ 8
assemblythrone 8
asses 8
assimilate 8
assis@@ 8
atamofficial 8
attacked 8
attendant 8
balaservice 8
basalt 8
battles 8
begat 8
bellowing 8
bellows 8
ben@@ 8
bindings 8
blazing 8
block 8
blocks 8
boat@@ 8
bolted 8
breasts 8
bridge 8
btum 8
bullcalf 8
buried 8
care@@ 8
cares 8
cer@@ 8
chair@@ 8
checked 8
cheek 8
ching 8
circled 8
coachhouse 8
comb 8
combined 8
confine 8
containing 8
content 8
conveyed 8
counsel@@ 8
craf@@ 8
crafty 8
cre@@ 8
crumbs 8
ct@@ 8
cted 8
ction 8
cultivation 8
cum@@ 8
cumins 8
cur@@ 8
daa 8
dab@@ 8
dan 8
danum 8
delightful 8
deluge 8
dena 8
denig@@ 8
deposi@@ 8
derer 8
desecrated 8
designs 8
despatched 8
dilapidated 8
dim@@ 8
dines 8
dingir@@ 8
dingira 8
dirty 8
dragged 8
dre@@ 8
drill 8
dry 8
duba 8
duga 8
duly 8
dust@@ 8
dwel@@ 8
ead 8
earlier 8
earrings 8
edada 8
edges 8
edi@@ 8
ef@@ 8
elevated 8
els 8
embellished 8
embraced 8
emer@@ 8
encircled 8
enclosure 8
enduring 8
ened 8
engur 8
enkar 8
equipment 8
establishes 8
ested 8
ev@@ 8
everywhere 8
exal@@ 8
excess 8
exper@@ 8
extend 8
extinguished 8
exuding 8
exultant 8
facing 8
fal@@ 8
famine 8
fangs 8
fearing 8
feeding 8
feeling 8
ferry 8
ferryboat 8
finalized 8
floatexcess 8
floating 8
flowers 8
foal 8
follows 8
freedom 8
fulltime 8
gara@@ 8
gems 8
ghten 8
ghtened 8
ghting 8
gigi 8
girlfriend 8
girnun 8
glori@@ 8
goring 8
grandstele 8
grant 8
grinding 8
grove 8
had@@ 8
har 8
haver 8
heart@@ 8
hegal 8
herding 8
heroic 8
hew 8
hire 8
hot 8
hurled 8
illama 8
ilu 8
ime 8
imme@@ 8
impede 8
incantationsmurmuring 8
incites 8
inde@@ 8
inim@@ 8
ining 8
initiates 8
inquiries 8
inspi@@ 8
intact 8
interpreter 8
invoking 8
involving 8
ise@@ 8
issues 8
ivory 8
izu 8
joyfully 8
keel 8
kka@@ 8
kling 8
knowledgeable 8
lacking 8
laden 8
lance 8
later 8
lating 8
leg 8
lidga 8
life@@ 8
lil 8
liness 8
liters 8
lock 8
lous 8
lub 8
luma 8
manded 8
marries 8
mas@@ 8
met 8
mighty@@ 8
milk@@ 8
min@@ 8
mirror 8
monkey 8
moor 8
moored 8
mouth@@ 8
mriqtidnim 8
mun@@ 8
nanna 8
nar 8
ndance 8
nds 8
ned@@ 8
need 8
needle 8
newborn 8
nim@@ 8
nue 8
nus 8
nwoods 8
oars 8
obligations 8
obliterate 8
observe 8
occupy 8
offering@@ 8
oils 8
open@@ 8
openhand 8
ori@@ 8
overseers 8
overwhelm 8
paci@@ 8
palil 8
parents 8
past@@ 8
peace 8
pen@@ 8
penetrate 8
perfo@@ 8
pest 8
piece 8
pilasters 8
pillar 8
pleases 8
pleasures 8
ploughs 8
poles 8
post 8
potter 8
pples 8
pray@@ 8
prebend@@ 8
presentation 8
prime 8
private 8
prowls 8
pulse 8
pushed 8
raging 8
rainbow 8
rated 8
ready 8
reaso@@ 8
relative 8
releaseploughmen 8
repa@@ 8
residing 8
rever@@ 8
revo@@ 8
rin 8
rivers 8
robbers 8
rounds 8
sacks 8
sand 8
scra@@ 8
screamed 8
sealbearer 8
section 8
seeks 8
separa@@ 8
ser 8
serv@@ 8
sheephide 8
shore 8
sila@@ 8
silen@@ 8
sisa 8
skilled 8
slaughterhouse 8
slingstones 8
smiting 8
soothed 8
sowed 8
span 8
spends 8
spleen 8
splendid 8
sprin@@ 8
stayed 8
stela 8
stof@@ 8
stone@@ 8
storehouses 8
stre@@ 8
stretch 8
subj@@ 8
submer@@ 8
subsistance 8
sue 8
support 8
sura 8
surround 8
table@@ 8
tam@@ 8
teams 8
tearfully 8
tered 8
terrifying 8
thed 8
thering 8
ting@@ 8
toil 8
tram@@ 8
tran@@ 8
tter@@ 8
tuku 8
turns 8
tutelary 8
twisted 8
uEa 8
uEdar 8
udugita 8
undertaken 8
unparalleled 8
unseen 8
urs 8
uwawa 8
valiant 8
vegetables 8
vely 8
waiting 8
walks 8
wander 8
wash 8
washed 8
washing 8
whoever 8
win@@ 8
worktroop 8
youthful 8
zabar@@ 8
zing 8
111 7
114 7
1142 7
116@@ 7
161 7
172 7
177 7
1822 7
213 7
215 7
275 7
351 7
363 7
375 7
529 7
78 7
798 7
97 7
AS 7
Abbagula 7
Abgal 7
Abzu@@ 7
Agi@@ 7
Ahuni 7
Alia 7
Amar 7
Anam 7
Anheaven 7
Anum 7
Anzuchick 7
Authoritative 7
Babatursu 7
Bala@@ 7
Bani 7
Bansa 7
Baqartum 7
Batasage 7
Battle 7
Baza 7
BeforeEmah 7
Belat@@ 7
Belazu 7
Bl@@ 7
BoatofHeaven 7
Booked 7
Brickwork 7
Cedar 7
Chi@@ 7
Constructedwall 7
Dabala 7
Dage 7
Dagn 7
Der 7
Drum 7
Edana 7
Ee 7
Eengur 7
Ehegal 7
Eki@@ 7
El 7
Elubi@@ 7
Emah 7
Enakale 7
Enan@@ 7
Enmerkar 7
Enurigal 7
Ere 7
Erinda 7
Fire 7
Foremost 7
Gaame 7
Gabakara 7
Garden 7
GazelleFeast 7
Geme2@@ 7
Going 7
Governor 7
Habra 7
Had 7
He@@ 7
Hillock@@ 7
Ib@@ 7
Ibi@@ 7
IbniAdda 7
Ibniulgi 7
Iddin@@ 7
Imi@@ 7
Inana 7
Indeed 7
Iran 7
Irnina 7
Iti@@ 7
Juni@@ 7
KA 7
KUge 7
Kab@@ 7
Kalkal 7
Kalla 7
Kama@@ 7
Kisur@@ 7
KuNingal 7
Kur@@ 7
Kurbilak 7
Laba@@ 7
Larag 7
Large 7
Little 7
Lu2@@ 7
LuLaga 7
LuN@@ 7
Lueb 7
Luebgal 7
LugalNigine 7
Lugalabba 7
Lugalanda 7
Lugalerin 7
Lugaligi 7
Lugallusasa 7
Lugalmea 7
Lugalnidbae 7
Lugalnig@@ 7
Lugalunire 7
Lul@@ 7
Mada 7
Made 7
Madga 7
Magurre 7
MeItaran 7
Melua 7
Mid@@ 7
Mo@@ 7
Munusgilsa 7
NE@@ 7
Nab@@ 7
Naga@@ 7
Namnundaki@@ 7
Namra@@ 7
Namu 7
NannaSuen 7
Nannadalla 7
Nannaisa 7
Nigtukuinabdu 7
Nimgirane 7
Ninkalla 7
Ninki@@ 7
Ninmu@@ 7
Ninmubanzige 7
Ninmusisa 7
Ninsi@@ 7
Ninza@@ 7
Noble 7
Nor 7
O@@ 7
Perfect 7
Pirig@@ 7
Provi@@ 7
PuzurShulgi 7
Range 7
Replace 7
Rise 7
Sag@@ 7
Saga@@ 7
Saman 7
Sasa 7
Se@@ 7
Shall 7
Sna@@ 7
Sue@@ 7
Suens 7
Sumuqan 7
Tahiatal 7
Tarsirsir 7
Tidnum 7
Today 7
Trees 7
Tur@@ 7
Ubuukkena 7
Ukunuti@@ 7
Uludi 7
Ummaharbor 7
UrAbu 7
UrAgi 7
UrN@@ 7
UrNinurta 7
Uraba@@ 7
Uramana 7
Urbagara 7
Urdingira 7
Urenunna 7
Urgu 7
Urgula 7
Urmeme 7
Uruzi@@ 7
Village 7
We@@ 7
White@@ 7
Ya@@ 7
Zab@@ 7
Zabu 7
abi@@ 7
ablebodied 7
abode 7
acquaintances 7
addressed 7
administered 7
admiration 7
admired 7
advi@@ 7
agadala 7
alim 7
alumsheep 7
announced 7
apprentice 7
approval 7
arabduofficial 7
araga 7
aramutum 7
arazame 7
arik 7
arising 7
armed 7
arri@@ 7
arthritic 7
arzanaflour 7
ask 7
aslum 7
bam 7
bark 7
basketoftablets 7
battle@@ 7
batum 7
bazige 7
bbing 7
beautiful@@ 7
becoming 7
beer@@ 7
beerpoured 7
behave 7
belo@@ 7
benevolent 7
besto@@ 7
between 7
billy@@ 7
blacksmith 7
bly 7
boasting 7
boiled 7
bowls 7
bows 7
brea@@ 7
breaks 7
breast@@ 7
breathed 7
breed 7
brick@@ 7
bride 7
brilliant 7
broadened 7
buil@@ 7
butted 7
cal@@ 7
calf@@ 7
can@@ 7
canal@@ 7
captains 7
captives 7
cate 7
cep@@ 7
ceremonial 7
ceremonies 7
ces@@ 7
chaff 7
champion 7
char@@ 7
cho@@ 7
clarified 7
clothe 7
coals 7
coat 7
collapse 7
collector 7
commits 7
condition 7
confident 7
consisting 7
constable 7
consuming 7
contentedly 7
control@@ 7
crafts@@ 7
cs 7
cubs 7
cucumber 7
cucumbers 7
cup 7
dance 7
dara@@ 7
daya 7
decorations 7
defam@@ 7
denuded 7
depression 7
dering 7
despair 7
devoured 7
dge 7
dias 7
digger 7
digging 7
ding@@ 7
dingirmu 7
dir@@ 7
directs 7
disordered 7
distorted 7
divor@@ 7
divorced 7
dom 7
dove 7
drank 7
drum@@ 7
dship 7
dumu@@ 7
earthcarrying 7
ebony 7
edab 7
ee@@ 7
eecelebration 7
ei@@ 7
elapse 7
eloqu@@ 7
ena 7
ena@@ 7
endu 7
engar 7
enkum 7
entirely 7
envoys 7
erior 7
eting 7
ety 7
excessive 7
exercised 7
existence 7
exp@@ 7
extensive 7
extreme 7
ey@@ 7
fac@@ 7
faces 7
fact 7
fasten 7
fatedetermining 7
fears 7
fel@@ 7
fetch 7
fication 7
fieldwoods 7
fire@@ 7
firstfruit 7
fle@@ 7
fleec@@ 7
flies 7
floodwater 7
folds 7
foresters 7
forresters 7
fourlegged 7
francolin 7
freely@@ 7
frog 7
ful@@ 7
functionaries 7
fur@@ 7
gabatab 7
garment@@ 7
gem@@ 7
getina 7
ght 7
gida 7
giri@@ 7
goose 7
grasping 7
grow@@ 7
gudu 7
gue 7
hammers 7
harvesting 7
high@@ 7
highquality 7
hole 7
honey@@ 7
hor@@ 7
humility 7
hundred 7
iaya 7
ibartum 7
ibex 7
incite 7
ings 7
inhabitant 7
inhabitants 7
inlaid 7
inscribed 7
insul@@ 7
intone 7
ints 7
irrigate 7
issuing 7
jamb 7
jest@@ 7
junction 7
kal@@ 7
kam 7
ker 7
kinds 7
kurgar 7
kuzu 7
laa 7
laga@@ 7
lamen@@ 7
lament@@ 7
lamu 7
law@@ 7
leaning 7
lice 7
lifting 7
lights 7
limits 7
lipitItar 7
lish 7
lla 7
lls 7
loaned 7
loosen 7
loudly 7
loving 7
lthy 7
lugal 7
lugalane 7
lumah 7
lungs 7
madarea 7
majestic 7
makim 7
males 7
malicious 7
mani@@ 7
manifested 7
manu 7
mation 7
mats 7
mena@@ 7
ment@@ 7
ments 7
merchants 7
metalworker 7
mgir 7
mightily 7
minating 7
mini@@ 7
mit 7
monster 7
mould 7
mountainland 7
mountainrange 7
mouthvoice 7
mtum 7
muscles 7
nebearer 7
neighbor 7
neighbor@@ 7
ngs 7
nia 7
ning@@ 7
nobility 7
nobly 7
nun@@ 7
observed 7
occupied 7
od 7
off@@ 7
offer 7
offers 7
oms 7
onrushing 7
oracular 7
organized 7
overwhel@@ 7
oxdrivers 7
oxendrivers 7
pada 7
pantry 7
peaceful 7
performs 7
pestle 7
phantoms 7
picka@@ 7
pivots 7
plaited 7
planking 7
plastered 7
plo@@ 7
pluck 7
position 7
possess 7
potters 7
pping 7
ppy 7
pray 7
precedence 7
presen@@ 7
primeval 7
prolong 7
propped 7
prosperity 7
protection 7
pum 7
purity 7
quar@@ 7
rabi@@ 7
raining 7
rayed 7
rebellion 7
rece@@ 7
recited 7
reck@@ 7
reckoned 7
reedbeds 7
rejected 7
remain 7
removal 7
resem@@ 7
resi@@ 7
reside 7
respon@@ 7
return@@ 7
ridden 7
ries 7
righteousness 7
rite@@ 7
rm 7
roared 7
role 7
rosettestar 7
rou@@ 7
rua 7
rubbed 7
rud@@ 7
rum@@ 7
sadura 7
safe 7
sail@@ 7
sailed 7
sanc@@ 7
sang 7
sanga@@ 7
sank 7
sare 7
sasa 7
satout 7
secre@@ 7
sed@@ 7
seed@@ 7
select 7
semen 7
sense 7
sepa@@ 7
sevenheaded 7
sexually 7
sharpening 7
shelter 7
sher@@ 7
shoots 7
shu@@ 7
sical 7
side@@ 7
siga 7
siki@@ 7
sion@@ 7
sipa@@ 7
sir 7
sisters 7
sive 7
sixth 7
skull 7
slan@@ 7
slapped 7
sli@@ 7
slip 7
soa@@ 7
sof@@ 7
sol@@ 7
solidifies 7
soninlaw 7
soothe 7
sparkle 7
spector 7
spell 7
spla@@ 7
statu@@ 7
stature 7
steal 7
sters 7
strapped 7
strenth 7
succeed 7
sucklilng 7
sul@@ 7
sumed 7
superlative 7
suppli@@ 7
susta@@ 7
sweetens 7
swelling 7
sza@@ 7
tain 7
tained 7
tals 7
tely 7
tening 7
thered 7
thes 7
thi@@ 7
thin@@ 7
thing@@ 7
threshold 7
tilimda 7
tillers 7
tioned 7
tissue 7
tition 7
tiveness 7
toll 7
tors 7
tow@@ 7
treachery 7
tread 7
tual 7
tub 7
tumult 7
turtles 7
tute 7
twilight 7
uEnlil 7
uSue@@ 7
ualaya 7
uba@@ 7
ubifeast 7
udder 7
ukubum 7
umbilical 7
uncovered 7
undo 7
unu 7
unu@@ 7
ure 7
ures 7
urim 7
uru 7
usu@@ 7
ut@@ 7
vast 7
vegetation 7
verdicts 7
veri@@ 7
vig@@ 7
vine 7
voi@@ 7
waggons 7
wasteland 7
watched 7
weary 7
wer 7
whereabouts 7
wig 7
windpipe 7
withstand 7
wool@@ 7
wor@@ 7
zamzam 7
zani 7
zid@@ 7
zir@@ 7
zizi 7
113 6
115 6
117 6
1296 6
138 6
181 6
231 6
233 6
268 6
356 6
3898 6
72@@ 6
88 6
ANBU 6
ARADula 6
Aba 6
Abbakalla 6
AbuGAN 6
Addada 6
Addaya 6
Agetin 6
Aguzi 6
Akua 6
Allatum 6
Ama 6
Amagina 6
Amare@@ 6
Anne@@ 6
Anu 6
Anunpa 6
Apindu 6
As@@ 6
Assur 6
Asz@@ 6
Attamannum 6
Away 6
Azida 6
Baaga 6
BadIrina 6
Baer 6
Barae@@ 6
Barley@@ 6
Barleyatthe@@ 6
Bestow 6
Bringing 6
Bul@@ 6
Chair 6
Cities 6
Concerning 6
DU 6
Danuwe 6
Day@@ 6
Dingirsaga 6
Dubla@@ 6
Dublautu 6
Dugru 6
Duku@@ 6
Dulumidu 6
Duy@@ 6
Eail 6
Ebara@@ 6
Edge 6
Egalisi 6
Ela@@ 6
Embodiment 6
Enakuana 6
Enegir 6
Enentarzi 6
Enki@@ 6
Enmeziana 6
Enu@@ 6
EnunugalInanna 6
Esa@@ 6
Eunir 6
Exu@@ 6
EzinaKusu 6
Follow 6
Food 6
GAN2mah 6
Gara@@ 6
Garum 6
Gave 6
GemeBaba 6
GemeEnlila 6
Gemegigir 6
Gemenigar 6
Getinanna 6
Gigi@@ 6
Girnun 6
Gold 6
Grand@@ 6
Grea@@ 6
Gubin 6
Gurzaran 6
Gutians 6
Guugu 6
Guugua 6
Hoe 6
Houseof@@ 6
IbexofAbzu 6
IbexofApsu 6
Igizi@@ 6
Iku@@ 6
Ikun@@ 6
Indasu 6
Ini@@ 6
Inima@@ 6
Inside 6
Irinieku 6
Kaamu 6
Kiga@@ 6
Kilula 6
King@@ 6
Kunu@@ 6
Laga@@ 6
Lamatu 6
Lammamu 6
Lands 6
Lar@@ 6
Lead 6
Lion 6
LipitEtar 6
Lisin 6
Loo@@ 6
Lower 6
LuDamu 6
LuDaya 6
LuInannaka 6
LuNane 6
Luga 6
Lugalamarku 6
Lugalane 6
Lugalengar@@ 6
Lugalgu@@ 6
Lugalmumanag 6
Lugalpirigtur 6
Lugalsuluu 6
Lugalunirre 6
Lugalx@@ 6
Lugalza@@ 6
Luguza 6
Lumah 6
Luukina 6
Magilum 6
Maka@@ 6
Malt@@ 6
Manifest 6
Marad 6
Mean@@ 6
Meenkar 6
Meluhha 6
Meni@@ 6
Menil 6
Mon@@ 6
Multitudes 6
NI 6
Nagsu@@ 6
Nammah 6
Nannaludu 6
Nigindu 6
Nimgirinimgina 6
Ninegal@@ 6
Ninen@@ 6
Ninga@@ 6
Ningakam 6
Ningar 6
Ningekimzi 6
Ningirsukaisa 6
Ninigara 6
Ninkarke 6
Ninti@@ 6
Ninursag@@ 6
Nisaba@@ 6
Or 6
Ornament 6
Pada 6
Pasira 6
Pise 6
PloughofBazi 6
Poplarplanted 6
Pri@@ 6
Priests 6
PuzriEnlil 6
PuzurSn 6
Rel@@ 6
SIAa 6
SIG@@ 6
SZIM 6
See@@ 6
Shara 6
Sidu 6
Silaa 6
Simakum 6
Simat@@ 6
Simnum 6
Sipa@@ 6
SmlaIl 6
Spea@@ 6
Ste@@ 6
Stor@@ 6
Subtotal 6
Sud 6
Suen@@ 6
Suena 6
Sumu@@ 6
Tam@@ 6
Ter@@ 6
Thi@@ 6
Through 6
Tid@@ 6
Tirgu 6
Titi 6
To@@ 6
Truly 6
Tu@@ 6
Tulta 6
UD 6
Ukalimmu 6
Un@@ 6
Unaben 6
Unda@@ 6
Under 6
Until 6
Upper 6
UrAlla 6
UrGetinanka 6
UrGilgame 6
UrNumuda 6
UrSaga 6
UrSuana 6
Uremah 6
Uriruvillage 6
Urkidu 6
Ursag 6
Ursilalu 6
Urulgi@@ 6
Utuegal 6
Utus 6
Uur@@ 6
Wara@@ 6
Where@@ 6
Wild 6
Wo@@ 6
Yet 6
Zamubanius 6
Zubi 6
abundantly 6
accompanied 6
accounting 6
accusations 6
adamin 6
ade@@ 6
adjoining 6
advan@@ 6
adviser 6
agan 6
agar@@ 6
age@@ 6
aka@@ 6
aku@@ 6
alad 6
ali 6
alloyed 6
amar 6
amid 6
amidst 6
ams 6
amyou 6
ancest@@ 6
angel 6
ani 6
anti@@ 6
ants 6
appear 6
approaching 6
approvingly 6
aragugal 6
armies 6
arran@@ 6
arranged 6
arrayed 6
arrogance 6
artisans 6
ascended 6
ascer@@ 6
ash 6
assistant 6
assorted 6
aszrum 6
aua 6
away@@ 6
axesagricultural 6
azi 6
baba 6
badu 6
barasi 6
barley@@ 6
bbed 6
beerbread 6
befitting 6
ber@@ 6
binds 6
birch 6
birdhunters 6
birthmother 6
ble@@ 6
bles 6
blowing 6
blown 6
boatman 6
bonefoot 6
bones 6
bovine 6
brai@@ 6
bree@@ 6
bright@@ 6
brotherhood 6
builds 6
bul@@ 6
burden 6
buru 6
buttocks 6
canalmouths 6
cap@@ 6
caretaker 6
catapults 6
catch 6
catching 6
cating 6
cating@@ 6
ceaseless 6
cedars 6
ceface 6
cen@@ 6
chairbearer 6
changing 6
chariots 6
charmer 6
chickpea 6
choo@@ 6
circ@@ 6
cit@@ 6
cke@@ 6
claims 6
clan 6
clash 6
clawed 6
cle 6
cleansingrites 6
cloak 6
cohorts 6
collea@@ 6
commander 6
compares 6
composition 6
comrade 6
conifer 6
conqu@@ 6
consumes 6
cont@@ 6
contractual 6
conveyor 6
corpor@@ 6
credited 6
crippled 6
crowned 6
current 6
dairy 6
daltum 6
dam@@ 6
dappled 6
dashing 6
datepalm 6
daughterinlaw 6
debris 6
decimate 6
defile 6
demarcated 6
denizen 6
depart 6
dependent 6
deprive 6
deri@@ 6
deso@@ 6
devouring 6
din 6
dire@@ 6
disobedient 6
disturbed 6
diverted 6
dividing 6
dling 6
doorkeeper 6
dor 6
doubled 6
doublemiles 6
dressing 6
dripping 6
drop 6
dued 6
dul 6
dung 6
duration 6
eala 6
eatingdrinking 6
ected 6
eda@@ 6
edina 6
egory 6
elaborate 6
elds 6
eleli 6
embracing 6
enjo@@ 6
ennupriest 6
ented 6
entrusted 6
eps 6
erda 6
ere 6
erer 6
erin@@ 6
ery 6
ese 6
esze3 6
ever@@ 6
evicted 6
evilly 6
exam@@ 6
examined 6
excellent 6
exces@@ 6
exec@@ 6
execu@@ 6
exorcist 6
expa@@ 6
expand 6
expanding 6
expect 6
exposed 6
ext 6
exti@@ 6
extract 6
eze@@ 6
ezimu 6
faced 6
fan@@ 6
far@@ 6
fared 6
fasting 6
favor 6
favorably 6
fear@@ 6
felled 6
fermenting 6
fetters 6
finds 6
fingers 6
firmed 6
fistfight 6
flames 6
flatten 6
flourmilling 6
fortification 6
foun@@ 6
fter 6
fts 6
fugi@@ 6
full@@ 6
furnished 6
gaba 6
gadala 6
gakkul 6
galdudu 6
game 6
geese 6
gendar@@ 6
getinanna 6
ghtening 6
gins 6
gladdened 6
gmil 6
goathouse 6
god@@ 6
godfearing 6
goo@@ 6
good@@ 6
gran@@ 6
grand@@ 6
grasses 6
greatbarge 6
gree@@ 6
guaran@@ 6
guilt 6
guilty 6
gula 6
gurum 6
hate 6
havoc 6
headgear 6
healed 6
heartrending 6
heat 6
heavenward 6
heavenwards 6
herein 6
hill 6
hireling 6
hold@@ 6
horse 6
houseborn 6
hurrying 6
ial 6
ice 6
ili@@ 6
ill 6
illu@@ 6
incantation@@ 6
incense 6
incising 6
increase 6
independent 6
inha@@ 6
inimical 6
inlay 6
inquiry 6
inspec@@ 6
insta@@ 6
instituted 6
intelligent 6
inten@@ 6
interce@@ 6
intoning 6
investigate 6
invoke 6
inwith 6
irina 6
irriga@@ 6
itch 6
ity 6
joined 6
joy@@ 6
jud@@ 6
junipercedar 6
kagina 6
keepers 6
kil 6
kills 6
kis@@ 6
knewlearned 6
knives 6
lab@@ 6
lace 6
lacerate 6
ladies 6
lahama 6
lal@@ 6
lama 6
lamented 6
language 6
lar@@ 6
larak 6
lasted 6
ld@@ 6
lden 6
leads 6
leaned 6
leatherworkers 6
led@@ 6
legs 6
lessly 6
let@@ 6
like@@ 6
lionheaded 6
listen 6
llassu 6
luga@@ 6
lugalbanda 6
madaria 6
malevolently 6
malts 6
manda@@ 6
manworker 6
mare 6
mark 6
marveled 6
massive 6
mast 6
mates 6
mbers 6
meadow 6
meness 6
merciful 6
merry 6
mill@@ 6
min 6
mina@@ 6
minishekels 6
mmah 6
mony 6
moo@@ 6
mor@@ 6
mortal 6
mou@@ 6
mounted 6
mouthtooth 6
mss 6
mua 6
multitude 6
mum@@ 6
murdering 6
mus 6
mutton 6
nagabtum 6
nannygoat 6
nations 6
nd@@ 6
neckstock 6
nidu 6
ninda@@ 6
niya 6
nonindigenous 6
noon 6
novice 6
nts 6
ny 6
occur@@ 6
onehalf 6
opp@@ 6
oppresses 6
oppression 6
orchardman 6
ornaments 6
os 6
ought 6
outcry 6
outh 6
outskirts 6
overcome 6
oxenfield 6
pad@@ 6
pala 6
parasites 6
pauper 6
paw 6
pedestal 6
penis 6
perfe@@ 6
perfects 6
performer 6
perman@@ 6
perpe@@ 6
pity 6
plastering 6
plated 6
plea 6
ploughshare 6
plundering 6
plus 6
point 6
ponder 6
pora@@ 6
positioned 6
powerwing 6
ppe 6
practice 6
praise@@ 6
preceding 6
prepa@@ 6
prettyface 6
pride 6
procession 6
produces 6
products 6
pronouncement 6
prosperous 6
protecting 6
pul@@ 6
qa@@ 6
qir 6
quarreling 6
queens 6
quired 6
radiant 6
rape 6
rec@@ 6
recieved 6
relevant 6
remitted 6
rests 6
reward 6
rivercanal 6
rolls 6
roofbeams 6
rough@@ 6
round 6
route 6
rows 6
rsu 6
rubbing 6
runaways 6
rushed 6
ry@@ 6
sabar 6
sal@@ 6
salu@@ 6
sam 6
same 6
sanga 6
satis@@ 6
scat@@ 6
scratchedground 6
scream 6
searching 6
sediment 6
semi@@ 6
set@@ 6
sharpened 6
shedonkey 6
shee@@ 6
sheephouse 6
sho@@ 6
shoo@@ 6
shrines@@ 6
silvery 6
sings 6
singular 6
sional 6
sis 6
sively 6
six@@ 6
slaughter 6
slaughters 6
slavegirl 6
smallshekel 6
smashes 6
smiths 6
smo@@ 6
sna@@ 6
snacking 6
snake@@ 6
sni@@ 6
sown 6
spadi@@ 6
sprou@@ 6
squeeze@@ 6
ssed 6
stacked 6
stal@@ 6
stallions 6
statuette 6
stead 6
sted 6
ster@@ 6
stomachs 6
stopped 6
stor@@ 6
store 6
strate 6
strawchaff 6
streettown 6
stru@@ 6
subjugated 6
suc@@ 6
sud 6
suffer 6
suhur 6
suit 6
supp@@ 6
sur 6
surve@@ 6
survived 6
swe@@ 6
sword 6
symbo@@ 6
tab 6
taea 6
tality 6
tance 6
tasks 6
tec@@ 6
tends 6
tenth 6
tes@@ 6
thened 6
thereby 6
thor@@ 6
thrash 6
thread 6
throughout 6
throw 6
thu@@ 6
tic 6
tie 6
tiger 6
tim 6
tio@@ 6
tle@@ 6
tog@@ 6
ton@@ 6
toothed 6
torch 6
transport 6
traprestraint 6
tribe 6
trim@@ 6
troop@@ 6
tru@@ 6
trud@@ 6
tue 6
turners 6
turning 6
turnips 6
ubiFeast 6
ugalam 6
ugh@@ 6
ugi@@ 6
ugidtype 6
uku@@ 6
ukuku 6
ulMU@@ 6
ulal 6
uluh 6
umu@@ 6
umur@@ 6
una 6
unable 6
unblemished 6
unceasingly 6
undertaker 6
ured 6
ursagkalama 6
urub@@ 6
utu 6
verted 6
vice 6
vie 6
vio@@ 6
von 6
wandered 6
wardly 6
watching 6
way@@ 6
weakened 6
wealth 6
weaponry 6
weed 6
wel@@ 6
whe@@ 6
whir@@ 6
who@@ 6
wildly 6
worn 6
wrea@@ 6
xi@@ 6
ya@@ 6
zaza 6
zebu 6
zer@@ 6
ziggurat 6
zirrupriestess 6
118 5
124 5
127@@ 5
133 5
1334 5
137 5
148 5
149 5
154 5
1592 5
15@@ 5
168m 5
183 5
1886 5
1ban2 5
1man 5
1nth 5
211 5
235 5
236 5
241 5
289 5
355 5
3595 5
396 5
42@@ 5
453 5
475 5
532 5
596 5
59@@ 5
675 5
681 5
9612 5
AN 5
ARAD2mu 5
ARADani 5
ARADhulla 5
ARADu 5
Aanduru 5
Aangata 5
Abilatum 5
Abumilum 5
Abuni 5
Adiri 5
After@@ 5
Agades 5
Agamgula 5
Ahuwaqar 5
Ak@@ 5
Alala 5
Ali@@ 5
Amagetina 5
AmarSuen@@ 5
Amarasi 5
Ambar@@ 5
Amrima 5
AmurSuen 5
Ane@@ 5
Ani 5
Anshan 5
Anzagar 5
Anzud 5
Apiak 5
AradNanna 5
Ari@@ 5
Aridubuk 5
Asilu 5
Assyria 5
Aszszur@@ 5
At@@ 5
Ata 5
Aurmen 5
Aw@@ 5
Awal 5
Azimua 5
Baar 5
Babanen 5
Balamu 5
Balu 5
Ban@@ 5
Banana 5
Baya 5
Bazizi 5
Bel@@ 5
Bigwaterwaywoods 5
Bla@@ 5
Bo@@ 5
Born 5
Brought 5
Built 5
Bur 5
Ca@@ 5
CattleherderofNinArali 5
Com@@ 5
Contents 5
DI@@ 5
DN 5
Dadabani 5
Dagu 5
Damqiiliu 5
Dan@@ 5
DaraabzuofEnki 5
DatiItar 5
Days 5
Decisi@@ 5
Dimgalabzu 5
Dimpi@@ 5
Dingir@@ 5
Dingirigidu 5
Dingirsukkal 5
Do@@ 5
Does 5
Don@@ 5
Dr 5
Dra@@ 5
DragonoftheLand 5
Duga@@ 5
Dugalalbi 5
Dugas 5
Dugubtemen 5
Dur@@ 5
Durgara 5
EA 5
EDUN 5
EIluruguda 5
ESbitumen 5
Ea@@ 5
Eme@@ 5
EnNanekiag 5
EnNingirsukiag 5
Enanedu 5
Ene@@ 5
Engarzi 5
Eniggal 5
Enlila@@ 5
Enlilbni 5
Enlile@@ 5
Enma@@ 5
Enmenuna 5
Enough 5
Ensignun 5
Eridus 5
Erraqurad 5
Erreb 5
Esagila 5
Established 5
Etana 5
Eye 5
Festivalof@@ 5
FestivalofuSuen 5
Fierce 5
Fine 5
Fourth 5
GANmawoods 5
Gaba@@ 5
Gani 5
Garanawoods 5
GemeDumuzi 5
GemeEnlil 5
GemeNindara 5
GemeUru 5
GemeUtu 5
Gemebikisal 5
Gemeedam 5
Gemeubar 5
Gerste 5
Gezal 5
Giri@@ 5
Giriaraidab 5
Giriniidab 5
Given 5
Gra@@ 5
Grandchancellor 5
Ground 5
Growing 5
Guaba 5
Gud@@ 5
Gudu@@ 5
Guednina 5
Guti 5
Guz@@ 5
Haamer 5
Haburitum 5
Hal@@ 5
Hea@@ 5
Hegina 5
HerdersofLusag 5
House@@ 5
Hu@@ 5
Huhnuri 5
Hur@@ 5
Iarbel 5
IdSuen 5
Idamaraz 5
Iddi 5
Iddinilum 5
Idia 5
Idiot 5
Igigi 5
Iimulgi 5
Iknsir 5
Ila@@ 5
Ilmiti 5
Ilurugu 5
ImidItar 5
Imti@@ 5
Inannaka 5
Inbadbad 5
Incantationpriests 5
Inda@@ 5
Inimewoods 5
Innana 5
Inuinak 5
Itar@@ 5
Itra@@ 5
Izu@@ 5
KAL@@ 5
KUM@@ 5
KaGAN 5
Kasa 5
Kdanum 5
Ke@@ 5
Kia@@ 5
Kigal 5
Kulis 5
Kusu 5
Lagi@@ 5
Lalkuda 5
Lammaamamu 5
Lammasaga 5
Lofty 5
LuEnkidu 5
LuHaya 5
Luama@@ 5
Luba 5
Lubala@@ 5
Luegal 5
LugalGudua 5
Lugalannatum 5
Lugalda@@ 5
Lugalemahe 5
Lugalhegal 5
Lugalinimduga 5
Lugalirida 5
Lugalkinedudu 5
Lugalkur@@ 5
Lugalkurelam 5
Lugalmusuda 5
Lugalpirig@@ 5
Lugalti 5
Lugaluga 5
Lugaluri 5
Luirisag 5
Lulzi 5
Lumber 5
Lumelam 5
Lummatur 5
Lunatic 5
Luzimu 5
ME@@ 5
Madaga 5
Malgasu 5
Masarwoods 5
Maum 5
MeEnlil 5
Melu@@ 5
Men@@ 5
Mesantum2 5
Meskiag@@ 5
Meskiaggaer 5
Meskigal 5
Meslamtiea 5
Mine 5
Monat 5
More 5
Most 5
Mounta@@ 5
Mukurubata 5
Mumu 5
NEreed 5
Nabi@@ 5
Nama@@ 5
Named 5
Namuurani 5
Nana@@ 5
Nanaia 5
Nar 5
Naua 5
Nawi@@ 5
Nera 5
Netherworld 5
NewSIG 5
Niggur 5
NiginGoing 5
Nimzium 5
Ninama 5
NineBazige 5
Ninesirkiag 5
Nininnutuku 5
Ninma 5
Ninmarki 5
Ninmena 5
Ninnamma 5
Ninsiana 5
Nintinuga 5
Ninue 5
Ninuri 5
Ninurra 5
Ninursaa 5
Nir@@ 5
Nirah 5
Nor@@ 5
Not 5
Nrama 5
Nuilim 5
Nunamni@@ 5
NurIkur 5
Opening 5
PN 5
Palace 5
PirigturginDU 5
Plow 5
Pre@@ 5
Pregnancy 5
Princess 5
Pu 5
Pussu@@ 5
Puz@@ 5
Puzris@@ 5
PuzurSuen 5
Raised 5
Ratface 5
Regent 5
Rejoicing 5
Residence 5
Runner 5
S 5
SAR 5
SIG7 5
Saaga 5
Sabum 5
Sagdingirtuku 5
Sagku 5
Sanga 5
Sasaga 5
Set@@ 5
Shouter 5
Simtiilak 5
Siniddinam 5
Sit 5
Sky 5
Slave 5
So@@ 5
Solution 5
Spo@@ 5
Stone 5
Storm 5
Submit 5
Suenabuu 5
Sur@@ 5
Tahisatal 5
Take 5
Though 5
Tiniabzuta 5
Top 5
Tra@@ 5
Tuttul 5
Ub@@ 5
Ubartutu 5
Ud@@ 5
Ulma 5
Ulmaitum 5
UrAbzu 5
UrHendursag 5
UrIshkur 5
UrKAnara 5
UrNaneka 5
UrNinki 5
UrNinlil 5
UrNinmarki 5
UrSuda 5
UrSukkal 5
Urarrugin 5
Urbil 5
Urdukuga 5
Urdumuzida 5
Urees 5
Urekura 5
Urgalama 5
Urge@@ 5
Urguena 5
Urgunua 5
Urkigula 5
Urkununas 5
Urli 5
Urnuntaea 5
Urrani 5
Ursag@@ 5
Urtar 5
Uruks 5
Uttu 5
UtuGIRgal 5
Uub 5
Wa@@ 5
Wat@@ 5
Wil@@ 5
With@@ 5
X@@ 5
Xdar 5
Yar@@ 5
Years 5
You@@ 5
ZanMENI 5
Zaza@@ 5
Zimudar 5
Zubaga 5
aa@@ 5
abaluge 5
accompanying 5
accompli@@ 5
accusa@@ 5
achieve 5
achieved 5
achievement 5
adanukam 5
adarananny 5
adornment 5
adu@@ 5
advanced 5
advocate 5
agala 5
agu 5
aktum 5
ali@@ 5
alim@@ 5
allocation 5
allot 5
allub 5
amarayasi 5
amenable 5
anci@@ 5
anguish 5
aning 5
ankle 5
annihilates 5
any@@ 5
anywhere 5
apiece 5
app@@ 5
arai3x 5
argue 5
arguing 5
ari@@ 5
aristocrat 5
arrogan@@ 5
arrumil 5
arzana 5
assign 5
atakuzu 5
ates 5
ath@@ 5
ati@@ 5
atil 5
attentiveness 5
au@@ 5
audi@@ 5
authori@@ 5
averagequality 5
awa@@ 5
awe@@ 5
awesomeness 5
aworkers 5
baa 5
babies 5
backliver 5
bad@@ 5
balbale 5
bana 5
bandages 5
bandoned 5
barsi 5
baster 5
bat@@ 5
bats 5
battleax 5
becomes 5
behalf@@ 5
beings 5
beli 5
belonging 5
beneficent 5
ber 5
bers 5
beset 5
better 5
betters 5
bile 5
bir@@ 5
birthing 5
blessings 5
blew 5
bloody 5
blunted 5
boar 5
boathouse 5
bother 5
boundaries 5
bre@@ 5
bread@@ 5
breeze 5
bridegroom 5
brilliance 5
brush 5
bunched 5
buri@@ 5
bursag 5
bushes 5
byre 5
cakes 5
cal 5
calcu@@ 5
cally 5
campaigns 5
canebrake 5
cant 5
carefully 5
carp@@ 5
carryover 5
cation 5
causes 5
causing 5
cave 5
cedarjuniper 5
celebra@@ 5
cements 5
cent 5
center 5
chapel 5
chards 5
charging 5
chario@@ 5
charming 5
chases 5
childrenatitsside 5
chooses 5
cir@@ 5
circle 5
cister@@ 5
citybut 5
claimed 5
clam@@ 5
cleared 5
clim@@ 5
cloister 5
clothing 5
collap@@ 5
colored 5
combi@@ 5
compassionate 5
compete 5
compositions 5
confront 5
confusion 5
consignment 5
consumption 5
conten@@ 5
convened 5
conversation 5
converse 5
cooks 5
coolness 5
cornelian 5
correct 5
cost 5
counseled 5
countenance 5
couri@@ 5
cow@@ 5
cranes 5
creates 5
credi@@ 5
croaker 5
ctive 5
cultivate 5
curved 5
cut@@ 5
daggers 5
dar 5
dare 5
dari 5
dawned 5
deal 5
deceased 5
deci@@ 5
deco@@ 5
deep@@ 5
del 5
delivers 5
den@@ 5
deposit 5
desi@@ 5
devoted 5
diadem 5
dication 5
dif@@ 5
dii@@ 5
direct 5
disa@@ 5
discernment 5
dish@@ 5
disposal 5
distribu@@ 5
disuse 5
dit@@ 5
divided 5
dogstranger 5
dor@@ 5
doublethreaded 5
dredged 5
dress 5
drivers 5
ds@@ 5
dubban 5
dudu 5
dumudab 5
dunes 5
dura@@ 5
duru@@ 5
dwelled 5
e2duru5Nane 5
eally 5
eared 5
eck 5
eded 5
eggshaped 5
ehouse 5
eight 5
elephant 5
eless 5
elf 5
ella@@ 5
emerging 5
emery 5
employed 5
emptied 5
emptiness 5
enclo@@ 5
engenders 5
ent@@ 5
entirety 5
entity 5
entrance 5
entries 5
epada 5
eping 5
epriest 5
ero@@ 5
errum 5
ersua 5
escort 5
eshe 5
eso@@ 5
essen@@ 5
establi@@ 5
eth@@ 5
event 5
events 5
eves 5
evil@@ 5
ew@@ 5
examine 5
expenditure 5
experi@@ 5
expli@@ 5
external 5
extingui@@ 5
exuberant 5
exude 5
facial 5
false 5
fam@@ 5
farmers 5
favorite 5
favourably 5
fawns 5
fer@@ 5
ffs 5
field@@ 5
fifth 5
fig 5
fig@@ 5
finger 5
finger@@ 5
fini@@ 5
fir@@ 5
fires 5
fisheriestithe 5
fix@@ 5
flan@@ 5
flap 5
flask 5
flocked 5
flourishes 5
foe 5
foot@@ 5
forester 5
formidable 5
fort@@ 5
foster@@ 5
founding 5
fowler 5
fr 5
fr@@ 5
frequ@@ 5
fright 5
frown 5
funeral 5
funnel 5
furnishings 5
gabIL 5
gable 5
gabraherder 5
galatura 5
gallo@@ 5
gant 5
gardens 5
garmets 5
gatedoor 5
ged@@ 5
ghts 5
gidim 5
gigur 5
girl 5
gleam 5
gled 5
glue 5
gold@@ 5
gore 5
grainheap 5
grandfather 5
gre@@ 5
grease 5
greatstele 5
grinds 5
gugal 5
gura 5
gurbaskets 5
guzza@@ 5
habitations 5
half@@ 5
hammerstoneshandsized 5
han@@ 5
handiwork 5
hard 5
harrowed 5
hay 5
heaping 5
hear 5
hear@@ 5
heartwom@@ 5
heaven@@ 5
heavily 5
heeded 5
hen@@ 5
herded 5
hes 5
him@@ 5
hind 5
hing@@ 5
hirim 5
hissing 5
hoisting 5
homes 5
hon@@ 5
honeyed 5
honeyplants 5
hostilities 5
houseofreceipt 5
humans 5
hungry 5
ib@@ 5
ibgal 5
idiocy 5
igno@@ 5
ildag 5
ile 5
illa@@ 5
illness 5
ilulama 5
immobi@@ 5
impregnated 5
improved 5
improvesbeautifies 5
increa@@ 5
ine 5
inexhaustible 5
inflicted 5
inlaw 5
innardsheart 5
inon 5
inquires 5
inquiring 5
inspires 5
instruct 5
instructing 5
int 5
inta@@ 5
intention 5
intentions 5
interestbering 5
irrigationinletplot 5
ising 5
istent 5
ites 5
iti@@ 5
itted 5
jaw 5
jewel@@ 5
jum@@ 5
junior@@ 5
kalam@@ 5
keeper 5
kidomen 5
kiln 5
kindness 5
kingal 5
kisa@@ 5
kne@@ 5
kneel 5
knobs 5
knotting 5
knowled@@ 5
kubum 5
kuda 5
kug@@ 5
kurgara 5
kurmeasures 5
lab 5
lacks 5
lamentations 5
landmountain 5
lar 5
lary 5
lat 5
laughs 5
layed 5
lean@@ 5
leaving 5
ledi@@ 5
leng@@ 5
lentils 5
leve@@ 5
lid 5
lieutenant 5
lieutenants 5
lifegiving 5
ling@@ 5
lionfaced 5
lisin 5
listened 5
liter 5
lity 5
lizard 5
lization 5
lizing 5
ll@@ 5
lle@@ 5
lli@@ 5
lly 5
loading 5
lordly 5
lpae 5
luge 5
lustrations 5
luxuri@@ 5
m2 5
mace@@ 5
magni@@ 5
maid@@ 5
maintenance 5
manu@@ 5
marvel@@ 5
materi@@ 5
matri@@ 5
matron 5
meaning 5
measurements 5
meless 5
member 5
millhouse 5
minated 5
mined 5
miqtumperson 5
mirrorholder 5
mma 5
mni@@ 5
money 5
moni@@ 5
monkeys 5
mother@@ 5
mottled 5
moving 5
mul 5
multiplies 5
munu 5
music 5
muster 5
mustered 5
musz 5
n6 5
name@@ 5
nant 5
nar@@ 5
naya 5
neces@@ 5
neglige@@ 5
nel 5
ner@@ 5
ners 5
neys 5
nigar 5
ningtouching 5
nomads 5
nonex@@ 5
nubandas 5
nunta 5
nursemaids 5
nus@@ 5
offeringritual 5
offic@@ 5
officerofsixty 5
officers 5
opener 5
opposed 5
orate 5
orchardist 5
ord 5
order@@ 5
ored 5
oriented 5
ot 5
otherwise 5
outlet 5
ovicaprids 5
oxencaptain 5
pain 5
painfully 5
pairs 5
part@@ 5
parti@@ 5
past 5
pastured 5
pat 5
pathas 5
pea 5
pea@@ 5
pending 5
penetra@@ 5
people@@ 5
pes 5
phy@@ 5
pic@@ 5
pig@@ 5
piling 5
pitched 5
planner 5
plaster 5
plea@@ 5
please 5
pleasur@@ 5
plougho@@ 5
polished 5
ponds 5
poses 5
posing 5
possesses 5
poten@@ 5
pours 5
ppropri@@ 5
pra@@ 5
presents 5
prisoner 5
proces@@ 5
proclaimed 5
produ@@ 5
producing 5
professional 5
profound 5
pronoun@@ 5
provin@@ 5
pulverized 5
purchased 5
pure@@ 5
qi@@ 5
quadru@@ 5
qum 5
rabi 5
rai@@ 5
rain@@ 5
raka 5
ranged 5
rat 5
rays 5
razed 5
receipts 5
recite 5
recognised 5
redfurious 5
ree@@ 5
ref@@ 5
regarded 5
rein@@ 5
releasing 5
relied 5
rema@@ 5
removes 5
render 5
rendering 5
requ@@ 5
requisitions 5
rescind 5
residences 5
resides 5
resto@@ 5
restores 5
revenge 5
revol@@ 5
rible 5
righte@@ 5
rious 5
ripe 5
ritu@@ 5
rivals 5
roaming 5
roars 5
roll 5
roofs 5
ropes 5
ror@@ 5
roughly 5
roy@@ 5
rred 5
ruba 5
sabitum 5
sac@@ 5
sacrificed 5
sacrifices 5
sad@@ 5
sala 5
san 5
sapar 5
sca@@ 5
scal@@ 5
scarce 5
sci@@ 5
scor@@ 5
scorpi@@ 5
scratch 5
scre@@ 5
screaming 5
seas 5
sees 5
seize@@ 5
seizing 5
sele@@ 5
sending 5
ser@@ 5
servi@@ 5
seven@@ 5
seventh 5
sexual 5
shadows 5
shallow 5
shame 5
sheet 5
shegoat 5
shment 5
shou@@ 5
showed 5
shows 5
shredding 5
shriek 5
sieve 5
silently 5
silverchair 5
sim 5
sinew 5
sions 5
siskurofferings 5
situation 5
skillful 5
skillfully 5
slander 5
slap 5
slavegirls 5
sling 5
sma 5
sma@@ 5
smaller 5
smi@@ 5
smites 5
smoked 5
smoothed 5
socle 5
softly 5
sold 5
sone 5
soon 5
sorcer@@ 5
sorrow 5
sounded 5
sounds 5
sp 5
spacecrown 5
sped 5
spices 5
spittle 5
spottled 5
sprinkle 5
sprouted 5
staircase 5
stand@@ 5
standingplace 5
stock 5
strated 5
strife 5
strin@@ 5
stunned 5
sty 5
substitute 5
subterranean 5
such@@ 5
sui@@ 5
summer 5
sumun 5
sunset 5
superim@@ 5
supper 5
supplicate 5
supplied 5
supported 5
supremely 5
surged 5
surpas@@ 5
suspended 5
sweeper 5
sweeping 5
sz@@ 5
tak@@ 5
tch@@ 5
teem@@ 5
tenderly 5
testimony 5
text 5
thhouse 5
thorn@@ 5
threat 5
throwstick 5
ticed 5
tida 5
tillati 5
tiring 5
tively 5
tle 5
total1 5
towed 5
traitors 5
transgress 5
traver@@ 5
treats 5
troughs 5
trun@@ 5
trusty 5
truthful 5
ttle 5
tugma 5
tune 5
tw@@ 5
twin@@ 5
uHa@@ 5
ubar 5
udim 5
uedar 5
ugidewes 5
ugidsheep 5
ugu@@ 5
uil 5
uiliu 5
uka 5
ulgiaya@@ 5
ulgiazir 5
ulgikiur@@ 5
ulla@@ 5
ult 5
unal@@ 5
undoes 5
undu@@ 5
unfinished 5
unida 5
unir 5
unit 5
unsuitable 5
uri 5
urum 5
utensils 5
uu 5
va 5
venom 5
verdantbeautiful 5
ves@@ 5
vesselmirror 5
vied 5
views 5
viper 5
waning 5
waqar 5
warp 5
wax 5
weakness 5
weaned 5
whenever 5
wherever 5
wickedly 5
widely 5
widespread 5
wield 5
wing@@ 5
winged 5
wishing 5
wit@@ 5
withdrawal 5
wning 5
woolen 5
world@@ 5
worse 5
wra@@ 5
wrath 5
wrestler 5
writingmaking 5
x2nd 5
xdate 5
xx@@ 5
yamu 5
yea@@ 5
year@@ 5
z 5
zaba@@ 5
ziagal 5
zimu 5
zo@@ 5
zua 5
121 4
155 4
156 4
157 4
214 4
217 4
21n 4
222 4
225 4
226 4
237 4
246 4
252 4
257 4
272 4
27@@ 4
284 4
294 4
2offerings 4
314 4
316 4
319 4
3344 4
336 4
338@@ 4
344 4
345 4
357 4
364 4
369 4
372 4
373 4
3u 4
4134 4
441 4
462 4
48@@ 4
494 4
4priest 4
593 4
6258 4
6gur 4
712 4
727 4
789@@ 4
822 4
835 4
845 4
931 4
936 4
9371 4
945 4
AD@@ 4
AMA 4
ARADBaba 4
ARADdu 4
Aaba@@ 4
Aallimu 4
Aanzu 4
AbaEnlil@@ 4
Adab@@ 4
Aedin 4
Agul 4
Aka 4
Aki 4
Aki@@ 4
Akun@@ 4
Alulim 4
Amor@@ 4
Amri@@ 4
Amua 4
Anta@@ 4
Apart 4
Arad@@ 4
Asar 4
Asar@@ 4
Ati@@ 4
Atu@@ 4
Ay@@ 4
Azar 4
Azaza 4
BI 4
BI@@ 4
Bab@@ 4
Baga@@ 4
Beat 4
Birur@@ 4
Bit@@ 4
Biti 4
Blood 4
Brea@@ 4
Bro@@ 4
Budu 4
Cam@@ 4
Casting 4
Center 4
Clad 4
Daba@@ 4
Dag@@ 4
Dedi@@ 4
Dest@@ 4
Duge 4
Eama@@ 4
Ean@@ 4
Eara@@ 4
Edar 4
Edubba 4
Ega@@ 4
Eigi@@ 4
Emah@@ 4
Enmah@@ 4
Enun 4
Enunu@@ 4
Esag 4
Establi@@ 4
Eta@@ 4
Etar 4
Ever@@ 4
Eze@@ 4
Ezi@@ 4
Fate 4
Fearing 4
Fil@@ 4
Finished 4
Founda@@ 4
Founded 4
Fox 4
Fro@@ 4
Fur@@ 4
GANoxen@@ 4
Gemee@@ 4
Getina@@ 4
Geze@@ 4
Hand 4
Happ@@ 4
Har@@ 4
Hor@@ 4
Ibexof@@ 4
Ikn@@ 4
Ilum@@ 4
Ita@@ 4
Iti 4
Itida 4
Jus@@ 4
KAgina 4
KU@@ 4
Kala@@ 4
Kam@@ 4
Koches 4
Lal@@ 4
Lam@@ 4
Lat@@ 4
Laz@@ 4
Long 4
Lugalan@@ 4
Lugaliri@@ 4
Lugalki@@ 4
Lulu@@ 4
Mer@@ 4
Mlik 4
NAGAR@@ 4
NE 4
Namzi@@ 4
Nane@@ 4
New@@ 4
Ninge@@ 4
Ningekim@@ 4
Ningir@@ 4
Ninme@@ 4
Nui@@ 4
Open 4
Out 4
PA 4
Pabil@@ 4
Pap@@ 4
Pia@@ 4
Po@@ 4
Posses@@ 4
Pow@@ 4
Praise 4
Pray@@ 4
Qu@@ 4
Qua@@ 4
RI@@ 4
Rim@@ 4
Rising 4
Rm@@ 4
Sam@@ 4
Sarauma 4
Scat@@ 4
Sec@@ 4
Seve@@ 4
Sh@@ 4
Sig@@ 4
Sir@@ 4
Sira@@ 4
Sm@@ 4
Smla@@ 4
Sni@@ 4
Snim@@ 4
Stea@@ 4
Stro@@ 4
Sub@@ 4
The@@ 4
Too@@ 4
Tree 4
Turn 4
Turu@@ 4
Twin 4
UD@@ 4
UL 4
UN 4
Ugir 4
Ugur@@ 4
Ula 4
Uqarri@@ 4
UrS@@ 4
Urki@@ 4
Uta@@ 4
Vi@@ 4
Wel@@ 4
Wer 4
Were 4
Whe@@ 4
Who@@ 4
Wicke@@ 4
Wri@@ 4
Zar@@ 4
a3@@ 4
aan@@ 4
ablum 4
abo@@ 4
abscon@@ 4
adab 4
addi@@ 4
adelivery 4
administra@@ 4
agi@@ 4
agubi 4
agul 4
ah 4
allot@@ 4
amer 4
ana@@ 4
angri@@ 4
ano@@ 4
anzam 4
aof@@ 4
arai@@ 4
argu@@ 4
arisen 4
arru@@ 4
asa@@ 4
assem@@ 4
assembly@@ 4
assig@@ 4
ating 4
ation 4
atten@@ 4
aus@@ 4
ave@@ 4
baMarduk 4
bac@@ 4
backs 4
bae 4
bagada 4
ban3 4
bandage 4
batab 4
batt@@ 4
bazi 4
bes 4
best@@ 4
biErra 4
bies 4
bing 4
bite 4
blea@@ 4
bli@@ 4
blic 4
boas@@ 4
bon@@ 4
boo@@ 4
bound@@ 4
bour 4
box@@ 4
brew@@ 4
brilli@@ 4
broad@@ 4
brou@@ 4
bs 4
bubird 4
buru@@ 4
cana@@ 4
capa@@ 4
cas@@ 4
cata@@ 4
cend 4
cess 4
chivist 4
cle@@ 4
clea@@ 4
clen@@ 4
colle@@ 4
colo@@ 4
compani@@ 4
confi@@ 4
confron@@ 4
conta@@ 4
contro@@ 4
conve@@ 4
convey@@ 4
crescent 4
cti@@ 4
cy@@ 4
dab5 4
dabala@@ 4
dabofficial 4
dada 4
dador@@ 4
dadu 4
dagal 4
dagan 4
dal@@ 4
dals 4
damu 4
dani 4
dau 4
dazed 4
deb@@ 4
dec@@ 4
dened 4
diance 4
diately 4
dice 4
dies 4
dil@@ 4
dimu 4
dina 4
dine 4
dingi@@ 4
dinnam 4
dispa@@ 4
disti@@ 4
dle 4
dles 4
dred@@ 4
dres@@ 4
dual 4
duana 4
dub 4
dubla 4
duhum 4
duru 4
eNingal 4
eal 4
ect 4
egi@@ 4
eking 4
elap@@ 4
eled 4
eling 4
ellu@@ 4
emp@@ 4
engage 4
engend@@ 4
eni 4
enlar@@ 4
ense 4
entan@@ 4
enthro@@ 4
ento@@ 4
entry 4
envi@@ 4
ep 4
equ@@ 4
erdingir 4
erect 4
erful 4
erhal@@ 4
eridingir 4
erless 4
errum@@ 4
erus 4
erved 4
erwalking 4
esa 4
esta@@ 4
et@@ 4
eti@@ 4
eve 4
eved 4
ew 4
expen@@ 4
extensi@@ 4
extra@@ 4
fNinursag 4
fast 4
fav@@ 4
fect 4
fes 4
ffe@@ 4
fif@@ 4
forest@@ 4
forti@@ 4
four@@ 4
frien@@ 4
fru@@ 4
fse@@ 4
func@@ 4
fus@@ 4
gabata 4
gadu3 4
gala@@ 4
gale 4
gam@@ 4
gane@@ 4
gani 4
ganum 4
gathering 4
gazi 4
gear 4
gede 4
gel 4
gena 4
gener@@ 4
genera@@ 4
geny 4
getin 4
ghty 4
gidu@@ 4
gigan@@ 4
gimu 4
gin@@ 4
ginal 4
girinie 4
girls 4
gis 4
giver 4
glad@@ 4
gladd@@ 4
glance 4
gn 4
gon 4
gotten 4
governor@@ 4
gr@@ 4
grou@@ 4
grounded 4
groy@@ 4
guba 4
gudu4 4
gues 4
gug 4
gug@@ 4
gunawoods 4
gurine 4
guzza 4
hal 4
hal@@ 4
hali 4
hall@@ 4
hamati 4
han 4
haps 4
hara@@ 4
hating 4
hatred 4
hel@@ 4
hem@@ 4
here@@ 4
heri@@ 4
hhum 4
hi 4
hirin 4
hour 4
hous@@ 4
houseof@@ 4
href@@ 4
htt@@ 4
hur 4
hut 4
hutum 4
iatal 4
icher@@ 4
ide@@ 4
ids 4
ign 4
ika 4
impro@@ 4
inci@@ 4
ind 4
initi@@ 4
innar@@ 4
inquir@@ 4
interpre@@ 4
isa 4
ise 4
ison 4
ited 4
jour@@ 4
kaGAN 4
kad 4
kali@@ 4
kani 4
kerperformer 4
kettle 4
kibr 4
kidug 4
kin 4
kiri6 4
kiri@@ 4
kuge 4
kulgrass 4
kum 4
kumwoods 4
kunga 4
kuqir 4
la2 4
lad@@ 4
ladd@@ 4
laga 4
lago@@ 4
latum 4
laugh@@ 4
lax 4
lbearer 4
lee@@ 4
lent 4
les@@ 4
lest 4
lev@@ 4
liec@@ 4
limu 4
lion@@ 4
lised 4
listening 4
live@@ 4
lizi 4
lku 4
loud 4
lowing 4
lt 4
lu2 4
luga 4
luhu 4
lui 4
lulla@@ 4
luma@@ 4
lume 4
lung 4
lure 4
lution 4
mada 4
madari@@ 4
magure 4
mahei@@ 4
makum 4
malevolen@@ 4
mali@@ 4
mama 4
manity 4
mas 4
maszdari@@ 4
maternal 4
matic 4
matter@@ 4
maum 4
maya 4
mdu 4
mduru@@ 4
med@@ 4
megra@@ 4
membra@@ 4
meni@@ 4
mens 4
mers 4
mgrain 4
mili@@ 4
mits 4
mobi@@ 4
mubal@@ 4
mul@@ 4
mum 4
munzer 4
muzu 4
n1 4
naama@@ 4
nada 4
nagar 4
naili 4
naka 4
nakabtum 4
naked 4
narru@@ 4
nawoods 4
ndard 4
neigh@@ 4
new@@ 4
ngh@@ 4
ngui@@ 4
nian 4
niar 4
nibgal 4
nidaa 4
niea 4
ninSuen 4
nindigir 4
nis@@ 4
nished 4
nishes 4
nisige 4
niwaterway 4
nup 4
nx 4
oblite@@ 4
ofHeaven 4
oiling 4
ol 4
old@@ 4
ong@@ 4
onin 4
op 4
orchard@@ 4
organi@@ 4
orn 4
otic 4
ough@@ 4
ounded 4
ounta@@ 4
ous@@ 4
ousness 4
ov@@ 4
pGutium 4
pSn 4
pairing 4
pal@@ 4
patches 4
pati@@ 4
pec@@ 4
phe 4
pi 4
plough@@ 4
posit 4
poun@@ 4
ppa@@ 4
pper 4
pple 4
prac@@ 4
prece@@ 4
pret@@ 4
prow@@ 4
ps@@ 4
ptum 4
pup 4
pw@@ 4
q 4
qa 4
qua@@ 4
quarre@@ 4
rag@@ 4
rains 4
raise@@ 4
rances 4
rant 4
ras 4
rather 4
rating 4
rav@@ 4
rava@@ 4
redu@@ 4
ree 4
rej@@ 4
remo@@ 4
reno@@ 4
reser@@ 4
ressed 4
rial 4
ribu 4
rich@@ 4
riding 4
ried 4
rites@@ 4
rivaled 4
riveri@@ 4
riwoods 4
roa@@ 4
road@@ 4
rob@@ 4
rub 4
run@@ 4
rus@@ 4
sable 4
sabu@@ 4
sadug 4
sagdili 4
sagdu 4
sage@@ 4
saggugal 4
sagida 4
sagnudi 4
sali 4
saman 4
sar@@ 4
sarik 4
sation 4
see@@ 4
sely 4
ses@@ 4
shal@@ 4
shaped 4
shea@@ 4
sheep@@ 4
sible 4
sieved 4
sigbanda 4
sige 4
signs 4
sim@@ 4
simu 4
sired 4
siskur@@ 4
sking 4
slu@@ 4
sme@@ 4
solidi@@ 4
sour@@ 4
spar@@ 4
splen@@ 4
squar@@ 4
srosettes 4
ss 4
stan@@ 4
stea@@ 4
stool 4
sty@@ 4
suh 4
suh@@ 4
suhe 4
suna 4
sund@@ 4
super@@ 4
sw@@ 4
swell 4
swer 4
sy 4
szata@@ 4
szatam 4
szu@@ 4
tacle 4
tailed 4
tain@@ 4
tak 4
taka@@ 4
tama@@ 4
tanah 4
taska@@ 4
tation@@ 4
tations 4
taught 4
tavern@@ 4
taway 4
tched 4
tdestructive 4
tend@@ 4
teri@@ 4
terri@@ 4
tful 4
th6 4
thcoming 4
theless 4
thins 4
thly 4
thmonth 4
thouse 4
tibira 4
tice 4
tikal 4
tiness 4
tip 4
tithed 4
titi@@ 4
titu@@ 4
tivity 4
tons 4
tories 4
transp@@ 4
tre 4
tribu@@ 4
tro@@ 4
trough 4
tuWall 4
tubi@@ 4
tulma 4
twi@@ 4
twine 4
u2@@ 4
uGIR 4
uItar 4
uNinazu 4
uSuen@@ 4
udru 4
uga 4
ugal 4
ugar@@ 4
uili@@ 4
ukur 4
ulgia@@ 4
uli 4
ulu 4
umar 4
ump@@ 4
umu 4
un 4
upli@@ 4
uraga 4
urage 4
uren@@ 4
uritumma 4
urra 4
urua 4
usa@@ 4
usud@@ 4
usz@@ 4
utag 4
utions 4
utur 4
uunuri 4
uw@@ 4
vation 4
vern@@ 4
vey@@ 4
villa@@ 4
vul@@ 4
wan@@ 4
went@@ 4
wever 4
wil@@ 4
wned 4
writes 4
wro@@ 4
ws@@ 4
wwa@@ 4
xing 4
xki 4
xplant 4
yal 4
yel@@ 4
ying@@ 4
yond 4
ything 4
ywoods 4
zage 4
zagula 4
zatum 4
173 3
ARAD2 3
Abagal@@ 3
Amarki@@ 3
Amo@@ 3
Atta@@ 3
BA 3
BAD 3
Bad@@ 3
Bat@@ 3
Cattleherderof@@ 3
Cho@@ 3
Construc@@ 3
Dada@@ 3
Des@@ 3
Ear@@ 3
Eb@@ 3
Egal@@ 3
Enmete@@ 3
Fir@@ 3
First@@ 3
Fo@@ 3
Gebare 3
Gur@@ 3
HAR 3
HI@@ 3
Hab@@ 3
Hendursag 3
Ibbi@@ 3
Iddi@@ 3
Idi@@ 3
Ii@@ 3
Ime@@ 3
KAL 3
Lad@@ 3
Lipit@@ 3
Long@@ 3
Lubi@@ 3
Lue@@ 3
Luigi@@ 3
Lullu@@ 3
Luu@@ 3
MU 3
MUNU@@ 3
May@@ 3
Mesan@@ 3
Mona@@ 3
Mul@@ 3
Munus@@ 3
NUN 3
Nag@@ 3
Nara@@ 3
Narua 3
Nigar@@ 3
Nigine 3
PAP 3
PI 3
Pig@@ 3
Preg@@ 3
Q@@ 3
Res@@ 3
SA@@ 3
Sil@@ 3
Sto@@ 3
TU 3
TUG@@ 3
Tah@@ 3
Thro@@ 3
Tiri@@ 3
Ubu@@ 3
Unu@@ 3
UrSu@@ 3
Urdu@@ 3
Urul@@ 3
Warad@@ 3
ab 3
aband@@ 3
abba@@ 3
abzu@@ 3
accoun@@ 3
acquain@@ 3
alga@@ 3
allimu 3
allu@@ 3
amoun@@ 3
angui@@ 3
anno@@ 3
anxi@@ 3
arti@@ 3
asting 3
asz 3
ately 3
az 3
bale 3
band 3
banda@@ 3
barasiga 3
bbi@@ 3
beds 3
bility 3
bir 3
bitter@@ 3
bitum@@ 3
black@@ 3
bled 3
bloo@@ 3
boa@@ 3
bow@@ 3
bran@@ 3
bus@@ 3
cattle@@ 3
ceful 3
cel@@ 3
child@@ 3
cluded 3
compla@@ 3
comple@@ 3
compli@@ 3
conf@@ 3
consis@@ 3
consu@@ 3
continu@@ 3
coo@@ 3
cool@@ 3
corre@@ 3
courty@@ 3
culti@@ 3
dalla 3
dana 3
dari@@ 3
dden 3
ddess 3
deed 3
demo@@ 3
dently 3
deser@@ 3
desti@@ 3
determining 3
devas@@ 3
devasta@@ 3
dil 3
dim 3
disc 3
discer@@ 3
dispo@@ 3
distur@@ 3
disz 3
dita@@ 3
domes@@ 3
dub@@ 3
dumu 3
dun@@ 3
e2 3
eart 3
eb 3
ects 3
ege@@ 3
ehouses 3
eness 3
equal@@ 3
equi@@ 3
erin 3
eroom 3
eship 3
esses 3
esto@@ 3
esza 3
esztub 3
eth 3
evi@@ 3
exorci@@ 3
extispi@@ 3
exud@@ 3
exvo@@ 3
famili@@ 3
fast@@ 3
fat@@ 3
first@@ 3
fish@@ 3
fisheri@@ 3
floo@@ 3
flood@@ 3
founda@@ 3
foundly 3
fow@@ 3
fying 3
gement 3
gen 3
gen@@ 3
gent 3
geti@@ 3
gho@@ 3
gid2 3
gira@@ 3
gis@@ 3
gle 3
govern@@ 3
grun@@ 3
guda@@ 3
gul 3
gun 3
guru 3
hab 3
haun@@ 3
hei@@ 3
hero@@ 3
hing 3
his@@ 3
hosti@@ 3
hum 3
hun@@ 3
hunderbird 3
hung@@ 3
hursag 3
ian 3
ily 3
imgaga 3
immu@@ 3
impor@@ 3
ina 3
incantations@@ 3
inexhaus@@ 3
inhabi@@ 3
inheri@@ 3
inity 3
ip@@ 3
iq@@ 3
irri@@ 3
izi 3
ja@@ 3
jac@@ 3
je@@ 3
juni@@ 3
kadra 3
kala@@ 3
kara 3
kiag@@ 3
kina 3
kish 3
kkene 3
kku@@ 3
kun 3
ky 3
laba 3
lad 3
lahtan 3
lamb@@ 3
large@@ 3
lib@@ 3
lige@@ 3
lis 3
lished 3
ln 3
lness 3
loa@@ 3
lood 3
lth 3
ludu 3
lul 3
lwood 3
maj@@ 3
matro@@ 3
metal@@ 3
mid 3
mulgi 3
multipli@@ 3
multitu@@ 3
n2 3
naba@@ 3
nali@@ 3
namtara 3
nani 3
naries 3
nda 3
nepada 3
ney 3
nidba 3
niga 3
nigi@@ 3
nir 3
nita@@ 3
ntly 3
numu@@ 3
nunna 3
nur@@ 3
nutuku 3
obe@@ 3
officia@@ 3
ona@@ 3
ond 3
ones@@ 3
ongside 3
oni@@ 3
ooked 3
ort 3
ots 3
ountant 3
pala@@ 3
paralle@@ 3
pay@@ 3
perfor@@ 3
perso@@ 3
ph@@ 3
pha@@ 3
phan@@ 3
pilla@@ 3
pite 3
pleasan@@ 3
ples 3
plun@@ 3
ply 3
pointed 3
popu@@ 3
pot@@ 3
ppi@@ 3
protec@@ 3
ption 3
puri@@ 3
pus@@ 3
qar 3
rakiag 3
rank 3
rd 3
rebel@@ 3
recit@@ 3
recor@@ 3
regar@@ 3
regi@@ 3
reli@@ 3
reservo@@ 3
rest@@ 3
restra@@ 3
revea@@ 3
ri2 3
riers 3
rings 3
rizon 3
royal@@ 3
sab 3
sagas 3
saggal 3
sat@@ 3
scar@@ 3
scon@@ 3
sei@@ 3
sen 3
seni@@ 3
sheke@@ 3
shepher@@ 3
shop 3
sig@@ 3
sigh@@ 3
siki 3
sil@@ 3
sk 3
slaughter@@ 3
sm@@ 3
sou@@ 3
stance 3
stran@@ 3
stress 3
sub 3
succe@@ 3
suck@@ 3
suen 3
sukud@@ 3
sulu@@ 3
swel@@ 3
sze@@ 3
tara@@ 3
taran 3
tas 3
tas@@ 3
tches 3
teme 3
tened 3
tens 3
testi@@ 3
tfully 3
thres@@ 3
through@@ 3
thy 3
tila 3
tilla@@ 3
titutions 3
tives 3
toral 3
toward@@ 3
treacher@@ 3
tributes 3
trough@@ 3
ttu 3
tug@@ 3
tul@@ 3
tured 3
tures 3
tworthy 3
u2 3
uI@@ 3
ub@@ 3
ugust 3
ukken 3
ulgiiri@@ 3
una@@ 3
unken 3
uril 3
urn 3
uttu@@ 3
uzu 3
val 3
vali@@ 3
vate 3
ving@@ 3
wal@@ 3
warri@@ 3
wis@@ 3
wn@@ 3
work@@ 3
worktroop@@ 3
wrest@@ 3
wu 3
ye 3
your@@ 3
zabala 3
zens 3
ziggur@@ 3
zum 3
zur 3
134 2
2x 2
746 2
Adgar@@ 2
Annu@@ 2
Authori@@ 2
Ax@@ 2
Aya@@ 2
BAR@@ 2
Buil@@ 2
Cat@@ 2
DA@@ 2
DAG 2
DUB@@ 2
DUN 2
Dec@@ 2
Dilim@@ 2
Dim@@ 2
Dumuzida 2
Duran@@ 2
EN@@ 2
Eaba@@ 2
Elu@@ 2
Emut@@ 2
Ereki@@ 2
Evildo@@ 2
Festiv@@ 2
G 2
GAL 2
GAN2 2
GANxHI 2
GIRI3 2
GIRgal 2
GUR 2
Guti@@ 2
IGI 2
IM@@ 2
Ibe@@ 2
Ilm@@ 2
Irini@@ 2
Isi@@ 2
Isina 2
KU 2
Kinu@@ 2
Kiri@@ 2
Kit@@ 2
LAK13@@ 2
LAK527 2
LAM@@ 2
LUM 2
Lani@@ 2
Lugalen@@ 2
Lugu@@ 2
ME 2
MES 2
MU@@ 2
Mardu@@ 2
Mubi@@ 2
NAM 2
NINDA@@ 2
Naram@@ 2
Nigin@@ 2
NinArali 2
Ninda@@ 2
Ninin@@ 2
Ninkar@@ 2
Nudim@@ 2
Or@@ 2
PI@@ 2
Prin@@ 2
RU@@ 2
SU@@ 2
Sama@@ 2
She@@ 2
Sim@@ 2
Smal@@ 2
Sum@@ 2
TAB 2
TAR 2
TAR@@ 2
TE@@ 2
TUR 2
UB@@ 2
USZ 2
Ubar@@ 2
Ubi@@ 2
Ug@@ 2
Ul@@ 2
UrI@@ 2
UrNam@@ 2
UrNi@@ 2
UrNumu@@ 2
Utue@@ 2
Whi@@ 2
Zan@@ 2
aba 2
absen@@ 2
achi@@ 2
ad 2
ada@@ 2
ador@@ 2
ah@@ 2
alaya 2
alie@@ 2
alted 2
amamu 2
amed 2
and@@ 2
ang@@ 2
ansze 2
anzu 2
appren@@ 2
arar 2
arroga@@ 2
ars 2
ascen@@ 2
asila 2
asza@@ 2
ax@@ 2
baili@@ 2
bal@@ 2
bala@@ 2
bansa 2
bappi@@ 2
bellied 2
bes@@ 2
bgal 2
bil 2
bin@@ 2
bni 2
bol@@ 2
boot 2
bration 2
brin@@ 2
bron@@ 2
bulug 2
casting@@ 2
cele@@ 2
cellent 2
ceremon@@ 2
cerning 2
cher 2
cher@@ 2
cheri@@ 2
cising 2
comman@@ 2
compa@@ 2
concer@@ 2
constan@@ 2
construc@@ 2
corp@@ 2
ctor 2
cun@@ 2
cup@@ 2
dant 2
dark@@ 2
date@@ 2
dd@@ 2
decisi@@ 2
defic@@ 2
dence 2
desto@@ 2
devo@@ 2
dged 2
dian 2
did@@ 2
digenous 2
dili 2
dilmun 2
dinam 2
diri@@ 2
disper@@ 2
don@@ 2
drin@@ 2
dubba 2
duces 2
dugud 2
dul5 2
durum 2
dus 2
earance 2
earing 2
ebi@@ 2
edition 2
eec@@ 2
eg@@ 2
eku 2
ela@@ 2
elev@@ 2
embelli@@ 2
emin@@ 2
end@@ 2
enem@@ 2
ensi2 2
entire@@ 2
enuru 2
esti@@ 2
esz 2
eve@@ 2
exten@@ 2
extre@@ 2
fairs 2
fas@@ 2
ferti@@ 2
fl@@ 2
fles@@ 2
flouri@@ 2
fodder@@ 2
fol@@ 2
foreig@@ 2
fre@@ 2
free@@ 2
fun@@ 2
functio@@ 2
furi@@ 2
gage 2
gagia 2
galan@@ 2
gana 2
garza 2
gat 2
gata 2
gaz@@ 2
gazel@@ 2
geable 2
gether 2
gg@@ 2
gged 2
gibil 2
gibil@@ 2
gigi@@ 2
gipar@@ 2
giz 2
gla@@ 2
groom 2
gub 2
gubi 2
gublaga 2
gular 2
gun@@ 2
gure 2
hama 2
happ@@ 2
heav@@ 2
hed 2
herds@@ 2
hood 2
humb@@ 2
humi@@ 2
ib 2
ibe@@ 2
igh 2
im 2
imma 2
inda@@ 2
inscri@@ 2
interru@@ 2
intro@@ 2
investi@@ 2
ip 2
isiga 2
isting 2
itima 2
iting 2
jus@@ 2
kabtum 2
kan 2
kar@@ 2
kara@@ 2
kas@@ 2
kasses 2
kian 2
kim 2
kir 2
kle 2
kled 2
kull 2
kurun 2
kusz 2
labba 2
labzu 2
lapi@@ 2
lapida@@ 2
lds 2
libi@@ 2
libir 2
lima 2
liplant 2
lities 2
lla@@ 2
lma 2
load@@ 2
loo@@ 2
lum@@ 2
mada@@ 2
mah@@ 2
manif@@ 2
mar 2
mara@@ 2
marke@@ 2
masz@@ 2
mble 2
melam 2
mely 2
meme 2
mighti@@ 2
mir@@ 2
mitted 2
mma@@ 2
mounta@@ 2
mudar 2
munu@@ 2
musici@@ 2
mussa 2
nab 2
nag 2
nak 2
nants 2
nated 2
neli@@ 2
nera@@ 2
nes 2
nex@@ 2
nib@@ 2
nida 2
nies 2
nig2@@ 2
nigh@@ 2
nigin@@ 2
niguru 2
nimin 2
ninni@@ 2
nish@@ 2
nita 2
nor@@ 2
obeisan@@ 2
occup@@ 2
offici@@ 2
om 2
ope 2
ope@@ 2
ornam@@ 2
orpha@@ 2
ost 2
ou 2
pak 2
pan@@ 2
path@@ 2
pel 2
pened 2
pers 2
person@@ 2
pesz@@ 2
pher@@ 2
pige@@ 2
pila@@ 2
pisan 2
pit@@ 2
pl@@ 2
posed 2
posi@@ 2
posite 2
posses@@ 2
pota@@ 2
preben@@ 2
pression 2
profes@@ 2
propri@@ 2
prou@@ 2
pun@@ 2
putation 2
que@@ 2
quire 2
rak 2
ray@@ 2
receipt 2
reci@@ 2
recogni@@ 2
reeable 2
rees 2
reig@@ 2
requires 2
resc@@ 2
residen@@ 2
resplen@@ 2
responding 2
restor@@ 2
rev@@ 2
rier 2
righ@@ 2
ril 2
riz@@ 2
rown 2
rup 2
rushing 2
rying 2
saizu 2
san@@ 2
scho@@ 2
sec@@ 2
sel 2
self 2
sia 2
sician 2
sick@@ 2
simt 2
sir@@ 2
siskure 2
situ@@ 2
ske@@ 2
skin@@ 2
small@@ 2
smit@@ 2
smoo@@ 2
some@@ 2
spee@@ 2
spel@@ 2
sperous 2
spli@@ 2
squ@@ 2
sque@@ 2
ssu 2
stable 2
stair@@ 2
standing@@ 2
ste 2
stead@@ 2
stheir 2
sting 2
stitu@@ 2
stoma@@ 2
subsis@@ 2
sure 2
swal@@ 2
sy@@ 2
szur 2
taker 2
tching 2
tear@@ 2
terly 2
terra@@ 2
terranean 2
therinlaw 2
thern 2
tible 2
tified 2
tiv@@ 2
tles 2
tless 2
trus@@ 2
tters 2
tun 2
tuous 2
tura 2
twe@@ 2
ua@@ 2
ubi@@ 2
ug 2
ught 2
ugid@@ 2
ula 2
uma 2
uma@@ 2
umma 2
ummu@@ 2
urin 2
uring 2
ust 2
ute@@ 2
utul 2
vas@@ 2
vel 2
ven@@ 2
vered 2
verse 2
vir@@ 2
voys 2
wa 2
waterwaywoods 2
wet@@ 2
where@@ 2
winno@@ 2
wol@@ 2
wonder@@ 2
yl@@ 2
yone 2
ziana 2
zier 2
zuli 2
38@@ 1
3x 1
96@@ 1
AB@@ 1
AK@@ 1
AL 1
AL@@ 1
ASZ@@ 1
Af@@ 1
Aga@@ 1
Agrun@@ 1
Akka@@ 1
Amara@@ 1
Amur@@ 1
Anzu@@ 1
Ap@@ 1
Apsu 1
Aur@@ 1
B 1
BAR 1
Babyl@@ 1
Bela@@ 1
Bir@@ 1
Cattle@@ 1
DAR@@ 1
DUR@@ 1
Danu@@ 1
Dara@@ 1
Dingiri@@ 1
Dumu@@ 1
Dun@@ 1
EZENx@@ 1
Enam@@ 1
Engar@@ 1
Enme@@ 1
Eri@@ 1
Euph@@ 1
Fol@@ 1
GAG 1
GAN 1
GAN@@ 1
GIR 1
Ger@@ 1
Gia@@ 1
Girini@@ 1
Govern@@ 1
HAR@@ 1
Hammur@@ 1
IL2 1
IN@@ 1
ITI 1
Ibni@@ 1
KASKAL 1
KI 1
KISAL@@ 1
KUR 1
Kinda@@ 1
Kudur@@ 1
L 1
LAK175 1
Lara@@ 1
Leve@@ 1
Lugalku@@ 1
MUNUS 1
Magi@@ 1
Magu@@ 1
Mani@@ 1
Mara@@ 1
NA@@ 1
NIN@@ 1
NUN@@ 1
Naba@@ 1
Nammah@@ 1
Nisa@@ 1
PAP@@ 1
PIRIG@@ 1
Par@@ 1
Pi@@ 1
Pl@@ 1
Pla@@ 1
Rejoi@@ 1
SAR@@ 1
SI 1
SZUL 1
SZUL@@ 1
Sha@@ 1
Shi@@ 1
Sima@@ 1
Simti@@ 1
Simur@@ 1
TU@@ 1
Tar@@ 1
Tem@@ 1
Tir@@ 1
Tru@@ 1
UN@@ 1
USZ@@ 1
Uma@@ 1
Umma@@ 1
Urbi@@ 1
Vin@@ 1
ZA 1
ZA@@ 1
ZI 1
ably 1
abrig 1
accumu@@ 1
acia 1
acqua@@ 1
ag 1
agargara 1
aggres@@ 1
akan 1
alal 1
alam 1
alka@@ 1
alla 1
alli@@ 1
ammur@@ 1
ances 1
ands 1
aned 1
answ@@ 1
anz@@ 1
api 1
ared 1
arrowh@@ 1
arrum@@ 1
ary 1
asal@@ 1
ass@@ 1
azu 1
baragesi 1
bat 1
bdu 1
bear@@ 1
beauti@@ 1
blank 1
brother@@ 1
bued 1
bund@@ 1
cam@@ 1
canebra@@ 1
capi@@ 1
carry@@ 1
caul@@ 1
cauldro@@ 1
cec@@ 1
cement 1
cense 1
cer 1
cham@@ 1
chant 1
chari@@ 1
ciful 1
cloi@@ 1
col@@ 1
colla@@ 1
color@@ 1
compas@@ 1
con 1
cori@@ 1
cowher@@ 1
cular 1
cultiv@@ 1
dama@@ 1
ddinam 1
decla@@ 1
demar@@ 1
deni@@ 1
dens 1
descen@@ 1
despa@@ 1
dest 1
deter@@ 1
di 1
digni@@ 1
diment 1
dings 1
diri 1
dis 1
disea@@ 1
disz@@ 1
dows 1
du11@@ 1
du8 1
dun 1
dure 1
duru5 1
ebon@@ 1
ebra@@ 1
egir@@ 1
embra@@ 1
ement 1
emplo@@ 1
encoura@@ 1
engiz 1
ennu@@ 1
entran@@ 1
erased 1
eroo@@ 1
escap@@ 1
escor@@ 1
esir 1
esz@@ 1
evildo@@ 1
ex 1
excava@@ 1
exi@@ 1
expan@@ 1
expendi@@ 1
explo@@ 1
exul@@ 1
familiar 1
fashi@@ 1
faul@@ 1
favo@@ 1
fermen@@ 1
fice 1
fiel@@ 1
fisher@@ 1
fleeced 1
flicted 1
fres@@ 1
fron@@ 1
gab@@ 1
gada 1
gana@@ 1
ganzer 1
geni@@ 1
ghtning 1
gig@@ 1
gilsa 1
girim 1
girl@@ 1
giz@@ 1
goa@@ 1
grea@@ 1
gres@@ 1
gub@@ 1
gudug 1
guna 1
habi@@ 1
hani 1
harves@@ 1
hera@@ 1
hiri@@ 1
hoe@@ 1
ila@@ 1
ilak 1
ingredi@@ 1
inse@@ 1
inst 1
intesti@@ 1
invo@@ 1
ired 1
iring 1
isi@@ 1
ist@@ 1
isz@@ 1
ith@@ 1
joining 1
kalimmu 1
kankal 1
keys 1
kib 1
kigal 1
kilim 1
kir@@ 1
kk@@ 1
kn@@ 1
know@@ 1
ku3 1
kua 1
kuru@@ 1
lady@@ 1
lagab 1
lagare 1
lak 1
lal 1
lane 1
lank 1
larly 1
lates 1
lders 1
lear@@ 1
lect 1
legged 1
len 1
lers 1
less@@ 1
lic 1
lif@@ 1
lil@@ 1
lipi@@ 1
lock@@ 1
lows 1
luda 1
lul@@ 1
maba 1
majesti@@ 1
mannum 1
mat@@ 1
mate 1
mati 1
mbra@@ 1
mby 1
milum 1
minate 1
mining 1
mly 1
moon@@ 1
moun@@ 1
mun 1
mur 1
murmuring 1
murum@@ 1
musc@@ 1
myri@@ 1
nab@@ 1
nag@@ 1
naga@@ 1
nament 1
namma 1
nance 1
nances 1
nancy 1
nann@@ 1
nanna@@ 1
nati@@ 1
nax 1
nesses 1
nga 1
niddinam 1
nig 1
nima@@ 1
nina 1
ninkum 1
nizi 1
nunda@@ 1
nunu@@ 1
nurse 1
obj@@ 1
oc@@ 1
offeri@@ 1
ok 1
ood 1
orite 1
ough 1
ound 1
ounds 1
ows 1
pad 1
pan 1
parape@@ 1
parasi@@ 1
patri@@ 1
pil@@ 1
pion 1
piri@@ 1
pled 1
plu@@ 1
popla@@ 1
ppers 1
prec@@ 1
prepar@@ 1
priest@@ 1
prince@@ 1
proce@@ 1
prolon@@ 1
promi@@ 1
prosp@@ 1
pts 1
py@@ 1
pyard 1
qar@@ 1
qartum 1
que 1
rage@@ 1
rah 1
rani 1
rea 1
ream 1
recei@@ 1
reeing 1
relea@@ 1
repea@@ 1
repla@@ 1
resp@@ 1
respec@@ 1
ression 1
ria 1
ricul@@ 1
rig 1
rig@@ 1
riva@@ 1
river@@ 1
rowing 1
ruler@@ 1
runa@@ 1
sacrific@@ 1
sadu 1
sadu@@ 1
scratched@@ 1
sedi@@ 1
seer 1
shad@@ 1
shel@@ 1
sher 1
silu 1
sira 1
sis@@ 1
sling@@ 1
sob@@ 1
sor 1
spen@@ 1
stant 1
stence 1
stening 1
stered 1
still@@ 1
str@@ 1
stream 1
subjuga@@ 1
suda 1
suf@@ 1
suhu@@ 1
suluhu 1
sum@@ 1
superi@@ 1
suppor@@ 1
sus@@ 1
sz 1
szesz 1
szi 1
szi@@ 1
szum2 1
szur@@ 1
tab@@ 1
tables 1
tabo@@ 1
tah 1
tan 1
tant 1
tched@@ 1
temen 1
tform 1
thema 1
thermore 1
tho@@ 1
thra@@ 1
thri@@ 1
thus@@ 1
tier 1
tiful 1
til 1
tinu@@ 1
tir 1
toms 1
tra 1
trac@@ 1
trou@@ 1
tt@@ 1
ttled 1
tuk@@ 1
tukul 1
tumul@@ 1
tur5 1
tutu 1
uds 1
udu@@ 1
udur@@ 1
uga@@ 1
uk@@ 1
upro@@ 1
urad 1
uriqtidnim 1
urning 1
urta 1
usly 1
uszu@@ 1
uszumgal 1
utu@@ 1
uzi@@ 1
val@@ 1
valed 1
valent 1
valu@@ 1
vated 1
vened 1
visor 1
vived 1
vocate 1
volent 1
volu@@ 1
voy 1
weapon@@ 1
wear@@ 1
weep@@ 1
wh@@ 1
whel@@ 1
wher@@ 1
wide@@ 1
won@@ 1
woo@@ 1
wri@@ 1
xuri@@ 1
ygoat 1
youn@@ 1
zabar 1
zagar 1
zah@@ 1
zal 1
zar 1
zid 1
zimua 1
