<sos>
<eos>
<pad>
1
2
3
4
5
6
7
8
9
a
b
c
d
e
f
g
h
i
j
k
l
m
n
o
p
q
r
s
t
u
v
w
x
y
z
##o
##i
##n
##g
##a
##r
##m
##e
##t
##l
##d
##u
##4
##y
##q
##p
##x
##s
##k
##c
##h
##8
##b
##f
##w
##z
##1
##9
##5
##2
##v
##j
##7
##6
##3
##he
the
##in
##er
of
##or
##an
##ed
##ou
##ar
##ing
##at
##es
##al
##on
##en
##il
##is
##nd
##re
##as
in
to
##it
##le
for
he
and
it
##ur
##ro
you
##el
##ad
##ig
##ay
th
##ab
be
##am
wh
##et
##ir
##id
##ot
##ac
##im
is
she
king
his
##th
en
##em
st
on
##se
##um
ur
##ter
its
##and
##ul
##ic
##ow
##ver
who
li
##ag
go
##est
xx
xxx
my
##ion
was
##ith
your
##ent
##rom
bar
##ke
##ol
##ear
##ut
##her
her
sh
not
from
##st
with
##av
##all
##ri
##ple
##ep
that
##ug
an
##ain
sil
at
##ers
##ant
##ess
pl
##ann
man
##iv
##ht
##om
are
##ds
year
##lil
him
se
re
##un
al
son
##ld
##ace
##ouse
##reat
one
wor
##od
tem
as
##ity
me
bu
##ill
##able
nin
temple
##su
has
enlil
##ts
##ak
by
##ce
su
##anna
like
day
whe
ch
##ct
house
##ft
sila
##oun
##ight
##ly
ban
great
##kel
##ip
gur
ab
gr
mon
##fe
br
sila3
##ley
shekel
barley
month
sp
up
##ong
do
##ation
may
buil
land
fi
am
##ap
sheep
##ave
##our
##ount
city
##ud
ban2
they
ar
dest
shekels
##ale
bas
de
##ket
when
##ablets
built
##tal
or
##ine
total
pr
barig
##ound
did
basket
fiel
##ate
##ru
sc
##erv
##oft
out
##abor
12
##ade
there
shall
this
##ma
ning
labor
##roy
destroy
lam
basketoft
basketoftablets
##aga
their
##ov
##ugal
##ist
##ach
field
##ure
had
##ated
##irsu
##art
work
int
serv
##ere
##ore
ac
will
rul
ex
##us
##ard
##ord
com
##ood
were
pro
nam
##ge
##oug
destroyed
##hed
##ould
have
##rib
pe
##orn
ox
made
##one
##ub
each
life
##ich
place
str
##os
fl
servant
grain
##ell
##ok
off
seal
##ck
which
lugal
we
bre
con
no
##ountain
acc
##ous
all
##nder
mountain
##ind
##ais
##ch
silver
inanna
##der
##aven
into
set
##orm
##ake
##ted
##row
##oved
##aba
scrib
af
fat
peo
ningirsu
under
ad
wat
qu
tim
##ild
heaven
people
##op
bel
urn
##ish
##own
god
##uk
might
days
##if
ruler
##urn
if
after
##ki
##ions
nanna
##az
##ive
hol
lord
##iz
un
ag
sur
scribe
##ide
bo
##end
per
ap
##ings
heart
beer
##iver
sum
ak
##ought
ut
##fed
car
ro
le
##tle
##per
can
hand
##fore
time
##ady
male
##ast
water
oil
them
name
laga
head
good
##gal
been
##qu
##ick
##wor
##ass
beloved
fem
four
##riest
kn
lo
##gi
female
lady
over
stand
should
##ays
##istr
##old
oxen
mighty
ul
##au
##ku
##ool
bread
##ance
strong
holy
##ail
##ull
ne
##ina
brought
##ack
##ether
aw
tow
##ea
##ite
area
##aster
bur
##other
em
so
enki
##ents
down
##ards
storm
##ash
##ign
gods
##ice
##sh
res
sumer
ear
order
upon
##ful
##face
##cted
father
##ans
##vern
##ies
lamb
whose
bir
bec
years
tre
##pl
goat
##aug
##ia
##ie
##pher
shepher
##sel
child
##suen
thr
master
pers
but
er
##aid
##ust
here
lands
offer
surface
person
##vernor
##ival
gud
##ther
##kal
laborers
bur3
##ines
##attle
iku
pow
governor
##ara
##idu
does
##augh
sup
##ry
long
##eng
what
utu
13
akk
earth
canal
away
bl
sm
##kur
dec
sn
sw
##ious
##ished
pure
##ane
##aughter
##eet
##zu
##hes
har
forem
suen
spe
sl
##ty
bro
workd
mother
ins
towards
wom
shr
let
div
##ations
##ose
##pen
ulgi
##ause
dr
ee
mana
##ters
where
rais
lament
grainfed
reed
workdays
est
##out
##ars
found
##ve
##istress
##alf
shepherd
##amma
##aw
uruk
##ib
##uz
##ue
##estival
shrine
ee3
##pe
##its
nind
lines
priest
##edic
cl
tr
inst
tru
wool
before
##ala
gudea
dedic
ev
via
wall
##ipp
corn
del
akkad
giv
um
##und
make
##arm
##abl
pal
##me
##ied
##ife
festival
##olum
im
because
pre
##atum
##igh
speak
ho
##alla
##ship
bit
mak
foreman
corners
ib
mistress
stat
reg
##self
establ
##ting
##ried
##oked
##ence
##ipl
bull
lu
account
ret
##outh
fish
hero
ere
sar
##ief
plow
##ura
##ana
ow
cow
##ng
##ame
rece
alkal
again
##ons
14
##ida
deliver
return
own
15
##ang
young
umma
say
##up
sub
supre
divine
##aving
##oy
ie
pos
##ange
chief
comm
##les
##are
23
##of
##ness
##err
prin
##ough
##rown
##well
abund
how
##illed
##world
rest
less
beh
onions
boat
supreme
eridu
##iplant
alkaliplant
put
##roop
being
dwell
##esh
##ase
mar
fore
woman
weap
des
fate
quar
high
nipp
##man
##sess
##urs
##tered
bund
dedicated
don
bitter
possess
nippur
powers
world
words
urnamma
app
lap
old
##yal
fr
##una
know
gate
##vest
##inn
brick
sealed
##gether
##ates
word
given
abundance
daughter
wood
##ise
ey
##ten
##ani
kingship
ninlil
sweet
co
##min
##ely
##du
bring
table
##ary
fash
mid
war
##air
therefore
royal
prov
having
##red
##bar
##ult
plac
ass
ninda
11
manag
##ength
##low
amar
palace
against
nane
open
rep
wife
##ling
pres
cont
erected
nether
##work
fashion
prais
mouth
want
##ms
att
##uen
##bis
plant
goats
cut
creat
cattle
tw
brother
command
fir
##ren
see
ibbis
el
ever
rem
wind
##ree
those
tree
true
together
flour
##roops
ruled
offerings
harvest
seiz
meas
among
raised
established
quarters
##ile
abb
##jo
##age
children
men
thus
come
manager
present
tak
##ire
##ven
sheepf
##ular
##ction
makes
statue
fol
##fic
about
proper
##olumn
baba
side
##alled
fashioned
column
ekur
##arge
abzu
##osen
lapis
##ian
##umuz
right
barge
eat
62
bow
gave
##ared
enem
stone
rejo
pray
##led
##ort
gu
sing
##ather
fine
##pa
##hold
small
ind
##ior
took
##leas
accep
ibbisuen
sheepfold
follow
##eed
##een
##ored
urb
laborer
hoe
dis
##men
battle
ir
##ost
##ta
turn
##isaba
inc
household
bird
throne
dist
sac
##ome
receiv
bundles
amarsuen
18
count
end
##ra
##andon
seed
grow
give
##form
booked
##innu
pass
said
##ble
##agan
ground
carried
tablet
nisaba
##oke
##ced
##hing
##ites
chosen
ningal
ext
delivery
back
ek
##te
che
garm
kid
##ator
abandon
river
##fully
##arsa
received
queen
regular
##cum
whom
##ears
any
hands
food
##key
enemy
16
big
cit
girsu
sis
sim
##ches
ste
behalf
cop
##igal
ara
standard
birth
cor
det
il
larsa
went
##ink
##ath
eninnu
door
appro
##priest
##ont
rations
sk
##ams
##aves
##essel
alas
just
joy
##iful
provid
praise
##umuzi
gem
nann
well
##ingir
##ens
placed
would
##aut
##ves
##ama
build
grains
foundation
bound
ew
lit
lun
##ces
##thing
cover
cle
youth
##illy
##read
##amu
##unn
us
##ial
##ched
##bab
cann
dug
ke
te
terr
vessel
##rum
##mer
##uli
defic
power
cannot
aura
fur
kind
take
##pass
beaut
enter
##app
##aps
flood
##alted
##aded
docum
black
weapon
indeed
dumuzi
min
foreign
abandoned
ob
sin
##ez
##ond
fa
##ones
stru
admin
seized
distant
bed
could
nig
##gs
##ber
barleyfed
donkey
billy
filled
gi
range
##ks
##ides
##rip
##ctive
lambs
sacred
usuen
##ality
##itting
spouse
deb
offering
slaughter
##babbar
cast
##ired
himself
administr
bala
sat
ones
left
princ
deficit
dem
large
suck
neck
emp
netherworld
faith
administrator
##mu
##tur
##so
##house
##iny
##isd
gaz
id
wild
##ier
mountains
returned
beautiful
ce
cub
tal
##ining
##ened
evil
ver
sec
new
resid
front
gift
ca
lug
mess
mound
##ment
##ena
##reed
gold
named
first
then
url
##udu
restored
struck
dep
fo
sun
wisd
lion
along
every
garment
wisdom
mat
##ock
##ads
##ima
grass
priestess
two
cap
dais
pour
seven
fields
inspe
following
suckling
full
squ
##ased
##asaga
##uring
going
ninur
##ove
midst
born
##ream
##ures
stre
months
arm
const
provider
empty
lag
tig
wr
means
strength
##ailed
fall
night
pleas
##ax
##ada
quality
##azuli
standing
ed
rites
##ped
##alt
forth
station
##agina
taken
accepted
es
##ix
##for
##ating
##als
reign
orch
eyes
horn
##ient
##ress
##ved
##ries
spl
slave
fe
feet
hum
lud
##rd
##ilum
##oth
also
##ounts
exalted
snake
cows
##iled
things
##ached
within
##rior
apple
##ursag
warrior
face
ki
##fl
butter
cos
rms
zab
##mic
##ark
##owed
##vers
##ept
fire
perform
ekin
cosmic
rmsn
equ
enm
look
dwelling
documents
21
au
volum
##hip
##ving
anuna
prec
25
##to
##ins
stood
perfe
apart
ninurta
lagash
##ged
##cer
##bly
##wer
##ory
urg
comple
##ples
prince
crown
thing
plain
reb
add
never
installed
deter
fin
now
##troops
##dess
##uga
##annatum
arad
prote
goddess
##azu
surpass
broad
sister
cubits
messeng
stationed
##anatum
##ese
inter
##itu
bear
suit
spread
accounts
through
personal
drink
rejoic
copper
slaughtered
ru
rams
isin
comp
even
eye
cities
cour
mil
##ung
##ified
2nd
came
gre
kima
mina
pig
troops
##fer
##ilg
top
##elle
##ots
offic
##endent
24
eannatum
jud
lazuli
som
##din
##bear
##ething
urim
##ugu
many
##ctions
dog
weep
conf
known
wooden
abbasaga
country
residence
everything
something
calf
luk
length
##rig
workers
lamentation
weapons
elam
justice
3rd
eanna
path
ty
##uri
##aya
##etal
spoke
art
urnig
overse
imp
ekinugal
col
mo
##eg
white
##ally
ang
##order
cons
underworld
urnane
##worker
attent
prayer
##pae
kir
mes
pur
##hr
##isions
stones
produ
adv
saying
turned
ced
num
##xt
##br
##anum
fav
tears
kings
enpriest
##ubur
flo
##ended
emmer
resp
reeds
property
sky
squared
type
overseer
gilg
jun
net
##ris
##med
kne
passed
orchard
tablets
##the
##ked
##king
##headed
living
plans
chang
grand
##iverse
decreed
measure
bowl
princely
precious
protective
bat
puz
ris
##ari
why
##imu
entered
receive
urbilum
mult
nib
##ba
##ili
##ilim
##anda
another
insc
instru
assem
di
ebabbar
saw
##tion
enanatum
sea
fatten
universe
single
stele
ewes
56
ax
cal
hired
must
our
other
##mar
##side
##from
##ingirsu
##ener
shining
anc
looked
removed
##ingira
faithfully
ceased
messenger
called
fear
happ
nun
##light
##enlil
##ison
nins
brings
leather
trees
plowman
rejoice
talents
17
coun
eup
hor
jug
lim
pay
san
wid
##ec
##ze
##int
beg
##ime
only
buck
leve
shepherds
urbaba
surpassing
suitable
official
##hrates
cedar
euphrates
22
bab
cr
cro
dam
date
metal
pun
sle
way
##ods
##ined
##isi
##ages
##used
accord
territ
nibru
##ning
##vol
##igir
store
##anned
upper
around
##mah
making
covered
poured
19
dit
runn
##nir
##ments
##ps
##ss
heaps
##thy
##ulgi
##ute
chair
raise
presented
tigris
volumes
kirugu
case
mu
most
ud
var
##nam
##land
##born
##img
times
birds
street
perfect
urnigar
ha
hair
lay
mer
##eous
##ti
##tum
##bi
##ords
spir
drum
urukagina
trans
regard
establish
bricks
righteous
cheese
simur
##ezida
assembly
sleep
according
36
cur
fitting
gro
lords
mus
##ae
##bs
##ula
lift
##uti
founded
clay
desc
created
little
34
dust
par
rus
says
##cl
##ition
##urm
##adi
yourself
##utu
##oken
incant
milk
territory
dail
treat
##bed
##iness
##add
##agon
bank
therefrom
hold
thresh
bitterly
attention
inscrip
daily
57
both
fod
ikur
po
##lee
##amesh
##thor
ent
urs
##ody
##aked
spoken
arms
worker
flow
utter
##asting
author
gilgamesh
counsel
sanct
various
fodder
border
lum
light
more
red
ter
tou
##af
##til
##ali
too
##let
##elf
##etena
urm
bran
##uda
destru
lamma
longer
speaking
irrig
nanny
changed
done
fly
##ying
##val
##orite
##ira
##iddin
##imin
urd
meat
destiny
labortroops
wea
##ouses
treas
behind
contain
creature
eating
blackheaded
gazelle
urlamma
foot
grassfed
enmetena
ancient
act
ez
fell
farm
get
laid
nation
rain
radi
##vel
song
become
##erra
furious
very
determin
##bearer
##iddinam
cult
dates
gir
tanned
##ward
##ances
##alu
##eness
##act
exc
##vey
palm
firm
minas
storehouse
acted
##ah
##kigal
weight
trust
subm
possessions
split
ludingira
rejoicing
inscription
cool
fill
hur
killed
lov
lub
some
##ats
##ative
##itar
##irig
##uge
super
adab
dedicate
ewe
text
lukalla
regarding
gig
hide
nor
pot
piled
sail
wise
##ga
##ua
##por
play
greatly
bron
deity
ornam
outside
##rying
##tyard
midd
bal
cup
gl
gather
hides
mill
ration
salt
##iod
##under
these
##oud
##iss
##ised
nine
able
##rup
sch
period
prep
cattlepen
urgigir
courtyard
bronze
4th
eld
fun
por
rel
tail
ug
##oice
##uh
##bor
##hekel
##ured
##ement
itself
rever
alone
ninazu
##ctor
amorite
##rows
until
box
care
inside
extra
approached
geme
clean
constru
determined
fer
gard
list
part
rear
sag
##ni
##nel
##kug
##whe
##atched
##asa
inim
##iti
enk
above
ningezida
##ubl
heads
bulls
knows
brickwork
assign
repl
properly
boundary
debit
second
haun
threshing
farmer
fears
half
sit
tum
##oc
##iel
##yl
##uru
step
##tern
ans
temples
nink
prison
lugaln
scribal
respl
forever
possessing
citiz
##imgina
school
baked
dig
kak
site
south
##rim
##pit
##be
##inimgina
##abba
##aced
anan
ninmar
##aped
dead
##ildo
##azi
subt
planted
human
finished
spirit
curse
rushes
ornament
resplendent
low
tas
wailed
##go
##edagan
##amnir
stor
releas
defe
workman
allure
##thern
evildo
imedagan
caul
judg
nunamnir
horiz
26
ay
dro
eg
fri
mace
sick
six
##aim
##je
inn
##ird
issu
##ows
rec
sons
ninubur
cham
change
monthly
fatt
stands
longt
measuring
guard
building
constant
consum
favor
someone
horizon
dab
dark
mind
pen
wept
##ead
##bu
##ban
##zi
##otal
enun
##epter
seen
fier
scepter
lugalur
##ching
emer
blood
foremost
##ible
kids
##flour
subtotal
fattailed
28
27
fig
flee
gan
gatum
grown
houses
hel
##ander
short
manif
nintur
greatness
##iper
bright
dev
akalla
knife
design
prayers
accept
siskur
used
demon
##itual
lifted
cupbearer
##hekels
manifest
9th
body
dior
hung
rod
##mun
##ues
##pic
##isal
##ister
tool
heif
thick
while
##ician
##agal
shout
charge
scat
heavens
##ized
agade
loaves
chest
anyone
anything
cross
punted
volumesar
treated
radiance
diorite
win
wine
##gur
##less
##che
##ends
##ision
heav
##ulpae
without
anim
sust
exer
ordered
instead
host
donated
warads
places
ekalla
lugale
capt
inspections
bag
dimin
fis
ou
op
sol
##ders
inqu
##uly
shulgi
songs
##ips
stra
##ending
lead
loc
trem
repe
detrim
ill
powerful
faithful
fallen
completed
respons
levee
middle
detriment
bol
fru
gar
loved
mag
sou
wal
yet
##bers
##way
##wood
##ilt
inse
held
##owing
lipit
nothing
plough
##omin
ref
##ungal
##aking
scr
coming
##ellig
breez
waters
quay
##ope
harrow
insul
boats
##ursaga
plants
weavers
##ield
task
fierce
straight
1st
35
bind
dou
far
jar
kud
kish
ph
uree
##li
##ene
##iting
##ote
sheaves
enfor
urulpae
##ict
lie
##utes
atu
chari
spr
##artu
intellig
exp
lugalm
carp
soil
decisions
womb
giving
singer
disp
keep
caused
feast
weeping
##utium
ayak
enunugal
outer
enforcer
et
ham
kin
kar
nest
sy
tend
ub
ure
##ys
##hau
##atform
##ility
##abuk
live
##omach
##ipar
##ounded
peg
brewer
settle
adorn
unuri
reserv
decree
##iously
estate
foundations
instrum
luara
##offer
simanum
##tured
horns
colle
happy
babyl
##urmabuk
submit
lugalurub
insect
kudurmabuk
##haust
dire
during
gipar
nar
pirig
ram
sam
##turn
##erous
##ony
##rew
heir
##rol
stri
onto
##umen
##ication
##aged
goes
shade
platform
##omeness
wort
grade
arum
def
exch
apisal
delivered
highpriest
possessor
opened
##unna
since
esc
rebel
purif
numerous
enpriestess
juniper
much
incantation
urmes
textile
function
defeated
heavy
cru
fit
gun
gone
galla
loft
pop
##oir
##ges
##ually
##kun
##aled
##ily
##asing
##iter
urara
liver
herds
plent
enlils
deep
became
offered
dont
cleans
donkeys
demons
verd
frontier
write
ruin
produce
branches
loves
released
longtablets
breezes
double
chariot
reservoir
babylon
6th
best
dream
dada
hill
lear
nr
nomin
oval
rival
rise
sand
sent
tur
wide
##oods
##iq
##ned
##isf
three
myself
##ants
plot
base
comb
##selves
harbor
truly
praised
obl
secure
captured
grew
moon
calves
lordship
container
getin
humanity
caulked
friend
fisher
opp
lofty
nominated
29
burn
cra
dil
dur
died
dried
hall
hone
wear
yoke
##gn
##mud
##pri
##kkal
##ening
##asi
##lease
##adad
##abzu
##otten
stomach
##stand
##unk
gras
exhaust
##osed
##izi
carc
themselves
##icked
embr
decor
nindaba
priests
truth
walls
owner
bundle
firstborn
merch
haunt
answer
inner
gatumdu
responsible
intelligence
tendon
cry
cred
dad
distress
fut
gener
kill
mard
malt
ner
nud
oven
vi
voice
##ron
##ph
##by
##fit
##found
##outs
##ender
##iles
force
##ided
##ently
silo
ninh
##akes
##akam
wheat
exist
office
road
sniddinam
garments
luningirsu
terrace
minister
stret
interest
drinking
floor
limbs
ditches
authorit
prepared
scattered
future
7th
87
dir
fed
tall
trib
viz
##mur
##ey
##lar
##zida
##head
##atic
##isina
##ispic
invol
initi
##immud
##umgal
lives
##epar
ant
##anner
ninursag
##cting
acqu
acworker
rulers
##uba
##cked
fates
##asses
ulmu
suppl
ibi
marsh
steward
copy
army
pleasant
bearing
advice
width
fearsomeness
##ject
heifer
exerc
bolt
southern
gunidu
honey
nudimmud
vizier
##ispicy
ulmux
33
45
bore
egal
kur
line
mal
mine
rich
ses
tore
##sa
##co
##banda
##eds
##aring
##ati
##ases
form
than
beat
##oted
##agg
##rie
reve
##api
orders
lugalk
lugalinimgina
convey
watch
below
uttered
##worthy
overturn
awe
decision
prev
marvel
extispicy
debits
piglet
judge
junior
rising
udug
simurum
treasure
gathered
constructed
nergal
ulmuxpa
sesame
42
fac
gutium
hang
kit
lul
mix
martu
manner
nag
rid
wail
##gr
##mal
##da
##pr
##bo
##bani
##isor
##itten
forest
##iga
##aches
##ulu
##rif
mans
ninursaga
ninisina
##feast
##ape
aru
deer
flesh
nose
urningirsu
##kuzu
neg
cowher
##workers
gued
growing
sunlight
luduga
determ
multipl
instructions
fattened
ditch
simurrum
utterance
sanctu
##aff
irrigation
prisoners
citizens
sustain
phys
syrup
adorned
merchant
da
ea
etern
find
magan
nab
ta
##gon
##ex
##lam
##ken
##ways
forg
hear
itar
##urgal
whole
##rived
cho
chose
arrow
breast
urnungal
roof
##ashing
block
restore
quarre
guabba
corp
approach
furrows
satisf
matter
tigi
kiur
performed
evening
fattener
destructive
favorable
fruit
##offering
decorated
viol
ibierra
48
ball
du
dining
ma
nir
wagon
wicked
##tile
##de
##ual
##zem
##enn
##idug
##othed
stick
herself
##str
##ste
##aki
banks
worktroops
##ubi
lugalem
weaving
break
sets
urnin
tower
personnel
ulgiir
dragon
##ipped
speaks
bitumen
luutu
sargon
commands
takes
amarsuena
lunin
document
feat
enmagal
rebu
weeps
anger
drums
destruction
ninegal
hostile
lipititar
hammur
exchange
credits
authoritative
5th
bad
ful
gif
ip
kul
lin
lying
near
nalu
ritual
tab
uea
wages
##gir
##aea
##ech
##time
##law
##lasting
##ors
##igi
beard
##ami
share
shiny
plunder
requ
release
ali
##ceasing
such
space
##ervisor
intaea
weak
unceasing
akurgal
fathers
##aught
repaid
control
elaps
remove
appropri
inspection
shepherdship
running
ursaga
ezina
boxwood
garden
tummal
drop
karzida
instrument
dilmun
corpse
ulgiirimu
hammurapi
gifts
curs
eb
fam
ku
lull
wit
##rid
##day
##cc
##cts
##cour
##anc
##onse
##itud
fort
heaped
##irmed
##idn
uren
ursuen
shine
##stick
##allu
plots
##ively
meal
greatest
scream
destroys
laments
compass
pegs
flat
noble
carpen
lev
toward
women
gives
married
appear
bringing
contin
remain
idi
angry
response
jugs
levees
groan
descended
pole
gladd
elder
enkidu
##ublaga
fleece
bagara
functionary
cleansing
craft
negle
compassion
32
hire
lisi
mour
mold
maid
nur
past
raven
rope
sold
uz
##oin
##ik
##grown
##sag
##host
##wards
##isa
##ither
##irc
##ident
eng
staff
lib
##ution
herder
reached
churn
##ipit
arakam
baskets
ningublaga
##elles
lugals
##izal
carry
roam
erase
supervisor
broken
divin
erekigal
deliveries
##upp
fright
fresh
##reeable
measured
countries
nigin
talent
pleasing
equal
equid
interior
knew
risen
##intendent
authority
flying
trustworthy
superintendent
evildoer
devast
##chen
diminished
defiled
highpriestess
involved
kitchen
tavern
uzga
38
bene
cries
dri
dudu
ef
geg
hal
ka
lust
oh
occ
run
tiny
##nanna
##uw
##pro
##kn
##bled
##orc
##ater
##atur
##ism
##itum
##ities
##itida
##urb
##irs
hisher
##ented
##olds
##essed
plan
seated
mead
##lying
aga
agreeable
shoulder
##acks
speech
draw
raising
statues
heroism
desp
cook
incipit
teem
gazelles
mounds
fox
mature
fullgrown
zabali
volume
descend
fertile
helper
animals
waradsn
ayakalla
plenty
carcasses
tribute
hearts
linen
lustr
cream
free
ge
hus
tri
tong
veg
##tled
##lo
##lic
##lings
##ya
##si
##ka
##ha
##band
##rect
##asura
##icted
shou
ann
anzu
##uni
ala
alter
altered
##ceed
spark
profound
lugalkuzu
lugalitida
allowed
adm
##azida
survey
malevol
##quet
slaves
clad
accountant
market
provisions
covers
idd
depth
edge
confirmed
axe
axes
limit
incantations
porters
inimara
lugalnig
lower
lugalezem
locust
garlic
physician
features
enmagalana
continually
veget
61
ari
eeng
five
frown
gib
ghost
hon
hab
igal
kaz
kiss
nos
nail
omen
pain
send
sought
sitting
separ
##oo
##ox
##ses
##serv
##hides
##alam
##ishes
inof
##ited
##itute
##eland
though
bet
encl
stall
##umin
##ical
##aint
himher
##unir
ninki
##suil
banquet
upro
ama
serve
exorc
prol
namely
##ubu
breed
concer
alla
belong
holds
carrying
suppor
decided
##aws
claim
trav
subj
seeks
seize
smalls
gemen
lunanna
vessels
entering
nigd
##bearing
instruction
damaged
##agesi
runners
entire
cultic
excav
##ission
relax
listens
##whel
steppe
storage
chamber
figure
repeat
harrowing
samsuil
obliter
marduk
ninhursag
sanctuary
quarrel
##stele
elapsed
idiot
gegigal
##irsir
husband
gibil
kazallu
ba
cause
ele
fence
pau
sign
salted
tear
torn
##tu
##lag
##uall
##bird
##woods
##inlaw
##arr
inv
##irizal
##iding
##umu
urub
plu
sukkal
char
charm
namani
##ckled
lugalg
accom
agr
perfor
lee
handle
lost
overwhel
##pled
persons
reedbed
##pect
status
plowmen
##anger
##oyear
possessed
twoyear
commanded
seeking
measures
hoeing
regularly
correct
joyful
casting
cease
lugirizal
inspector
orchards
splend
aradmu
compos
happiness
begot
volumeshekels
merc
superior
emerged
scratched
directed
strike
escape
general
determine
taboo
dropped
cursed
witness
mourning
tongue
samsuiluna
31
43
aim
dilim
hom
iri
lah
mud
paid
wave
yell
##iant
##ging
##lds
##sar
##set
##kes
##with
##wind
##oring
##esag
##rees
formed
thigh
thunder
##amar
whate
##iri
##iring
shed
stay
still
##umun
yours
barges
##uted
##epada
##ained
##anted
seat
aside
spending
death
scor
service
prow
##rible
lugalu
unident
boot
rob
roaring
leave
loan
loaded
speckled
##arsirsir
festivalof
ibbisn
administrators
gaze
golden
depot
##flicted
rebell
meslam
knees
##iliu
bucks
##uhi
##nelian
##being
issue
guardian
colleag
crus
poplar
verdant
hillock
choose
kulaba
levy
lustration
uprooted
whatever
unidentified
arom
bent
breat
caught
dif
dagg
fing
fare
ig
mel
mars
nug
oath
pin
pus
pick
und
zam
##ikur
##nuna
##ever
##tar
##tak
##ler
##den
##you
##pion
##kin
##wh
##voy
##rodu
##els
threw
beads
enn
enters
##emon
once
##anded
##icket
liar
##agure
##estic
##uty
##rier
##eper
alto
daylight
whether
dogs
fix
arch
working
exud
pea
straw
flight
lugalbanda
allot
peoples
understand
urning
##ifies
unlo
akitu
cared
town
bluall
common
abundant
possesses
contents
eats
wellbeing
necks
performing
lukur
import
imposed
numuda
multitud
ninsun
leatherworkers
term
cultiv
gigigal
played
porter
tails
designations
settlements
multiplied
lugalemae
luninubur
plundered
##ointed
##uppak
devastated
##oxen
perforated
leeks
aimbabbar
thunderbird
hillockof
marshes
pickax
altogether
bluallim
55
66
8th
bell
bazi
die
dingir
ema
epa
ghe
huw
kun
kisi
lus
mad
pit
prom
sir
ten
tied
##ls
##usu
##ping
##hood
##bing
##bil
##fru
##fast
##anepada
##edu
##ises
##isag
former
##rog
thorn
##amp
##amber
##acia
##emin
star
stool
##tering
##ands
lies
liqu
goods
ship
##stitute
silence
##ives
mekigal
ninn
##ipe
abs
abgal
fift
arg
arat
12th
##artab
workmen
exper
exec
##ubum
##elled
##chamber
setting
##uku
unug
agi
surpl
carnelian
roots
headed
goodness
##ivalent
gudu
canals
smith
shrines
drag
tra
delight
lux
##oyed
##offic
##erred
highland
creatures
everlasting
taking
stead
nannam
bedchamber
newborn
deprived
humble
##ferent
##ellect
puzrid
##enlila
##pses
terrif
touched
ugid
judgments
winter
solid
inquir
leader
tremble
walked
insulted
learned
dirt
antasura
exercise
wailing
nir2
divinity
##urbartab
teeming
surveyor
iddind
subjug
dilimbabbar
booty
crushed
aromatic
unloaded
ghee
huwaw
liquor
surplus
puzridagan
37
44
47
67
cer
cat
crip
dum
feed
grie
haya
hips
law
mou
main
mun
nus
nesag
pul
sound
sowing
tira
wol
wish
##nun
##nether
##gar
##ding
##pre
##port
##car
##cess
##festival
##ferred
##ern
##onder
##enced
##ila
##ason
##asted
inab
##itary
##room
##eliness
bef
stel
urkun
##ulation
##agi
shar
##alluhi
silent
##unu
ninm
ninins
spend
scent
intellect
ach
willow
expl
exten
peace
##orning
##izu
unf
units
rose
waterway
headgur
breads
emble
respect
gududu
smite
hari
slander
lets
ulgiay
raises
hoed
heroes
forehead
brothers
seek
##umuzida
enemies
prayed
extended
queenship
corpses
wells
eduba
horned
equivalent
complete
ruins
green
purified
ninsumun
transferred
groats
paras
redu
eldest
reveres
gardener
assigned
replace
citizen
evildoers
dabin
shouting
winds
repeated
combat
embrace
acquire
##cover
previously
nabasa
rebuilt
appropriate
benefit
prolong
supporter
travel
peaflour
important
steadfast
##netherworld
nininsina
72
distr
duty
fast
gal
gut
kuda
lad
lot
lard
mas
mort
piles
##osu
##nif
##eis
##troop
##lazuli
##dug
##uzu
##yard
##hu
##baba
##bala
##flow
##zer
##aries
##ilu
##ashed
inher
##ury
##adu
##ababa
##abtum
##uma
##ume
uru
urz
livest
##ager
goose
fromby
##aved
anz
anunna
reach
##unum
worthy
buy
##illage
builder
proud
introdu
served
nammah
##ributes
lugalz
##ously
aff
##iff
unto
sumac
roads
level
##acked
##acking
sumerian
decrees
snakes
sworn
womans
clo
##ippar
alkali
##airs
opening
remote
lapislazuli
eaten
##taea
nannas
##ingirmu
team
terror
obed
obeis
idle
firstfru
zabalam
looking
complex
addition
rejoiced
confused
puzur
##iliar
dike
diworker
sleeping
music
musician
parap
holding
terrible
urdumuzida
weaver
excess
potash
ferry
ninkasi
chambers
consumed
help
hunger
rode
waradsin
lugalmagure
herdsman
dadaga
stretched
initiate
cowherd
eternal
satisfied
shouted
malevolent
eengura
separated
enclosu
sukkalma
mercy
nugig
fifty
edubaa
inherit
livestock
64
az
bes
call
den
dom
eani
freed
hy
hit
igi
kas
morning
nasa
pat
piv
ren
render
sour
sippar
tor
uumgal
vat
wet
zan
##ians
##gan
##rent
##mith
##ek
##egal
##your
##kalla
##bend
##filled
##heaven
##inanna
##inct
##ering
##arua
##esi
##eshed
##ense
##enter
##enance
##ready
today
heed
##elt
##eless
beam
##irg
##aces
##acher
##acity
state
stop
##umma
urti
lips
##utation
##storm
##iveness
reaches
already
asalluhi
ninura
susa
gursar
arr
serves
##ardu
compl
prostitute
strange
conqu
settled
afflicted
##ify
stormwind
134
smote
decl
swe
workday
trade
festivals
pregn
older
replying
mouths
attributes
harvested
seizes
abbak
incre
grows
provided
duga
furrow
minus
siniddinam
gifted
urlugal
urlisi
capacity
square
written
messengers
knee
transpor
##claim
milling
##where
assignment
ninkilim
constantly
animal
etarsirsir
bestowed
turtle
fishermen
wearing
rulership
facility
guedena
##sticks
carpenter
gladdens
occup
meadows
profoundly
belongs
smallshekels
nigdab
paue
##lagare
correctly
different
dagger
achie
ulgiayamu
mortar
obedient
parapet
inheritance
renov
53
aur
bought
der
dish
dubl
eab
fal
fre
fet
haz
jenn
kug
lasting
mur
mouse
pil
pens
ran
sad
sab
sem
sake
teet
use
wo
wa
wings
yield
##oom
##ne
##nin
##tidn
##labor
##laid
##qtidn
##bur
##bus
##bec
##body
##flee
##wife
##ini
##inds
##ered
##onoun
thin
thicket
##abdu
##eting
enj
strip
urutu
##agir
##olished
sho
shov
shines
##ugi
##ivist
##odged
##akian
gran
brid
brill
spent
arazu
organ
price
pronoun
destroying
comes
##ubanda
strings
##oss
flax
##ella
##okes
lugalazida
convers
scribes
quiver
surr
board
legal
loosen
ladyship
##ackish
emut
resin
threshed
eridug
towardson
nindan
trap
install
imple
plowoxen
##anged
subject
dwells
desire
managers
flourish
abbagina
followed
distrib
seeds
youthful
##apped
##appear
object
debt
princeliness
message
ruined
attentive
number
floated
floating
gilgame
rises
poor
lightning
touch
touching
irrigated
giguna
resplendently
sixty
##like
narams
moonlight
getinana
grasped
supplic
beaten
revealed
mixed
rider
forgotten
violence
requis
flatten
neglect
frightened
trium
lugalniglagare
frowned
exorcised
accompl
lahar
scorpion
lugaluur
rebellious
archivist
understanding
kisiki
sirara
aratta
luxuri
urkununa
urzababa
lugalzagesi
enclosure
declared
transported
woe
##qtidnim
##because
##fleeced
shovel
39
96
bord
brow
bond
cried
crying
cella
dise
fame
gen
guz
gung
ikalla
kal
la
mem
ser
sor
sort
tax
uk
##oon
##ium
##net
##res
##ract
##dish
##sc
##con
##har
##water
##vot
##voc
##ert
##aning
##atu
##esage
##asag
##asts
##elam
##amiliar
##ids
##acts
##ements
lif
##keeper
ships
##stones
ate
##essing
##ivity
sele
always
##ablet
nint
nininimgina
##aka
##akk
sus
mongo
##fect
brackish
doe
sheephides
arrows
orac
ordin
therein
##isting
intent
exvot
##ardab
pros
namtar
##osing
##elling
heavenly
afterwards
perf
sumu
akak
room
##shing
##kala
longfleeced
smitten
swear
swore
foremen
drunk
nindara
clot
tram
imakian
prebend
15th
dwellings
mari
bundled
knowled
sweetly
midwife
warad
provide
else
singers
irisag
endowed
covering
clear
observ
princess
cubit
secured
lugina
pouring
fallow
nights
nighttime
esar
zabardab
21st
precinct
perfects
adda
suited
rule
military
favour
runner
spirits
##adda
ursag
luma
treasury
firmly
loving
lubaba
##itaran
prepare
reverse
##kugani
haunted
lugalnesage
drove
rodent
captain
diminish
illama
magnif
refuge
keeps
kinunir
burning
grasp
interestbearing
reveal
overturned
pigletfeast
hirelings
roamed
sparkling
concerning
plucked
castingnet
homeland
colleagues
fixed
shipyard
iddindagan
huwawa
moulds
unfamiliar
reduced
repeatedly
district
introduces
obeisances
teeth
naramsin
gungunum
mongoose
irisagrig
magnific
58
52
aro
baz
cam
center
furn
iib
ipae
kor
kis
lar
loss
mitum
nas
nubanda
pa
pol
rate
rang
sig
troop
ubi
yokes
##iander
##nanum
##rate
##ew
##tain
##la
##sz
##ker
##kig
##com
##hil
##bl
##wers
##anas
##ares
##oned
height
##ige
thir
thought
##etin
##eter
##etar
envoy
stars
ursu
lions
##agana
##utions
shake
sees
aloud
asz
##aker
chick
granted
amyou
amnanum
##oured
deities
acacia
namma
fled
lugalane
noise
timber
##kiag
unc
unkn
agu
carries
##galnuna
load
overflow
need
next
ears
becom
thrones
snare
harp
divisions
##ibira
cloth
preced
region
lusuen
14th
##upriest
marry
bitterness
appointed
opens
cutter
cutting
thusly
bowed
disappear
corve
coriander
skin
joyfully
bedroom
resident
daises
pleasure
##ressed
##resses
feel
looks
aradnanna
rejoices
compan
color
changes
damgalnuna
flowing
utterances
urmami
gazellefeast
weights
submission
northern
bales
balag
##ctoral
reared
halflabor
tumuli
judgment
26th
##built
ganma
ganzer
refined
ayakala
decreeing
herdsmen
distressed
lugalkig
previous
hanging
nagabtum
cowherds
guedina
forget
blocked
wickedness
alien
omens
agrun
composite
meslamtaea
breath
experi
newborns
wolf
sharpen
nammahni
musicians
pivot
pregnant
granary
emutbala
triumph
arose
unknown
1th
49
46
aug
aud
band
bone
bend
cy
cant
cord
circ
eag
east
gab
gula
gizi
jars
ko
moved
none
ore
pab
port
rim
rite
rib
rented
tell
ukun
vict
village
winn
waves
wonder
zen
##oot
##iers
##tles
##lud
##sn
##sin
##smith
##kind
##bbing
##fear
##father
##wing
##inak
##erope
##eroom
ofin
##ank
##atal
##onent
##rem
inh
##ita
##itted
##lew
heap
ita
##urg
##rote
##iggal
thief
##abi
##abu
##abad
bears
beats
##imil
##though
enship
onetal
##ulated
##agar
shield
##stone
mankind
##iving
sex
rev
although
asc
enlilbani
choice
bride
spends
totals
ningiz
lamatu
worked
workfor
serving
acts
##usa
proclaim
lugalnir
lugalkugani
conce
mountainnetherworld
ningirsus
##opy
boast
##endar
##enders
canopy
watered
watercour
ulpae
ulagana
soot
governors
13th
smashed
swall
insp
##awn
cloud
claws
trough
regions
younger
##eship
desired
knowing
assist
reputation
contem
abbasag
counted
ilum
approaches
skill
##enedudu
depart
depos
priestesses
reigned
##ression
humbly
zababa
ekinual
25th
finish
drinks
pige
24th
confron
produced
calm
calendar
ancest
perfectly
therefroms
reddish
girl
north
funer
storeroom
darkness
28th
spring
brewery
settlement
naram
purifies
nradad
oblig
getinanna
opponent
29th
exhausted
answered
supplication
lulubu
##boat
##akiag
fully
ipar
alike
famous
maiden
soldiers
honor
igalim
noserope
irikug
yellow
##taken
exuding
multitudes
nannamaba
subjugator
nuska
abbakala
nigdaboffering
hazin
kugani
stripped
installation
luxuriant
disease
exvoto
perfume
knowledge
nasilim
colorful
lugalkigenedudu
august
cyp
onetalent
ningizida
abbasagas
54
51
68
av
aki
bison
cere
dub
due
emah
either
fold
hous
home
kil
latur
ms
mara
move
nen
nurs
native
sa
sack
tut
vast
ware
wrote
##ney
##gate
##gress
##par
##pond
##she
##cub
##circ
##hi
##hum
##hani
##bles
##faced
##zam
##vil
##inate
##inies
##ores
##anizi
##ata
##alum
##althy
##onds
##ences
##ils
##isk
##isin
##ising
##ists
ing
inlaid
##itions
hew
##ross
##ades
throw
##ably
beams
##amari
##thr
enak
ensi
stup
stern
ura
urk
uramma
##andso
##agr
##agement
##ested
herd
shad
##stream
##rific
atam
##ersed
reck
reason
alab
alulu
asag
greater
##iply
abu
doorm
amag
##ouring
citys
arabdu
destinies
##ounds
##rust
outs
lama
##ordinate
##ribed
flash
lugald
conver
apples
loose
loads
neigh
aware
emb
soandso
##plant
##iece
utuegal
blessing
smoke
snk
swept
clothed
tracts
palms
ibex
statu
statement
144
##anging
suprem
restr
resting
##inning
openh
presence
attend
attached
creation
sheepfolds
sacrific
growth
bookedouts
##inking
skilled
clever
dumuziabzu
struct
nig2
demolished
mounded
sung
edam
zabala
neverthe
bearers
spreading
##imua
multiply
widow
beginning
##lands
##bih
fodderreed
lumma
treasures
containers
felled
girini
trusted
filling
midday
replaced
cauld
eggs
sickness
##cheese
sustenance
insults
sprink
expand
dispatched
dispersed
urema
submitted
egalesi
conveyed
sustains
maj
kuara
##couragement
remainder
neglected
libation
driven
halub
despite
vegetable
kissed
excavated
obliterated
charged
charms
witnesses
meluh
zamzam
urningezida
lusaga
executes
travers
befitting
steles
source
zanr
1343
sweep
renovated
enjoy
surrounded
prosper
ranges
companion
zenith
workforce
cypress
cereal
marai
nevertheless
3th
63
77
ah
bau
bail
bida
cab
cases
cumin
dign
dingira
drew
eanatum
ekala
ebih
fil
fated
gy
gug
gus
huge
jour
jack
ly
laugh
luz
love
lisin
mis
mated
muri
nana
pu
ped
pou
pull
pries
ring
rol
sz
sits
uba
val
vagina
wes
west
##oil
##num
##giving
##ran
##rated
##ront
##ritual
##magir
##tty
##tely
##tibira
##lu
##lum
##dub
##pet
##pread
##spr
##cing
##cent
##hl
##bara
##bare
##bling
##fort
##hema
##hegal
ofbecause
##ories
##anam
##arum
##athema
##alag
##onkey
##ret
##ital
##urum
##uruppak
##iguru
thrown
third
##ette
##iduga
##thood
ens
enme
enough
enmen
eniggal
##emaid
urenlila
##ulum
##icts
##aging
##agara
shaking
shuruppak
anni
anathema
silt
ready
suc
suh
greatstele
spear
spice
arrum
arrived
arrog
destined
prime
pract
outlet
##artum
intake
exub
proced
stranger
offsh
offspr
weed
alloc
adal
adad
adumu
##ukuga
unse
agents
summer
cares
roasted
##quality
##quids
##auumgal
##ails
awes
erra
##kalam
blind
decides
womens
lamenting
##ibgal
trunk
preemin
pretty
returns
subordinate
position
however
putting
desert
brickbuilt
sweetened
##barge
assimil
11th
content
attended
singular
diss
irre
18th
counting
endursag
endingirmu
checked
standardized
doors
joyous
using
dugamu
kequids
further
slaughtering
empt
caus
urlumma
matur
writing
pleased
splitting
warriors
completely
spreads
compelled
course
paths
artfully
##them
grandly
battering
inscribed
instructed
dikes
leatherworker
##ects
begotten
##psum
streets
bordering
urdamu
acting
weighty
cooled
cooling
lubal
replied
friends
issued
penet
##bank
tools
heifers
solution
inquire
trembled
illness
lipitetar
etem
instruments
escaped
learn
sandals
turban
daaga
eternity
satisfy
rebuild
badtibira
lullubum
ureninnu
carpenters
appearance
nuradad
lugalsaga
efface
effect
##profit
limitprofit
igalima
noses
overwhelmed
splendor
##who
ninnudu
crippled
pulses
##preter
extends
parasite
nannasuen
additional
beside
domestic
supplications
borders
magnificent
##kigala
thoughts
eagle
kohl
ukunuti
inhab
concealed
funerary
nursemaid
warehouse
##sheep
ingred
alabaster
statuette
cauldron
bailiff
cabin
gypsum
muriqtidnim
priesthood
western
annihil
exuber
offspring
##auumgalana
assimilate
74
95
air
age
aworker
bones
cu
cold
dim
dry
dumuz
damu
ep
ec
eana
fow
fight
fist
fact
gle
gates
goring
kept
kamari
met
nu
nan
nth
nimg
oak
pine
pots
ripped
sow
tin
tidn
uu
valu
wander
##iy
##iya
##ror
##rise
##mil
##more
##tom
##lier
##dr
##diri
##year
##pt
##cr
##cher
##houses
##bas
##we
##erated
##anki
##anced
##ouds
##atar
##ately
##ald
##alth
##alama
##reement
##asu
##ashes
##asiga
told
##itutions
##urta
##roat
##ighed
##ayed
##amut
whip
##ires
##ottom
##imud
shel
enam
enul
enunna
encirc
stro
stol
urtur
urikur
uruppak
uritaran
itsthe
##andul
##icult
barber
herders
shore
##riage
alum
soninlaw
nina
ninma
ninmah
aba
monkey
braid
landm
amm
amauumgalana
arable
arali
basa
scal
scept
destroyer
exceed
prostr
##hedu
pectoral
lifegiving
##oses
##cks
weighed
noises
allow
adu
adds
heavenan
##ishing
##ishment
godfear
##ifying
##ize
agent
agreement
appe
caret
leg
leop
handed
knot
loyal
ulg
neither
soc
sobbing
resc
early
earlier
##place
thrashing
ered
support
##engthe
blade
smash
divide
corner
##ifeast
imaki
returning
##angu
23rd
princes
marked
frond
contest
twin
twist
window
takers
rightful
bows
##paign
disc
disorder
iron
turns
sacr
sacrif
seeding
seedcub
16th
copies
corrup
provides
##amah
beauty
weaponry
debts
news
sunrise
alongside
##ocks
wrest
perfected
urgepar
compare
greeting
pigs
elamite
impro
##egar
production
favored
bathed
puzri
begat
babati
craved
establishing
righteousness
rush
sanctum
actively
hurti
lubanda
millstone
boxes
listen
enkis
steps
lowland
##goat
stores
##jected
recite
longtablet
consume
darkened
##ziana
fleeing
gatumdug
lugalegal
captive
inquired
ploughman
scrat
waterskin
ubifeast
purification
crushing
plentiful
duration
duranki
embraced
initiated
egalmah
mallet
itaran
##deal
##enniguru
fulfilled
uzgahouse
kausa
stallion
gemenarua
overwhelm
shedonkey
cultivated
hillockofurbartab
kunanna
thornbus
##official
terrified
munus
##carrying
peaceful
emblem
prolonged
fastened
leveled
firstfruits
complaint
jenny
sabar
bridal
organized
distributed
oracular
ordinary
clothes
campaign
lugalnirgal
watercourse
swallow
akia
stupor
shadow
neighbor
snkid
nig2diri
adalal
preeminent
lubalasaga
etemenniguru
ingredient
stolen
sceptre
godfearing
sacrifice
corrupting
2th
79
84
auni
bul
binds
bottom
crum
dough
dunn
fug
gn
gin
glow
gae
hat
hir
hot
hate
hail
ign
kian
kigal
lac
last
loud
lodged
mood
molds
pac
pest
pack
paws
ride
rough
rage
ritu
raging
sal
same
sang
sides
tends
ugal
ubar
vie
virg
zig
##oit
##over
##oint
##gather
##gener
##rat
##rest
##raid
##mn
##mat
##tara
##teland
##live
##uous
##qan
##pan
##case
##but
##fall
##food
##wom
##heart
##inuga
##aned
##anal
##aran
##arant
##alim
##rehe
inann
toil
##itumen
##ural
##uram
##adic
##igin
##igire
throat
##ets
##irror
##acy
##acc
encouragement
##emony
urugal
##agers
##agala
##agula
wasteland
bara
##olution
herald
##stood
##riad
anus
silenced
plaster
manu
manhood
##unes
worth
ninaz
##suit
suf
sure
chase
houseof
##ounced
doves
amur
amare
##apse
deaf
deeds
ordeal
##ounding
outlying
##istance
across
exam
names
##oset
flown
flashing
##oking
weigh
nobody
accus
##indu
afraid
quick
unre
akuge
utami
caressed
carrier
roar
##galana
##que
##quent
loom
lock
standards
ulaga
buried
##shop
reside
treacher
erda
longlasting
##kura
deciding
snatched
swamp
sling
dressed
##ibi
clods
clouds
evilly
##ables
imm
hole
erekigala
plowing
147
subir
subartu
restitutions
behave
marker
possession
sweetens
##barasiga
placing
opensticks
repay
attacking
attract
create
seizing
abba
singing
smaller
accepting
discover
irg
incense
passing
extend
bigstele
simti
approval
gemed
gemeg
key
teams
princeship
armies
wrought
edges
esaga
##alsi
aua
auwer
added
broadly
compares
impure
cedars
kneel
bowls
fearing
happily
horse
sank
widows
cres
punting
mustered
parents
flowering
sanctified
touches
urdun
fills
hurting
##porate
glor
reverent
gemebarasiga
constructing
fearsome
##ields
stepped
answers
defeat
judges
penis
27th
figs
crossed
captivity
trembling
illumin
walking
bindings
kinir
purify
nril
fisherman
answering
mardu
ninhursaga
existed
lugalkis
hangs
lulal
determines
ebla
remaining
gladdened
crafty
nursuen
##ikil
engender
churning
equalran
equids
meadow
drawn
descendant
gebur
sparkle
admir
relaxing
invoked
lugalgigire
splendid
yellowed
pickaxe
promise
guduoffic
inquiries
griev
exploit
emblems
dabinflour
anzud
helpers
conquered
increased
shook
taxes
##vocable
nintinuga
sumuqan
experienced
winnowed
skillfully
pigeon
confronted
ancestors
naramsuen
nenegar
doorman
openhands
meluhha
traversed
dignity
journey
value
procedure
irrevocable
cucum
dumuzid
gleam
tidnum
valued
##basket
##icultural
braiding
leopard
seedcubits
dunnum
fugit
hailstones
urugalama
attractiveness
simtiil
equalranking
59
85
aanepada
bake
brown
blew
duk
drown
dagan
dung
eal
egi
fool
ger
got
guti
ium
jew
kub
kung
lid
mor
mount
mere
mama
mada
non
nim
pala
pile
pond
si
saga
sie
situ
sacks
till
tilim
usu
uerra
zi
zuzu
zulum
##och
##oful
##obs
##oothed
##iance
##night
##nina
##gu
##ger
##good
##aa
##mon
##mas
##mound
##evil
##tuku
##lail
##liness
##dri
##qar
##pipe
##kar
##kir
##cry
##cont
##canal
##bre
##bod
##bread
##bni
##fur
##fri
##fts
##field
##wall
##word
##ween
##jun
##inu
##orted
##ankug
##anedu
##arc
##atten
##alter
##ilig
##ilalu
##aseless
##asilig
tooth
##lear
forces
heard
healthy
##urt
##urra
##urtur
##adala
##igar
##igara
##aying
##ayasi
##abouts
beating
##ament
##irgal
##acing
##imony
enlar
enhedu
enanedu
stud
styl
onagers
##ices
##icol
##icious
##agn
myyour
barbed
##olin
##olina
shiver
shara
shows
##static
anam
##ains
silently
##antom
pla
himthem
real
really
alad
oneh
ninul
ninmu
ninagala
##akal
chap
##fted
greatbarge
abis
abod
grant
grind
spot
builds
amid
pressed
##oving
##istent
worktroop
workshop
namhani
flame
flock
weeds
wealth
breach
breaking
breasts
cond
noon
adj
urnanna
urnint
##ukk
##ification
unt
unit
unsh
agasilig
perished
perpet
roared
leaves
headpl
##wort
##kua
##ailable
bursin
emu
downstream
resound
resounded
##planted
butcher
err
eradic
gudupriest
governorgener
blown
blue
smlail
broke
mothers
ulgiil
whereabouts
##awoods
umani
##meas
festivaloful
immun
hook
luinanna
cowpen
subs
subst
submer
puts
marriage
franc
gatekeeper
sweetwort
midnight
##baragesi
amarayasi
twice
##ilege
abbamu
guilt
disl
battleax
186
endu
passes
riverbank
165
##igalim
corporate
ili
doorgate
gemel
buildings
usin
teacher
deficits
fury
##appro
foreigners
nigark
iddin
ceaseless
talk
pleases
slavegir
equipped
bearer
throughout
courrier
elamites
artis
coll
moored
angu
angel
consign
mesilim
advance
advise
advised
battles
multicol
nungal
17th
horses
limits
began
cracks
punishment
19th
groom
##urmuring
threshold
entries
entrust
ursilalu
flowers
lumah
textiles
gigur
sailing
ablebod
gemee
cleaned
sagub
sagkal
inimanizi
issuing
bags
location
located
fruits
binding
phantom
lugalmelam
ubur
collected
population
cleansed
verdicts
##iqam
fisheries
burned
crafts
stretches
riding
##ground
sanctuaries
itarn
##deb
sticks
urninurta
ebony
pasture
soldier
halankug
occur
descendants
painful
between
exorcist
breeding
excavating
relaxation
obliterate
elev
eleph
robber
undo
workingfort
multitude
madar
solidify
ceremon
ceremony
dumugi
extens
reaching
firstfruit
ferryboat
hyena
torch
achieved
auroch
eabitumen
murder
semolina
##ninazu
brilliant
brilliance
pronounc
loosened
implement
implements
requisition
requisitions
flattened
accomplish
lifet
selected
suspic
aszsz
uncle
overflowing
precedence
sharpened
cantor
girlfri
obligations
available
kiln
outskir
converse
attendant
structure
prosperity
laughing
nanaia
inhabit
ecstatic
fowler
landmountain
eredigir
sacrilege
wrestler
ninazimua
suffer
quickly
irgida
guduofficiant
grievous
egial
tilimda
stylus
governorgeneral
festivalofulgi
immune
francolin
nigarkidu
ablebodied
workingfortifying
aurochs
girlfriend
outskirts
41
65
76
93
aver
bil
bits
biduga
cher
cress
dn
dawn
dunes
ean
eum
eus
fared
fasting
frog
felt
ga
hing
hated
hiy
iw
ild
kad
lue
mot
mast
mass
mash
na
ot
pn
pity
pill
pays
paw
post
pounding
rent
rub
renders
roset
sen
sap
sadd
tamar
vig
vine
wig
wax
##oor
##obed
##iet
##iable
##iated
##ius
##iiliu
##iatal
##nig
##noon
##gil
##get
##gaz
##gark
##master
##moke
##murmuring
##equ
##ties
##laim
##pirig
##piring
##pouring
##san
##hn
##hol
##bum
##bow
##bale
##bea
##fined
##wa
##zard
##12
##jects
##hea
##inc
##inabad
##inkua
##anes
##edge
##edged
##ouching
##aru
##arf
##arin
##arzi
##inging
##atep
##attered
##ester
##aling
infer
fors
itur
##urse
##adru
thread
##abe
##abani
##amb
##ete
##etuous
##irm
##irth
##idden
##acious
##imp
##iment
##immed
##imti
isimud
##th6
env
stag
start
onager
##ump
##umed
urku
urenlil
urtum
##terr
##ulations
##icating
##estal
myriad
baranam
show
shouts
shrie
notind
##riers
##rival
anx
ank
anthe
anointed
silos
plund
season
recum
reiter
alg
alamu
wore
ascer
ninmen
ninkuzu
enlila
wheel
chain
chop
chases
##ctum
abe
aban
uplands
doing
dove
amars
amounts
##aping
##apid
##apinkua
ar2
deed
dece
orph
dida
##erve
123
##oves
intest
exting
exists
##uss
##usz
##ouldlive
oxdri
string
flute
##ellent
convoy
nobly
accum
acclaim
##oused
##child
undertaken
adult
adudu
adgark
quadru
##oped
##ifer
afternoon
##azing
unsuit
unalter
##endursag
apil
apiece
##iverted
utters
legs
watery
loaf
oxenman
uluh
earr
fatherinlaw
##ansa
lambhides
tread
##plored
##placed
##sely
##kalama
smiting
sniqam
insurg
drank
raisins
trimmed
akkadian
imbu
imsag
imagi
implored
ibartum
stature
establishes
luaya
heroic
plows
committed
##ofheaven
rested
boatmen
marha
apprent
##innum
daughters
coated
##mining
royalty
assur
praising
attach
elo
abbau
takarin
guarant
indu
follows
discer
disobed
incite
ended
endless
##blem
extent
extrem
cheek
##atory
enemyevil
bigfestival
simnum
cords
corres
joyously
gemem
nannies
kindazi
floodstorm
blacksmith
minis
objects
nigurum
giapinkua
slaughters
demanded
residences
goldmound
##udua
everywhere
matters
capital
inspected
fuller
sque
borne
##ixed
eyesmoke
faceey
216
urgu
plains
final
court
greener
urimma
confront
impetuous
colony
mooring
mesanepada
##brid
neti
puzurm
##arik
dias
diarr
enanatuma
fattening
ninsadu
payment
crab
crook
195
perfecting
transport
musc
treating
utterly
counselor
containing
rainbow
excellent
hurts
playing
balbale
gathers
reliable
carefully
construction
partial
##goats
releasing
sixties
issues
consuming
consumes
emerging
288
designs
designation
siskuroffering
captives
soup
walks
ploughmen
##lik
lugalmum
kinira
##offerings
saman
striking
strikes
purifier
verdict
bestow
getinanas
friendly
hallsan
generals
stretch
dirty
involving
acquaint
exercises
facing
faces
ridden
eaflour
arrowhead
roofbe
violent
urninmar
famine
lullab
lullubu
##itude
fortresses
screamed
screaming
frightening
knewlear
despair
admired
malevolently
incantationsmurmuring
vegetation
nails
breeder
concern
smallshekel
gemenin
invoke
pluck
accompan
agricultural
finger
pushed
##emonth6
allotted
abundantly
cultivation
bellowing
promised
absence
dragged
highlands
solidifies
respectful
ladies
masons
affairs
cloister
puzursh
excessive
occupies
eabani
freely
fetch
waiting
pronounced
genius
sorrow
waradama
observe
favourable
sigflour
thirty
##etermining
becoming
becomes
departed
housemonth6
##ponding
hews
##throne
reckoned
supremacy
restrain
fatedetermining
jackasses
pedestal
pouches
pulled
practice
offshoot
awesome
causing
penetrate
itstheir
abaenlil
caretaker
twisted
discuss
scratching
crumbs
gnaw
virgin
ziggur
unrefined
gemedardu
crescent
lugalkisalsi
engendered
##baskets
ealubi
lidga
mortal
onehalf
abode
condition
adjac
urnintu
dislodged
artisans
elevated
elephant
lifetime
suspiciously
eusiga
hiyare
iwouldlive
otter
rosett
senior
##beaut
baranamtara
notindeed
plunders
recumb
extingu
adgarkidug
unsuitable
unalterable
oxenmanager
insurgent
imbued
marhai
disobedient
corresponding
greenery
puzurmama
diarrhea
hallsanctum
knewlearned
75
83
aian
bun
bov
bite
cake
dap
drip
drehe
diverted
eight
easter
fair
gakk
hut
hip
hard
hund
iv
iar
ket
kum
kib
led
lain
lars
lots
mut
mubi
nal
naw
nue
oper
pel
pri
pap
pair
please
pupp
ponder
sight
sine
sending
sutium
sounded
ti
tit
test
tent
tip
trow
trip
tah
tirig
ua
ued
ukal
ubu
uiliu
ven
vase
veter
ways
zub
zage
##oing
##ogn
##iana
##na
##nim
##gara
##gue
##gira
##ral
##ric
##rage
##rites
##my
##may
##lku
##ded
##dest
##use
##yond
##qiiliu
##pended
##xcess
##sing
##cel
##cast
##bel
##bam
##bol
##bals
##birth
##bansa
##ff
##fill
##was
##wise
##za
##26
##inter
##infor
ofat
##anu
##anun
##ouch
##oubled
##arakiag
##atch
##alm
##alk
##alle
##alabor
##alone
##oning
##enters
##iling
##ilsag
##isu
##isen
##issu
##reme
inund
invest
infl
inimin
inwith
##itors
##lebr
itr
##roth
youpl
##elary
##adv
##igate
thinn
##abz
##abala
beyond
##ameless
##eth
##irina
##idim
##acement
##imt
##imized
enmah
##eme
stair
stock
onru
##ument
urge
uraya
ururbartab
urigalim
##terior
##ults
##ulgira
##owards
##owmen
whoever
lip
lived
lizard
##ional
##entum
##olved
##earth
shut
shame
shaved
fromat
##station
##stool
##stock
##rive
##antum
planned
##annum
mani
arei
sever
read
revol
rejected
##unted
##ununa
##unire
algar
ash
asar
ashes
asking
##suiq
##suentum
##akara
##ceeds
sud
chased
greatfestival
gurz
grab
gracious
spit
amen
##apes
##apriest
##udi
aruru
basin
##atexcess
##aborate
126
ningir
lamm
lamenters
exterior
##usc
##ush
proceed
process
##oster
flowed
sealbearer
lugala
lugalanda
lugalpirig
lugalunire
conc
accused
alloyed
mountainland
silversmith
adze
quit
##opes
urnam
##azed
ago
aggress
boasting
##endit
utus
role
root
rogue
##galama
fourth
shoulders
oxenbo
##ailing
necess
awan
awake
##asters
eme
emuk
empl
soothed
sohn
storms
##share
resolution
##ieved
erid
135
akkan
blowing
blunted
decide
snm
harness
divor
lamentations
##away
##ibtum
nindar
clan
delib
deluge
umama
##undul
imped
speaker
hoisting
maker
ibni
lu2
luug
luuru
luenlila
retrie
erect
dwelled
highways
fragr
fashions
midrib
##ultiv
##ultless
asses
amarsuentum
contented
commander
ellud
elapse
remission
abbag
abbread
prayerr
disgr
irnina
turning
includ
amarsuenarakiag
184
##ceding
chew
biggo
simat
arahi
ilu
ilam
doorkeeper
skull
skipp
builders
liter
lungs
cleared
##unning
dugru
flooded
flooding
floodwater
sinmagir
##onded
faultless
offeringritual
secret
lugula
depression
sunset
lioness
fullbody
armed
forthat
esikil
215
255
##inspiring
addressed
finds
interpreter
eyeface
consisting
purch
favorite
floatexcess
puzr
puzurs
otherwise
widened
22nd
crime
damiq
damqiiliu
territories
storehouses
laying
transfer
transgress
regarded
current
grove
poison
entr
sanctifies
##after
irrigate
urdumuzi
urdukuga
footstool
ezimu
ezinak
ezibtum
farmers
radiant
furiously
giri
girnun
lubimu
potter
elders
ferment
##when
assignments
replacement
tumult
ninkununa
##aceddeb
egar
sickles
recorder
standserve
favorably
emery
emerge
devoted
manifested
hostility
lugalebansa
walk
straightened
expendit
dispos
enunugalana
kinds
karar
exchanged
doubleh
hills
learning
combined
dilapid
exhausts
carcass
embracing
truthfully
dadumu
initiates
egalma
kurgar
richly
##coal
conveyances
aweinspiring
marveled
nagar
nagsu
##grain
##pray
multiplies
eaar
choosing
blocks
quarreling
approaching
violently
##stranger
breaks
dragonface
ipqu
##girgal
plundering
requested
##ancy
urenunna
flatter
appeared
crafted
hireling
engenders
lugalsisk
runs
##profound
planking
vegetables
eengur
betroth
entirety
signs
invoking
charcoal
lugalgudua
composition
432
thighs
##amarsuen
stayed
stillborn
prowls
breathed
dingirma
argue
traitors
grieve
nusku
slanderer
parasites
##covered
traveled
proudly
affixed
clois
ferryman
denig
domain
hybrid
patrim
rendering
wetn
stopped
arrang
conquer
dublama
falcon
jennies
ranks
sadug
conversation
nindanirgal
kalkal
sorcer
suspended
intentions
sumuel
observed
furnish
thirst
ursukkal
agrunkug
circled
ribs
wonderful
ascend
ascended
proclaimed
soothing
contempt
deposited
dubdub
tutelary
embell
giriniisa
majestic
lyre
enmebaragesi
succeed
arrogance
unseen
furthermore
emptied
maturity
exuberance
nimgir
scales
thornbushes
glowing
ignor
lacerated
loudly
pestle
rituals
ugalam
##gathered
surely
treachery
illuminate
fugitive
kubaba
kungar
##furious
##arcated
chapel
headplowmen
eradicated
##measures
substance
battleaxe
##appropri
multicolored
extensive
unclean
cherished
eumea
rubbed
saddle
inferior
iturungal
urkusu
##rivaled
anxious
reiterated
ninmena
chopped
orphan
intestines
accumulated
quadruped
minishekels
muscles
abaenlilg
adjacent
recumbent
dappled
drehem
eastern
gakkul
hundred
ivory
nalus
operate
sinew
tiara
trowel
uedar
##balssuiq
iniminanna
oxenboot
impede
retrieve
elludagan
disgraceddeb
biggovernor
damiqiliu
ezinakusu
dilapidated
lugalsiskure
betrothal
##balssuiqbi
disgraceddebased
1troop
78
71
73
98
99
aa
aus
aabba
bod
crow
cunning
dus
daba
dines
daw
dying
duly
datep
eunir
flew
gall
gub
hes
hig
hav
hani
irib
jamb
kab
kut
kall
kagan
lent
lav
lala
lengthe
langu
mri
muk
marsa
muru
n6
oars
pada
pounded
picked
pipe
ponds
piece
round
rays
rout
rates
rides
sear
self
size
tar
tam
tug
tub
tried
tire
taught
tarsirsir
uum
uarum
van
von
wip
wake
wage
wears
woods
wishes
wives
ze
zir
zaz
zubi
##og
##ob
##oid
##nu
##ner
##nment
##gen
##gina
##gmil
##aizu
##right
##mill
##might
##mold
##mouth
##mirror
##moving
##mbol
##ebr
##ekug
##tr
##tul
##tions
##tained
##tablet
##ll
##lable
##dis
##dagan
##dingir
##demon
##qa
##pow
##pent
##poured
##xhi
##xicating
##ster
##killed
##kbi
##cut
##creat
##come
##him
##how
##happ
##bad
##bars
##bund
##boy
##bazi
##fles
##foot
##fields
##wr
##zed
##14
##11
##22
##va
##vation
##vate
##voice
##village
##75
##hest
##iner
##inas
##inim
##inie
##into
##inazu
##anks
##edina
##ouched
##ingal
##atim
##atter
##atill
##atura
##atified
##aluge
##onial
##enous
##ench
##enki
##enched
##ilder
##iser
##rec
##assu
inana
inlaw
inflicted
inappropri
##itic
##lets
##lemn
forb
heat
##urine
##adix
##igidu
##igenous
threat
thins
##aban
##abandon
##amed
##ames
##amade
##amana
##etem
##eturn
##iru
##irum
##irib
##oting
##acle
##acles
##action
##acacia
##imit
##imma
##imdu
##immu
shegoat
kingal
##throw
##thron
enr
enent
stable
stored
stink
stacked
stairs
stinking
stalk
##see
urp
urur
urabba
urakk
##iced
##ically
##vering
##agin
goad
wash
washed
washing
##ential
bare
bark
barbar
##keep
##uten
##utum
##herds
##herder
herding
shorn
shores
withstood
##allum
##epl
##ugan
anu
aning
anail
anheaven
anew
atec
plated
manum
manacles
##ived
##lila
##unukuga
ally
alban
meenlil
meaning
nintu
##super
##akuzu
chann
houseborn
##ipated
abra
ability
grave
grapes
gratified
money
span
spelt
spadix
amor
amazi
ambus
cityc
##udea
##udkura
araz
arsi
arthr
arisen
basalt
origin
press
pride
##ofthe
outfl
outcry
124
121
125
thereby
ningek
labortroop
intae
exit
exult
##usi
##usion
probab
propit
peer
##ubani
strengthe
flap
servants
grainhe
##eller
##cking
lugalt
lugalge
lugaligi
weir
alluring
setadv
undertak
adaga
adjo
heavenwards
##ishly
afterward
lordly
##izes
##ization
unable
unch
unblem
unrivaled
agugu
agades
boar
boasted
apex
akiti
uta
cargo
roars
canebr
##quence
knobs
##gibil
overcome
##auz
emudkura
solemn
##shaped
resides
##verness
birch
##places
##ieces
##kali
earthcarrying
earthmoving
smites
smashes
##kuraga
sni
sniff
snbalssuiqbi
purebr
slain
slip
slapped
divided
dividing
drain
dress
wherever
##uzi
clas
clim
clut
close
tract
troubled
cornel
delim
##mekigal
hoof
bitch
regulations
luhu
retreat
plowed
##onsumed
delivers
##angled
posit
howling
rests
marad
desec
highway
wordcase
daughterinlaw
sweeten
sweetinto
cost
coach
cooked
coals
provin
proved
115
117
amarki
nanegirgal
praises
##uena
brotherhood
elaborate
remit
##venge
indasu
urbagara
iran
turnips
incites
receiving
countenance
enduring
##cedar
extr
rivers
rivercanal
166
bigcheese
steal
ilbani
##inkling
##priestess
gems
##autu
liters
lunch
lunches
lunarua
cleverness
keel
keekug
kindly
obey
sinirib
##ription
neckstock
verified
fog
matron
pours
seventh
fullers
fulltime
ninurt
standingplace
ess
##ressing
thingsfood
zabu
performs
performer
equip
##wery
finely
arad2
protection
interrup
milking
greet
dogstranger
calfgaz
pathas
artful
colored
moist
consort
prayeroffering
meskiag
purp
purity
produces
producing
advoc
##brought
nets
puzurn
calc
##marsh
ninsar
ninsiana
officials
crack
crimin
croaker
punched
198
muhu
##biya
righteously
muster
musical
lifting
##cloth
inscriptions
poin
entreat
flows
lumm
lumelam
moreover
##alik
ezida
raining
determining
trusty
hurt
hurled
potters
player
ornaments
glory
cattlepens
relent
relative
listened
listening
kakug
tasks
recited
recogn
champion
dabala
##ban2
276
figurine
ganxhi
brightly
hungry
thickened
scatter
##lessly
heavily
insulter
insulting
straightaway
##lifted
lieuten
sprout
intelligent
symbol
ureanna
direct
heirs
junipercedar
chariotry
nradda
rivals
weary
##eningal
##standing
grasping
tallow
marshland
exercised
males
malts
malicious
conveyor
marvelsee
udugita
multiplication
daumma
daistent
blocking
duck
lugalemu
fulfill
bearded
kusu
fortification
pastured
libations
roaming
tavernbre
planks
geese
shouter
announced
locusts
habit
habra
painfully
betters
belonging
claims
eleli
charming
reedbeds
inspectors
prowling
robbers
festivalofninazu
festivalofmekigal
rebellion
fingers
fingern
igigal
igigi
ennupriest
allotments
urningal
hillockofplant
hillockofacacia
kuningal
lusaizu
##eminates
starvation
absimt
argu
expert
executed
terrifying
huwawamade
676
catch
cripple
dumud
wolves
stela
galatura
masab
freedom
sweeper
increase
occupied
achieve
false
falsely
frequent
fetters
piling
semen
yielded
bridge
conversing
distribution
accomplished
guzz
member
members
series
serpent
##harbor
##waterway
lifts
select
ordinances
trampled
larak
poles
heights
envoys
needle
disappearance
feeling
sharpening
nonex
pabilu
pabilsag
victory
victories
heaping
sexually
sexual
revoked
assistants
obligation
dubban
safe
##humbly
throwsticks
enakale
atamofficial
amagetin
ibexof
supremely
sacrificed
sacrifices
sprinkle
sweeping
filthy
gusur
luzabala
puauz
##alagash
suhur
arrogant
allocated
unsealed
exuberant
##amutum
shelter
encircled
exceeding
knotted
ulgim
rescind
munusgil
organizedgathered
hirin
view
slingstones
gemeganun
admiration
cucumbers
gleaming
simtiilak
gutians
jewels
mounted
##attened
enlarged
student
plaque
realised
abisare
unshorn
subsistance
iddinerra
slavegirl
collaps
craftsman
madaria
pronouncements
requisitioners
eania
ildag
lueb
massive
tamarisk
##equipped
ankle
guarantor
discernment
extremely
gememunukuga
squeez
faceeye
finalized
lugalmumag
acquaintances
lullaby
puzurshulgi
freelyhumbly
##beautiful
larsas
mubiana
private
testimony
tirigan
zubaga
##interpreter
inundated
thinned
spittle
amenable
ningirim
abbagena
expenditure
disposal
doublehour
cloisters
patrimonial
wetnurse
furnishings
quadrupeds
abaenlilgin
datepalm
heshe
iribare
kutalla
lavishly
language
mriqtidnim
route
##happiness
##flesh
##abandoned
##etemple
enentarzi
##keepers
ateconsumed
albanidu
##superimp
ambush
arazame
arthritic
exultant
probably
propitious
setadvanced
undertaker
adjoining
unblemished
purebright
desecrated
sweetintoxicating
siniribam
prayerofferingritual
advocate
tavernbrewery
hillockofplantoil
munusgilsa
69
88
81
97
aid
aia
aenlil
auda
aagar
bount
bother
bends
bibi
cum
cada
camp
casts
dann
dud
dies
dair
dread
dedu
eam
eul
eki
euz
ebar
fro
fought
fang
foster
gore
gull
gala
gotten
gubi
gadala
hay
hiding
hinds
ikn
je
ju
jum
jail
kan
kim
kara
kuli
katar
lon
lance
lice
lint
ladd
mi
m2
med
mam
mug
mates
max
mss
mirror
nis
nom
naga
nov
ov
oar
ori
pan
pis
pas
ple
pum
pant
pier
pae
pounds
pounced
ra
rat
rab
rav
rather
rotten
ropes
razed
sple
sown
sings
sidu
sink
sowed
sense
tu
tight
tuk
tie
tarm
tult
turm
uw
vo
vis
viper
wides
yar
yoked
zu
zur
zid
ziz
zamu
##ook
##oots
##obil
##iam
##iest
##iak
##ience
##iwork
##iage
##nake
##nane
##nund
##nene
##nunk
##gear
##gated
##grow
##gazi
##groom
##rade
##range
##rates
##rily
##raint
##mother
##mats
##miles
##ef
##eas
##ton
##tocks
##touching
##towards
##len
##lative
##dle
##dir
##dant
##dedic
##dra
##dress
##dili
##dec
##uit
##ule
##usuen
##uana
##uinak
##ueship
##4f
##42
##46
##yri
##yone
##qp
##qir
##qartum
##pi
##phe
##pal
##pel
##part
##pions
##path
##ption
##son
##saga
##sold
##skin
##kidu
##kins
##kallum
##cor
##cket
##cund
##cons
##crown
##cra
##cultiv
##hur
##hak
##hide
##haps
##haya
##hali
##handed
##bound
##bond
##fly
##fine
##fish
##furn
##founded
##front
##wear
##weet
##warf
##zit
##zad
##zana
##zze
##13
##96
##vessel
##ja
##34
##hen
##eric
##erial
ofwhere
##anka
##anyone
##edding
##outed
##arrum
##arlings
##arinnum
##atd
##atab
##atings
##esz
##aly
##enth
##encing
##ilen
##ilty
##ilpa
##isasa
##istern
##reg
##rears
##reinfor
inf
inon
inex
tog
tofor
##itab
##itana
##ituted
##leg
##lev
fork
forced
forward
forserv
heeds
hegoats
##urr
##urest
##urbed
##ading
##aduga
##adamut
##igure
##igimu
thor
##abar
##aben
beings
##amin
##amati
##ambles
whir
##ethe
##etina
##etition
##irds
##irtum
##idi
##idab
##idary
##iditana
##oteric
##imama
ist
isare
shearlings
kingmaster
enorm
eninn
enenlil
enact
enuru
enedu
enthron
##emble
stunn
stakes
##separ
urru
urabzu
urendursag
uriru
##ulace
##icing
##icate
##very
##verty
##verdant
##agugal
##esty
##estar
##establ
barrage
##eared
herbs
shav
shocks
shameless
##ston
##stomach
##stret
withdr
anvil
anadamut
##aints
##anni
##anning
manworker
mananyone
seas
reward
##une
##uner
alal
alul
alub
worn
worried
asks
asked
aslum
mean
bush
##illat
ninz
ninild
ninti
##sud
##sukkal
enlilship
enlilbni
##aku
##aken
##akum
##aklku
bani
##ipro
gurma
abi
abz
abil
grou
grape
monster
##fecting
braying
brambles
spi
spade
spell
spind
spared
spades
upstream
doctor
docks
amarm
ambar
ammur
##apon
##uded
arua
aroused
arkali
arzana
arrears
destoyed
totality
prim
##rub
##erving
outstanding
ningar
##oval
##istence
##arta
intone
intoned
intoning
servile
##erext
ruling
exiled
##usag
##usisa
##arda
##arded
##arduk
comrade
prop
progen
namnund
namzit
##ribe
##orned
oxend
##ubba
##ubalag
##osition
flashes
flanks
##ellation
offabandoned
lugaleng
lugalala
lugalanatum
lugalpae
lugalgir
wealthy
brewing
conven
conifer
allkn
mountainrange
##indigenous
##aisa
##cho
##chick
silvery
fatbread
adamin
watched
quart
peopleland
belarik
urnum
urnisaba
afterbirth
nannaisa
##aza
##azum
##azige
##izing
##izen
unur
unleas
unpar
unaben
agala
agrig
agadala
boiled
perman
perhaps
apiak
apkallum
beerbread
beerpouring
akala
aktu
utens
uttu
caress
carriers
lever
leaving
leads
leaning
##perform
handwr
handiwork
watermarsh
nameyear
headgear
##galabzu
##icken
loin
mightyreinfor
ull
ulal
ulma
uludi
##ulled
broughtstation
awl
awal
towed
towpath
bursag
emes
##shr
residu
birurt
##plants
##ieve
##iegated
thrash
persia
errum
erases
gudaps
138
132
smell
smashing
smoothed
smeared
snacking
sngmil
sword
##anean
##aneously
##zuzu
harmon
suens
speed
slack
towardsalone
##ibar
##ibbu
##ibility
##ueigimu
##peas
##pectoral
clar
closed
clenched
trad
track
instituted
woolsheep
dedicating
umu
umbil
##atumdu
##ighth
makan
luig
luazida
luulgira
sarcast
##anah
##anga
##upae
subdu
subterr
commits
commission
##oughmen
restoring
restores
boatman
boatbu
marhali
womanhood
desol
highquality
apply
lapidary
brickmold
##minating
warp
provision
##barley
assorted
assyri
111
112
116
repays
##working
mouthword
attack
attacked
cuts
creates
elite
remar
removes
harvesttime
##joicing
menil
presentation
foliage
guugu
guilty
finequality
indagara
irsu
irigal
irsag
incised
incising
disturbed
188
181
185
extol
extract
backcon
riverine
anymore
164
bigger
sisters
araamu
birthmother
skins
justly
nanni
nannakam
nannakiag
wellfounded
boundaries
lunatic
duge
duganizi
powerwing
##passing
mined
foreigner
siniq
distantrem
distantprofound
bedding
nigbaba
nigtuku
debris
demarcated
sucking
idilpa
beautifulverdant
celebr
lugudea
foe
material
grasses
sevenheaded
constable
lagar
wrath
wrapped
pleasures
edana
edada
##altum
esz
esoteric
splits
feather
feces
fecund
humility
##versing
252
urgula
addressing
finest
aradula
protecting
surpasses
broadened
##esee
compete
courage
grease
tops
officers
officiant
242
244f
confine
confusion
countryside
impose
angrily
##ordered
consid
kiritab
meskalam
products
adviser
##bringing
##anumea
junction
orchardman
##they
grandstele
grandfather
instruct
instructing
assemble
diworkers
fatteners
calender
ninsik
171
widely
##intaba
suitablecarrying
babies
cranes
crouched
##volent
coveredco
199
197
udder
merely
##tiea
assemblythrone
curved
parts
paraly
##clad
treats
holders
poverty
entry
flower
flowered
counseled
borderland
lumber
lumapriest
lights
redfurious
irrigates
actually
activity
getting
rains
rainstorm
firmament
trusts
hurried
luba
superlative
potion
balk
glance
nineb
##rupted
relied
ugnim
reverence
geme2
gemeulgi
gemeek
gardens
partic
saggal
sagida
enkum
##ocy
schoolboy
digging
##going
judgements
egiz
egkuraga
sixth
innards
recieve
consumption
lugalurani
gan2
brightened
brightfaced
devoured
devouring
demonstr
##munu
scattering
fishes
solitary
responsibility
bolts
bolted
magur
magure
maguena
ploughs
ploughshare
refused
breeze
taskarinnum
straighten
##oteundul
sprouts
keeper
hamazi
urebabbar
adornment
collector
directs
functionaries
populace
doublemiles
oppress
oppression
292
burnt
carcases
decorations
truthful
merchants
dadu
kills
killing
existence
tribe
acquired
honeyplants
kurun
kurmeasures
kurzze
forming
formation
formula
##prinkling
daagi
##exec
maazum
wickedly
lugalema
towering
feature
ninegala
request
spacecrown
weakness
weakened
appropriately
ebgal
family
##ancing
fortress
urenki
idiocy
cleansingrites
maidserv
nurse
paste
pastures
##oints
diviner
benevolent
driver
drive
gazellesnake
plentyhappiness
lustrations
gebanda
triang
##haver
annoyed
lugalnigine
honest
honour
stallions
supported
subjects
entirely
obliteration
baamu
causeways
pauper
##arram
urubaba
merciful
homes
lahama
##withstand
lugaluumgal
festivalofan
festivalofbaba
meslamtiea
colleagueship
diffic
daggers
fingering
igiz
zambiya
##kininazu
exude
pickaxing
pickaxes
bellow
bellows
kisikininazu
madga
pitfall
siraran
##usudra
thorny
argument
gudu4
shrinesea
shrinesplaces
delightful
wintertime
solidified
inquiry
inquires
leaderbond
iddindagn
subjugated
catching
feeding
munzer
pulver
ninmusisa
ninmueigimu
traveling
steadfastly
gutar
laden
gooseflesh
sumaccheese
levels
648
denuded
torches
heeded
arrayed
complaints
abbakalla
urlugalbanda
occupy
correctlyset
renovate
dublautu
pilasters
piloting
enjoyed
shoots
surround
trapez
traprest
youthfulness
supplicate
borderext
oracle
intention
clothe
ursaggalama
bazizi
bazige
camel
furnished
kisiga
larag
police
##comm
chickpeas
alienated
audatur
audagula
audience
bandage
wonderous
bridegroom
soothe
inspire
inspires
assistant
contempl
skillful
pigeons
naramil
knowledgeable
aveng
tuttul
enakuana
urkisal
reasoning
abuse
sprinkling
expanding
ahuni
filtered
guggazi
miser
pouch
roll
rolls
enmeziana
succeeds
arrumil
arrumbani
primeval
offshoots
awesomeness
singularly
emptiness
causes
annihilating
epum
nanaya
nanibgal
potsherds
wandered
##drinking
enamzu
ammiditana
appeals
socket
rescue
improves
improved
overwhelming
thornbush
hatred
hirim
sanga
##womb
##woman
inannas
amarezem
deafness
accusations
utamiarram
immobil
gloriously
cucumber
simtiilhak
dukra
drowned
germinating
nonindigenous
nimintaba
situation
usually
ziusudra
##contain
##junior
enheduana
enheduanas
grinding
amidst
flocked
perpetual
gemelamma
consignment
consignments
advancewithstand
entrusted
ursilaluh
gemeeanna
gemeeila
phantoms
occurred
ceremonial
aszszurm
765
averaged
hinges
mottled
pillar
vigor
##incant
algars
ascertain
abeu
amarsin
oxdrivers
earrings
apprentice
eloquence
induces
roofbeam
gemeninubur
accompanied
ziggurat
rosettestar
extinguished
bovine
mutton
tipak
tahiatal
ubuukk
##alleled
investigate
enmahgalana
staircase
onrushing
urgebare
several
ashgi
gurzan
lammasaga
urnamnunk
aggressively
emukalama
eridingir
luugina
contentedly
prayerritual
included
skippers
215f
puzrisd
puzurszad
fermenting
nagarbi
##prayers
craftedfurn
sorcery
embellished
uncleanliness
dawned
gubin
highest
havoc
zirru
##mighty
##power
##atillati
inappropriate
forbidden
enraged
urakkan
barbarian
aninga
anaili
amorites
citycities
original
peerless
unchanging
utaulu
canebrake
sniffing
delimiting
coachhouse
provinces
equipment
interrupt
calfgazelle
pointed
habitations
frequenting
amagetinana
ulgimuda
collapsed
aenlildir
cadaver
dairy
eulma
euzga
fosterchild
juven
ladders
maximized
novice
pasira
pantry
rabid
ravages
spleen
tarmuram
tulta
voices
widespread
##dedicate
##soldier
##atingsprinkling
inexhaust
enormous
eneduana
enthroned
stunned
uriruvillage
shavings
anadamutaklku
ninilduma
spindle
amarmn
namnundak
namzitara
oxendri
lugalgirizal
convened
allknowing
fatbreads
unleashed
unparalleled
utensils
handwriting
mightyreinforced
broughtstationed
towpaths
residue
birurtura
gudapsm
dedicatingdedicate
umbilical
sarcastically
subterranean
assyria
backconfine
siniqiam
distantremoteundul
idilpaunu
meskalamdug
ninsikila
coveredcovers
kurzzeilen
maidservant
traprestraint
borderextreme
urnamnunka
puzurszadue
craftedfurnished
aenlildirie
distantremoteundulatingsprinkling
86
94
91
92
aan
aab
ath
action
ble
bill
bib
baya
balu
bench
cou
cave
cerv
cren
cakes
cater
dan
dar
dal
dag
dear
daga
dorm
daz
dara
dare
droop
diverse
dingirsu
dashing
eh
e2
eas
eel
eell
esh
epe
ease
eban
eurb
echo
eighth
fle
fara
fawn
fails
gear
gated
gaba
gez
gagi
gangu
garta
hug
hud
hards
hating
hendursag
hulled
hanah
iyou
jo
ja
joint
jester
kuk
kau
kue
kalla
kagina
kark
kae
kuge
kasura
lan
ling
lab
lak
lack
lute
lanc
later
lacking
lirg
lqp
ment
mol
mom
mould
merr
milled
mesh
misf
mami
ni
nid
nak
nations
nuri
naked
nira
pup
pise
publ
pieces
rig
rum
rip
rap
rman
rung
rene
rape
rumin
ranger
ripe
rounds
sed
sip
soft
ski
sage
sapp
sired
syl
sows
seller
tere
tender
testic
tirg
tables
tissu
tangled
ukur
ubis
uhani
uidim
ve
vul
vic
vom
vill
vision
wre
wur
wad
wars
wagg
waning
yore
zal
zum
zib
zimud
##ole
##ople
##oise
##ooth
##oiled
##ienlil
##ique
##nt
##ns
##not
##ners
##nip
##nia
##nunna
##gas
##gle
##gel
##gem
##great
##garm
##gory
##gula
##gutium
##gulation
##gunu
##gasu
##gshaped
##gatumdu
##aum
##ault
##rul
##rais
##rons
##rani
##rating
##ramp
##rinking
##rouch
##mit
##met
##mug
##mers
##mour
##made
##mus
##mind
##mans
##mout
##mama
##mond
##mony
##ee
##e3
##eur
##ext
##tes
##tim
##tch
##tings
##tree
##tached
##tlen
##lig
##lun
##lap
##liver
##lib
##life
##large
##lusc
##dem
##down
##dwell
##dled
##duru
##dead
##drew
##distance
##uere
##uff
##yrup
##qum
##pers
##pill
##ply
##pries
##sp
##sed
##sur
##sare
##spread
##kum
##kuga
##kene
##cy
##corn
##calf
##cals
##cept
##cceed
##conded
##hy
##hal
##his
##hic
##hout
##holds
##bin
##bit
##bet
##breat
##bone
##burs
##bred
##bra
##bility
##fth
##fol
##fess
##fight
##figure
##ww
##wat
##went
##worm
##wailing
##zur
##zid
##zsz
##175
##98
##28
##2e3
##vived
##jar
##71
##65
##35
##heds
##heads
##inst
##ints
##ince
##inura
##inisu
##eras
##erep
##erate
##erted
##ereturn
##orts
##orch
##orious
##orial
##anan
##anel
##anibgal
##anawoods
##edin
##eden
##edanumea
##ouble
##aram
##arent
##arke
##arali
##arily
##ingu
##att
##atches
##attu
##esir
##esent
##esters
##alist
##aludu
##ennam
##encouragement
##ency
##ilit
##ilight
##ilated
##ilizing
##isc
##isel
##isher
##istered
##isiga
##isige
##rep
##reet
##rets
##reach
##reams
##reversing
##ask
##aserv
##asage
inl
inform
inuinak
toe
toss
toll
##itr
##itub
##itfully
##itals
##itutes
forobs
itarm
itae
itthem
##urd
##urur
##urub
##urker
##urabi
##rops
##rophe
##elior
##adug
##adorned
##igu
##igands
##igrates
thud
##abur
##abum
bead
beasts
##amm
##aman
##aming
##amil
##amus
##amamu
##ammu
##amugi
##amlum
##amannum
wharf
##etum
##irping
##irisag
##irbam
##idam
##idable
##aciously
##imate
##imtum
sheaf
hissing
##tha
ener
enar
enanna
engal
enmer
eneg
enanned
ennir
envel
engur
enlarge
##ems
##emed
##emorial
onin
oneth
##umar
##umcomm
urzu
uralla
urua
uruma
uramana
urutum
##andons
##ulate
##ulgal
##ulama
##ulmat
##ics
##icor
##icated
##owled
liec
##agia
##agian
##estone
##enty
bari
barely
baragir
barakara
##uta
##utur
##utable
##utations
herb
herit
shot
shop
shack
shakes
shields
shusuen
##sty
##staking
##stitutes
##avessel
##alli
##epted
##ugul
anun
ants
ansh
anah
anita
anedanumea
##aining
silber
silences
atop
atby
plays
planning
##omo
##oms
##omen
areas
arealagash
sekel
section
sections
reins
receding
revenge
relev
##uned
##unuri
##untaea
alu
alim
alive
alala
alph
alco
almond
alinisu
worse
##odiment
ask
asal
asila
meager
meitaran
bus
ninalla
ninurs
ninigara
ninimma
##sue
##succeed
enlilamah
##akku
sue
sund
dayya
daystorm
daybre
chaff
chisel
chirping
##ctacle
silaa
##ipes
gurdub
abud
abib
abandons
grants
grinds
grazing
brigands
spar
spins
spouses
upright
uplifted
landpe
fifth
amu
aman
amam
amount
ambars
amelior
##apsu
##apults
sheeps
##udar
##udum
arid
arri
arist
arair
arising
arrive
argibil
aramutum
arbit
destitute
basis
deal
didabe
##ategory
outset
outstret
128
therewith
shallow
ninginabad
destroyers
lamsare
works
intact
acworkers
exclaim
##ordomo
procreat
prostitutes
namu
namzi
namnin
namrat
oxs
##ubar
##ubara
##ubird
##ubabad
##uballi
straps
strapped
strenth
flies
flutes
flacc
flames
flask
##ellor
offers
lugalh
lugalir
lugalkur
lugalmu
lugaluri
lugalnam
lugalsa
lugalamar
lugalinim
weird
brewers
conne
nobility
allub
alluh
alliya
##inda
##indara
##chose
##change
##chcra
afar
affl
undert
ada
adingirmu
watches
watching
watarum
quiet
##open
belt
belats
beliti
urnanibgal
mightily
##ifferent
nannazi
holder
lorden
unified
unfer
unlike
unwa
unamugi
agan
agal
surged
survived
boaster
percept
apsu
heartwomb
akal
aktum
utum
utul
utug
utuk
utilizing
carav
carne
roams
roiled
leans
leaned
handmirror
##aste
##astrophe
waterpouring
oils
oilbut
headbund
##icks
fourleg
log
loins
overtaken
ulm
##auul
breadone
tows
buru
burgi
burden
burmama
emitting
embers
emete
sover
soap
results
resolved
##ansum
##iaa
childish
butted
buttocks
erased
gudeas
governorship
##araana
supply
longdistance
136
13rd
earthbaskets
blad
bless
blazing
smel
decept
snirbam
swelling
harhar
harmony
sueniddinam
spectacle
sla
slay
slab
insult
inseminates
letting
drill
dragg
drained
dressing
dredged
lamented
reedmats
founding
shepherding
uruks
##ibanda
##uza
##pective
##pector
##peaking
clash
clamp
traps
woolen
evicted
##ippals
palaces
imat
immen
imagian
hosue
biting
luu
luur
luunu
luabu
lualim
luenki
luirisag
saruba
receip
148
141
145
142
ummaharbor
##upon
subur
substitute
subjected
238
232
233
##off
##ofnin
##ofninazu
##ofbazi
##errumcomm
dweller
##eshands
marched
marries
forefather
quarts
bundel
apparent
olddead
fronds
warlike
placated
118
113
opener
reptile
reprodu
reposing
presents
contr
mouthbe
mouthvoice
attained
attamannum
planting
cutsepar
creating
creations
creatress
cattleherder
twisting
twilight
fires
seeing
remitted
removal
windbl
windpipe
flourishes
harvesting
amongst
##ageua
presenting
statueform
folk
folds
sideways
rightly
bowing
bowthrow
praying
guur
guaba
guide
guards
guudu
gu2e3
##holders
disuse
disrupted
disburs
irig
irinabad
##tax
turners
incise
distorted
distingu
endudu
seedlings
seedbarley
nisabaandul
backs
check
kidomen
queens
168
161
steady
copulated
arah
arauma
birthing
ilm
ilik
ilulama
doorkeepers
approving
##priests
providing
praiseworthy
gemes
gemeed
gemeen
wellbuilt
lunam
lunane
lunimg
##unnel
teat
##merston
powerf
powerfully
aurafear
entertain
administered
nigar
niging
niggur
niglam
debilit
slaughterer
castrate
satout
largegoat
suckled
ide
idamar
idnun
wildly
beautifulgood
ceasing
cubs
verily
resided
residing
luga
lugall
messanga
##reeds
deputy
foes
foam
lionheaded
wisdomear
mats
lagoon
tiger
wrong
writes
pleasur
edar
edil
esag
esara
humans
humili
ludamu
exaltedness
##ursagkalama
##flon
##flood
zabalum
equally
##toothed
urgilg
urgagia
crowned
adding
addamu
addada
financ
aradd
aradara
aradgu
aradnene
interceding
computation
comprehe
##ilga
officer
offices
243
confid
confident
confirm
lukala
overseers
colon
moor
mobil
mooing
consent
attentiveness
kirilum
kirigu
##hrine
product
advisor
advising
advanced
advancing
##bring
respond
responded
orchardist
orchardists
grandeur
bats
battlen
nibulmat
assembles
others
fearfully
nunbare
nunfish
ninsisa
175
177
counc
horrible
widen
beget
cedarjun
222
baban
cricket
cracked
crops
crotch
damimama
metalworker
wayat
193
chairbearer
mule
muerrumcomm
variegated
hairdress
merry
##bierra
transform
translu
assemblymour
curled
description
parcel
##clam
yourselfyour
point
sanctify
lummagir
##tilized
urmama
urmeme
urdardu
eatingdrinking
fellow
gets
radiated
songfestival
girls
girded
##wardly
coolness
hurl
hurry
hurries
hurrying
lovely
lubi
textste
sailors
##gaer
##poraneously
balaserv
glad
gathering
porrid
ugil
ugurtur
revere
gemebaba
gemeamarsuen
cleanse
construct
partners
sagku
##wheel
inimical
enkar
enkimdu
##ubla
##ocrat
prisoner
schoolfather
kakcheese
##beer
ninmarki
subtr
evildoing
aya
eggshaped
record
recipro
dabrum
enunc
fierc
emerg
brightest
##picious
thicken
thickening
##chew
exert
exerts
hosts
hostil
solve
solutions
garana
magic
magilum
magula
ploughofbazi
refr
refash
scraps
356
doubled
farreach
sprouted
expounded
expanded
expressed
dispelled
dispatch
enunugalinanna
etub
hammers
hammerston
nests
tendons
uremu
uremah
adorning
narrow
goeswent
defile
defamed
exchanging
escort
deepen
doubleedged
dreaminterpreter
turtles
##iqum
##iqadad
opposed
oppresses
exhaustion
credit
viable
##foundation
forceful
forceencouragement
authoritat
preparedtaken
dirge
tribut
##eyes
antimony
honeyed
egalgas
kurub
kurbil
kurgara
malgasu
formidable
juniorramp
mixes
##present
##board
fleshskin
neglig
sustained
physical
nabu
chooses
roofs
fruitflow
duia
nirmu
setsailed
dragonofthe
luninmar
ipiqadad
kulab
linens
lyingcr
shinygatumdu
unceasingly
elapses
appropriated
gardeners
familiar
kutha
witchcra
compassionate
mourner
maidens
engage
churns
erekigalwhen
devastate
benefic
kaamu
##knowled
drawing
despatched
linenclad
triple
annun
annual
anzuchick
admire
admiring
frowning
habaluge
painstaking
better
enclose
ninkiura
prolifer
breeders
travelling
gemenungal
nigdupae
excavation
ninhursagas
tearing
tearfully
charging
lugalgue
splendour
iriaz
scorpions
prowled
colleague
verdantbeautiful
melua
nuganel
push
undone
##denigrates
architr
exuded
urningubalag
cultivate
dingirm
dingirsaga
kuninura
madaga
formerly
ninnig
absent
absconded
goodnessgood
smiths
delighted
nannamansum
terrifies
touchedadorned
inquirer
aromatics
442
catches
catapults
catastrophe
cripples
dumubabad
grief
lawful
mouflon
sounds
##nunta
##prep
##carried
befall
befell
shares
ninmagure
reduce
fasten
ladder
##aduqa
anzam
anzagar
affirmed
cloak
obeisance
puzuril
puzursuen
azar
azimua
beset
patches
patibira
pivots
rendered
arranged
pregnancy
increases
dubla
dublamah
frequ
sadgal
sabum
sabitum
wait
##neys
shoes
dwellsit
flourishing
flattening
kisikiofninazu
luxuriance
396
genitals
guzana
memory
seriously
ukubum
ukuku
ukkene
##scr
##scrip
##harp
##vocab
prospective
tramdagan
sweetlyb
waraderra
waradnanna
addaillat
baza
furnishes
kisurra
paum
sigri
ursuana
aszgi
joyfullylike
experience
bandages
cantors
circuit
gabakara
portion
portending
victorious
winnowing
revoke
watercourses
soothes
swallowed
troughs
contemporaneously
ilumbani
ilumbni
deposit
deposits
northwind
housetemple
##rossed
throwstick
lugaldubla
embit
embodiment
restrained
openhand
majesty
majordomo
meluha
sweeps
prosperous
633
7746
ahuw
gushing
gusisa
laughs
luzina
miscar
##lui
ensip
enmenana
enmenuna
enmensar
prettyface
returnsend
positioned
dissemin
crippledwarf
nursemaids
annihilated
annihilates
dimgalabzu
fistfight
nuumar
nimgird
sowcultiv
##weaned
##weapon
shell
encircle
strokes
alumid
alumsheep
monkeys
ammaduqa
prostration
prostrate
prostrated
caretaking
ulgis
socle
disordered
puzrienlil
neighborliness
bulma
hateful
lacerate
pacify
ritually
salutations
##rests
##hearted
inannaka
plastered
amurru
amurrum
amaregal
examined
accusation
utamiaram
treacherous
immemorial
gemegigir
kneeling
gladdenedbet
admiresee
foolish
gerste
jewel
##month
##control
##inuinak
plaited
aladrum
abisimti
worktroopers
##ukkene
untiring
unshrinking
perpetu
errabani
iliu
gemelisi
slavegirls
collapse
anguish
craftsmen
exorcistincant
undoes
multitudeeras
madarea
ceremonies
murdering
brilliantly
pronouncement
requisitioner
inhabitant
inhabitants
suffered
average
bilalama
gaame
hinge
kadra
vigour
vineyard
##holder
##waqar
forsake
forsaken
envy
envious
shriek
shrieking
algame
ascertained
deceitfully
apilkbi
earring
eloquent
roofbeams
accompanying
gnawed
ziggurrat
rosettes
bunches
dripping
huts
kettle
paired
puppies
tithed
ukalimmu
venom
venuere
veteran
##destru
ofattached
##alaborers
itrilum
shuttle
revolting
asarlui
procession
processional
lugalpirigtur
necessarily
employ
snmgir
snmuballi
harnessed
divorced
deliber
deliberated
midribs
simatadad
purchased
entrance
giriura
denigrate
arrangements
nimgirane
ignorant
ignorance
auspicious
bodies
dusk
galloped
lentils
mukurub
searching
tameningal
wiping
zazaru
##obst
##mouths
##imitti
goadstick
channel
outflattened
ningekimti
intaeas
strengthen
grainheap
drainpipe
climbing
cornelian
amarkii
essence
meskiaggaer
purposes
calculation
criminal
recognised
lieutenant
fingernails
arguing
dumudab
guzzani
nonexistent
exceedingly
views
luebgal
squeezed
bounty
cumins
campgutium
danniya
fangs
gullalabor
jewell
karaar
loneliness
miime
muguba
nomads
oriented
panic
plea
pierced
turmoil
visible
zidmunu
zizirtum
##handedly
infest
toggle
forserved
thorough
eninnus
alulim
abiati
group
arkaliarr
primary
propped
progeny
urnumuda
unuribanda
permanently
harmonious
clarified
commissioner
boatbuilder
paralyzed
hurriedly
participated
gan2mah
magurre
triangle
pulverized
trapezoid
immobilised
##containers
aszszurmalik
vigorous
ubuukkena
puzrisdagan
zirrupriestess
juveniles
namnundakigara
oxendrivers
aanzu
crenellation
caterpill
dormouse
daraabzu
dingirsukkal
eellu
eurbidu
faraway
gatedoor
gangufields
huddle
hardship
joined
jahr
lanimu
luteharp
lancet
lirgamlum
mollusc
moment
misfort
nakabtum
nurikur
public
rapiqum
rmanum
skies
syllable
terebin
tenderly
tirgu
tissue
vehic
vulva
vomiting
villages
wurde
waggons
##mouthed
##surpassing
##breath
##brae
##follow
tossed
enmerkar
enegir
enannedu
onethird
liecrouch
shackle
anshan
anahili
relevant
alphab
alcohol
ninursaa
daybreak
landpeople
aristocrat
didabeer
outstretched
ninginabadim
namninani
flaccid
lugalamarku
weirdam
alluhab
belatsuner
belitikal
unfertilized
unwavering
perceptiveness
carneol
oilbutter
fourlegged
##ippalsam
##eshandsized
mouthbeak
cutseparate
windblown
bowthrowstick
irinabadbi
ilikauul
approvingly
debilitating
idamaraz
urgilgame
financial
battlenet
nunbaregunu
cedarjuniper
muerrumcommander
hairdresser
translucent
assemblymourning
lummagirnunta
textstext
balaservice
porridge
reciprocals
thickeningreversing
hammerstoneshandsized
egalgasud
kurbilak
juniorrampant
fruitflower
dragonoftheland
lyingcrouching
witchcraft
proliferate
nuganelum
touchedadornedchose
sowcultivate
gladdenedbettered
exorcistincantation
multitudeeraser
venueregulation
mukurubata
caterpillar
terebinth
vehicle
1ban2
2wheel
3headed
6gur
89
82
912
ale
aam
aall
aeg
azi
azida
ahead
astr
ahu
aank
avenge
aedin
ber
bis
bum
bain
blil
bale
bile
bath
bagina
bonds
cre
cud
cone
cust
cagan
casing
cistern
category
das
dul
dart
dage
domin
dict
dati
dulum
dazed
dreams
eer
elil
eru
eart
eail
etur
eabzu
eiri
ehegal
eibgal
eigin
euse
fab
fum
fail
fund
figh
fins
fanged
funnel
gg
gil
gas
gad
gay
gain
gale
gane
gang
gani
gasura
gimil
gatep
gaping
gidim
gidi
gisiga
hap
hind
hiz
hue
hits
hinn
hier
huh
haught
hidden
hibar
hunuri
iu
iam
iim
ids
iaya
ikun
jaw
jump
joints
km
kig
ksu
kus
kass
kesh
kams
kasa
kiggal
kanes
katab
karda
kcontainers
les
lal
lil
lut
louse
late
laba
lane
lana
lacks
laws
lasted
lurker
licor
mir
mand
mul
mow
mod
map
mart
mull
mite
mare
moth
muti
miq
moving
moves
mlik
mgrain
mkbi
n1
n2
nit
nad
nour
nere
norm
nau
narm
nirig
nua
nidn
od
pad
pir
pud
pard
pits
pome
park
phr
packs
packed
pairs
pelt
psn
pails
pesz
petition
ric
rud
rings
rimu
raked
races
roused
roped
sq
sul
ske
save
sale
sugal
saba
sugu
sulgi
sends
siga
sirsir
sapped
sium
selling
siaa
tan
ton
tro
ties
tib
tons
tired
tally
tended
titi
tiring
tires
u2
uar
ual
uds
uub
ubr
uenlil
uitar
uziana
vot
vand
vaster
vari
vali
vats
vangu
vault
wer
wov
ward
wif
warm
woken
wadd
waged
wedge
wedding
xn
xd
yes
yadi
za
zar
zak
zaba
zipp
zani
zari
ziq
zik
ziring
##oes
##oids
##iu
##iar
##iat
##iil
##iating
##ially
##iadad
##iately
##nx
##nal
##nic
##nare
##nuri
##nint
##nants
##ntak
##neme
##nudi
##noise
##gl
##gig
##gest
##gant
##god
##gable
##gurs
##gates
##gena
##guru
##gindu
##ahe
##aar
##aus
##aos
##aara
##aqar
##rs
##rit
##ram
##rds
##rak
##ration
##rite
##rima
##rending
##ranged
##ranging
##mid
##mace
##mood
##mash
##mied
##muna
##mark
##muga
##making
##maint
##moon
##melling
##maker
##marduk
##ev
##eor
##eers
##eign
##eala
##eating
##eater
##ekiag
##ebare
##tw
##tas
##tab
##tem
##tri
##ture
##tub
##top
##town
##tue
##tare
##turs
##tress
##tified
##tended
##tirig
##timized
##lt
##lal
##lim
##lace
##lak
##lars
##lpel
##do
##dit
##dur
##div
##dom
##dana
##dont
##dumuzi
##dama
##drum
##disd
##dudu
##duga
##danum
##dimin
##dlar
##dingirmu
##door
##double
##ued
##uice
##uence
##44
##yes
##youn
##yriad
##qq
##qip
##qudum
##pin
##pat
##pur
##pad
##pab
##pest
##put
##pain
##pore
##pea
##phing
##pada
##pime
##piles
##pervisor
##polished
##point
##puram
##pinu
##pattered
##pieces
##pole
##pipes
##xim
##xalted
##xical
##xerted
##sal
##sig
##sand
##six
##suru
##spar
##speaking
##smelling
##ky
##kill
##kite
##kaid
##kint
##kubum
##kaisa
##kitub
##cal
##cit
##cle
##cam
##cents
##cara
##cious
##cup
##cage
##column
##cream
##cili
##cistern
##cuff
##catches
##crops
##crossed
##has
##hall
##hom
##hun
##hade
##hould
##hull
##hair
##harsa
##husu
##hhum
##haping
##hook
##horts
##hbierra
##bro
##bour
##back
##batum
##base
##baked
##badu
##bbles
##balum
##fr
##fin
##fac
##fun
##ffe
##fate
##fold
##faces
##fusc
##foster
##fattened
##wed
##wre
##wave
##wild
##wail
##wept
##wield
##zip
##zizi
##zige
##18
##15
##95
##92
##51
##5ra
##21
##2offerings
##vine
##vice
##vian
##vement
##vethe
##jenn
##3x
##32
##3lak
##inh
##inann
##inlil
##ination
##inana
##inary
##inte
##inating
##inubur
##inently
##inabdu
##inhil
##inancy
##ery
##erin
##erol
##erable
##eridu
##eroy
ofbe
ofset
ofsc
##orsu
##orate
##orting
##anag
##ananna
##anate
##anch
##anake
##anara
##ankalama
##anzige
##eding
##edam
##edje
##arri
##arts
##arce
##area
##araid
##arnum
##arhusu
##aten
##athed
##atia
##atters
##atue
##atits
##atenlil
##ateness
##atisf
##attering
##atives
##atuku
##esu
##esep
##esstand
##esantum
##alo
##aler
##alts
##alous
##alamma
##alamu
##alulu
##alization
##onep
##oncili
##enas
##engi
##enidu
##encom
##enkar
##enusi
##ilo
##iler
##ilds
##ilak
##ilage
##isn
##isz
##isht
##isper
##isking
##reb
##return
##regn
##reeting
##rejoicing
##asc
##asig
##asir
##astal
##aself
##asalluhi
##asntak
inj
inver
infrom
inby
inwardly
tofrom
##itap
##itches
##itality
##ittum
##itously
##itakal
##items
##leag
##legi
##lected
##lete
forear
forfe
forres
forordered
foresters
fornic
hem
healed
hearing
health
andab
ithe
itra
##uril
##urad
##urul
##uruk
##urdu
##urigal
##urugu
##urulgi
##roof
##roots
##roset
##roiling
youon
youhim
##eli
##eldest
##adt
##adel
##adem
##adum
##adalla
##adingir
##adorning
##adurg
##adziana
##igant
##igated
##igating
##iggena
thong
thous
thie
think
threet
##abal
##abel
##abgal
##abatum
##abura
##abta
##abanda
bez
bever
beans
##amor
##amen
##amun
##amped
##amili
##amlik
##amgula
##amyriad
whips
##etw
##etur
##etax
##etins
##etuda
##irst
##iration
##irrig
##ider
##idum
##idity
##idinn
##idates
##idba
##idagal
##otic
##otely
##otment
##acred
##imes
##impae
##imutu
##imzi
##imson
isz
isala
isiq
ishbierra
sheet
sheared
sherd
shethey
sherds
##this
##thud
##thorn
##thick
##thrust
enannatum
ennam
enbi
enzi
enanepada
enakiag
enpries
enurigal
##eman
##emur
##ember
##emmah
##emah
##emnif
stir
stated
stake
strol
stacks
stump
stench
stadt
stamped
onion
onlo
##sec
##seffe
##umr
##umm
##umac
##uments
##umman
##umites
##umps
##umkitub
##umerable
uram
urum
urki
urdu
urubur
urulgi
uragi
urinanna
urkig
urabu
urulgira
urgalama
urhaya
urrani
uranan
ur5ra
##anding
##andanu
##uled
##ulted
##ulaba
##ulating
##ulabba
##icep
##icap
##icting
##iciting
##iciously
##icirc
##iceman
##verb
##verse
livethe
##agu
##again
##agsu
##agura
##aguba
##agetin
##agindu
goss
golds
##ioned
wasp
##entates
##entary
barak
barail
barasag
bardili
barsud
barsal
##oled
##utul
##utag
##utak
##utuku
##utabe
##utuzi
##herd
herwhere
shal
shone
shown
showed
shined
shaped
shattered
shatters
fromin
##sten
##stay
##stace
##store
##stack
##stup
##statue
withyou
withcor
withdrew
withsurpassing
##avour
##avior
##allure
##allurest
##rix
##epriest
##ependent
##ugin
##ugma
##ugani
##ugigi
anar
anted
anana
anaya
anae
anbu
anati
anubu
anikur
anoint
anaran
anump
anahe
anasntak
silig
silencing
silimutu
atab
aties
atilu
atakuzu
##antic
##essive
plum
plate
plus
ploug
planner
pledge
##anne
manking
manually
manume
manisht
##htan
##dspattered
yearold
##lilng
sev
seer
sequ
rein
rect
reced
revers
reject
reinfor
##unas
##unks
##unuga
##until
##unua
##uniga
alam
align
alia
alters
altern
alert
alalum
altirig
allegi
sonapp
##ldie
onealone
worry
worms
worlds
##odule
tempor
tempest
aslike
asword
meki
meals
meyou
meanepada
megate
mebaragesi
meenkar
buz
budu
buff
##illa
##illes
##illassu
ninl
ninirsu
ninub
ninib
ninani
ninez
nineg
ninzi
ninkala
ninlu
ninhedu
ninesir
ninarhusu
##sus
##sust
##suda
hasten
enlilmas
##tsumac
##akine
##akidu
##akidug
##akalama
byre
byfrom
##celebr
succ
likeas
dayday
daylabor
wheels
chaos
##cturn
##ctify
sila2
ban3
bansa
greatsoldier
##ipers
##ipaa
gurbaskets
absu
abus
abagal
abomin
abuni
abrog
ababi
ablum
abaluge
abugan
abarnum
abakine
monat
##feather
##feeding
bray
brim
brand
brave
brush
barleycrops
month6
spin
spun
spous
spilled
spears
spoon
spares
spoil
spattered
upone
upwards
upimp
##onged
##ongod
##ongated
mayor
mayif
mayaltum
fiber
fibers
amass
amagina
amaki
amabar
amatillati
amrima
##apar
##apir
##apae
##aptain
##aporate
sheephouse
sheephide
##ours
citygate
citybut
citygates
##ude
##udena
##udata
arar
arab
arru
araga
aratum
arise
arazida
aragugal
basaga
deified
dealing
whenever
builtup
orman
##inee
pred
prays
pruned
##ruin
##rubbing
scur
scul
scorn
scare
scouts
scrub
scarce
##erved
outwaterway
129
127
1296
thereupon
shalll
##make
ningakam
ningetins
lamaz
lamasaga
lamah
lamkun
lamenter
lammas
##isted
fieldarea
##artun
##artutu
intr
servitude
##erequ
##erejoicing
##oreal
rulings
exped
extern
expect
exhum
exceeds
exclam
exalts
exotic
##usell
##usasa
##ussa
##ording
compen
comfort
prove
profit
problem
proxim
naming
namita
##ribute
peak
pebbles
oxhide
##uband
##ubae
##ubtem
##ubanzige
strap
stride
strang
striding
stranded
strands
flu
flail
flung
flint
flank
flints
grainfattened
##oks
offended
lugalx
lugalan
lugalgi
lugalbar
lugalannatum
lugalbi
lugalabba
lugalunir
lugaltar
lugalhegal
lugalandul
lugalukkene
lugalerin
lugalandanu
lugalutak
weave
breached
conting
condu
concl
nohaver
nocturn
allum
allamu
alloted
mountainfore
##inding
##indler
##aise
##charm
##chair
silverchair
inannaursag
##avenged
settings
##abaidab
fathom
ningirsuisa
ningirsukaisa
underfoot
adama
advers
adept
adata
adartun
watcher
quince
##ilding
heavenward
##ops
##oph
##opot
##opened
##opener
belab
belly
belowed
belazu
belili
belatter
urnuntaea
##ishdagan
##ownook
godan
##ukidu
##ukken
mightiest
daysstorm
##ific
##ifier
##urnasir
ifmay
afterbecause
##kiurs
nannaursag
nannaigi
##aze
holes
##iza
##izum
unmar
unison
unending
unfit
unidug
united
unsc
uncovered
unnot
unsp
unweaned
agg
agar
agul
agina
agara
agreed
agua
agubi
agrees
agetin
aguzi
agamgula
boots
booted
##endant
##endarm
##endages
perch
perish
pertain
permit
apindu
apric
##ingsinging
##ingserving
heartstomach
heartgl
heartrending
beerpoured
aka
akalam
utur
utubae
caring
carps
rods
rooft
robe
rocks
roiling
roasters
rocket
lean
lexical
##pery
##perfect
handtablet
handcuff
watering
waterwork
watercl
waterroiling
waterirrig
oiling
headress
headmaster
headvoice
headwear
headdenigrates
goodly
goodthe
goodbeautiful
goodvery
##galanna
##galdudu
##quished
##assau
##assign
knock
knives
knelt
lose
lover
locked
##gies
overth
overri
overly
overlaid
overcom
overthrow
standingserving
##istrar
oxenfield
oxenfields
ula
ulutul
##auu
strongholds
broughtpoured
towel
##itect
burial
bursn
burzip
##othered
embank
emdrum
eminently
soon
soak
storming
stormday
stormwho
stormdemon
##igned
##ignun
godss
##shy
result
resemble
reshaping
orderseffe
uponagain
fathered
##ansl
##ansive
##answers
birurtur
##play
##plicate
goathouse
childcit
masters
erin
erbam
erhal
erimtum
erinda
erreb
herein
hereby
gudug
gudabz
powerequ
##iduhhum
supper
##engurs
utuursag
utuhegal
131
1334
13jar
earthwork
earthcovered
canalins
canalpresent
canalmouths
awayfall
awayprofound
blat
blink
bloom
blameless
blkaid
smoked
smiter
smoking
smooth
smothered
##kurub
decimate
decider
snri
snime
snmagir
snatch
snimit
snibbu
sneers
snusell
swo
sways
swears
swelled
swishing
swindler
purearm
##anee
##anekiag
##eeting
##zua
haral
harali
suenabu
slipped
slither
sledge
sluice
##type
broom
motherfather
insasa
towardscon
shredding
division
ulgia
ulgikiurs
drabu
eeg
eefestival
eekite
eecelebr
lamenta
lamentvoc
estates
estranged
##arsi
##arsroset
founder
##veying
shepherded
##awa
##awed
##aways
##iba
##ibu
##ibum
##ibara
##ibabaidab
##peech
nindam
nindub
nindingir
nindigir
ninduba
nindalagash
club
clashing
clatter
clamor
clawed
trunks
instigate
woolbearing
beforeemah
dedication
dedicatd
event
events
evident
evaporate
##ipping
delicious
umme
umman
##undu
makeprep
##arments
##armrests
##ablereturn
##meedu
imt
imid
image
immed
imienlil
imnia
imgurs
becausein
becauseafter
prefect
speakingsinging
hoes
hovering
biti
makim
makers
ibilum
ibanda
iblpel
statutes
registrar
bullcalf
lupa
luena
luigi
luikur
luhaya
luinann
lueridu
luasalluhi
accounting
accountants
erecting
149
##idaa
returnkill
owners
154
151
155
152
157
156
youngest
sayings
##upa
subscrip
commit
commentary
231
235
##ofold
##ofgar
##ofsheep
##ofenki
##ofsix
##erramlik
howl
howled
howls
behold
behavior
boatofheaven
putestabl
##eshade
mark
mares
marches
marrying
womanly
desires
bittertoothed
bitterpain
apport
appears
appendages
olden
frisking
knowuntil
gatekeepers
##innards
sealeditems
wordpond
givenbrought
##isege
##isease
eyeturn
eyestone
eyerol
##tenance
##aniya
ninlils
sweetness
sweetening
sweetsmelling
coat
coiled
cohorts
bringsucceed
midheaven
##barbar
##baradug
assailed
assoc
assert
assumed
assurnasir
114
1142
manage
amarasi
amaruba
amargir
openly
reply
repair
repres
preserved
contract
context
##workmen
mouthto
mouthopener
wanting
attem
attain
attains
##uenna
creator
twine
twoth
twenty
tweeting
firmed
fireshade
eli
elub
elaku
eliciting
elongated
remnants
remotely
windownook
flourmill
offeringsa
seizep
establishedmaint
abbagula
abbaduga
childrenjunior
childrenatits
mens
menial
##ularies
##ctionary
ekurz
lapisbl
625
stonegr
stonecut
indifferent
indemnif
independent
disk
disch
disqu
disarr
displaced
disinte
battlements
battlecry
battlefield
battlemace
irin
irum
irtum
irinie
##tae
incription
incurr
birdhun
thronebearer
distinct
receives
182
183
1822
endingir
endkilled
##raver
##raherder
seedgrain
passable
grounds
grounded
tablethead
tabletbasket
##cedes
chosenamed
ningals
extending
extreme
backouts
backwards
backliver
backarmrests
##tebrae
cheer
cheesep
garmets
kidney
riverban
queenly
anywhere
162
163
bigbarge
simaki
simakum
simudar
stealing
behalfbecause
##igalana
##igalaguba
corrid
corral
detained
illet
ilulu
iluni
ilippalsam
ilneme
ilpuram
ilurugu
wentstood
##inkarke
##ontrol
justness
gemeningal
gemetur
nannain
nannakuzu
nannagugal
nannaludu
nannadalla
wellpond
wellorch
welltended
wellcistern
wellanch
litre
litter
litigant
lung
youthfully
##amuzu
usz
user
uses
usap
usaara
dugas
dugab
dugazida
dugubtem
teach
tech
teumman
terraces
vesselmirror
##ruments
##ulium
deficient
kindness
kindling
##passage
beautified
floodwave
obtained
obfusc
sinyes
##ondisease
bedbed
niger
niglag
nigindu
niggina
nigsuru
##bering
donkeyequ
slaughterhouse
castrated
himselfhis
administrative
demol
demondisease
sucklilng
necklace
neckthick
##soever
gazing
idea
idia
idena
mountainside
mountainsnetherworld
beautifulfaced
ceases
talons
talking
vermin
vertebrae
secrets
newhouse
newyear
giftthe
lugamu
luguza
lugebare
messages
moundcr
urlu
dependent
deprive
foal
sunk
lionfaced
match
matern
matrons
mattress
##imah
twoheaded
sevencorn
inspect
inspecting
squares
ninurra
midstheart
armor
lagip
wrist
falls
nightly
eda
edab
edim
eduga
edible
edik
edubba
ritesofferings
forthcom
esa
esig
esabad
espart
##ixture
##forem
##forget
##atinggather
eyesight
eyesgaz
##ressive
splashed
humbled
ludumuzi
ludingir
ludaya
snakecharm
facefront
kiutu
kiarant
kiutag
##flit
##flattering
fireis
performers
performance
equalled
equaled
enmesantum
lookout
214
211
213
##insun
lagashs
##cerning
urgetin
urgudena
addak
addaya
addabani
addatillati
aradu
aradani
aradhull
protections
surpassed
broaden
broadening
interval
intercour
interpre
intercal
intercedes
compel
comparing
competing
competition
eyeb
courriers
##unga
grebe
piglets
topics
##endently
241
judged
confined
calfs
lukani
lamentationpriest
lamentationgreat
typ
tying
impact
impending
imposes
impregn
coloured
moan
moat
moaning
moaned
moongod
##egara
angels
meskigal
meskigala
mesantum
pursu
purusz
productive
turnedcrossed
float
floods
floats
skyward
junipers
kneading
##there
##theharbor
changing
grandson
measureassign
bathe
battered
batasage
##iliatory
assembled
diadem
saws
singlecolumn
##ingirsukiag
feardisd
ninsag
ninsuna
bringsgo
treeswood
172
173
couns
counter
councel
widening
##ze3
begets
bucked
221
225
babas
babble
babaya
babatur
crates
crimson
crop
croak
croaking
damdingirmu
slew
slept
waystation
waydec
##inedudu
aroundcirc
191
192
##psn
chairholders
mua
musu
muudu
muatur
mudspattered
udul
udduru
udurul
##namub
birdsspar
streettown
haus
hairy
hairsty
layed
layers
##tieth
##tumpers
drumsticks
sleeps
361
363
groans
claycar
claytablet
descent
descendent
descends
dusti
dustearth
dustwre
parches
paralle
rushed
rushing
##clay
##itioner
##adiumites
milkfed
milkcream
##bedding
##addum
##addening
thresholds
entity
entangled
ursasa
ursulpae
workeryear
uttering
counsels
sanctary
lumagura
lighting
##tila
##leton
branch
lammaa
lammaamamu
irrigating
urdingira
contains
contained
footwear
ancientold
ezagin
ezemmah
felling
rainy
radiate
radiates
##veled
songhy
datesyrup
girinhil
giripaa
giribabaidab
##ancesense
except
excels
trusting
submits
cools
hurin
lubir
lubine
##atsn
superb
gigantic
potential
potentates
playgr
playground
baliff
cupboard
gatherers
miller
millers
millhouse
millworkers
saltpet
ninee
nineve
nineizu
nineigara
nine3lak
schmied
prepar
porcup
relations
relieved
ugar
ugir
ugiga
##uhursag
reverber
careful
gemeutu
gemeubar
cleaning
party
sagar
sagara
sagursag
sagbur
sagdingir
sagaciously
sagdana
inimzi
inimadingir
inimutuzi
assigns
replendently
halfway
tumuhursag
##ocent
stepping
ansan
ninkis
ninkalla
lugalnamma
lugalnesag
lugalninubur
lugalnidba
lugalnemur
digger
kaku
##beh
deadold
lowing
tasted
releases
releasepl
judging
268
261
265
266
egida
egigi
egageua
egankalama
egabura
innana
innumerable
innocent
recept
reciting
recieved
reconcili
buildingfun
##bucket
##building
lugalurtur
bloody
283
275
figures
ganun
shortfall
device
siskur2offerings
demonfate
##munus
thicker
thickness
thicktri
anythingfood
crossbar
exerted
exertion
placesolution
captor
optimized
inquiring
songsinst
leading
tremend
responses
fructify
garum
magurum
scrap
comingbringing
harrowed
##ieldwoods
357
3521
faroff
chariots
expose
expands
expression
expansive
lugalmea
carpfilled
carpflood
wombmat
singermus
keeping
enunugalanna
outercover
etana
etuniga
etamuzu
karhar
sycam
ubara
ubartutu
urees
urebara
urelila
urekuga
##ysique
pegged
reserved
collective
collecting
babylons
direction
director
directing
samana
samium
##onymy
##rolog
platformruin
defiler
rebels
incantationpriest
crush
crustace
fitted
populated
poplars
liverlun
plentitude
cleanses
writeinc
writefoster
doubleleag
dreaming
nrama
plotted
plotting
combination
harbors
humanityman
oppose
opposing
oppressed
opposes
burns
burnabur
dur1
durul
durallu
durgara
hallmark
honeys
wearer
##mudn
stomachs
##standard
crybreath
credited
dadaya
generously
maltfeast
ovens
ninhurs
existing
garmentscloth
stretching
interestbering
limbslap
ditchesbur
diritum
tallied
antel
acquatic
supplied
ibierramlik
stewardess
pleasantly
exercising
nudimmudhas
338
egalisi
maliciously
formations
beatings
reveals
lugalkane
lugalkinedudu
conveyance
belowfrom
awebearing
juniorwild
constructedwall
425
426
lulaga
lulzi
lulubum
lulgu
mixing
martuwall
nagnane
wails
##praying
##pronged
##box
##boast
##boasting
##boats
forests
forestfor
##uluu
growingboasting
sustainfin
physic
eternally
finding
maganarrum
nabum
taatal
taiatal
##lamassau
arrowheads
breastbone
corporeal
violated
duy
duil
duurbartab
ducks
maum
##dev
##death
##ennu
##string
##stricken
urninsu
urninazu
urninbara
urninmug
personnels
luninura
badly
badirina
tabala
tabulation
##girinie
plunderer
suchset
spaceface
repaidavenged
controlsuperimp
elapsing
appropriations
cursing
curses
ebbed
kuu
ku3
##rids
##ancellor
fortowards
urenun
urenenusi
urengaldudu
ursuena
flattering
levied
levelled
gladden
craftiness
325
engiz
engarzi
engraver
libir
libate
libated
liburulgi
lugalsisa
lugalsapar
lugalsinee
lugalsuluu
roamer
frighten
devastation
3898
drivers
halababa
kaa
kaigi
kahegal
runaways
##uwe
##produ
##prote
##profess
shouldertop
cooks
teems
foxes
gebare
tongues
##tledrum
shoulds
annetum
annanee
admixture
surveys
iddaya
axesagr
incantationsnoise
lugalnigzu
lugalnigbaradug
lowered
featuresfigure
ghosts
honored
habitual
kisses
pained
separately
ninkiara
ninkiharsa
amaikur
amaabz
amaengurs
holdscatches
claimed
gemenigar
gemenindara
nigdiri
nigdugani
cultically
relaxed
figuretr
marduknir
ninhursags
baer
baar
baaga
baqartum
tearful
##lagab
##uallotment
##arrat
charmer
leek
overwhelms
compositions
scratchedcr
scratchedground
315
dilimbarbar
homeless
muddled
##withthe
staying
deathly
scorching
robes
loaned
speckledfaced
festivalofdumuzi
poplarplanted
bentammu
igig
igmil
igisasa
pinpectoral
undaga
undressed
zamug
zamubani
##why
ennum
ennail
ennugi
ennanekiag
enningirsukiag
fixes
architect
allotment
towns
bellied
bellowed
dingirmah
dingirigidu
kunumkitub
lush
pitched
tenth
##usuh
goodsweet
ninnagsu
##ipewater
arganum
arguments
aratig
agiua
drags
dragons
traverse
luxur
nannamea
terrify
ugidtype
375
certified
mainstay
maintenance
munida
pulse
wishing
##precious
stelae
urkununas
ninmubanzige
achilles
explain
explicate
unfavour
purifiedset
windswept
727
districts
galb
galatur
masz
mascara
##iluvian
anzugul
introduced
affirm
complexfoundation
excessively
stretchedout
malevolentdestru
enclosureat
azbala
azaar
calling
denizen
hitch
igienlil
igiegal
igieala
igianake
kasurra
patient
renderer
souredje
torched
torrent
wetlands
zanaru
##rentice
stops
arrulabba
complicated
conquest
assignmentpassage
achievement
532
aurum
aurmen
auraself
derision
fetid
hazel
kugnuna
murky
rank
sadura
saduallotment
semicirc
wavers
waqartum
wingsfeather
##new
##necked
granaries
conversed
conversations
emutbalum
debtbearer
debtors
triumphing
accomplishment
diseases
genie
genital
guza
guzum
kalamu
lahtan
serious
ukul
ukabta
lifes
##akkum
exvotos
swearing
tramil
trample
tramples
dwellingsitting
knowledgable
zabardab5
zabardabofficial
favourably
captains
refugees
kinunirkidu
revealing
magnificence
magnificently
521
529
centerpoint
larget
larva
pahouse
paittum
ubikura
##comb
##block
ursuda
aszrum
chickpea
uncultiv
uncontrol
overflowed
needed
thronesrul
preceded
preceding
pleasureallurest
companions
experiencing
musicianssing
arosewas
494
bandaged
bonefoot
circle
gabil
gabatab
gabraherder
koches
pabilga
portent
rimanum
rimsn
rimsin
rimush
ribcage
ukunut
##removed
##urgu
##abiku
revive
boastover
canopyroof
inspired
inspiration
clouded
troughbucket
assistance
finishing
confronts
confronting
ancestor
ancestral
reddishfurious
funeral
supplicationprayers
fullyequipped
akiar
kilula
killdie
saaga
tutub
vastness
##cubit
enakigalaguba
stupid
urkidu
urkanara
##agrain
shadows
reckon
reckons
doormen
amagula
amaginas
amagetina
arabduofficial
outsides
flashflit
lugaldingirmu
converts
converted
snkaid
structures
structurest
sungod
giriniidab
sprinkled
conveyedrep
traversing
enjoying
enjoyable
775
journeys
lyres
lynx
miszsz
peddlar
pedastal
pulling
szum
szara
validates
##baraabzu
ensemble
ensignun
practitioner
procedures
allocation
allocate
erraimitti
blinded
trunkroots
returnsanswers
dissolved
dissipated
disseminates
writingmaking
pleasedrejoicing
friendship
penetrating
rebuilding
nannasuens
inhabited
dimpime
dimatenlil
epada
eponymy
fowl
fighting
factory
metals
meteor
metrolog
##yearold
##crimin
##atarak
enamtila
encircling
stroke
stroking
strode
landmaking
ammdit
scalpel
appeased
knotter
knotting
loyalhearted
socles
eredingir
discord
newsig
wrestling
pigskins
puzriitar
stepsdouble
scratch
crushinggrow
munuskigal
neighbors
798
pacified
pacifies
roughly
roughground
saltsumac
virgins
zigiduhhum
##accepted
##according
baraenidu
anuship
plastering
manuwood
manufac
surety
houseofday
houseofheaven
houseofwoman
amursuen
examine
examining
examiner
weighs
accusatory
locking
immutable
discoverer
discovered
horsefly
crescents
glorification
illuminating
lugalkisuna
engenderer
splendidly
dumuzidabzu
tidnumites
fugitives
dukug
dukuge
dungbedding
kubtum
kunga
nonethe
nonprecious
sifted
sieve
sieved
situated
situations
tiller
tillers
usual
##guarded
##attens
enlarging
students
realize
chapels
breastsnip
eradicatinggather
##measure
subsistence
substant
submerge
submerged
submerging
submergem
buildingshrine
##approved
multicoloured
extensively
murderers
aszszur
luegal
motion
massacred
pillaged
sapar
sapling
saplings
tamaram
wigallure
##iety
##niggil
##getina
stags
started
urtummal
##terrace
ankara
anthema
abanisege
deceased
1232
oxdriving
apprenticep
inducing
discerning
extremities
squeal
faceeyes
urguedina
transportation
lugalmumanag
acquaintance
urninmarki
lullabies
concerns
puzurshara
freelyforget
sorrowwailing
gnawing
mortals
##beautifies
extinguish
bunched
kettledrum
kumul
kumtue
mutilated
pelted
pelting
pairing
puppy
sights
tithes
tripping
ukaletuda
ubuukken
veterans
investigated
inflict
inflamm
enmahgalanna
stairway
onrush
revolt
gurzaran
grabbed
grabbing
exteriors
##ushda
lugalpirigturs
concord
concept
conciliatory
aggressive
utusaga
necessary
emeurur
emeusuh
employed
eridus
divorces
##undulating
speakerperform
ibniulgi
ibniadda
luugida
fragrant
fragrance
fragrances
prayerrites
chewed
simatetar
iluibbu
ilamza
ilamkurub
skipping
literally
secretary
armedworking
purchase
puzrishdagan
puzursn
entrails
giriaraid
fermentation
choosingadorning
ipqua
ipquadda
arrangement
conquerer
sorcerer
observeddis
nimgirinimgina
rubbedpolished
saddlehook
inferiority
bodily
kabta
kallamu
kallatarak
lengthen
lengthened
muki
targ
taribu
tuggur
tugsag
tireless
vanquished
zebu
##disz
##creation
thinspread
##imdua
channels
spadixes
presser
outflattens
ningekimzi
strengthened
grainheaps
lugaltarsi
slippery
clasp
clasped
clutch
clutches
cornelwood
obeyed
ninurtanu
essential
arad2mu
greeted
artfulness
meskiagnanna
purpose
puzurninlil
calculations
criminals
entreaties
lummatur
lummagindu
hurtwith
relenting
recognise
lieutenants
maltser
beardedness
fingernail
expertise
dumudaba
nonexistence
atamofficials
ibexofabzu
ibexofapsu
arrogantshy
##superimposed
bothering
bibiana
deducted
eamara
frost
haystack
jumping
lintel
lintels
mirrorholder
nisku
ovoid
ovicap
pumped
pumping
rai
raft
ratface
sinkaid
tighten
tukri
uwum
uwawa
zurzur
##effecting
##ulexalted
##palil
##consum
whirl
enenlilekiag
enenlilesu
withdraw
withdrawn
nintiuga
abzukidu
grapevine
spike
spiked
ammurpinu
arzanaflour
##rubbed
flanksofsheep
lugalengardu
loincloth
ullat
awlama
emesig
##shrine
slackening
trader
traders
luigisasa
subdued
desolation
desolate
provisioned
remarks
remarries
guugua
nigtukuinabdu
celebrated
esztub
courageous
considering
povertyexec
ninebazige
gemeekare
gemeekuga
schoolboys
egizaga
innardsheart
demonstrate
difficult
igizubara
igizigalana
gudu4priest
contemplated
avengerep
miserablereturn
improvesbeautifies
deafnessobst
deafnessstup
algarsur
algarsura
roofbeamtim
tipakinuinak
inexhaustible
inexhaustiveness
athlete
courier
cervid
danuwe
eshnunna
echoed
gabaa
gagiua
hugged
hanahad
kauf
karkar
kaeala
lqpum
mentorsu
merriment
nirah
rigmudn
renewing
sediment
softly
sappy
testicle
ubisag
viceroy
wadaltum
zumakum
zibbatum
zimudar
##garment
##downamyriad
##houtchew
##watching
##zidguru
inlay
forobserving
itarmare
energies
envelop
baragirnun
herbalist
anunpa
bushes
ninimmaimma
abudance
abibim
ambarsurra
ameliorate
arbituram
outsetper
exclaimed
procreated
namzium
flutespipes
lugalhamati
lugalirida
lugalkurdub
lugalnamtare
connecting
undertaking
akalwood
utugirgal
caravans
headbundle
ulmupa
burgia
emeteursag
sovereign
bladder
blessings
deceptively
slavery
dragging
trapsnare
imaterra
immense
receipts
suburbs
##ofninarali
reproduce
contracts
cattleherderofninarali
disbursement
distinguished
arahuma
gemesuen
gemeedam
gemeenlila
lunamtara
lunimgir
powerfulexalted
entertainment
niggurani
lugallusasa
messangaunuga
pleasurerejoicing
edarilu
edilmuna
esagila
comprehens
officerofsix
confidence
colonies
mobilization
council
begetter
babanen
transformed
partnership
subtraction
enunciating
fiercely
emergent
hostilities
refashion
farreaching
adorningtouching
authoritatively
tributetax
kuruberra
negligent
nirmuir
beneficent
##knowledge
annuntum
architrave
dingirmardu
frequented
##scratched
##vocabularies
sweetlybending
paumpriest
embittered
ahuwaqar
miscarriage
ensipadziana
disseminate
nimgirdine
alumidd
perpetuity
enviouswatching
pairedworkmen
deliberator
dumudabalaborers
jewellery
infesting
togglepin
thoroughbred
daraabzuofenki
misfortune
##following
alphabet
2wheeled
aegis
aankar
berries
bisons
bainisige
crevice
cudgel
customs
dominion
dulumidu
eerzidguru
elili
erus
earthen
eirikug
eiginimpae
eusega
fumigating
fundament
fighters
gghost
gadamah
gayau
gangir
gimilmarduk
gatepost
gapingmouthed
hinny
hierodule
huhnuri
haughty
hibaritum
iuil
iamadiumites
iimulgi
ksureeds
kassite
kamsala
kanesz
lilis
licorice
mowdownamyriad
model
martial
mutiabal
miqtumpers
nourishing
nereed
naua
nirigi
odor
pomegr
parked
phrase
peszniggil
riches
skeleton
trod
tibubird
u2kur
ualaya
votive
vandals
valiant
vanguard
woven
wifes
waddling
yadiiil
zabaali
zippatum
ziquril
ziringu
##midst
##young
##poreally
ofsettle
ofscrubbed
##esstands
##onepipewater
##itappe
forearm
forfeit
forresters
fornicator
andabsi
##adurgara
thousand
thieves
##idinnam
isiqatar
##thudding
enbiitar
enakiagnanna
enpriester
stampeding
urkigula
gossip
goldsmith
barailitappe
barasagnudi
barsalnuna
withcorporeally
antediluvian
anaegal
anikura
anaranu
anumpu
anahepat
anasntaklku
atiesag
ploughed
manishtusu
sequester
receded
reversed
reinforc
altirigu
allegiancesense
sonapprentice
temporary
buffalo
ninubura
ninibtae
ninesirkiag
enlilmassu
success
daylaborers
abomination
abrogated
spousal
uponexerted
upimposed
amassed
amabarasi
ormanment
lamazatum
lamkuniggena
external
exhumes
compens
proximity
strangers
lugalbarabe
lugalunirre
lugalandanuunga
contingents
conducted
nocturnal
mountainforeign
settingset
adversary
belatteraban
unmarried
unscathed
unnoticed
bootedoxen
apricot
heartgladdening
handcuffs
waterclock
headresspectoral
knocking
overcomes
embankment
orderseffects
uponagainst
birurturas
childcitizen
erbamarduk
erhalten
gudabzm
powerequipped
canalinspector
awayprofoundundulating
blinkers
snimitt
sneershoutchew
snuselli
purearmed
suenabuu
slithering
towardsconcerning
eecelebration
lamentvocalization
##arsrosettes
nindingirbaba
makeprepare
immediately
luinannaka
subscripted
##ofgaranawoods
putestablished
bitterpainful
wordponders
eyeturner
eyeroller
associated
assertory
assurnasirpal
represent
contractual
mouthtooth
twothirds
elakuqir
flourmilling
establishedmaintained
childrenjuniors
childrenatitsside
lapisblue
stonegrinding
stonecutter
indemnification
disarrayed
disintegr
irinieku
incurring
birdhunters
backoutside
cheesepot
riverbanks
corridor
illetar
wellorchards
wellanchored
obfuscate
donkeyequid
neckthickening
moundcracks
maternal
sevencorner
edikudata
forthcoming
esparto
eyesgaze
snakecharmer
kiarantu
urgetinanka
aradhulla
protectionshade
intercourse
interpret
intercalary
topicsvocabularies
mesantum2
feardisdain
bringsgoesstands
councelor
babatursu
waydecree
aroundcircled
birdssparrow
hairstyle
claycarnelian
dustwreaking
parallel
songhymn
girinhiliba
playgrounds
saltpetre
nine3lak175
porcupine
sagdingirtuku
lugalnidbae
releaseploughmen
reconciliation
buildingfunctionary
thicktriplicate
songsinstruments
wombmatrix
singermusician
etunigaana
sycamore
crustacean
liverlungs
writeincise
doubleleagues
burnaburia
ditchesburial
lulguak
sustainfinish
maganarruma
controlsuperimposition
##professional
shouldshould
axesagricultural
amaengursi
figuretrunk
scratchedcracked
zamubanius
kunumkitubia
unfavourable
anzugulme
malevolentdestructive
igianakezu
souredjealous
complicatedthudding
wingsfeathers
genitalia
largetoothed
uncultivated
uncontrollable
thronesrulers
pleasureallurestarsrosettes
musicianssinger
rimsnlamassau
boastoverly
structurestonepipewater
conveyedrepaying
miszszurabi
dimpimekug
meteoric
metrological
ammditna
crushinggrowling
manufactured
nonetheless
breastsnipples
eradicatinggathering
submergemake
apprenticepurse
freelyforgetfully
inflammatory
speakerperformer
giriaraidab
choosingadorningtouching
observeddisapproved
ovicaprids
ammurpinuuni
povertyexecessive
avengereply
deafnessobstinancy
deafnessstupidity
roofbeamtimber
mentorsupervisor
officerofsixty
enunciatingeffecting
tributetaxes
miqtumperson
peszniggilima
